<unk>	0
<s>	0
</s>	0
을	-3.45545
,	-3.48311
의	-3.79803
▁	-4.00939
는	-4.16255
를	-4.22425
.	-4.24926
)	-4.37744
(	-4.37757
이	-4.50168
가	-4.62464
은	-4.69311
에	-4.78673
▁그	-4.82125
한	-4.98038
도	-5.0207
▁[	-5.1097
▁이	-5.14235
과	-5.2756
.]	-5.29127
고	-5.33178
▁말씀하시기를	-5.33789
히	-5.54714
와	-5.54988
지	-5.66596
▁한	-5.75012
으로	-5.75402
▁것이요	-5.77644
하여	-5.83447
로	-5.85506
게	-5.85713
하고	-5.93509
할	-5.95187
▁모든	-5.96038
하는	-6.02184
▁다	-6.04719
▁마음	-6.05074
▁일	-6.11054
▁수	-6.12474
라	-6.14529
▁종사	-6.17854
▁할	-6.20987
▁것	-6.21329
▁큰	-6.22553
서	-6.24528
면	-6.26925
나	-6.2749
▁「	-6.2869
▁대종사	-6.29324
.」	-6.29868
야	-6.30409
▁대산	-6.30699
▁사람	-6.32178
▁사람이	-6.34358
▁것이	-6.375
만	-6.37626
▁공부	-6.39439
▁잘	-6.40521
년	-6.4649
▁바	-6.48168
▁없는	-6.4836
▁곧	-6.48749
▁우리	-6.5241
▁하는	-6.5384
▁있는	-6.58546
]	-6.59008
이요	-6.6139
기를	-6.6244
▁것이니라	-6.65613
▁때	-6.68607
▁법	-6.7119
▁같이	-6.71551
인	-6.72918
니라	-6.7378
·	-6.74253
▁것은	-6.74872
▁따라	-6.75661
▁또한	-6.78163
▁제	-6.78964
상	-6.80736
▁하고	-6.81425
▁것이니	-6.83665
▁새	-6.85583
하야	-6.86148
▁것이며	-6.86219
▁때에	-6.86403
▁혹	-6.87215
다	-6.87423
▁세상	-6.897
▁나	-6.90492
▁말	-6.90866
대종사	-6.91018
이라	-6.91229
▁하여	-6.91548
하게	-6.92629
▁세계	-6.94507
▁가지	-6.94718
며	-6.95144
어	-6.95704
▁등	-6.95759
에서	-6.96034
▁서로	-6.9665
▁자기	-6.96756
▁가운데	-6.99681
▁사람은	-7.00289
▁참	-7.00362
니	-7.01068
▁될	-7.02342
요	-7.02913
▁그러므로	-7.03126
하며	-7.03648
▁때에는	-7.03667
에게	-7.06416
▁항	-7.06895
기	-7.0699
▁가	-7.07197
하면	-7.07615
▁다시	-7.07876
신	-7.08343
▁어찌	-7.09961
되	-7.11269
된	-7.13967
▁후	-7.14228
▁먼저	-7.14975
▁없이	-7.15197
者	-7.15915
▁또는	-7.17234
▁진리	-7.18098
이니라	-7.18297
▁또	-7.18473
이나	-7.1877
▁하나	-7.19354
하지	-7.19574
일	-7.20068
▁대	-7.20607
▁무	-7.20757
▁마음이	-7.21093
▁더욱	-7.21236
장	-7.22736
▁이는	-7.23365
▁비	-7.23491
자	-7.24556
▁만일	-7.24729
▁더	-7.25098
▁교단	-7.25189
대	-7.26193
▁일이	-7.26351
▁있나니	-7.28214
▁2.	-7.28223
▁되고	-7.28959
▁생활	-7.29176
▁1.	-7.29415
▁세상에	-7.29468
▁없고	-7.30229
▁줄	-7.30797
월	-7.31503
▁많	-7.31636
도록	-7.3318
▁저	-7.33471
▁정	-7.34163
▁3.	-7.36481
으로써	-7.36966
▁되는	-7.37121
▁뜻	-7.37729
▁해	-7.37874
▁두	-7.38106
▁천지	-7.38225
▁있고	-7.39395
▁회상	-7.4117
▁내	-7.41955
▁생각	-7.42277
▁남	-7.4312
사	-7.43416
▁공	-7.4349
▁위하여	-7.43791
▁능	-7.44138
▁하면	-7.44838
▁"	-7.45233
리	-7.45677
▁일체	-7.46362
▁중	-7.47091
▁원기	-7.4755
▁전	-7.486
▁아니	-7.4929
▁선	-7.50526
▁3	-7.52017
▁사	-7.53398
로써	-7.53403
▁길이	-7.53752
▁되어	-7.54623
내가	-7.5471
이니	-7.5484
▁데에	-7.54904
▁반	-7.54975
운	-7.5551
▁말고	-7.55516
▁‘	-7.55815
▁있어서	-7.56004
▁오직	-7.56407
▁다른	-7.56782
▁4.	-7.57367
▁그대들	-7.5742
▁보	-7.57564
에는	-7.58188
▁스스로	-7.58357
▁주	-7.58517
▁여러	-7.59239
▁어느	-7.59288
▁도를	-7.59373
▁크게	-7.5942
▁중생	-7.59708
文	-7.60113
▁몸	-7.60381
▁아니하고	-7.60794
▁길	-7.60987
▁제자	-7.6193
"	-7.62292
▁아니라	-7.62494
▁하며	-7.63429
▁있다	-7.63917
▁대중	-7.64257
▁힘	-7.64369
▁복	-7.64618
▁어떠한	-7.65563
록	-7.65682
해	-7.66819
▁하느니라	-7.6736
던	-7.67522
▁보고	-7.68062
▁부모	-7.68349
슨	-7.68649
여	-7.69237
▁오	-7.69385
▁사업	-7.69478
▁좋은	-7.70699
-	-7.7089
▁1	-7.71018
▁데	-7.71116
▁이치	-7.71358
▁있	-7.72543
▁보면	-7.72888
▁이를	-7.73067
▁4	-7.73256
▁있어	-7.73751
▁원만	-7.74023
드시	-7.7433
▁5.	-7.74536
▁못하고	-7.7498
까지	-7.7556
나니라	-7.75673
▁아는	-7.76248
▁되나니라	-7.76671
▁같은	-7.76809
▁정신	-7.77463
▁대종사께서	-7.77529
▁자연	-7.7781
▁정신을	-7.78112
[	-7.78723
라도	-7.79615
▁영원	-7.79619
▁경계	-7.79637
▁근본	-7.79849
▁교화	-7.79907
▁둘째	-7.80439
▁각자	-7.80607
▁종교	-7.80784
▁않는	-7.80802
른	-7.81233
▁세	-7.81518
▁정산	-7.81628
▁많은	-7.82108
▁바로	-7.82788
▁아무	-7.83072
▁우리는	-7.83356
▁것과	-7.83566
▁여쭙	-7.83725
▁지	-7.83921
▁정성	-7.85097
▁없	-7.85374
漢	-7.85505
▁이것이	-7.86073
▁자리	-7.86152
차	-7.86193
▁2	-7.86469
附	-7.86826
▁제도	-7.87311
▁열반	-7.87334
{	-7.87493
}	-7.87493
▁도	-7.87653
▁도덕	-7.88382
▁각	-7.88488
대로	-7.8879
▁6.	-7.88797
▁일원	-7.8897
▁살	-7.89255
▁되나니	-7.89893
▁않	-7.90531
▁원불교	-7.90564
▁천하	-7.90751
하였다	-7.91445
▁알고	-7.91513
▁않고	-7.91569
▁사은	-7.91842
▁예	-7.92722
▁받는	-7.93666
▁하나니	-7.94043
든지	-7.94054
느니라	-7.94145
▁수행	-7.94257
▁인	-7.94397
▁하지	-7.94438
▁법신불	-7.94723
▁일원상	-7.94861
▁온	-7.9566
▁훈련	-7.96199
▁미	-7.96206
▁원	-7.96368
▁상	-7.97194
▁수도	-7.97469
▁번	-7.97522
▁몇	-7.97711
▁알지	-7.97721
부터	-7.98227
미	-7.98798
▁죄	-7.98929
▁모두	-7.99019
▁부처님	-7.99129
▁그러나	-7.99192
▁매	-7.9958
▁은혜	-7.99889
▁특별	-7.9991
▁동안	-8.00577
월에	-8.0176
▁부처	-8.02558
▁차	-8.02593
▁대한	-8.02631
▁서원	-8.02785
▁각각	-8.03041
▁신앙	-8.03161
▁못할	-8.0359
▁못한	-8.03761
▁위	-8.04007
▁안	-8.04049
▁여래	-8.0455
▁시대	-8.0477
▁동시에	-8.05189
▁못	-8.06431
▁천	-8.06684
▁7.	-8.06702
▁후에	-8.06871
아	-8.07343
▁마음에	-8.07493
▁본래	-8.07508
오	-8.07866
▁5	-8.07997
▁것이라	-8.08062
▁조금	-8.08481
▁들어	-8.0858
▁사회	-8.08608
▁지혜	-8.08612
▁앞으로	-8.08734
▁주는	-8.08922
心	-8.09698
이며	-8.09703
자는	-8.10567
▁국가	-8.1127
▁종법사	-8.11488
해야	-8.11708
▁있으나	-8.11813
새	-8.1193
하신	-8.12115
▁하시고	-8.12482
▁대하여	-8.12593
!	-8.13144
므로	-8.1323
▁須菩提	-8.13331
▁마땅	-8.13359
▁불	-8.13533
▁있을	-8.13882
▁마음으로	-8.14017
▁회상의	-8.14053
나니	-8.14191
▁기운	-8.14203
▁사뢰	-8.14214
’	-8.14293
▁과거	-8.1487
▁함께	-8.15087
▁하	-8.1523
法	-8.15345
▁지금	-8.15392
▁열	-8.1639
▁사업을	-8.16506
▁인류	-8.16969
▁있으며	-8.17063
되는	-8.17081
나이다	-8.17107
이시여	-8.17195
▁보은	-8.17905
▁도리	-8.18012
▁사람에게	-8.18149
하자는	-8.18173
▁우주	-8.18563
▁7	-8.1866
▁말을	-8.18742
▁심고	-8.18844
▁받아	-8.18929
▁법이	-8.19443
▁인연	-8.19503
▁하라	-8.1951
▁교도	-8.19533
▁8.	-8.20459
▁자성	-8.20639
▁사람들	-8.20851
▁되리라	-8.20979
란	-8.21278
▁널리	-8.21612
▁부처님의	-8.21623
▁중생이	-8.21708
함	-8.21763
▁지도	-8.21914
▁새로	-8.21978
다운	-8.22298
시	-8.22324
▁얻어	-8.22405
▁통하여	-8.22915
▁자	-8.23217
▁일에	-8.23273
및	-8.23304
▁발전	-8.23382
되어	-8.2368
▁맞	-8.24834
▁알	-8.25075
▁함은	-8.25654
▁그대로	-8.25861
▁총부	-8.25862
道	-8.26307
▁얻	-8.27312
▁개인	-8.27415
▁소	-8.27479
▁있느니라	-8.27492
들은	-8.27548
▁제일	-8.27652
▁나는	-8.27745
▁이에	-8.27998
▁이익	-8.29145
양	-8.29269
▁실행	-8.2936
▁말씀	-8.29439
▁이어	-8.29439
명	-8.296
보다	-8.29753
▁천만	-8.29928
▁교육	-8.30263
▁이제	-8.30289
▁창립	-8.30456
▁육신	-8.30815
하나니	-8.30829
▁유	-8.31208
▁6	-8.3126
거나	-8.31326
▁생사	-8.31376
▁9.	-8.31385
▁것이다	-8.31713
▁이름	-8.31926
기도	-8.32054
실	-8.32365
려	-8.32586
▁알아서	-8.32669
들이	-8.32832
▁작은	-8.32838
▁이루	-8.32916
▁동지	-8.32938
예문	-8.33256
▁대도	-8.33878
▁아	-8.33982
▁것으로	-8.3447
▁할지라도	-8.34538
우리	-8.34567
▁생각이	-8.34825
▁10	-8.35079
▁하늘	-8.35081
하되	-8.35089
▁청정	-8.35191
심	-8.35931
▁받을	-8.36049
故	-8.36174
거든	-8.36415
▁자신	-8.36699
▁받게	-8.37054
▁잘못	-8.37504
하	-8.37661
▁물	-8.3814
▁달	-8.38144
리라	-8.38154
식	-8.38253
▁병	-8.38266
▁되	-8.38297
▁날	-8.38314
임	-8.38374
▁말며	-8.38403
진	-8.38512
▁일생	-8.38553
▁교당	-8.38708
▁그것	-8.38827
▁네	-8.38856
다가	-8.39473
▁알아	-8.39785
▁오래	-8.4012
▁가지고	-8.40212
▁뒤에	-8.40248
▁심	-8.40322
▁생	-8.4035
▁고	-8.4067
▁처음	-8.40874
▁기운이	-8.40935
▁9	-8.40946
▁시방	-8.41289
▁하나니라	-8.41387
▁말라	-8.4146
▁일반	-8.42263
함이	-8.42385
이라도	-8.42913
▁스승	-8.42949
▁평화	-8.43043
▁인간	-8.43155
▁듣고	-8.43695
▁덕	-8.43947
▁10.	-8.43959
▁문	-8.44056
相	-8.44192
▁기도	-8.44325
▁기	-8.44414
▁만물	-8.44628
▁함	-8.44651
▁관계	-8.44938
▁글	-8.45325
연히	-8.45455
▁전무출신	-8.45621
▁첫째는	-8.46232
▁얻게	-8.46284
▁만	-8.4653
▁못하는	-8.46609
▁나타나	-8.46701
될	-8.46832
사람이	-8.47787
▁성	-8.47825
▁있게	-8.48132
나이까	-8.482
▁다음	-8.48273
▁대각	-8.48626
▁인과	-8.48786
적	-8.48801
하사	-8.48961
금	-8.48991
▁묻기	-8.49106
▁경전	-8.49374
▁한다	-8.49603
之	-8.49743
▁천도	-8.49893
▁이상	-8.49943
▁있으면	-8.49995
▁늘	-8.50349
▁인도	-8.50731
▁되지	-8.51133
▁삼학	-8.51307
▁교리	-8.51427
▁자유	-8.51429
▁연구	-8.51585
러한	-8.51777
▁사람들이	-8.52182
▁허공	-8.52283
▁보시	-8.52429
▁성공	-8.52664
▁정신이	-8.52736
▁어	-8.52825
▁주의	-8.52979
▁마치	-8.531
▁기념	-8.53106
▁본	-8.53188
▁직접	-8.5335
▁막론하고	-8.53386
▁수양	-8.53448
▁실	-8.53698
▁박	-8.53878
▁욕심	-8.53947
▁안으로	-8.54178
▁기관	-8.54372
편	-8.54422
▁바르	-8.54447
▁삼	-8.54598
▁사업에	-8.54645
▁염불	-8.54659
▁신	-8.55149
▁주신	-8.55213
▁도가	-8.55424
▁건설	-8.55603
이다	-8.55663
▁아니하여	-8.55881
▁소리	-8.55933
날	-8.56162
함이요	-8.56213
▁영생	-8.56243
▁동	-8.56259
▁악	-8.56498
▁경	-8.56597
▁볼	-8.56846
▁입	-8.56859
(19	-8.5691
敎	-8.5726
▁두루	-8.57305
▁시비	-8.57332
▁말이	-8.57375
▁깊	-8.57413
그	-8.57504
▁셋째	-8.57552
▁원리	-8.57634
▁정의	-8.57866
▁개	-8.57868
▁다만	-8.57968
부	-8.58151
▁11.	-8.58278
▁얻을	-8.58342
▁있나니라	-8.58345
▁뿐	-8.58346
▁들	-8.5835
▁고로	-8.58701
▁순	-8.58772
▁어떻게	-8.59176
▁자녀	-8.59311
▁마	-8.59394
).	-8.59569
▁너	-8.59644
▁오늘	-8.59712
기로	-8.59717
▁되었다	-8.59856
▁자력	-8.59892
▁명예	-8.59938
▁학인	-8.59982
주	-8.60007
人	-8.60092
▁행	-8.60147
▁장차	-8.60249
▁대로	-8.60531
원	-8.60736
▁눈	-8.60776
▁성품	-8.60915
▁분	-8.61012
▁이해	-8.61108
▁부	-8.61217
▁돌아	-8.6127
▁“	-8.6136
天	-8.61367
▁그러한	-8.61554
▁발	-8.61563
선	-8.61598
▁정법	-8.61739
▁없나니라	-8.61833
▁남녀	-8.61836
▁설	-8.61877
▁얻는	-8.62058
▁해야	-8.6227
▁모	-8.62385
▁불공	-8.62502
▁마침내	-8.62903
▁수가	-8.62963
▁공덕	-8.63048
禪	-8.63069
▁돌아오	-8.63151
▁둘	-8.63199
不	-8.63224
▁세째	-8.63277
▁편	-8.63318
▁뜻이	-8.63394
▁불교	-8.63418
하여야	-8.63534
▁하되	-8.63564
▁구	-8.6362
▁중앙	-8.63683
▁정도	-8.63903
▁모르는	-8.63904
▁동포	-8.6408
월에는	-8.64142
수록	-8.64398
▁원래	-8.64474
▁대중에게	-8.64512
▁책임	-8.64613
저	-8.64651
하였으며	-8.64756
子	-8.64858
▁준비	-8.64917
以	-8.65092
大	-8.65335
▁것이나	-8.65819
▁법문	-8.65837
▁받들어	-8.6591
하시기를	-8.66088
▁준	-8.66177
▁송	-8.66241
衆生	-8.66353
▁불법	-8.66434
▁성인	-8.66442
으며	-8.66528
▁가정	-8.66845
릴	-8.67346
▁영	-8.67497
라는	-8.67657
질	-8.67953
▁물질	-8.68033
만한	-8.68039
▁서	-8.681
一	-8.68236
등	-8.68576
▁앞	-8.68591
▁불보살	-8.68613
옵나이다	-8.68778
▁완전	-8.68973
하라	-8.69253
산	-8.69277
▁8	-8.69528
▁없게	-8.69536
호대	-8.69672
▁없을	-8.6985
▁대해	-8.69861
▁이것	-8.69913
▁12.	-8.69939
▁못하나니	-8.70102
▁정당	-8.70488
부로	-8.70512
하리라	-8.70649
▁행하는	-8.70793
▁주인	-8.70828
▁於	-8.70906
▁누구	-8.70944
▁설법	-8.71108
中	-8.71145
한다면	-8.71196
하시고	-8.71199
라고	-8.71464
▁놓	-8.71534
▁따라서	-8.7155
▁뿌리	-8.71684
▁가는	-8.71703
▁관	-8.71712
▁위해	-8.71729
行	-8.71733
▁있으니	-8.71769
▁된	-8.71956
▁아니요	-8.72054
▁오는	-8.72076
▁되며	-8.72344
되고	-8.72369
▁김	-8.72443
전	-8.72469
▁자리에	-8.72557
▁권리	-8.72562
성가	-8.73011
▁끝	-8.73049
▁못하면	-8.7319
▁없나니	-8.73195
▁찾아	-8.73395
▁약	-8.73399
▁놓고	-8.73455
도를	-8.73622
▁되느니라	-8.73628
▁不	-8.73752
▁죄업	-8.7391
▁취사	-8.74597
▁아직	-8.74889
▁없다	-8.7513
세	-8.75241
치	-8.75305
.’	-8.75404
▁진실	-8.75421
▁국한	-8.75467
正	-8.75545
也	-8.75571
▁내지	-8.75841
지라도	-8.75912
시고	-8.75937
▁실지	-8.76035
▁간	-8.76096
▁그대	-8.7639
▁적당	-8.76471
▁없으며	-8.76573
▁의무	-8.76861
▁13.	-8.76921
▁당하여	-8.77108
▁결과	-8.77161
천	-8.7719
▁특	-8.77262
▁아니하면	-8.77275
▁하였다	-8.77337
하기	-8.77529
經	-8.77696
자가	-8.77863
떤	-8.77957
▁지내	-8.78104
▁아울러	-8.78129
▁힘이	-8.78195
▁유무	-8.78263
매	-8.78372
▁형상	-8.78445
칠	-8.78477
▁아닌	-8.78563
▁신심	-8.78651
▁시	-8.78802
▁쉬	-8.79003
한다	-8.79003
▁인격	-8.79015
▁부처님께서	-8.79337
▁노력	-8.79422
었다	-8.79587
▁어려운	-8.79636
▁같아서	-8.79823
성	-8.79895
▁집	-8.80009
▁다섯째	-8.8023
제	-8.80333
▁밖으로	-8.80379
▁사이에	-8.80631
▁곳	-8.80919
▁받은	-8.81039
▁장	-8.81492
▁세계에	-8.81564
▁광명	-8.81601
無	-8.81754
▁성불	-8.81791
▁하게	-8.81807
▁보지	-8.81869
▁귀	-8.8199
▁혜	-8.82027
화	-8.82155
▁아래	-8.82211
1	-8.82244
▁경우에	-8.82554
▁법계	-8.82674
대종사께서	-8.82714
▁若	-8.82881
▁법은	-8.82884
▁그것이	-8.82937
▁경우에는	-8.82944
▁양	-8.83087
적으로	-8.83097
점점	-8.83122
▁말씀하시	-8.83228
▁누	-8.83406
같이	-8.83471
▁만나	-8.83508
▁14.	-8.83525
▁보아	-8.83645
▁보통	-8.83726
▁의심	-8.83766
▁연고	-8.83843
▁잊	-8.83847
▁되면	-8.83849
▁주고	-8.83911
▁상대	-8.8409
▁못하	-8.84519
事	-8.84687
▁닦는	-8.84721
으면	-8.84759
▁병이	-8.84774
▁밝은	-8.84777
▁곳에	-8.84794
▁땅	-8.85037
▁당시	-8.85191
▁낙	-8.85445
▁교	-8.85458
▁선원	-8.85691
▁견성	-8.85858
▁조	-8.85918
▁일심	-8.85934
▁해탈	-8.8631
▁위력	-8.86321
▁짓는	-8.86369
다면	-8.86383
公	-8.86487
▁첫	-8.86761
▁표준	-8.86765
▁재주	-8.86817
▁일어나	-8.86817
)·	-8.86852
▁수보리야	-8.86853
2	-8.87025
갈	-8.87052
▁살아	-8.87105
▁지방	-8.87115
▁산	-8.87176
▁심신	-8.87188
수	-8.87238
▁중에	-8.87294
善	-8.87298
▁남에게	-8.8735
▁주로	-8.87382
▁거	-8.87424
▁인심	-8.87464
▁나에게	-8.87512
절	-8.87529
▁받지	-8.87548
로서	-8.87638
▁근원	-8.87716
▁회상이	-8.87782
▁주인이	-8.88226
▁먹	-8.88292
▁출가	-8.88351
하니	-8.88473
▁『	-8.88583
함은	-8.88665
▁밝혀	-8.88788
▁지어	-8.88788
지라	-8.89042
▁세계가	-8.89111
▁15.	-8.89144
佛	-8.89192
▁순서	-8.89251
케	-8.89354
▁계속	-8.89372
중	-8.89406
▁갈	-8.8943
▁행동	-8.89434
날로	-8.89632
▁ᄋᄋ	-8.89743
정	-8.89898
▁되어야	-8.89945
간	-8.90301
▁거기에	-8.90328
山	-8.9034
▁첫째	-8.90341
▁떠나	-8.90386
법	-8.90561
▁얼마나	-8.90585
친	-8.90624
어서	-8.90649
▁경계에	-8.90816
▁화	-8.90822
▁와서	-8.91303
▁배우	-8.91312
▁옛	-8.91366
▁자비	-8.91434
生	-8.91812
▁벗어나	-8.91966
▁회상에	-8.92034
▁하나는	-8.92063
▁전체	-8.92274
▁결국	-8.92286
▁적	-8.92302
▁행할	-8.92406
▁끌리지	-8.92454
▁예의	-8.92515
令	-8.92562
▁크고	-8.92616
▁의하여	-8.92771
▁世尊	-8.92804
▁16.	-8.92872
▁하신	-8.93082
▁나라	-8.9318
▁어리석	-8.93484
▁가진	-8.93491
에도	-8.93619
▁강령	-8.93668
전에	-8.93921
▁범부	-8.93973
▁보라	-8.94062
▁갖	-8.94141
▁12	-8.94262
▁역사	-8.94347
▁말하기를	-8.94413
▁믿고	-8.94475
▁어렵고	-8.94502
▁알아야	-8.94575
▁떠나지	-8.94582
들	-8.94645
마다	-8.94696
▁무량	-8.94842
▁알게	-8.94917
▁삼세	-8.94924
▁위한	-8.94931
▁물건	-8.94948
▁없으면	-8.9515
▁시간	-8.95357
▁평등	-8.95481
▁하루	-8.95949
답하시기를	-8.9608
▁번뇌	-8.96168
?	-8.96201
▁신성	-8.96339
▁같나니라	-8.96348
▁이러	-8.96351
▁부터	-8.96464
▁자주	-8.96469
▁감	-8.96491
하기로	-8.96493
▁의식	-8.96553
▁없지	-8.96555
▁17.	-8.96735
▁버리고	-8.96851
▁별	-8.96961
▁얻은	-8.97116
▁갖추	-8.97225
▁외	-8.97348
▁무엇	-8.9736
▁감사	-8.97362
▁하여야	-8.97412
意	-8.97462
▁거행	-8.97684
▁소태산	-8.97731
▁세워	-8.97754
▁뜻에	-8.97929
것은	-8.97957
들을	-8.98009
▁앞에	-8.981
▁能	-8.98146
▁행사	-8.98252
거늘	-8.98315
▁있으므로	-8.98324
▁이름이니	-8.98434
▁죄복	-8.98452
▁말씀하	-8.98495
.”	-8.98634
▁않은	-8.98684
▁알뜰	-8.98699
간에	-8.98725
▁근기	-8.98986
리요	-8.99034
▁지은	-8.9904
▁옳	-8.99084
▁강	-8.99134
소	-8.99176
▁네째	-8.99262
▁공부요	-8.99397
▁정기	-8.99412
▁양성	-8.99429
▁목적	-8.9946
▁하기	-8.99544
▁생령	-8.99757
▁고락	-8.99949
▁대의	-9.00273
▁대중이	-9.00336
▁열리	-9.00363
▁삼가	-9.00573
▁18.	-9.00775
▁집안	-9.00796
▁나아가	-9.008
▁계	-9.00836
▁공부에	-9.00871
▁경우	-9.01009
自	-9.01282
▁잡	-9.01459
▁아니할	-9.01532
회	-9.01581
바	-9.0169
▁우	-9.01916
▁역	-9.02002
▁마음과	-9.02342
▁따로	-9.02371
▁단체	-9.02822
▁받고	-9.03142
▁끊	-9.03154
▁육도	-9.03168
▁문명	-9.03195
▁삼고	-9.03385
▁활동	-9.03387
▁체	-9.03391
▁돌	-9.03658
▁쓰	-9.04033
▁가운데에	-9.04057
길	-9.04148
▁이른	-9.04188
▁교법	-9.04188
▁드러나	-9.04348
▁종	-9.04381
▁삼아	-9.04446
▁손	-9.04544
信	-9.04593
이었다	-9.04646
▁대개	-9.04648
▁쓰는	-9.04691
▁힘써	-9.04693
하나니라	-9.04722
▁인생	-9.04792
▁11	-9.04914
業	-9.05098
▁19.	-9.05103
▁일과	-9.05162
成	-9.05214
(196	-9.05257
▁성현	-9.05284
▁생명	-9.05336
시기를	-9.05606
▁얻고	-9.05623
상을	-9.05649
▁공부인	-9.0566
▁권	-9.05706
▁이르	-9.05716
世	-9.0596
▁실력	-9.06016
지마는	-9.06117
▁何	-9.06118
▁사람이라	-9.06127
▁영가	-9.06131
▁위해서	-9.06188
▁언제	-9.06248
서는	-9.06343
▁전에	-9.0641
▁않을	-9.06433
▁무상	-9.06443
지언정	-9.06501
▁길러	-9.06644
▁속	-9.06693
三	-9.06708
(195	-9.06746
▁23.	-9.0683
▁너무	-9.0691
▁일제	-9.07238
악한	-9.07352
▁못하게	-9.07356
▁제자들	-9.07371
▁미래	-9.07651
▁지키	-9.07691
▁깊은	-9.0802
▁총	-9.08129
동	-9.08154
▁되기	-9.08296
▁숭배	-9.08476
수보리야	-9.08506
들에게	-9.08561
丁	-9.0867
▁비롯	-9.08919
▁육근	-9.0892
▁교무	-9.08974
▁국민	-9.09014
불어	-9.09028
조	-9.09202
▁점	-9.09293
린	-9.09477
所	-9.09529
▁설립	-9.09537
▁끌려	-9.09625
▁연원	-9.09649
시며	-9.09738
▁아니니	-9.09764
▁佛言	-9.09946
▁인사	-9.09951
▁20.	-9.10049
없는	-9.10082
▁주지	-9.1013
▁저희들	-9.10322
▁당	-9.10375
원기	-9.10389
▁들어가	-9.10497
▁사는	-9.10591
▁재	-9.10706
▁세간	-9.10713
였다	-9.10717
▁되게	-9.1075
▁돌려	-9.10752
▁날이	-9.10917
有	-9.10937
▁연	-9.10981
▁입정	-9.11196
▁그리	-9.11265
▁직업	-9.11269
▁열어	-9.1127
▁복이	-9.11287
▁착	-9.11356
▁낮	-9.11373
▁중요	-9.11467
▁조목	-9.11509
▁밝	-9.11548
부처님	-9.11647
▁몸이	-9.11782
▁공사	-9.11818
▁사랑	-9.11839
▁22.	-9.11847
▁무궁	-9.11988
▁생활에	-9.1202
▁조직	-9.12149
▁안에	-9.12315
도다	-9.12745
난	-9.12773
데	-9.12933
▁위에	-9.13331
▁기타	-9.13415
▁무념	-9.13426
▁가족	-9.13575
▁명	-9.13604
▁소유	-9.13708
▁깨달아	-9.13714
일에	-9.13718
▁세상이	-9.13757
하여도	-9.13852
難	-9.13854
▁개교	-9.13978
▁21.	-9.14066
연	-9.14242
▁속에서	-9.14296
▁좌선	-9.14319
▁발원	-9.14568
未	-9.14809
▁법도	-9.1484
▁실천	-9.14877
▁단	-9.14936
▁하니	-9.15348
▁공도	-9.15394
▁참회	-9.15476
辛	-9.15651
十業	-9.15656
인댄	-9.1568
▁하시니	-9.15788
▁그런즉	-9.15926
▁드	-9.15982
."	-9.16057
개	-9.16138
▁배	-9.16173
▁정치	-9.16315
▁세우고	-9.1647
그대	-9.16573
하거나	-9.16575
나는	-9.16619
▁공덕이	-9.16707
3	-9.16731
▁성자	-9.16757
▁소태산은	-9.16841
되었다	-9.17039
▁된다	-9.17363
▁방법	-9.17389
▁여의	-9.17558
▁익산	-9.1772
▁주시니	-9.17723
▁요도	-9.17869
그대들	-9.17992
▁빈	-9.18084
컨	-9.1809
▁법위	-9.18248
▁꾸준히	-9.18287
▁공중	-9.18301
▁잃지	-9.18367
▁영겁	-9.18456
▁그런	-9.18461
▁대표	-9.18478
▁없으나	-9.1849
▁법의	-9.18527
▁평소	-9.18581
▁是名	-9.18761
▁연고인	-9.18884
▁以	-9.19004
▁일이나	-9.19017
▁24.	-9.1921
▁원망	-9.19321
▁죽	-9.19444
공	-9.19528
義	-9.19646
또한	-9.19678
행	-9.19697
니이다	-9.19795
기에	-9.19807
▁근본이	-9.19836
▁재가	-9.2003
▁거짓	-9.20104
▁영광	-9.20166
듯	-9.20417
▁손님	-9.20525
▁서울	-9.20599
▁종자	-9.20621
▁벌	-9.20636
없이	-9.20697
▁말하자면	-9.20792
▁다스리	-9.20909
▁여섯째	-9.20999
▁어린	-9.2101
▁피	-9.21066
▁쓸	-9.21105
▁없어서	-9.21116
▁잡아	-9.21502
▁25.	-9.21613
▁수보리	-9.21613
▁27.	-9.21741
▁여	-9.21774
▁26.	-9.21855
▁강자	-9.21928
▁상시	-9.22133
▁돈	-9.22234
비	-9.22323
▁진행	-9.22514
▁만법	-9.22604
건마는	-9.22669
▁깨치	-9.22804
▁바라	-9.22804
明	-9.22841
▁영산	-9.2285
처럼	-9.22936
▁설명	-9.23017
▁계획	-9.23093
▁영지	-9.23116
▁해석	-9.23139
▁선악	-9.23152
▁형제	-9.2316
)]	-9.23249
히려	-9.23308
▁선진	-9.23327
時	-9.23334
▁사심	-9.2338
▁막	-9.2343
▁以是	-9.2347
▁여기	-9.23471
▁넷째	-9.23509
▁받	-9.23621
▁사생	-9.23662
▁화합	-9.23697
▁챙기	-9.23707
실로	-9.23714
▁대소	-9.23743
인의	-9.23749
원불교	-9.23772
▁세우	-9.23821
▁되므로	-9.23866
空	-9.23891
▁당할	-9.24001
▁쉽	-9.24023
▁것이므로	-9.24031
▁도와	-9.24301
▁두고	-9.24323
德	-9.24382
년에	-9.24383
▁끊임없	-9.24427
▁세존이시여	-9.24427
▁28.	-9.24494
▁만유	-9.2456
▁적공	-9.24578
▁사리	-9.248
▁가져	-9.24811
▁부족	-9.24838
和	-9.24852
▁법과	-9.25019
경	-9.25019
▁작용	-9.25061
▁맑	-9.25203
恩	-9.25219
온	-9.25292
▁지식	-9.25633
심이	-9.25729
계	-9.25735
而	-9.25789
놓지	-9.25824
▁절	-9.25907
▁박중빈	-9.25939
▁걸림	-9.25968
▁시대에	-9.26069
▁32.	-9.26203
▁과	-9.26218
▁짓지	-9.26233
어야	-9.26234
▁29.	-9.26305
金	-9.26359
득	-9.26384
▁30.	-9.26412
▁삼계	-9.26452
▁같고	-9.26515
▁나무	-9.26534
▁높	-9.26555
▁둘이	-9.26577
▁아니하며	-9.26597
▁31.	-9.26652
물	-9.26678
聖	-9.26755
▁성리	-9.26783
▁구족	-9.26989
이니이다	-9.27052
▁못하여	-9.27059
▁형편	-9.27153
송	-9.27202
▁차별	-9.27336
▁초대	-9.27348
家	-9.27418
▁열반인	-9.2743
▁출생	-9.27463
우	-9.27704
구하는	-9.27894
▁방편	-9.27944
▁생각하여	-9.28081
든	-9.28132
▁가지가	-9.28394
▁활용	-9.28394
乙	-9.28488
▁고루	-9.28633
▁놓아	-9.28668
▁있으리요	-9.28674
▁써	-9.28738
』	-9.28827
▁모르고	-9.29023
러	-9.2913
▁주시옵소서	-9.29186
▁제불	-9.29256
▁세월	-9.29402
여래	-9.29435
▁지극	-9.29547
▁사람과	-9.29566
▁대조	-9.29921
울	-9.29941
▁법설	-9.30048
▁20	-9.30171
모든	-9.30431
▁등이	-9.30584
▁교서	-9.30697
리어	-9.30707
▁자신이	-9.30786
▁세상에서	-9.30829
호	-9.30878
▁응용	-9.30933
방	-9.30949
▁물품	-9.31104
▁형식	-9.31227
庚	-9.31266
萬	-9.31304
前	-9.31442
▁일곱째	-9.31675
師	-9.31713
▁과보	-9.3173
▁등으로	-9.31785
▁기회	-9.31792
▁아니하	-9.31855
四	-9.31891
▁33.	-9.3198
면서	-9.32106
▁편안	-9.32143
)’	-9.32195
▁어른	-9.32399
▁운동	-9.3255
▁것만	-9.32557
▁후진	-9.32641
▁사회에	-9.32771
▁신의	-9.32899
▁현재	-9.32949
하였고	-9.33015
▁급	-9.33027
문	-9.33211
▁듣는	-9.33332
▁동지들	-9.33486
▁닦	-9.33542
▁상생	-9.33584
▁걱정	-9.3373
▁태도	-9.33817
▁변화	-9.33825
에서는	-9.33865
▁회상은	-9.33946
까	-9.33955
▁여자	-9.34073
甲	-9.3412
▁사실	-9.34219
력	-9.3425
해서	-9.34251
▁폐식	-9.34257
▁믿음	-9.34442
▁이루어	-9.34543
▁계문	-9.34656
▁살림	-9.34771
▁법률	-9.34801
言	-9.34872
▁속에	-9.34965
▁일러	-9.35006
▁금	-9.35039
▁약자	-9.3504
업을	-9.35082
▁나와	-9.35211
할지라도	-9.35463
함으로써	-9.35546
하므로	-9.3555
身	-9.35683
▁대종사와	-9.35946
定	-9.36135
▁있지	-9.36152
생	-9.36261
▁하였나니	-9.3631
▁공익	-9.36315
▁백	-9.36316
▁땅에	-9.36352
동안	-9.36791
디	-9.3681
用	-9.36846
▁향상	-9.36872
▁봉공	-9.36877
性	-9.36884
져서	-9.36944
▁운영	-9.36971
입니	-9.37064
▁용	-9.3709
▁약간	-9.37218
▁혜복	-9.37281
김	-9.37339
▁일이라	-9.37589
하시며	-9.37728
▁如來	-9.37749
로부터	-9.37753
▁한결같	-9.37983
▁때문	-9.38017
아야	-9.38021
▁집착	-9.38038
▁통	-9.38057
▁되도록	-9.38064
▁자리에서	-9.3813
▁읽	-9.3815
則	-9.38225
▁몸에	-9.38267
4	-9.38289
修	-9.38387
▁친척	-9.38433
▁향	-9.3855
▁진	-9.38569
는데	-9.38719
▁친	-9.38831
구	-9.38871
▁나서	-9.39003
▁가르치는	-9.39067
▁능력	-9.39069
당한	-9.39089
▁과목	-9.39163
▁거래	-9.39303
▁말할	-9.39362
靈	-9.39425
▁두어	-9.39467
▁공동	-9.3947
▁발심	-9.39577
남	-9.39612
▁개벽	-9.39625
知	-9.3969
▁가르쳐	-9.39882
▁조사	-9.39909
▁삼대력	-9.39914
▁반조	-9.39953
▁빚	-9.40054
辰	-9.40095
갓	-9.40095
▁어떠하냐	-9.40255
▁영가에게	-9.40456
▁말한	-9.40668
▁공경	-9.40706
▁인연이	-9.40724
녀	-9.40836
▁불과	-9.40844
▁평생	-9.40944
▁생활이	-9.41136
▁제중	-9.41348
▁타력	-9.41511
▁예법	-9.41557
▁인증	-9.41668
▁성지	-9.41689
무	-9.41728
단	-9.42091
云何	-9.42135
▁점이	-9.42255
會	-9.42294
▁사업이	-9.42367
▁보살	-9.42408
종	-9.42421
▁하시었다	-9.42492
門	-9.4254
▁저축	-9.42704
▁과학	-9.4279
▁듯	-9.42805
位	-9.42829
▁묵	-9.42849
찌	-9.4315
▁물으시	-9.43195
▁스승님	-9.43195
己	-9.43209
▁네가	-9.4321
별록	-9.4325
▁ᄋ월	-9.43346
▁만사	-9.43386
▁바라노라	-9.43387
▁그렇지	-9.4342
▁如	-9.4343
▁법으로	-9.43441
▁들으시고	-9.43443
▁시국	-9.43549
▁오고	-9.4355
창	-9.43588
▁의지하여	-9.4361
▁여덟째	-9.43631
▁최후	-9.43653
▁있음	-9.43683
▁이웃	-9.43768
▁이리	-9.43817
▁반백년	-9.43822
보	-9.43904
▁못하며	-9.43954
▁종사께서	-9.44035
▁재단	-9.44125
▁34.	-9.4422
▁35.	-9.44226
▁하셨	-9.44238
▁아니하나니	-9.44417
▁간절	-9.44439
▁여기에	-9.44463
▁온전	-9.44472
▁시일	-9.44478
으나	-9.44512
치를	-9.44567
▁하더라도	-9.44597
▁이런	-9.44604
▁노력하	-9.44633
마	-9.44633
▁안정	-9.44659
▁사용할	-9.44806
▁오르	-9.4483
로다	-9.44869
인이	-9.45165
▁맺	-9.45172
▁변	-9.45292
▁생각으로	-9.45323
▁사물	-9.45333
코	-9.45412
큰	-9.45419
▁때와	-9.45429
▁도인	-9.45489
▁좋아	-9.45528
하도록	-9.45566
▁처	-9.45783
▁공부로	-9.45787
▁좋아하	-9.45877
▁결실	-9.45917
▁굳	-9.45953
本	-9.46062
▁사요	-9.46151
▁보배	-9.46226
▁주어	-9.46317
하던	-9.46371
▁그릇	-9.46448
▁힘쓸	-9.46573
▁처지	-9.46583
▁뒤	-9.46637
▁조항	-9.46663
▁방법으로	-9.46793
日	-9.46804
▁사항	-9.46817
▁모시고	-9.46851
李	-9.46941
▁부지런	-9.46957
▁교헌	-9.46993
▁배워	-9.4701
▁법통	-9.47032
▁짓고	-9.47064
사람	-9.47129
▁처리	-9.47163
더니	-9.47167
▁도학	-9.47229
▁경제	-9.47233
▁착심	-9.47445
▁불전	-9.47455
▁함이	-9.47471
분	-9.47493
▁하나로	-9.47546
▁교당에서	-9.47669
▁통해	-9.47678
시키는	-9.47678
▁하오면	-9.47786
▁일동	-9.47811
배	-9.48016
됨이	-9.48085
불	-9.48223
▁성취	-9.48228
」	-9.48273
▁본의	-9.48285
▁탐	-9.48313
▁원수	-9.48389
▁작업	-9.48405
오리까	-9.48466
복	-9.48481
▁걸	-9.48674
▁요법	-9.48679
▁찾	-9.48739
지는	-9.48873
▁40	-9.48896
▁세력	-9.49036
▁맡	-9.49054
▁극	-9.4907
▁도량	-9.49109
圓	-9.49142
▁갖추어	-9.49243
▁卽	-9.49317
▁복락	-9.49323
▁같	-9.49347
▁얼굴	-9.49405
▁구하	-9.49457
▁미워하	-9.49462
병	-9.49473
덕	-9.49572
▁그들	-9.49588
式	-9.49772
씩	-9.49779
위	-9.49786
리오	-9.49845
▁교회	-9.49882
▁깨달음	-9.49893
▁이후	-9.49926
▁復有業	-9.49928
▁ᄋ일에	-9.49936
▁하려	-9.49961
▁깨쳐	-9.50021
▁방	-9.50034
▁생기	-9.5012
▁공심	-9.50145
▁처음에	-9.50156
▁대사	-9.50161
▁아니함이요	-9.50173
▁승	-9.5019
음	-9.50282
▁만고	-9.50312
▁아홉째	-9.50385
▁확립	-9.50422
그대들이	-9.50443
爲	-9.50507
▁구원	-9.5052
▁멀리	-9.50584
▁나타난	-9.50585
즉	-9.50606
▁매일	-9.50613
▁음식	-9.50768
▁36.	-9.50778
▁정진	-9.50807
일은	-9.50836
▁37.	-9.50908
▁정사	-9.50938
러라	-9.51001
▁옷	-9.51012
九	-9.51116
이라고	-9.51203
하면서	-9.51251
▁악업	-9.51512
▁ᄋᄋ년	-9.51574
▁극락	-9.51709
▁결함	-9.51877
▁끊임	-9.51906
▁언어	-9.521
▁중에서	-9.52444
▁공적	-9.52549
名	-9.52594
▁말로	-9.52912
▁대종사께	-9.52975
▁어른이	-9.52992
▁발족	-9.5301
▁발간	-9.53025
아서	-9.53096
體	-9.53157
齋	-9.53181
지도	-9.53223
全	-9.53226
酉	-9.53227
▁치료	-9.53228
▁인연으로	-9.5328
는지라	-9.53303
사대	-9.53305
▁올	-9.53315
▁생멸	-9.53354
▁쌓	-9.53372
▁절차	-9.53401
▁보응	-9.53432
▁얻기	-9.53565
▁초월	-9.53565
▁지위	-9.53605
▁원광	-9.5361
▁성질	-9.53616
▁받기	-9.53726
▁기초	-9.53729
▁조화	-9.53732
▁밖에	-9.53815
▁독경	-9.53844
▁2)	-9.5387
說	-9.53958
▁아님	-9.54005
▁삼매	-9.54023
하리니	-9.54066
▁시작	-9.54076
시었다	-9.54141
▁無	-9.54143
▁38.	-9.54153
▁어렵	-9.54164
▁교전	-9.54206
▁제도하	-9.54237
▁정성이	-9.54387
▁재산	-9.54537
▁유념	-9.54541
▁하셨나니	-9.54627
과거	-9.54775
▁악도에	-9.55132
▁집에	-9.55153
▁쉽나니	-9.55169
▁속이	-9.55193
▁나고	-9.55201
▁절약	-9.5524
▁스승이	-9.55376
▁가치	-9.55748
▁거룩	-9.5575
▁선생	-9.55804
▁체받아	-9.55894
▁애착	-9.55898
▁대우	-9.55982
▁경륜	-9.56045
理	-9.56294
▁불상	-9.56316
▁모르	-9.56359
▁숨	-9.5637
▁돌아가	-9.56459
▁삿	-9.56592
▁다름	-9.56596
진대	-9.56636
설	-9.56648
▁전문	-9.56656
내	-9.56795
亥	-9.56798
쁜	-9.56798
丙	-9.56799
▁부분	-9.5686
▁낙원	-9.5688
利	-9.56971
▁얻으리라	-9.56995
其	-9.5702
▁같지	-9.57147
▁밟	-9.57155
▁제생	-9.57155
禮	-9.57198
▁상극	-9.57221
▁방면으로	-9.57248
▁기르	-9.57383
▁이름이요	-9.57458
▁동정	-9.57464
▁닦아	-9.57508
무리	-9.57582
▁일심으로	-9.57645
▁바람	-9.57677
▁밥	-9.57681
▁그에	-9.57731
▁대할	-9.5781
심으로	-9.5785
▁제자에게	-9.57857
氣	-9.57977
▁초	-9.58
▁넉넉	-9.58005
사회	-9.58082
▁나도	-9.58113
하나	-9.58119
▁빛	-9.58222
▁26	-9.58225
▁서서	-9.58274
▁한다면	-9.58319
▁철저	-9.5845
▁보시고	-9.58477
▁은혜와	-9.58584
▁기관이	-9.58655
▁의세	-9.58808
▁버리	-9.58904
七	-9.5896
▁시기	-9.58971
공부	-9.59126
▁재미	-9.59373
하시니	-9.59394
▁방문	-9.59583
▁결혼	-9.59661
▁적지	-9.5984
▁부부	-9.59916
▁보게	-9.59953
▁기술	-9.59972
▁의견	-9.59997
▁등급	-9.60069
▁하리라	-9.60074
▁見	-9.60214
▁고백하	-9.60483
巳	-9.60502
▁연마	-9.6058
▁들이	-9.60607
▁훌륭	-9.60615
▁이르시되	-9.60659
음이요	-9.6068
▁헌공	-9.60694
▁포교	-9.60715
▁아니하리요	-9.60716
▁쉬운	-9.60736
▁없으리라	-9.60755
▁허물	-9.60792
▁49	-9.60802
▁가까운	-9.60845
▁힘쓰라	-9.60846
정전	-9.60908
▁노	-9.60922
▁하심이	-9.60977
▁외에	-9.61007
▁홀	-9.61014
▁미치는	-9.61143
力	-9.61159
▁애	-9.61166
▁고유문	-9.61167
▁신심이	-9.61227
▁책임이	-9.61416
▁구분	-9.6143
▁승급	-9.61495
▁주체	-9.61582
▁축하	-9.61618
▁진급	-9.61777
▁윤회	-9.61789
▁호	-9.6187
▁것인가	-9.61897
▁확장	-9.61904
재	-9.61955
국가	-9.62098
▁교역자	-9.62129
▁존중	-9.62208
▁몸으로	-9.62212
▁밖	-9.62228
眞	-9.62263
▁번역하	-9.62388
▁청	-9.62453
▁종교가	-9.62523
▁드러	-9.62585
7.	-9.62674
더라도	-9.62728
▁사정	-9.62754
▁넓	-9.6278
▁쌓이	-9.62825
▁한량없	-9.6285
▁합하여	-9.62866
지금	-9.62952
▁부처님과	-9.63004
▁40.	-9.6316
▁보호	-9.63164
▁만들어	-9.63214
▁살생	-9.63277
▁규	-9.63299
▁一	-9.633
我	-9.63524
▁기간	-9.63537
▁말씀에	-9.63601
▁일념	-9.63625
▁구인	-9.63716
했다	-9.63838
▁하였으나	-9.63844
기는	-9.63869
형	-9.64026
地	-9.64175
토록	-9.64371
▁생각할	-9.64392
▁떠	-9.644
소서	-9.64466
▁필경	-9.64475
▁지도자	-9.64492
▁지으시니	-9.64498
▁앉	-9.64507
▁민중	-9.64512
▁지견	-9.64534
▁소개	-9.64539
▁자타	-9.64763
能	-9.64766
▁유공인	-9.64767
處	-9.64856
▁좋게	-9.64886
▁생겨나	-9.64921
지어다	-9.65001
▁떨어져	-9.65035
▁경례	-9.65085
▁같다	-9.65099
▁부처님이	-9.65248
▁39.	-9.65291
▁발견하여	-9.65383
▁건국	-9.65422
▁않나니	-9.65541
▁예회	-9.65542
▁즉	-9.65677
▁유일	-9.6588
▁분별	-9.65985
▁색	-9.66016
▁도움	-9.66041
▁심경	-9.66068
▁佛	-9.66084
▁제사	-9.66148
▁셋	-9.6617
▁하시며	-9.66182
▁필요	-9.6634
렇게	-9.66425
▁농사	-9.66444
▁사이	-9.66465
▁아닐	-9.66547
▁사용하는	-9.66698
한즉	-9.66704
▁되었으며	-9.66757
혀	-9.66839
八	-9.66843
▁등에	-9.66913
봉	-9.66939
▁도에	-9.66973
▁잠	-9.66977
▁지나	-9.66989
앞으로	-9.67073
▁사람이요	-9.67166
▁위로	-9.67198
▁총회	-9.67347
▁추진	-9.67352
▁생각하고	-9.67358
主	-9.67449
노라	-9.67673
▁난	-9.67694
化	-9.67716
上	-9.67724
▁노래	-9.67727
▁본교	-9.67886
다고	-9.6802
▁행복	-9.68063
▁사람으로	-9.68165
긴	-9.68288
華	-9.68339
戌	-9.68348
編	-9.68348
世界	-9.68388
▁것인	-9.68398
▁겸	-9.68419
▁부득이	-9.6848
▁지켜	-9.6848
▁같나니	-9.6851
▁같으나	-9.68528
▁합동	-9.68538
外	-9.6855
▁마을	-9.68616
▁않으면	-9.68626
▁청년	-9.68652
심이요	-9.68656
▁아니하는	-9.68689
▁열째	-9.68703
▁그러하면	-9.68704
▁변하지	-9.68763
킬	-9.68973
▁인물이	-9.69015
4.	-9.69154
▁있다면	-9.6937
하옵고	-9.69415
통	-9.69429
▁정신으로	-9.69548
5	-9.69568
▁개정	-9.6961
▁정하고	-9.69679
식을	-9.6975
▁알기	-9.69937
▁무엇이	-9.69971
▁들어서	-9.70018
▁곳에서	-9.70179
또	-9.70261
▁공양	-9.70287
▁그러	-9.7029
▁개척	-9.70302
▁감사하	-9.70313
▁자세	-9.70411
▁부처와	-9.70486
▁짓	-9.70488
옵고	-9.70531
▁존령	-9.70535
르게	-9.70535
▁좌우	-9.70539
▁계시	-9.7058
▁의지	-9.70694
▁법사	-9.70697
▁성의	-9.70762
▁없음	-9.70794
▁덕이	-9.70865
▁만드	-9.70885
▁스승과	-9.70898
▁해당	-9.70913
▁죽는	-9.70919
▁차별이	-9.70969
▁우선	-9.71071
▁초기	-9.71116
▁최고	-9.71125
▁명리	-9.7127
小	-9.7133
月	-9.71376
▁할진대	-9.71385
▁훈련법	-9.71483
▁보살이	-9.71725
▁차례로	-9.71764
함에	-9.7184
物	-9.7188
然	-9.71943
▁가난	-9.71944
▁곳이	-9.72043
▁선도	-9.7212
苦	-9.72157
자녀	-9.72169
포	-9.72183
▁조심	-9.72256
▁주장	-9.72326
私	-9.72491
▁하나이다	-9.72493
戒	-9.72512
卯	-9.72515
▁합	-9.72528
▁지배	-9.72545
▁선업	-9.72561
▁충분	-9.72628
▁若有衆生	-9.72667
元	-9.72668
▁무사	-9.72678
▁되었으니	-9.72696
▁처지에	-9.72756
▁살펴서	-9.72797
▁도인이	-9.72858
▁상주	-9.72876
▁환영	-9.72895
참	-9.72904
께서	-9.72905
▁믿는	-9.7295
▁위원회	-9.73016
▁크	-9.73017
▁넘치	-9.7303
▁편수	-9.73033
▁믿지	-9.73048
▁받들고	-9.7309
▁조용	-9.73192
後	-9.73306
▁시자	-9.73337
▁입으로	-9.73358
▁삼동윤리	-9.7337
▁관계로	-9.73392
▁삼천	-9.73517
▁묻	-9.73523
▁사상	-9.73588
▁구름	-9.73604
▁공주	-9.73658
▁다하여	-9.73682
▁배우고	-9.73795
▁길에	-9.73822
▁제정	-9.73825
▁죽기	-9.73863
▁대범	-9.74012
▁쓰지	-9.74018
▁배은	-9.7413
▁보내	-9.74139
▁근심	-9.7422
▁만물이	-9.74276
▁범	-9.7432
▁말하면	-9.74386
감	-9.74465
▁불의	-9.74508
▁출가위	-9.7469
▁않는다	-9.74693
주의	-9.74732
▁실패	-9.74852
▁인재	-9.74893
▁다행	-9.74907
▁밝히	-9.74994
속	-9.75033
▁종법사는	-9.75084
▁습관	-9.75142
▁하시니라	-9.75431
▁得	-9.75452
▁이르러	-9.75461
▁이루는	-9.75471
▁주의할	-9.75581
5.	-9.75619
▁악도	-9.75656
로되	-9.75656
느냐	-9.75745
▁28	-9.7585
▁양심	-9.75883
▁몸은	-9.75884
▁불법연구회	-9.75917
▁학인들	-9.7593
▁진리에	-9.75935
▁是	-9.75935
▁가정에	-9.75939
▁간단	-9.7601
▁우리에게	-9.76119
▁경축	-9.76164
석	-9.76227
菩薩	-9.76232
군	-9.76287
(193	-9.76317
▁교단이	-9.76358
▁'	-9.76477
▁의	-9.76488
▁어디	-9.76505
▁종재	-9.76534
세계	-9.76553
▁바탕	-9.76584
智	-9.76598
▁제가	-9.76638
▁남아	-9.76657
入	-9.76661
▁상하	-9.76692
었으며	-9.76723
▁아니한	-9.76724
▁《	-9.76925
▁앉아	-9.76926
▁망념	-9.76971
▁영향	-9.76975
▁잠간	-9.76984
개소	-9.77015
▁임의로	-9.77054
하겠나이다	-9.77058
▁일정	-9.77185
▁평	-9.77196
▁만대	-9.77228
▁식순	-9.77241
▁단련하여	-9.77264
▁분수	-9.7728
▁묘	-9.77298
▁머리	-9.77306
▁올리고	-9.77339
▁되나이까	-9.77347
▁굳게	-9.77368
▁과거에	-9.77371
▁회갑	-9.77517
▁년	-9.77546
▁고통	-9.77564
▁깨친	-9.77579
▁기본	-9.77639
근	-9.77756
개월	-9.77775
▁닦고	-9.77801
▁드러내	-9.77828
▁41.	-9.77855
▁토	-9.77879
▁효과	-9.77886
▁활용하	-9.77915
▁자리요	-9.77972
▁지극한	-9.77981
要	-9.78
▁펴	-9.78004
7	-9.78085
▁진화	-9.78098
虛	-9.78107
▁정신에	-9.78144
▁불보살들	-9.78152
▁復有	-9.78229
▁사람으로서	-9.78235
▁남이	-9.78514
▁이치에	-9.78556
▁영모전	-9.78628
▁전일	-9.78705
▁중에도	-9.78721
▁어렵나니	-9.78725
일이	-9.78748
안	-9.78792
▁생각하지	-9.78827
▁맞아	-9.78827
▁유지	-9.78888
▁천하에	-9.78901
겠나이다	-9.78977
▁ᄋᄋ님	-9.79011
▁효	-9.79054
▁당연	-9.79139
▁주례	-9.79413
▁당하	-9.79542
하실	-9.79563
오니	-9.79609
으로부터	-9.79635
▁나오	-9.79668
▁교의	-9.79723
백	-9.79744
▁결정	-9.79776
▁심법	-9.79822
▁운전	-9.79876
實	-9.79902
▁함이요	-9.79924
▁선정	-9.79964
▁능력이	-9.79979
▁행사에	-9.79983
”	-9.80018
▁음	-9.80091
년간	-9.80095
부모	-9.80164
▁가지로	-9.80178
께서는	-9.80232
▁뜻으로	-9.80271
집	-9.80294
됨	-9.80372
▁무명	-9.80476
▁팔	-9.80502
▁실시	-9.80581
▁중도	-9.80582
되지	-9.80587
▁생각하	-9.80592
▁밤	-9.80615
모	-9.80639
▁본원	-9.80673
▁시행	-9.80786
▁사무	-9.80834
▁성인들	-9.80863
▁되라	-9.80866
하오리까	-9.80901
▁죽어	-9.80955
▁까닭	-9.81015
▁어떠하	-9.81066
▁장래	-9.81179
▁하다가	-9.81226
▁동작	-9.81277
▁아뇩다라삼먁삼보리	-9.8133
矣	-9.81364
何	-9.81367
/	-9.81407
▁봉안	-9.81418
▁오랜	-9.8149
▁임시	-9.815
▁기틀	-9.81512
▁밝힌	-9.81519
천지	-9.81521
▁챙겨	-9.81523
▁고축문	-9.81541
갖	-9.81578
▁정규	-9.816
▁만능	-9.81634
▁의례	-9.81635
▁해외	-9.81648
롭게	-9.81675
▁못하므로	-9.81701
▁오롯	-9.81717
▁여유	-9.81756
▁살피	-9.81774
▁과정	-9.81872
▁안락	-9.81919
▁사량	-9.81943
▁혼자	-9.81968
생의	-9.81976
▁생각하는	-9.82097
▁교중	-9.82119
方	-9.8213
▁나라의	-9.8216
▁자금	-9.82187
급	-9.82228
▁건	-9.8226
리니	-9.8227
▁거쳐	-9.82319
是	-9.8236
써	-9.82434
▁진정	-9.82467
듯이	-9.82721
▁체제	-9.82772
▁세세	-9.82843
사오리까	-9.8292
▁혼인	-9.82964
▁단계	-9.83023
▁42.	-9.83069
▁告	-9.83132
▁법인	-9.83132
▁아이	-9.83158
▁방법은	-9.83171
▁있었다	-9.83188
▁두렷	-9.83248
겠는가	-9.83286
혹	-9.83413
▁걸음	-9.83485
이로다	-9.83614
▁신자	-9.83625
▁겁	-9.83703
▁주기	-9.83857
▁까닭이	-9.8387
▁생생	-9.83885
▁꽃	-9.84054
▁정전	-9.84069
▁수용	-9.8409
▁비유	-9.84091
來	-9.84096
▁중심	-9.8414
▁높이	-9.84146
▁하리요	-9.84217
▁미루	-9.84227
▁하시	-9.84322
▁도움이	-9.844
▁가르치	-9.84544
▁제성	-9.84582
▁안다	-9.84641
慧	-9.84781
▁상이	-9.84822
▁성현들	-9.8489
▁응	-9.84948
▁50	-9.84951
▁줄로	-9.84999
▁다섯	-9.85022
어떠한	-9.85022
▁15	-9.85042
長	-9.85054
있는	-9.85072
▁구제	-9.85116
▁따르	-9.85138
'	-9.85243
學	-9.85252
▁받들	-9.85393
▁희사	-9.85394
▁깨끗	-9.85399
覺	-9.85431
▁도력	-9.85437
▁대종경	-9.85466
▁실현	-9.85471
마음	-9.85541
院	-9.85558
많은	-9.85633
▁복덕	-9.85651
▁위하	-9.8566
래	-9.85662
정한	-9.857
하다	-9.85725
▁심지	-9.85897
사가	-9.8594
▁얼마	-9.86067
▁일만	-9.86141
誠	-9.86151
午	-9.86165
二者	-9.86173
▁열린	-9.86191
▁좀	-9.86227
▁교가	-9.86235
▁분명	-9.86239
▁선지식	-9.86247
▁재앙	-9.86268
▁계율	-9.86273
▁어두운	-9.86292
▁어머니	-9.86294
▁세세생생	-9.86301
▁끊어진	-9.86312
▁이룰	-9.86315
▁역경	-9.86326
▁수도인	-9.86363
▁내어	-9.86368
▁무형	-9.86372
▁있으리라	-9.86386
6	-9.86399
▁일터	-9.86434
낼	-9.86443
▁관리	-9.86444
▁생령이	-9.86459
▁많으나	-9.86474
▁자취	-9.86498
▁보이지	-9.86552
▁걷	-9.86555
▁바탕하여	-9.86592
宗	-9.86598
▁질서	-9.86603
▁축원문	-9.86618
▁잃고	-9.86672
▁써서	-9.86677
춘	-9.868
▁四	-9.86802
▁살펴	-9.86806
▁남자	-9.86828
▁상당	-9.86857
下	-9.86858
▁대학	-9.86884
▁있었	-9.86888
▁표어	-9.86927
▁알며	-9.86931
▁공경하고	-9.86962
▁44.	-9.87052
▁본다면	-9.87127
으로서	-9.87186
▁공한	-9.87216
▁얻어서	-9.87241
▁그대들에게	-9.87258
▁지경	-9.87261
▁민족	-9.87362
滅	-9.87398
▁철	-9.8741
▁물론	-9.87454
▁원광대학교	-9.87487
▁내리시	-9.87537
▁쓰고	-9.87598
▁의복	-9.87647
▁풀	-9.87747
▁자손	-9.87801
▁표	-9.87865
올	-9.87866
▁주며	-9.87928
▁교세	-9.87956
시니	-9.8796
사오니	-9.88017
용	-9.88024
▁단련	-9.88112
▁제위	-9.88152
▁터	-9.88188
시에	-9.88337
▁강급	-9.88433
▁신통	-9.88477
住	-9.88612
제가	-9.88632
▁옛날	-9.88645
▁행하고	-9.88651
▁나가는	-9.88829
▁명상	-9.88838
見	-9.88859
▁다생	-9.88913
▁갚	-9.89006
이므로	-9.89009
▁있기	-9.89048
▁하노라	-9.89117
▁탐착	-9.89135
念	-9.89189
卽	-9.89359
於	-9.89384
▁자각	-9.89394
▁내역	-9.89421
▁죽을	-9.89429
▁제도의	-9.89497
3.	-9.89528
▁대운	-9.89559
▁五	-9.89573
分	-9.89597
▁모아	-9.89684
▁이기	-9.89761
▁한량	-9.89767
망	-9.89768
▁모여	-9.89963
▁계속하여	-9.89985
▁수위단	-9.90022
면서도	-9.9004
▁정신과	-9.90107
▁한결	-9.90116
▁논	-9.90201
연구	-9.90213
▁식	-9.90229
8	-9.9023
▁故	-9.90281
시켜	-9.90309
▁먼	-9.90344
▁내리	-9.90516
▁여여	-9.90559
▁생산	-9.90736
▁대동	-9.90815
지가	-9.90843
▁허망	-9.90882
▁부처님께	-9.9101
옵소서	-9.91016
낸	-9.91088
安	-9.91119
힌	-9.9112
戊	-9.91165
喪	-9.91168
現	-9.91219
▁봉래	-9.91243
▁아끼	-9.91273
▁사실로	-9.91278
▁하물며	-9.91284
▁길룡리	-9.91285
▁해독	-9.91299
▁나리시와	-9.91307
▁방언	-9.91319
유	-9.91328
반	-9.91342
▁금생에	-9.91353
▁없으므로	-9.91358
▁점차	-9.9136
▁있었으나	-9.91383
▁앞에서	-9.91396
▁주문	-9.91412
▁해가	-9.91439
▁한번	-9.91451
▁모래	-9.91459
▁정식	-9.91509
▁비옵나이다	-9.91548
▁잠시	-9.9155
▁충	-9.91588
▁치	-9.91612
▁25	-9.91616
▁일로	-9.91654
▁때나	-9.91698
▁고비	-9.91731
▁하였	-9.91762
▁본말	-9.91867
▁밝히고	-9.91891
▁식사	-9.91965
▁여래께서	-9.91969
▁솔성	-9.91983
▁45.	-9.92021
▁43.	-9.92039
▁담	-9.92041
일원	-9.92047
▁장래에	-9.92047
둘	-9.92048
色	-9.92132
▁기천	-9.92135
순	-9.92174
하였나니	-9.92209
仁	-9.92209
▁46.	-9.9225
▁것보다	-9.92288
각	-9.92314
▁막히	-9.92321
농	-9.92323
▁버리지	-9.92377
▁원칙	-9.92392
▁상대편	-9.92395
영	-9.9244
▁말하고	-9.9251
▁응하여	-9.92579
▁云	-9.92583
▁三	-9.92591
▁맞지	-9.92827
光	-9.92878
▁골라	-9.929
▁결의	-9.92984
▁없애	-9.93021
하시어	-9.9309
▁성명	-9.93114
림	-9.93243
▁정력	-9.9325
▁보물	-9.93261
하오니	-9.93264
▁어찌하여	-9.93575
▁의리	-9.93594
▁六	-9.93604
▁단결	-9.93639
▁떨어지	-9.93759
옵니다	-9.93772
▁도운	-9.93855
受	-9.93899
▁짐	-9.93937
▁아닌가	-9.93951
▁접	-9.93976
▁전생	-9.94073
▁까닭이니	-9.94083
관	-9.94144
▁추	-9.94151
▁법이라	-9.94177
▁법력	-9.94194
聞	-9.9432
져	-9.94367
▁60	-9.94386
교	-9.94439
▁분별이	-9.94501
▁초안	-9.94511
▁대지	-9.94537
▁행하면	-9.94608
▁일일	-9.94623
▁지고	-9.94641
약	-9.94703
리가	-9.94724
▁有	-9.94744
▁넘	-9.94755
▁끌	-9.94837
▁좋지	-9.94882
▁나라를	-9.94914
▁현실	-9.94933
▁법어	-9.94948
淸淨	-9.95035
▁법회	-9.95157
하였으나	-9.95162
▁십	-9.95237
▁기록	-9.95282
▁하오니	-9.95351
▁최	-9.9542
▁일대	-9.95457
▁끌리	-9.95511
▁길로	-9.9553
▁알리	-9.95541
▁十	-9.95555
▁황	-9.95556
▁그대들이	-9.95589
▁공헌	-9.95662
진리	-9.9573
▁욕심이	-9.95809
▁장엄	-9.96007
▁단원	-9.96024
하나이다	-9.96051
▁공이	-9.96122
네	-9.96142
▁경지	-9.96147
曰	-9.96192
須菩提	-9.96208
國	-9.96257
語	-9.96319
▁사상을	-9.96332
▁일심이	-9.96418
癸	-9.96422
▁본위	-9.96431
만일	-9.96502
▁일찍	-9.96525
▁하옵시며	-9.96581
▁기원	-9.96609
得	-9.96634
풍	-9.96637
▁거행하되	-9.96652
▁여러분	-9.96712
일원상	-9.96728
▁대원	-9.96732
▁만보살	-9.96736
시어	-9.96745
▁성인이	-9.9676
▁흉	-9.96772
▁있나이까	-9.96828
▁아니하리라	-9.96834
坐	-9.96874
▁듣지	-9.96881
解	-9.96885
▁거름	-9.96946
▁없어	-9.9697
▁최초	-9.97014
▁자격	-9.97108
▁피은	-9.97113
▁우연	-9.97156
▁들여	-9.97177
▁말하여	-9.97214
▁신흥	-9.97303
▁광대	-9.97369
▁후일	-9.97378
▁해방	-9.97384
으신	-9.97426
▁나가야	-9.97452
그렇게	-9.97467
問	-9.97474
)"	-9.97527
▁고치	-9.97557
▁보기	-9.97564
▁지키고	-9.97658
轉	-9.97694
하려	-9.97715
▁멀	-9.97725
▁자유로	-9.97748
▁밝고	-9.9778
▁교정	-9.97821
▁일상	-9.97913
▁초월하여	-9.97963
▁되었	-9.98015
▁수입	-9.98185
▁자행	-9.98238
었으나	-9.98391
처	-9.98434
▁자선	-9.98608
▁사랑하	-9.98739
之人	-9.98806
인은	-9.98814
▁도인들	-9.98835
시니라	-9.98905
▁경로	-9.98918
▁욕	-9.99005
▁되었나니	-9.99029
▁공도자	-9.99074
▁당일	-9.99158
▁왔	-9.99246
▁타	-9.99428
▁계승	-9.99443
종교	-9.9945
▁기구	-9.99458
▁19	-9.99502
樂	-9.99559
▁수운	-9.99612
▁업	-9.99726
▁근본적	-9.99751
과거에는	-9.99777
▁나타	-9.99839
▁감응	-9.99981
▁도성	-9.99986
▁소식	-10.0009
워	-10.001
一圓	-10.0011
▁고사	-10.0035
▁때로	-10.0038
▁되었고	-10.0042
動	-10.0043
▁정한	-10.0043
▁승려	-10.0051
▁축원	-10.0054
常	-10.0063
하기를	-10.0066
▁만들	-10.0077
▁생활로	-10.0084
通	-10.0093
▁매사	-10.0112
일에는	-10.0119
▁한국	-10.0119
▁하거나	-10.0121
▁대상	-10.0123
▁나라에	-10.0125
▁걸리	-10.0149
▁문화	-10.0157
▁가정이	-10.0163
▁빠지	-10.0165
▁좇아	-10.0185
▁권장	-10.0188
▁무수	-10.0197
陰	-10.0198
男	-10.0198
丑	-10.0199
品	-10.0199
申	-10.0199
텅	-10.0199
制	-10.0199
▁처사	-10.0199
하시었다	-10.02
▁중심이	-10.0205
▁재색	-10.0209
▁간소	-10.0214
先	-10.0215
▁행하여	-10.0215
▁근원이	-10.0217
▁전부	-10.0219
▁예비	-10.022
▁산업	-10.0221
▁일본	-10.0222
▁베풀어	-10.0225
청	-10.0226
▁사용	-10.0229
오니까	-10.0229
이오니까	-10.023
육신	-10.0232
▁못할지니	-10.0233
▁구호	-10.0238
▁들으라	-10.0239
▁기질	-10.0245
▁지도에	-10.0246
▁없어지고	-10.0246
水	-10.0252
▁강령이	-10.026
▁수양력	-10.0264
▁나타내	-10.0264
▁있는데	-10.0266
오며	-10.0268
▁요양	-10.0268
福	-10.027
▁움직이	-10.027
▁듣	-10.027
▁선후	-10.0271
예전	-10.0274
대종경	-10.0284
▁정결	-10.0287
▁주어야	-10.0288
함이니	-10.0305
害	-10.0305
후	-10.0308
▁부모에게	-10.0318
▁창생	-10.032
▁비치	-10.0321
觀	-10.0325
▁이로	-10.0331
▁시간에	-10.0335
▁나누어	-10.0336
從	-10.0337
▁상장	-10.0338
▁맞추어	-10.034
▁보조	-10.0346
▁타락	-10.0358
▁후일에	-10.0358
根	-10.0363
▁판단	-10.0367
합	-10.0371
▁형	-10.0377
▁전도	-10.0386
겠나이까	-10.0389
▁잡고	-10.039
▁증거	-10.0392
▁인물	-10.0393
▁의뢰	-10.0393
▁윤리	-10.0411
▁일부	-10.0413
겠느냐	-10.0413
▁탁	-10.0414
▁취하여	-10.0415
▁대신	-10.0417
▁부당	-10.0418
▁공력	-10.0423
▁편리	-10.0425
▁마치고	-10.0427
▁아니하나	-10.0435
생활	-10.0444
▁감정	-10.0448
▁정신적	-10.0449
▁인정	-10.0451
▁성취하	-10.0454
▁회원	-10.0456
▁추모	-10.0459
▁빛이	-10.0459
▁못한다	-10.0462
▁있는가	-10.0463
▁그리고	-10.0481
▁물건이	-10.0487
▁발견	-10.0489
▁예에	-10.0489
十	-10.0502
▁문명이	-10.0504
▁아니고	-10.0509
▁사가	-10.0513
거	-10.0518
▁정진하여	-10.0523
▁성성	-10.0525
▁공중에	-10.053
▁교당이	-10.0537
▁이용	-10.054
▁처리하	-10.0544
▁선령	-10.0553
▁교법이	-10.0559
6.	-10.0571
▁금강산	-10.0572
가정	-10.0589
▁가득	-10.0601
▁교당에	-10.0602
줄	-10.0611
▁바다	-10.0612
▁흐르	-10.0614
로소	-10.0615
▁공양하	-10.0616
상의	-10.0616
▁돌리	-10.0619
▁차이	-10.0629
▁수도인들	-10.0629
▁물이	-10.0633
담	-10.0634
▁교환	-10.0654
▁충실	-10.0655
▁ᄋᄋ는	-10.0655
悟	-10.0671
情	-10.068
법신불	-10.0683
▁죽음	-10.07
▁선근	-10.0701
법에	-10.0706
▁이끌어	-10.0714
▁일월	-10.0723
▁죄고	-10.0726
▁가서	-10.0726
▁부처님께서는	-10.0727
▁면	-10.073
同	-10.0731
▁희망	-10.0737
▁雖	-10.0739
▁완	-10.0746
靜	-10.075
▁실적	-10.0752
▁편찬	-10.0765
우리는	-10.0771
▁22	-10.0776
애	-10.0779
▁환	-10.0783
▁사사	-10.0783
印	-10.0784
▁교화하는	-10.0786
壬	-10.0787
:	-10.0787
情誼	-10.0787
▁즐거	-10.0789
▁휴양	-10.0796
▁혜광	-10.0797
▁도둑질	-10.0798
▁순역	-10.0798
첫째	-10.0799
▁알면	-10.08
▁수고	-10.0803
▁개최	-10.0803
▁법륜	-10.0803
▁잡념	-10.0804
▁가짐	-10.0805
▁있느냐	-10.0807
▁정각	-10.0808
▁내외	-10.0811
間	-10.0812
▁여하에	-10.0813
▁끼치	-10.0814
▁而	-10.0819
▁이유	-10.0819
▁바탕이	-10.0819
증	-10.0821
▁소견	-10.0822
▁것이어늘	-10.0825
▁비하건	-10.0825
▁발인식	-10.0825
▁부귀	-10.0827
▁얼음	-10.0828
▁얻었다	-10.083
▁소소	-10.0836
▁달리	-10.0837
▁그림자	-10.0839
사와	-10.0841
▁입교	-10.0842
▁신념	-10.0844
▁정혜	-10.0854
스럽	-10.0856
▁만나서	-10.0856
▁축사	-10.0857
지에	-10.086
▁없는지라	-10.0862
▁풍	-10.0863
數	-10.0869
▁비용	-10.087
▁물러나	-10.0871
▁회상에서는	-10.0887
▁바에	-10.089
▁풀어	-10.0891
락	-10.0893
▁나라에서	-10.09
▁아니하여야	-10.0901
습니	-10.0902
이어늘	-10.0904
▁공변	-10.0906
▁바꾸	-10.0907
▁53.	-10.0907
▁알려	-10.0907
▁허무	-10.0907
▁즉시	-10.0908
▁건축	-10.0914
邪	-10.0915
朴	-10.0915
인가	-10.0916
불법연구회	-10.0918
▁구도	-10.0925
▁다니	-10.0927
성으로	-10.0927
功	-10.0928
▁쉽고	-10.0933
▁계속하면	-10.0933
▁차례	-10.0933
▁47.	-10.094
▁복과	-10.0947
▁존재	-10.0953
貪	-10.0955
說法	-10.0962
▁규정	-10.0971
▁끌리는	-10.0971
하매	-10.0979
▁둔	-10.0987
▁영혼	-10.0995
惡	-10.101
▁가르침	-10.1011
▁대조하여	-10.1013
▁도사	-10.1014
중생	-10.1014
▁필요한	-10.1022
지고	-10.1036
▁거래에	-10.1036
▁합심	-10.1049
이까	-10.1052
은즉	-10.1059
▁태산	-10.1065
▁49.	-10.1066
▁인류를	-10.1068
▁거듭	-10.1076
▁천지에	-10.1085
하옵	-10.11
서도	-10.1109
▁생각해	-10.1111
대한	-10.1116
▁자재	-10.1118
행할	-10.1124
(192	-10.113
▁합력	-10.1132
리는	-10.1135
▁권속	-10.1149
▁올리	-10.1151
▁42	-10.1153
在	-10.1155
▁당하는	-10.1156
▁하늘이	-10.1166
학	-10.1179
▁습관이	-10.1184
▁밭	-10.1206
▁창건	-10.1211
▁당한	-10.1213
▁끊어	-10.1221
▁목표	-10.1222
▁출입	-10.123
▁품	-10.1234
▁직	-10.1244
여금	-10.1247
▁대종사님	-10.1265
▁어려울	-10.1265
出	-10.127
품	-10.1271
▁힘쓰	-10.1272
▁위의	-10.1279
▁배출	-10.1291
▁언	-10.1316
▁55	-10.132
▁어린이	-10.1322
欲	-10.1324
▁사업과	-10.1326
구나	-10.1328
10	-10.133
自性	-10.1331
▁사이에는	-10.1336
▁적은	-10.1341
▁계발	-10.1342
▁즐기	-10.1352
타원	-10.1355
▁불안	-10.1366
▁거의	-10.1371
▁진심	-10.1373
▁도는	-10.1376
▁일시적	-10.1381
▁대도에	-10.1382
▁소원	-10.1384
等	-10.139
▁싶	-10.1391
년대	-10.1395
▁좁	-10.1401
宋	-10.1405
書	-10.1408
▁동심	-10.1412
流	-10.1412
頌	-10.1412
씬	-10.1412
훨	-10.1412
權	-10.1412
▁시험	-10.1413
▁신용	-10.1416
▁빠짐	-10.142
▁물러	-10.1421
▁억지로	-10.1422
▁화두	-10.1424
▁역량	-10.1425
▁해결	-10.1427
의심이	-10.1428
▁「‘	-10.1428
▁광선	-10.1431
▁분야	-10.1433
▁성년식	-10.1434
▁법연	-10.1436
▁묘유	-10.1436
▁각종	-10.1437
▁현	-10.1438
▁쇠	-10.1446
▁삼십	-10.1446
▁심전	-10.1447
▁기쁨	-10.145
▁오르는	-10.1451
▁본위로	-10.1451
▁달이	-10.1453
▁만난	-10.1455
▁계교	-10.1456
▁권세	-10.1459
세에	-10.1459
▁대체	-10.1462
▁뜻이니	-10.1463
▁취하지	-10.1465
▁하옵시고	-10.1468
▁서가모니	-10.1468
▁가르	-10.1469
▁장례	-10.1471
▁목	-10.1474
▁흔들리	-10.1477
▁없어야	-10.1479
▁대자대비	-10.148
▁卽非	-10.1481
▁원인	-10.1482
▁대호법	-10.1483
▁사유	-10.1489
뿐	-10.1489
▁진공	-10.1489
▁가르치고	-10.1495
▁창	-10.1507
▁없다면	-10.1514
▁들면	-10.1516
▁냄이요	-10.1517
▁51.	-10.1522
리지	-10.1522
▁통일	-10.1524
생에	-10.1524
傳	-10.1524
▁회	-10.1525
沙門	-10.1525
寶	-10.153
▁발달	-10.153
▁단원들	-10.1531
▁살며	-10.1531
오래	-10.1532
▁불단	-10.1533
▁52.	-10.1536
9	-10.1542
▁때까지	-10.1552
▁교명	-10.1553
▁전진	-10.1557
▁광명이	-10.1558
세상	-10.156
▁지각	-10.156
▁57.	-10.1562
▁절대	-10.1566
▁54.	-10.1571
중한	-10.1572
외	-10.1576
만으로	-10.1579
▁불제자	-10.1581
▁표준으로	-10.1584
▁동학	-10.1585
▁아니며	-10.1586
▁찬	-10.1586
▁발하여	-10.1587
▁48.	-10.1592
서원문	-10.1593
법강항마위	-10.1597
▁불보살이	-10.1598
▁오욕	-10.16
着	-10.1601
▁염원	-10.1609
▁앞서	-10.1614
▁발표	-10.1616
▁없다고	-10.1628
▁대답하	-10.163
▁50.	-10.1632
已	-10.1633
업	-10.1638
▁낳	-10.1644
▁도로	-10.1649
태	-10.1653
▁말하지	-10.1653
▁적멸	-10.1655
▁불멸	-10.1659
▁16	-10.1664
▁행하	-10.1668
天地	-10.167
▁보니	-10.1672
▁빌	-10.1682
▁가지며	-10.1683
▁활용하여	-10.1689
▁수위단회	-10.169
▁在	-10.1691
疑	-10.1698
네가	-10.171
▁정진하	-10.1712
▁고해	-10.1715
▁일시	-10.1729
▁자상	-10.173
▁참고	-10.1739
▁대답	-10.174
如來	-10.1756
남이	-10.1765
▁하거늘	-10.1787
▁굴리	-10.1797
▁빛나	-10.1803
▁힘으로	-10.1806
스	-10.1817
량	-10.1819
▁수용하	-10.182
▁言	-10.1827
▁장소	-10.1837
▁성과	-10.184
▁불성	-10.1853
▁단합	-10.1863
▁대회	-10.189
▁무심	-10.19
역	-10.1915
▁뵈	-10.1916
▁지옥에	-10.1918
▁수여	-10.1934
去	-10.1935
▁창설	-10.1936
▁운용하	-10.1937
▁분들	-10.1942
▁수신	-10.1943
▁내게	-10.1946
▁도덕이	-10.1948
▁방해	-10.195
▁일기	-10.1959
하니라	-10.1964
▁48	-10.1974
▁전해	-10.1975
▁없었	-10.1977
박	-10.1978
▁취	-10.1979
▁曰	-10.1985
▁56	-10.1989
들지	-10.199
▁달려	-10.1994
▁대조하	-10.1999
▁병진하	-10.2006
▁더러	-10.2017
▁구할	-10.2032
리고	-10.2033
시옵소서	-10.2034
▁다음에	-10.2034
▁방향	-10.2057
세상에	-10.2063
▁병자	-10.2064
雲	-10.2073
▁빼앗	-10.2073
陀圓	-10.2075
重	-10.2075
東	-10.2076
田	-10.2077
由	-10.2078
面	-10.2078
耶	-10.2079
論	-10.2079
=	-10.2079
껏	-10.2079
一圓相	-10.2082
▁가볍	-10.2086
▁謂之	-10.2086
▁유익	-10.2087
▁선남자	-10.2089
▁배울	-10.2089
▁송광	-10.2089
▁불생불멸	-10.2089
였으며	-10.209
상으로	-10.2091
▁제생의세	-10.2091
▁학문	-10.2091
▁믿으며	-10.2092
▁실례	-10.2092
▁잃	-10.2093
▁뵈옵고	-10.2099
▁못함	-10.2102
▁지역	-10.2104
▁어려우나	-10.2104
▁경험	-10.2109
▁좋을	-10.2109
▁염치	-10.211
▁여러가지	-10.2112
▁위험	-10.2112
▁송규	-10.2118
▁근검	-10.2119
▁보화당	-10.2119
▁약력	-10.212
▁불러	-10.2121
▁지공	-10.2122
▁내왕	-10.2123
▁것에	-10.2125
▁지도인	-10.213
▁고행	-10.2134
▁오늘날	-10.2139
▁기다리	-10.214
▁주시며	-10.214
▁다르지	-10.2144
본	-10.2145
▁기쁘	-10.2146
▁열위	-10.2148
하다가	-10.2148
▁좌석	-10.2149
▁자라	-10.2151
▁스승에게	-10.2155
▁수시	-10.2159
▁가령	-10.216
▁만들고	-10.2162
▁바탕으로	-10.2166
▁쌍전	-10.2171
▁비추	-10.2171
▁지장	-10.2171
▁곳마다	-10.2173
▁체성	-10.2175
▁복록	-10.218
▁心告	-10.218
▁게송	-10.2183
▁등은	-10.2184
▁대봉도	-10.2185
▁노소	-10.2185
만큼	-10.2186
▁재계하옵고	-10.2187
▁가운데서	-10.2189
판	-10.2194
▁지도하	-10.2198
▁했다	-10.2205
▁돈이	-10.221
▁대치하	-10.221
▁입묘	-10.2212
▁영육	-10.2213
▁올바	-10.2216
▁조성	-10.2218
▁21	-10.2221
因緣	-10.2223
▁동원	-10.2232
▁공정한	-10.2233
▁동하지	-10.2242
려는	-10.2243
▁높고	-10.2247
▁지옥	-10.2254
▁많고	-10.2257
좌	-10.2258
▁병진	-10.2259
▁울	-10.2261
▁재래	-10.2262
오늘	-10.2263
▁쉬우	-10.2266
▁교단과	-10.227
見性	-10.2271
▁역할	-10.2273
▁자성에	-10.2284
境	-10.2284
거니와	-10.2285
▁만세	-10.2286
▁가질	-10.2286
▁쓰면	-10.2287
風	-10.229
五	-10.2292
▁조합	-10.2292
▁친지	-10.23
옛	-10.2301
▁누리	-10.2304
▁주셨	-10.2314
발	-10.2314
好	-10.2315
회를	-10.2318
▁공사에	-10.2323
▁미신	-10.2324
▁순일	-10.2332
▁씨	-10.2335
照	-10.2337
▁이타	-10.2341
▁이름이	-10.2345
▁부정	-10.2345
▁정성으로	-10.2348
▁내용	-10.2349
▁대업	-10.2353
점	-10.2357
▁천리	-10.2357
▁만족	-10.2358
過	-10.2359
진리가	-10.2362
▁않기	-10.2363
▁모시	-10.2364
▁되자	-10.2365
▁하였으니	-10.2365
▁행동이	-10.2369
▁가면	-10.2372
▁나가	-10.2377
▁처소	-10.2378
▁기어	-10.2378
▁탑	-10.238
)』	-10.2382
▁55.	-10.2382
皆	-10.2383
▁건강	-10.2383
▁조건	-10.239
▁다르나	-10.2393
無爲	-10.2393
▁其	-10.2394
▁원하는	-10.2408
▁농	-10.2414
귀	-10.242
▁이루고	-10.2429
▁사장	-10.2436
緣	-10.244
▁하는지라	-10.2459
▁도가에서	-10.2461
▁성심	-10.2466
▁마음이요	-10.2468
▁죽은	-10.2475
▁통하	-10.2478
▁고생	-10.2484
체	-10.2486
▁범연	-10.2488
생을	-10.2494
▁거룩하	-10.251
福德	-10.2516
도에	-10.2523
▁업장	-10.2524
2.	-10.2528
8.	-10.2534
▁起	-10.2535
▁감동	-10.2537
▁확실	-10.2537
▁망상	-10.2542
▁태	-10.2543
▁만들기	-10.2555
▁성적	-10.2566
▁지부	-10.2571
어도	-10.2577
▁주시	-10.2581
▁파	-10.2582
▁미래에	-10.2582
▁순경	-10.2585
▁항하	-10.2585
▁그러기	-10.2589
▁규약	-10.2592
▁희생	-10.2598
1916	-10.2598
▁실상	-10.261
▁응대	-10.2617
二	-10.2619
▁믿어	-10.2621
種	-10.2624
▁하늘에	-10.2632
▁13	-10.264
(194	-10.2648
▁구속	-10.266
▁돈오	-10.2667
▁묶	-10.2681
▁보이	-10.2688
▁상징	-10.2691
▁단정	-10.2691
▁그리하여	-10.2695
▁표본	-10.2716
▁각지	-10.2718
▁대중과	-10.2718
多	-10.272
▁결	-10.2724
▁뛰어	-10.274
▁뜻인	-10.274
시킬	-10.2741
▁혼란	-10.2744
▁일어	-10.2749
▁중정	-10.2753
▁머물	-10.2753
하시되	-10.2754
▁제도하기	-10.2758
하자면	-10.2759
▁말하는	-10.2766
▁출발	-10.2777
▁올라	-10.2778
▁방심	-10.2779
▁들으	-10.278
▁바와	-10.2784
食	-10.2784
典	-10.279
期	-10.2791
으니	-10.2791
代	-10.2792
草	-10.2793
藏	-10.2793
l	-10.2793
僧	-10.2793
▁당시에	-10.2794
女人	-10.2794
교육	-10.2799
▁근거	-10.28
▁가슴	-10.28
▁균등	-10.28
▁불쌍	-10.28
▁느끼	-10.28
▁염려	-10.2802
▁마군	-10.2804
▁것인바	-10.2808
▁업력	-10.2808
非	-10.2809
▁주견	-10.2813
▁깨침	-10.2814
▁돌아와서	-10.2814
▁키우	-10.2815
▁제재	-10.2819
▁아니리요	-10.2826
▁但	-10.2826
▁만년	-10.2827
▁깨닫고	-10.283
▁증산	-10.2832
▁헌배	-10.2832
▁증애	-10.2832
▁위패	-10.2833
▁물결	-10.2834
▁자료	-10.2835
▁수레	-10.2837
▁유무념	-10.2837
▁수상문	-10.2837
▁상벌	-10.2837
▁사사로	-10.2837
▁알았다	-10.2842
▁물들지	-10.2843
치지	-10.2845
▁맛	-10.2853
▁보여	-10.286
▁제거하고	-10.2861
▁호리	-10.2861
▁나아가야	-10.2861
▁고금	-10.2865
▁광전	-10.2869
▁업보	-10.2873
▁예는	-10.2881
▁24	-10.2884
▁공부심	-10.2891
정산	-10.2892
▁나날	-10.2894
▁연구력	-10.2897
▁학원	-10.2897
▁연회	-10.2897
아주	-10.2899
▁등불	-10.2906
▁찬성	-10.2907
▁당하면	-10.2913
▁설한	-10.2913
▁명호	-10.2919
▁희	-10.2919
기관으로	-10.2924
▁정례	-10.2925
▁사도	-10.2928
病	-10.2932
▁팔조	-10.294
▁고요한	-10.2942
▁변하여	-10.2943
▁앞두	-10.2943
대의	-10.2943
왕	-10.2944
▁설할	-10.2946
0.	-10.2951
大圓	-10.2951
▁받드	-10.2957
▁철저한	-10.2959
▁벗	-10.296
상과	-10.2961
▁쓰라	-10.2964
▁성업	-10.2965
▁드러나고	-10.2967
▁길들이	-10.2968
▁섭섭	-10.2969
국	-10.2969
▁법훈	-10.2969
▁올리는	-10.2969
▁굽히	-10.2983
願	-10.2987
1971.	-10.2987
▁협력	-10.2989
▁예로부터	-10.299
▁불토	-10.3001
▁약속	-10.3005
▁잊고	-10.3008
▁실행하고	-10.3014
頭	-10.3018
었으니	-10.3019
▁알라	-10.302
▁지으면	-10.3022
▁들게	-10.3022
▁시작하	-10.3028
▁부자	-10.3031
좌선	-10.3037
▁덮	-10.3039
▁예문	-10.3041
造	-10.3043
직	-10.3045
石	-10.3047
▁주인공이	-10.3047
▁이야기	-10.3052
白	-10.3054
▁가정의	-10.3055
▁후원	-10.3055
▁국가에	-10.3057
▁시설	-10.3059
▁살려	-10.306
취사	-10.3061
至	-10.3062
▁56.	-10.3066
추	-10.307
▁수행에	-10.3073
책	-10.3081
때로	-10.31
▁나타나고	-10.3102
▁흩어	-10.3103
도가	-10.3105
▁끊어지	-10.3113
▁맥	-10.3113
▁원력	-10.3122
▁함이니	-10.3122
▁빠	-10.3122
▁예전	-10.3126
▁업장이	-10.3136
▁내고	-10.3141
▁때문이	-10.3148
▁술	-10.3149
▁육	-10.315
▁드는	-10.3165
▁대하여는	-10.317
▁변함	-10.317
▁하면서	-10.3172
▁국	-10.3182
▁무한	-10.3191
▁마음공부	-10.3202
▁법계에	-10.3206
평	-10.3215
如是	-10.3218
▁마라	-10.3226
▁구하고	-10.3226
서로	-10.3232
▁있다가	-10.3235
▁본성	-10.3235
亦	-10.3241
▁아침	-10.3248
▁처소에	-10.3249
▁아니함	-10.3255
▁주위에	-10.3256
열	-10.3257
▁못하나	-10.3261
인들	-10.3262
▁베풀	-10.3266
▁시작하여	-10.3269
▁이용하	-10.3273
▁교제	-10.3273
▁참석	-10.3275
스러운	-10.3279
▁미치지	-10.3294
▁일이요	-10.3299
하려는	-10.3302
▁如是	-10.3304
입	-10.3304
▁큰일	-10.3306
▁내려	-10.3307
▁정부	-10.331
▁하므로	-10.3315
▁원불교에서	-10.3321
▁하였고	-10.3323
▁사용하	-10.3326
▁믿	-10.3332
▁공의	-10.3336
▁청정하여	-10.3338
父母	-10.3339
▁지도자들	-10.334
神	-10.3351
▁드리	-10.3352
▁들고	-10.3361
▁어둡	-10.3374
▁밤에	-10.3375
셨	-10.3388
▁멸도	-10.3389
▁정사에	-10.3393
일체	-10.3404
▁취임	-10.341
▁없어지	-10.3413
▁공원	-10.3421
治	-10.3427
▁초창기	-10.3447
▁생겨	-10.346
▁건설하는	-10.3462
▁분의	-10.3467
았다	-10.3476
정할	-10.3482
▁문제	-10.3492
기만	-10.3495
▁선포	-10.3503
▁짧	-10.3503
▁39	-10.3524
報	-10.3526
瞋	-10.3532
례	-10.3541
▁설치	-10.3542
▁사시	-10.3543
▁조선	-10.3554
順	-10.3559
政	-10.3559
花	-10.3562
目	-10.3562
힐	-10.3562
節	-10.3562
惡業	-10.3564
自在	-10.3564
▁봉불	-10.3564
▁필경에	-10.3568
▁냄새	-10.3568
▁규칙	-10.3569
▁구렁	-10.357
▁무처선	-10.357
▁도구	-10.357
▁출장소	-10.3572
▁미쳐	-10.3572
▁연마하	-10.3573
▁괴로움	-10.3574
▁드릴	-10.3575
▁키워	-10.3576
아니옵니다	-10.3578
▁전국	-10.3579
▁중근	-10.358
▁있겠는가	-10.3583
▁분석	-10.3583
▁좋으나	-10.3586
▁개선	-10.3587
▁마디	-10.3589
▁변천	-10.3592
功德	-10.3593
▁담당	-10.3594
▁손해	-10.3602
▁떳떳	-10.3602
▁교정원장	-10.3603
▁전에는	-10.3606
▁지금까지	-10.3608
▁석	-10.361
▁벌여	-10.3612
▁줌이요	-10.3612
▁58.	-10.3615
▁집중	-10.3618
견성	-10.3625
조로	-10.3633
현	-10.3633
▁하겠느냐	-10.3636
권	-10.364
▁근로	-10.364
1924	-10.3643
▁천상락	-10.3644
▁조석	-10.3644
▁대체로	-10.3647
▁교통	-10.3651
열한	-10.3653
▁바치	-10.3653
▁있는지라	-10.3653
▁법이니	-10.3656
▁일체중생	-10.3659
▁좋고	-10.366
▁공익심	-10.3664
▁다할	-10.3667
▁30	-10.3667
으므로	-10.3672
▁열려	-10.3673
▁외경	-10.3673
▁색신	-10.3674
▁태양	-10.3674
▁실천하	-10.3677
▁중에는	-10.3677
▁무엇으로	-10.3679
▁신랑	-10.3679
▁이념	-10.3681
▁찾는	-10.3688
상이	-10.3691
▁가져서	-10.3694
塵	-10.3695
▁되었으나	-10.3697
▁대천	-10.3702
9.	-10.3704
▁봄	-10.3713
▁이행	-10.3719
지만	-10.3721
▁계속되	-10.3722
▁취하	-10.3722
▁교단적	-10.3731
▁졸	-10.3744
▁내생	-10.3747
다른	-10.3748
▁사람들에게	-10.3749
▁방식을	-10.3753
▁이에게	-10.3754
▁是故	-10.3758
▁표준이	-10.3758
布施	-10.376
▁장사	-10.376
▁세계와	-10.3763
▁요소	-10.3764
年	-10.3766
▁땅이	-10.3769
▁인도하	-10.3771
▁성탑	-10.3772
13	-10.3776
말로	-10.3779
▁못하였	-10.3779
▁위신	-10.3782
▁착수	-10.3788
벽	-10.3795
▁기원하	-10.3797
作	-10.3801
▁본래에	-10.3808
▁교운	-10.3809
교의	-10.381
▁만나기	-10.3813
▁싫어하는	-10.382
▁충고	-10.3832
▁즐겨	-10.3834
▁심성	-10.3834
▁헌신	-10.3842
▁대비	-10.3847
▁각처	-10.3849
15	-10.385
째는	-10.3851
▁끝에	-10.3852
▁화하고	-10.3853
▁일이니	-10.3854
문에	-10.3854
▁준비하	-10.3854
▁조심하여	-10.3857
▁특신급	-10.3858
▁한편	-10.3861
大覺	-10.3862
되었으며	-10.3866
되었고	-10.3868
▁훈련으로	-10.3868
자에게	-10.3871
▁세속	-10.3876
당	-10.3877
因	-10.3878
▁가정과	-10.3879
精	-10.3882
命	-10.3883
▁실생활	-10.3883
深	-10.3883
迷	-10.3885
해가	-10.3887
▁식은	-10.3887
하시니라	-10.3892
려니와	-10.3894
勝	-10.3909
여야	-10.3917
▁많다	-10.3922
▁녹	-10.3923
견	-10.3924
▁법강항마위	-10.3926
▁훈시하시	-10.3926
▁부탁	-10.3929
▁입고	-10.3933
▁임	-10.3937
▁사업은	-10.3939
奉	-10.3939
위에	-10.3942
▁방법이	-10.3944
愛	-10.3956
▁독	-10.3956
▁제거하	-10.3963
▁이듬해	-10.3974
음이	-10.3976
하였	-10.3979
▁본인	-10.398
▁자기에게	-10.3992
왕이	-10.3997
▁금강경	-10.3997
▁부탁하노	-10.4002
▁실행하여	-10.4003
더라	-10.4008
▁양보	-10.401
두	-10.4029
▁자기만	-10.403
▁유교	-10.4033
색	-10.404
▁그런고	-10.4048
으	-10.4049
▁바치는	-10.4069
▁멸	-10.408
이리오	-10.4082
▁총부에	-10.4085
▁모으	-10.4096
▁도문	-10.4104
별	-10.4118
▁공경하	-10.4119
▁心	-10.4122
▁곳으로	-10.4127
▁좋	-10.4134
술	-10.4135
▁넘어	-10.4141
시키고	-10.4143
▁무리	-10.4151
성이	-10.4151
▁고르	-10.4153
▁乃至	-10.4155
▁예회에	-10.416
상에	-10.4161
▁若有	-10.4161
▁46	-10.4171
▁싹	-10.4178
▁깨치는	-10.4179
▁공부하	-10.4196
쳐	-10.4198
▁믿을	-10.4202
교단	-10.4212
▁성주	-10.4214
▁까지	-10.4217
▁어찌할	-10.4223
축	-10.4224
▁태교	-10.4225
▁긴	-10.4225
예	-10.4226
▁버	-10.4227
사의	-10.4227
▁問	-10.423
▁가로	-10.4232
▁미혹	-10.424
▁인화	-10.4246
▁감수	-10.4248
▁사진	-10.4253
▁광	-10.4254
▁말씀이	-10.4256
▁사실적	-10.4263
▁헤아	-10.4265
▁국제	-10.4267
》	-10.427
▁나면	-10.4287
▁혁명	-10.4294
應	-10.4307
▁꾸짖	-10.4309
▁괴로	-10.431
▁대신사	-10.4319
▁소홀	-10.4323
淸	-10.4329
敬	-10.4339
습	-10.4341
▁옮기	-10.4342
▁이번	-10.4348
▁의미	-10.4353
말	-10.4356
철	-10.4368
▁불법이	-10.4377
▁빌려	-10.4378
▁뒷	-10.4379
▁시작하였	-10.4379
壽	-10.4379
▁헛	-10.4385
海	-10.4389
具足	-10.439
魔	-10.4391
▁엄	-10.4394
共	-10.4396
春	-10.4396
祝	-10.4396
舍	-10.4396
喆	-10.4396
居	-10.4396
規	-10.4396
▁가벼	-10.4396
▁헤매	-10.4396
▁회복	-10.4397
本師	-10.4398
▁착복	-10.4399
▁바람이	-10.44
초	-10.44
▁폐단	-10.4402
▁삼을	-10.4403
▁항마	-10.4403
▁밟아	-10.4404
▁추대	-10.4405
▁법맥	-10.4406
▁이르기까지	-10.4406
▁부지중	-10.4407
▁의결	-10.4408
▁무자력	-10.4409
▁정성스럽	-10.4409
▁화복	-10.4413
▁되오니	-10.4413
▁학림	-10.4416
▁있듯이	-10.4416
▁이름하나니	-10.4417
▁출판	-10.4417
셨고	-10.4418
▁미워	-10.4419
▁전주	-10.4421
▁있을지라도	-10.4426
▁59.	-10.4427
▁조각	-10.4427
▁크다	-10.4427
▁어려우	-10.4428
▁정토	-10.443
▁왔으나	-10.443
▁싸	-10.4434
▁실효	-10.4438
▁정관평	-10.4441
▁기능	-10.4443
▁환경	-10.4443
▁대사식	-10.4444
▁치우치	-10.4444
w	-10.4445
▁행적	-10.4448
a	-10.445
냐	-10.4452
▁54	-10.4453
▁됨이요	-10.4454
▁넘기	-10.4456
▁선비	-10.4459
▁밝아지	-10.446
▁생전에	-10.4461
▁구분하여	-10.4462
환	-10.4462
斷	-10.4462
▁슬	-10.4463
▁합장	-10.4466
▁빼앗기	-10.4468
▁못한다면	-10.4468
▁얽매이	-10.4468
▁좋으	-10.447
▁바치고	-10.4474
하노라	-10.4481
▁一圓大	-10.4482
▁생로병사	-10.4484
▁귀천	-10.4484
▁탄생	-10.4493
▁떨어지지	-10.4499
▁무위	-10.45
▁공공	-10.45
▁결산	-10.4501
꼬	-10.4502
▁기르고	-10.4507
▁대각여래위	-10.4514
▁보본	-10.4515
▁주시고	-10.452
정과	-10.4521
▁조위	-10.4522
▁주장하는	-10.4523
▁강조	-10.4523
▁기독교	-10.4523
▁번거	-10.4524
▁마치면	-10.4525
▁천도재	-10.4526
▁수하	-10.453
▁무시선	-10.4534
▁갔다	-10.4544
▁백천	-10.4551
▁대승	-10.4551
▁거울	-10.4551
1.	-10.4555
▁정남	-10.4555
▁선진들	-10.4557
십	-10.4558
▁된다면	-10.456
▁후로는	-10.4568
▁지을	-10.4575
▁뿐이요	-10.4576
▁신부	-10.4579
▁조단	-10.4579
▁정하여	-10.4582
▁소비	-10.4587
무등등	-10.4604
▁융통	-10.4607
▁난리	-10.4609
▁특수	-10.4617
▁채	-10.4619
▁허다하나니	-10.4623
▁안에서	-10.4623
70.	-10.4628
▁시대라	-10.4637
▁결제	-10.4642
▁회갑식	-10.4643
▁관심	-10.4651
修行	-10.4653
▁위주	-10.4656
▁녹이	-10.4657
▁들을	-10.4659
▁기술이	-10.4663
▁있은	-10.4665
度	-10.4668
불교	-10.467
▁위력이	-10.4671
▁해제	-10.4675
욕	-10.4676
▁산신	-10.4679
치게	-10.4679
▁사이나	-10.4692
언	-10.4697
▁신문	-10.4701
하소서	-10.4707
▁봉안하	-10.471
령	-10.471
▁현상	-10.4711
▁화신	-10.4711
▁성품이	-10.4714
▁하는가	-10.4717
인지라	-10.4717
施	-10.4718
▁부활	-10.4734
▁如來說	-10.4736
▁시봉	-10.4737
盡	-10.4741
▁적적	-10.4746
리에	-10.4747
▁지행	-10.4747
▁적의	-10.4751
▁당인	-10.4754
▁반성	-10.4755
▁평등하	-10.4761
▁생기는	-10.4763
보면	-10.4767
위와	-10.4768
▁자리로	-10.477
▁사용하여	-10.4778
▁바라는	-10.478
▁되니	-10.4782
되나니	-10.4786
佛言	-10.4788
隨	-10.4791
그러면	-10.4797
六	-10.4801
誓願	-10.4802
開	-10.4806
▁든	-10.4808
▁무지	-10.4811
치는	-10.4813
▁일어나는	-10.4813
금강경	-10.4816
▁중생들	-10.4816
▁亦	-10.4817
▁쌓는	-10.4823
원광	-10.4825
▁길이요	-10.4829
할진대	-10.4832
▁가라앉	-10.4833
口	-10.4838
親	-10.4839
▁안심	-10.4841
▁전재	-10.4845
▁수확	-10.4847
▁정치가	-10.485
▁이름하	-10.4864
▁재물	-10.487
첫째는	-10.4871
▁문이	-10.4871
▁쌓아	-10.4871
▁47	-10.4873
▁구애되	-10.4875
▁나온	-10.4875
▁진보	-10.4879
▁하거든	-10.488
▁덜	-10.488
▁선법	-10.4892
▁부르	-10.49
▁그르치	-10.4908
인에게	-10.4911
▁병든	-10.4915
▁조상	-10.4925
▁이루어지	-10.4927
▁영산에	-10.4931
들도	-10.4932
하시와	-10.494
▁살아나	-10.494
▁개벽되	-10.4967
가지	-10.497
▁선행	-10.4979
▁모태	-10.4983
▁선사	-10.4989
▁3)	-10.4992
▁글자	-10.4994
▁복잡	-10.5003
賢聖	-10.5009
존	-10.5012
▁종지	-10.502
▁어디에	-10.5021
장에	-10.5032
▁아니함이	-10.504
▁요	-10.5053
▁대재	-10.5054
▁짓기	-10.5059
▁걱정이	-10.5082
▁의지하	-10.5082
▁천명	-10.5083
▁익	-10.5094
▁관련	-10.5096
▁뜨	-10.5099
▁허	-10.5103
동할	-10.5105
▁짜	-10.5111
▁놀라	-10.512
▁사람이니	-10.5121
▁我	-10.5128
▁교회장	-10.5136
전주	-10.5139
▁표창	-10.5139
▁한다고	-10.514
▁불행	-10.514
▁등위	-10.5151
▁노력할	-10.5162
▁후로	-10.5172
노니	-10.5182
11	-10.5184
들과	-10.5203
▁그러하	-10.5205
르고	-10.5215
중에	-10.5217
▁심경으로	-10.5218
훈련	-10.522
▁법신	-10.5221
▁일념으로	-10.5226
하였으니	-10.5229
▁출	-10.5232
▁공용	-10.5241
▁신자들	-10.5242
토	-10.5243
▁신봉	-10.5254
▁키	-10.5257
此	-10.5261
▁올려	-10.5264
內	-10.5268
▁보내시	-10.5283
▁온다	-10.5286
▁그일	-10.5287
▁이루기	-10.5288
▁고쳐	-10.5291
댄	-10.5293
量	-10.53
▁검	-10.53
여명	-10.53
呪	-10.5301
取	-10.5301
團	-10.5302
園	-10.5304
作是念	-10.5304
法階	-10.5305
▁베	-10.5305
別	-10.5305
柳	-10.5305
半	-10.5305
祭	-10.5305
▁값	-10.5305
▁삶	-10.5305
▁쥐	-10.5305
服	-10.5305
路	-10.5305
▁어둠	-10.5305
喪葬	-10.5305
壬寅	-10.5305
▁답례	-10.5308
▁울안	-10.531
▁일으켜	-10.5311
▁돌이켜	-10.5311
▁과불급	-10.5311
▁어려움	-10.5312
▁지공무사	-10.5312
▁사사불공	-10.5312
▁임무	-10.5313
▁무량겁	-10.5313
▁보화원	-10.5313
▁기사보내기	-10.5313
▁주옵시고	-10.5313
▁영광군	-10.5313
▁환희심	-10.5313
▁나무아미타불	-10.5314
▁부끄러운	-10.5315
▁전쟁	-10.5316
▁간격	-10.5316
▁곡식	-10.5317
▁덕화	-10.5317
▁다투	-10.5319
▁피차	-10.5319
▁지낸	-10.532
▁봉고식	-10.5321
▁인상	-10.5322
▁농부	-10.5323
▁가옥	-10.5324
▁연유	-10.5324
▁은법	-10.5324
▁판국	-10.5325
▁사라지	-10.5325
▁시종	-10.5336
▁작성	-10.5336
▁바쳐서	-10.5338
▁반성하여	-10.5341
法相	-10.5341
▁정교	-10.5344
▁포부	-10.5346
▁爾時	-10.535
▁요지	-10.5351
▁폭	-10.5354
▁처처불상	-10.5354
▁빠져	-10.5355
▁감화	-10.5355
▁예수재	-10.5356
▁사람이며	-10.5356
▁불변	-10.5357
▁만생령	-10.5357
▁아버지	-10.5357
▁가져오	-10.5358
▁봉고문	-10.5359
▁칠보	-10.5359
▁완철	-10.5363
▁원근	-10.5365
▁菩薩	-10.5367
▁출세간	-10.5375
▁요령	-10.5381
▁되나	-10.5383
▁지정	-10.5384
▁아니므로	-10.5385
▁학식	-10.5386
▁세계로	-10.5386
▁불타	-10.539
▁구별	-10.5391
▁귀의하고	-10.5391
吾	-10.5394
▁문에	-10.5395
▁성쇠	-10.5396
▁돌리자	-10.5397
▁지출	-10.5398
▁경전이	-10.5399
▁송별	-10.5399
▁취사력	-10.5402
▁불사	-10.5402
▁자립	-10.5403
▁최상	-10.5403
▁명심하여	-10.5406
시기	-10.5406
▁심어	-10.5413
▁가르쳐서	-10.5414
▁걸려	-10.5415
▁개편	-10.5416
▁타고	-10.5419
▁세운	-10.5421
▁도화	-10.5424
▁중국	-10.5427
▁마련	-10.5435
▁개혁	-10.5435
▁일어냄	-10.5437
▁용맹	-10.5439
》(	-10.5444
▁대거	-10.545
▁이하	-10.545
천하	-10.5451
▁공부인에게	-10.5455
▁종교인	-10.5458
▁일관	-10.5458
▁산란	-10.5459
▁나중에	-10.5459
定靜	-10.5468
▁천업	-10.5473
▁마침	-10.5473
▁경우와	-10.5475
▁하시었나니	-10.5476
▁친근	-10.5477
▁나오는	-10.5479
▁얻음이	-10.5482
▁생활의	-10.5482
광	-10.5482
▁아래로	-10.5487
▁하셨나니라	-10.5489
▁수양원	-10.5491
▁깨치고	-10.5493
▁주심	-10.5494
愚	-10.5497
무엇이	-10.5499
▁남천	-10.5502
변	-10.5509
▁수명	-10.5515
▁도인들이	-10.5518
마음이	-10.5519
▁정신수양	-10.5521
▁있으	-10.5522
▁살았	-10.5526
▁과원	-10.5527
▁是人	-10.553
有人	-10.5533
▁만났을	-10.5534
▁수지	-10.5538
起	-10.5541
▁왔다	-10.5543
▁밭에	-10.5547
▁집에서	-10.555
▁견문	-10.5551
▁폐지	-10.5552
한지라	-10.5555
▁저희들도	-10.5555
▁하지만	-10.5556
시면	-10.5561
▁물질적	-10.5563
▁복덕이	-10.5566
獨	-10.5569
▁행정	-10.5573
었더니	-10.5573
▁따르는	-10.5577
▁무릇	-10.5577
▁산업부	-10.5579
수양	-10.5581
▁이용하여	-10.5587
▁꿈	-10.559
족	-10.5596
▁배척	-10.5606
▁심인	-10.5607
였고	-10.5611
부처님께서	-10.5611
合	-10.5614
▁후세	-10.5626
▁우치	-10.563
▁27	-10.5632
신의	-10.5634
▁적고	-10.5635
▁융창	-10.5636
주년	-10.5637
▁가리	-10.5646
독	-10.5648
항	-10.5651
▁의논	-10.5652
▁먹지	-10.5653
▁웃으	-10.5657
▁아니다	-10.5658
같은	-10.5658
자로서	-10.5664
▁책임지	-10.5664
▁육성	-10.5679
▁영식이	-10.5681
▁질	-10.5685
▁됨	-10.5686
▁원인이	-10.5689
▁수정	-10.5692
▁범하	-10.5692
▁정비	-10.5693
▁동하고	-10.5695
▁동란	-10.5696
▁수위단회의	-10.5696
始	-10.5697
▁고향	-10.5704
進	-10.5706
도덕	-10.571
波	-10.5719
마는	-10.572
▁주야	-10.5722
▁백년	-10.5726
너	-10.5727
▁교조	-10.5732
▁一切	-10.5732
▁없었다	-10.5732
▁非	-10.5734
▁천심	-10.5737
▁고시	-10.5739
▁양방	-10.5751
平	-10.5755
볼	-10.5763
심과	-10.5765
▁스승으로	-10.5765
으로는	-10.5767
▁쌍	-10.577
及	-10.5776
곡	-10.5781
▁불지	-10.5782
▁말지니	-10.5787
▁때요	-10.5788
편집	-10.5802
若	-10.5802
▁세계적	-10.5808
▁모양	-10.5808
펼치	-10.5809
▁구공	-10.5814
옛날	-10.5819
▁따른	-10.5823
▁임원	-10.5828
▁청소	-10.5829
▁서약	-10.5834
▁눈이	-10.5838
렸다	-10.5843
▁아득	-10.5851
(1962	-10.5852
▁아니나	-10.5859
협	-10.5861
復	-10.5861
성리	-10.5868
▁편지	-10.587
歡喜	-10.587
死	-10.5872
▁거리	-10.5873
▁말세	-10.5875
▁한이	-10.5878
▁침	-10.588
▁人	-10.5881
▁과실	-10.5885
하리요	-10.589
▁단전	-10.5891
▁때라	-10.59
▁주소	-10.5908
佛法	-10.5909
이것이	-10.5909
그마	-10.5912
세의	-10.5915
王	-10.5916
▁고통이	-10.5921
▁자유자재하	-10.594
▁흔	-10.5942
▁기관은	-10.5945
▁양성하	-10.5946
▁독실	-10.5954
▁망	-10.5962
▁중도에	-10.5973
▁티끌	-10.5976
▁목욕	-10.5981
▁육신이	-10.5982
▁기뻐하	-10.5988
▁놓으	-10.5988
▁편벽	-10.5993
▁살자	-10.5996
물질이	-10.5999
▁베푸	-10.6008
眼	-10.6014
회의	-10.6016
▁생명이	-10.6021
▁벗어	-10.6026
▁탐심	-10.6031
▁본다	-10.6031
▁가시	-10.6032
▁旣	-10.6033
▁권면	-10.6036
런	-10.6041
▁경과	-10.6042
에게는	-10.6043
▁편에	-10.6046
▁실수	-10.6051
묻	-10.6057
▁삼으	-10.6058
▁귀의	-10.6058
▁정중	-10.606
▁방면에	-10.6063
었던	-10.6064
▁귀의하	-10.6071
▁변하	-10.6072
發	-10.6088
▁어긋	-10.6088
▁52	-10.6093
▁중요하나니	-10.6093
▁흔들	-10.6096
▁부촉	-10.6097
▁일으키	-10.6109
▁44	-10.6113
▁41	-10.6115
▁지방에	-10.6119
▁爲	-10.6122
▁지내는	-10.6126
로지	-10.613
▁세계에서	-10.6134
조가	-10.6135
▁이룬	-10.6142
침이	-10.6145
▁옮겨	-10.6158
▁38	-10.6161
▁태어나	-10.617
▁장려	-10.6172
▁받으	-10.6172
▁전후	-10.6176
▁자성이	-10.6177
▁한반도	-10.6179
▁조심하	-10.6191
▁궁	-10.6195
▁낙이	-10.6201
▁가게	-10.6205
▁왕	-10.6209
하거늘	-10.6209
추어	-10.6229
妙	-10.6232
▁안심하	-10.6235
▁거행하	-10.6241
가는	-10.6242
▁고요	-10.6245
시킨	-10.6249
▁존경	-10.6252
▁범위	-10.6256
▁뿐이	-10.6257
聲	-10.6259
▁허물이	-10.6259
▁서원문	-10.6261
▁증	-10.6264
▁싫	-10.6268
殺	-10.6276
▁맹세	-10.6278
▁몰라	-10.6279
止	-10.6283
▁트	-10.6285
異	-10.6286
▁먹는	-10.6287
랫	-10.6295
▁이듬	-10.63
源	-10.6303
▁붓	-10.6303
調	-10.6304
龍	-10.6304
章	-10.6304
寅	-10.6304
黃	-10.6305
▁갊아	-10.6305
少太山	-10.6305
崇	-10.6305
旨	-10.6305
曺	-10.6305
號	-10.6305
▁거교적	-10.6305
그러하오면	-10.6305
▁총지부	-10.6305
▁불합리	-10.6305
▁개벽하자	-10.6306
▁꾸미	-10.6306
▁과수원	-10.6306
主義	-10.6307
▁卽爲	-10.6307
▁전북	-10.6307
▁도둑	-10.6309
▁알았으나	-10.6309
▁이루려	-10.6311
▁혈심	-10.6312
▁참예하여	-10.6313
▁나아갈	-10.6313
▁어려서	-10.6315
▁계급	-10.6315
▁가까	-10.6315
▁발표하시니	-10.6316
하셨나니	-10.6316
▁맡아	-10.6316
▁많으므로	-10.6318
▁허령	-10.6318
▁모범	-10.6318
▁같으며	-10.6319
▁없었으나	-10.632
▁예수께서	-10.6321
▁동진화	-10.6321
▁뭉쳐	-10.6322
▁손실	-10.6324
▁어릴	-10.6325
▁열릴	-10.6329
▁받으며	-10.6329
▁교강	-10.633
▁솟아	-10.6332
▁고개	-10.6333
▁신분	-10.6334
▁계행	-10.6338
▁혼침	-10.6338
▁소태산이	-10.6338
▁앞길	-10.634
▁향락	-10.634
▁전개	-10.634
▁만날	-10.6343
▁받았	-10.6343
▁앞장서	-10.6343
▁않으며	-10.6344
▁잎	-10.6347
▁莫	-10.6348
▁음광	-10.635
▁거처	-10.635
▁복전	-10.6352
▁팔만	-10.6352
▁진퇴	-10.6353
▁닮	-10.6353
▁춘풍	-10.6356
▁법호	-10.6357
▁기원문	-10.6358
▁명함	-10.6358
▁솟	-10.6359
▁앉아서	-10.636
▁학술	-10.6361
▁닦아서	-10.6361
▁그런데	-10.6362
▁금강	-10.6362
▁주착	-10.6369
▁본받아	-10.6374
터	-10.6376
▁나올	-10.6377
▁아니하시고	-10.6377
▁교훈	-10.638
▁애욕	-10.6381
▁밖에서	-10.6385
▁돌리고	-10.6386
▁관계인	-10.6387
치가	-10.6388
▁모임	-10.639
▁진행하	-10.6395
▁틈	-10.6395
▁보임이	-10.6396
▁바친	-10.6398
].’	-10.64
▁보리라	-10.6405
▁점수	-10.6405
승	-10.6406
▁본분	-10.6406
▁깨닫는	-10.6407
▁교당이나	-10.6407
아뇩다라삼먁삼보리심	-10.6414
▁일꾼들	-10.6417
▁찾게	-10.6418
▁교재	-10.6424
▁당처	-10.6425
▁나오고	-10.6426
▁못하였다	-10.6426
▁복제	-10.6427
▁갑	-10.6427
▁되옵고	-10.6428
름이	-10.6429
▁답사	-10.6429
▁취하고	-10.6431
▁친소	-10.6431
▁응접	-10.6433
▁득도	-10.6439
▁법마상전급	-10.6443
▁答	-10.6444
▁책	-10.6446
▁실행할	-10.6448
▁살피고	-10.6449
▁진안	-10.6449
▁장식	-10.6453
일간	-10.6455
▁고집	-10.6457
▁조합원들	-10.6457
▁개척하자	-10.6458
▁동방	-10.6459
▁기반	-10.6465
▁주로하여	-10.6468
▁비밀	-10.6469
▁항복	-10.647
▁쌓으	-10.6472
▁가정에서	-10.6473
▁뿐만	-10.6473
▁뒤로	-10.6474
▁거기에서	-10.6475
▁지자	-10.6475
▁청하여	-10.6476
▁중안	-10.6493
▁토지	-10.6494
▁공정	-10.6494
▁가졌	-10.6495
▁하였사오니	-10.6503
바로	-10.6503
물질	-10.6504
▁단장	-10.6508
▁정리	-10.6512
▁제작	-10.6513
▁도모하	-10.6517
▁기사	-10.652
▁있습니	-10.6523
▁불일	-10.6531
▁4)	-10.6535
▁그것으로	-10.6541
▁어진	-10.6543
無碍	-10.6545
▁불교와	-10.6545
이면	-10.6551
▁사방	-10.6554
▁통합	-10.6558
▁기운이요	-10.6564
▁구하여	-10.6565
▁신명	-10.6566
▁옳다	-10.6568
▁범상	-10.6572
▁다하고	-10.6576
▁입을	-10.6586
▁하노니	-10.6589
▁갖추고	-10.6592
▁무아	-10.6593
▁인식	-10.6594
▁차서	-10.6595
▁넓은	-10.6597
▁권장하	-10.6598
.[2	-10.66
▁或	-10.6604
장이	-10.6606
▁성년	-10.661
사요	-10.661
▁감추	-10.6619
▁지식이	-10.662
▁싹이	-10.662
▁방편이	-10.6621
▁천신	-10.6624
▁연구하여	-10.6635
▁猶	-10.6636
▁무서	-10.6639
▁善	-10.6639
전무출신	-10.6641
▁철학	-10.6643
▁근	-10.6647
諸佛	-10.6654
▁이욕	-10.6657
▁답	-10.6659
▁중앙총부	-10.6661
▁당국	-10.6663
겁	-10.6666
▁지성	-10.667
▁생성	-10.6671
된다	-10.6682
▁여성	-10.6684
▁인종	-10.6688
력이	-10.6688
▁당년	-10.6689
▁은혜로	-10.6691
리와	-10.6695
▁인물들	-10.6696
▁동안에	-10.6696
▁세계요	-10.6696
▁선전	-10.6697
자기	-10.6698
어져	-10.6699
▁깊고	-10.6703
▁이룩	-10.6707
▁하나님	-10.6709
ᄋᄋ	-10.6711
종교와	-10.6729
▁과거와	-10.6729
▁대인	-10.6733
▁운전하	-10.6743
七寶	-10.6745
▁외부	-10.6748
▁천진	-10.6749
劫	-10.675
▁하는데	-10.6757
▁대치	-10.6757
▁편착	-10.6758
識	-10.6759
오나	-10.6767
▁법명	-10.6773
不動	-10.6774
父	-10.6775
때부터	-10.678
▁혈인	-10.6785
흥	-10.6792
▁흥	-10.6795
것이요	-10.68
셨나니	-10.6801
▁대세	-10.6808
▁사후	-10.6809
▁영로	-10.6812
▁시간이	-10.6816
표	-10.6817
으리라	-10.6826
果	-10.6827
▁알면서	-10.6827
▁통치	-10.6831
동포	-10.6831
▁유시	-10.6831
▁가져다	-10.6832
사에	-10.6839
묵	-10.6839
▁계속해	-10.6844
▁대각전	-10.6844
▁吾	-10.685
▁맡기	-10.6851
濟	-10.6853
▁바이니라	-10.6855
部	-10.6856
▁화하	-10.6856
▁用	-10.6857
▁공로	-10.6859
세존이시여	-10.6861
답	-10.6873
▁부탁하	-10.6874
▁군	-10.6876
▁체받	-10.6878
▁근심이	-10.688
▁차려	-10.6882
煩惱	-10.6884
▁한가지	-10.6886
汝	-10.6889
涅槃	-10.6889
▁아니한다	-10.6893
▁주위	-10.6897
護	-10.69
심경	-10.6905
▁토대	-10.6905
凡夫	-10.6905
儀	-10.6912
出家	-10.6912
것	-10.6912
이고	-10.6915
養	-10.6916
불교정전	-10.6919
▁밝히는	-10.6919
除	-10.6921
▁상황	-10.6923
守	-10.6925
▁붙	-10.6925
▁친절	-10.6928
永	-10.6933
▁스	-10.6934
▁설법하시	-10.6934
南	-10.694
▁병행	-10.6947
▁표현	-10.695
▁불이	-10.6951
채	-10.696
육	-10.6971
▁다하면	-10.6972
▁적극	-10.6972
이제	-10.6978
였던	-10.6979
▁국토	-10.6982
어다	-10.6984
終	-10.6984
하는지라	-10.6996
루	-10.6998
교당	-10.7007
初	-10.7008
十方	-10.7009
▁자본	-10.7019
▁혼	-10.7028
▁즐겨하	-10.703
류	-10.7032
▁험	-10.7036
▁지우	-10.7037
▁일이며	-10.7047
▁다르	-10.7051
▁영식	-10.7059
▁기관에	-10.7063
사오나	-10.7066
▁교역자들	-10.7067
▁흔적	-10.7074
▁주재하	-10.708
▁포	-10.7084
▁확	-10.7084
▁오면	-10.7093
▁굽	-10.7109
▁從	-10.7113
▁종교라	-10.7116
▁내는	-10.7116
▁화려	-10.7118
▁맺어	-10.7119
▁선인	-10.7125
▁불신	-10.7125
▁편집	-10.7151
▁전할	-10.7153
▁병들	-10.7155
▁돕	-10.7157
一切	-10.7161
▁기울	-10.7162
▁전환	-10.7163
▁봉고	-10.7182
▁종파	-10.7185
▁가며	-10.7185
▁따	-10.719
求	-10.7192
▁이상이	-10.72
▁시절	-10.7201
열반	-10.7206
▁대화	-10.7211
▁31	-10.7214
▁선도자	-10.7217
피	-10.7231
▁그러면	-10.7232
▁기재	-10.7237
盜	-10.7246
았으나	-10.7248
▁불조	-10.7249
新	-10.7251
▁말도	-10.7254
▁평탄	-10.7257
▁뚫	-10.726
▁시켜	-10.726
▁유감	-10.7268
강	-10.7269
▁제출	-10.7269
▁원상	-10.727
▁불공하	-10.7278
▁비방	-10.7285
▁수습	-10.7285
▁건네	-10.7285
之心	-10.7286
▁34	-10.729
▁不可	-10.7294
▁엿	-10.7295
60.	-10.7303
兩	-10.7307
習	-10.7308
▁대강	-10.7309
▁법이요	-10.731
▁포함	-10.7313
▁중이	-10.7329
▁18	-10.733
▁운용	-10.7331
▁확인	-10.7333
▁도심	-10.7338
▁정화사	-10.7341
▁전력하	-10.7344
▁외국	-10.7347
▁끝이	-10.7348
▁도실	-10.7349
▁떼	-10.7352
與	-10.7356
▁냉	-10.7361
▁생사에	-10.7375
▁36	-10.7375
▁보호하	-10.7391
▁그때	-10.7398
他	-10.7407
▁수생	-10.7408
▁33	-10.7409
女	-10.7411
寺	-10.7414
活	-10.7414
禍	-10.7415
地獄	-10.7415
高	-10.7415
任	-10.7416
專	-10.7416
火	-10.7416
鑑	-10.7416
伏	-10.7416
話	-10.7416
▁젖	-10.7416
局	-10.7416
鄭	-10.7416
짝	-10.7416
▁호흡	-10.7416
三十二相	-10.7416
夏	-10.7416
庵	-10.7416
洪	-10.7416
震	-10.7416
꼭	-10.7416
뭇	-10.7416
픈	-10.7416
旗	-10.7416
次	-10.7416
▁느껴	-10.7416
▁삼라만상	-10.7416
▁특징	-10.7416
▁낱낱이	-10.7416
▁무위이화	-10.7416
ww	-10.7416
▁압박	-10.7416
▁명칭	-10.7416
▁진흙	-10.7416
▁규율	-10.7416
釋迦牟尼佛	-10.7416
▁낭독	-10.7416
三昧	-10.7417
▁대략	-10.7417
▁친목	-10.7417
▁흥망	-10.7417
李雲	-10.7417
▁譬如	-10.7417
▁所以	-10.7417
▁곤란	-10.7418
▁인쇄	-10.7418
▁형체	-10.7418
▁퇴굴심	-10.7418
▁구멍	-10.7419
▁가섭	-10.7419
끼리	-10.7419
▁파란	-10.7421
▁살펴보면	-10.7421
實相	-10.7422
▁권위	-10.7423
一切衆生	-10.7423
▁것이오니	-10.7423
▁경절이	-10.7423
▁무극	-10.7424
▁결복	-10.7424
敎義	-10.7425
▁문호	-10.7426
▁일상생활	-10.7426
▁좋아함이요	-10.7427
▁것인즉	-10.7427
▁기념관	-10.7428
▁어기지	-10.7428
▁뉘우치	-10.7428
▁17	-10.7428
▁보아다가	-10.743
▁곡조	-10.743
▁같으니라	-10.7431
▁자택	-10.7431
▁제목	-10.7432
▁할지니	-10.7433
▁노동	-10.7434
▁깨우치	-10.7435
▁바루고	-10.7435
▁실무	-10.7436
셨다	-10.7436
번에	-10.7438
▁점수문	-10.744
▁수위단원	-10.7441
▁계단	-10.7441
▁내리시며	-10.7442
▁성령	-10.7443
▁명복	-10.7444
▁숙	-10.7444
▁없으니	-10.7445
▁버릴	-10.7446
▁계교하	-10.7447
▁영통	-10.7447
▁미국	-10.7448
▁숨어서	-10.7449
▁장소에	-10.7449
▁영위	-10.7451
▁쉬우나	-10.7452
▁것만으로	-10.7456
▁나라는	-10.7459
▁놀고	-10.7459
▁입선	-10.746
▁정욕	-10.746
諸	-10.7461
▁숙세	-10.7463
▁폐	-10.7464
▁혁신	-10.7466
▁탐욕	-10.7469
▁단독	-10.7469
▁원적	-10.747
▁중학교	-10.7471
조는	-10.7472
▁반조하	-10.7472
▁영모원	-10.7472
▁순순	-10.7473
▁불고하고	-10.7473
▁100	-10.7473
▁가시어	-10.7474
▁요론	-10.7475
▁여름	-10.7476
었고	-10.7478
▁일기법	-10.7479
▁박람회	-10.748
▁나오면	-10.748
▁61.	-10.7481
▁감찰원	-10.7482
▁있거든	-10.7482
▁통제	-10.7483
혜	-10.7486
▁알았	-10.7487
▁받았다	-10.7488
▁자녀에게	-10.7489
▁임시로	-10.7489
▁도수	-10.7492
▁은덕	-10.7496
▁머무르	-10.7497
▁데까지	-10.7503
▁따름이니	-10.7504
▁혈성	-10.7505
▁불연	-10.7505
▁제위께서	-10.7509
▁상근기	-10.751
▁않다	-10.751
▁스승님이	-10.7511
▁오시어	-10.7511
할지어다	-10.7512
▁귀하	-10.7514
▁기금	-10.7515
▁지난	-10.7516
▁존자	-10.7517
▁기점	-10.7517
▁어긋나지	-10.7517
료	-10.7519
▁동포에게	-10.7521
▁화합하	-10.7522
▁지키며	-10.7524
▁보감	-10.7528
▁기거	-10.7529
▁인과보응	-10.7529
▁작업취사	-10.753
▁개척하	-10.7534
▁증서	-10.7534
▁동기	-10.7534
▁삼아서	-10.7537
▁소용	-10.7539
▁물욕	-10.754
▁탄압	-10.7541
▁영세	-10.7548
▁장의	-10.7548
▁지조	-10.7553
▁빈천	-10.756
▁한참	-10.7562
▁버려	-10.7562
▁내리고	-10.7564
▁중인	-10.7567
▁질문	-10.7571
▁여기에서	-10.7572
▁개회	-10.7574
▁일원주의	-10.7576
▁주세	-10.7581
▁업무	-10.7586
▁거진출진	-10.7587
▁그치고	-10.7588
▁나타나서	-10.7589
▁겪	-10.7591
▁반가	-10.7592
▁인지	-10.7594
독한	-10.7594
▁바쁘	-10.7599
▁수자상	-10.7599
명이	-10.7599
▁하였더니	-10.7601
▁음성	-10.7604
▁선악간	-10.7605
▁느	-10.7612
是我	-10.7612
▁자리며	-10.7616
▁용서	-10.7618
▁말이니	-10.762
▁들이지	-10.762
▁하였는데	-10.7626
▁찾고	-10.7629
▁반야	-10.7632
▁삼동	-10.7632
▁통달한	-10.7635
▁무정	-10.7638
▁주재	-10.7638
▁이들	-10.7639
▁조직과	-10.7642
中道	-10.7644
졌다	-10.7645
▁미진	-10.7646
▁재철	-10.7646
▁고생이	-10.7647
▁인도하여	-10.7654
▁통신	-10.7658
謂	-10.7659
▁부유	-10.7661
▁시기에	-10.7662
▁선조	-10.7664
▁좋아하지	-10.7664
▁봉사	-10.7669
▁일단	-10.7669
▁흩어지	-10.7672
▁행실	-10.7673
▁태우	-10.7677
▁글로	-10.7677
개의	-10.7677
▁견고	-10.7678
▁시련	-10.7678
▁선택	-10.7679
문화	-10.7681
상은	-10.7691
귀교	-10.7695
▁보급	-10.7701
▁데로	-10.7703
▁오복	-10.7707
▁위덕	-10.7711
▁감각	-10.7712
▁불효	-10.7712
▁답하	-10.7714
▁근본이요	-10.7729
▁계속하	-10.7735
▁그로	-10.7741
▁보이는	-10.7748
▁진여	-10.7754
師長	-10.7756
▁방면	-10.7756
사업에	-10.7761
인과	-10.7769
▁當知	-10.7776
▁예도	-10.7778
어느	-10.778
▁적이	-10.7784
▁편벽되	-10.7785
▁말에	-10.7787
▁멸함	-10.7787
▁의두	-10.7788
▁본문	-10.7789
성과	-10.7789
▁창간	-10.7792
▁서가모니불	-10.7796
▁합일	-10.78
▁소자	-10.78
▁악이	-10.78
하도다	-10.7804
▁생각에	-10.7805
▁되시	-10.7809
쳐서	-10.7818
▁편안하	-10.7819
▁흔적이	-10.782
▁이르고	-10.7826
▁면목	-10.7828
▁살리는	-10.783
력과	-10.7831
▁평범	-10.7839
▁통달	-10.784
▁수양과	-10.7843
▁보며	-10.7848
▁얻으	-10.7851
▁매입	-10.7853
함이라	-10.7853
足	-10.7856
▁주세불이	-10.7858
▁대덕	-10.7859
報恩	-10.7859
▁기간으로	-10.7861
▁그름	-10.7872
지지	-10.7875
▁보나	-10.7878
▁회규	-10.7879
▁도요	-10.7884
기와	-10.7894
서운	-10.7896
▁분들이	-10.7898
종법사	-10.7898
▁유전	-10.7899
겨	-10.79
▁보호하여	-10.7902
▁유혹	-10.7903
▁생활화	-10.7904
供養	-10.7905
▁문로	-10.7911
▁처자	-10.7914
▁원만하	-10.7917
寂	-10.7917
▁성공이	-10.7918
드는	-10.7924
▁표기	-10.7924
하리오	-10.7926
더	-10.7927
64.	-10.7928
般若	-10.7933
▁화하는	-10.7933
▁통달하	-10.7938
▁모색	-10.7941
▁조직하	-10.7943
▁잘못이	-10.795
오면	-10.7951
▁기한	-10.7957
교화	-10.7959
▁떨어	-10.7965
▁업이	-10.7973
상시	-10.7974
▁국내	-10.7976
니다	-10.7976
▁산중	-10.7987
멸	-10.799
▁사람만	-10.7991
▁끝나	-10.7999
▁동리	-10.7999
▁도인이라	-10.8001
▁보시하	-10.8001
▁주의심	-10.8005
▁발행	-10.8005
▁14	-10.8007
如	-10.8012
▁작	-10.8012
12	-10.8017
▁어디로	-10.802
암	-10.8026
어떻게	-10.8027
시는	-10.8031
▁타락하	-10.8031
극하면	-10.8032
▁겁래	-10.8033
事業	-10.8047
수보리	-10.8052
▁자부	-10.8052
持	-10.8053
▁장자	-10.8056
사옵고	-10.8057
往	-10.8062
▁흘러	-10.8062
▁낱	-10.8066
阿羅漢	-10.8066
▁아침에	-10.8066
▁물어	-10.8068
1943	-10.8071
▁않음	-10.8072
離	-10.8073
맥	-10.8077
층	-10.8077
▁권속이	-10.8077
▁위에서	-10.8083
르지	-10.8083
총부	-10.8087
運	-10.8101
▁차리	-10.8103
方便	-10.8103
▁하나에	-10.8104
宿	-10.8105
總	-10.8106
▁계합	-10.8107
신앙	-10.8107
▁살기	-10.8115
교전	-10.8116
교구	-10.8118
▁우주에	-10.812
하려고	-10.8123
되겠는가	-10.8127
▁봉	-10.8131
到	-10.8133
▁벌이	-10.8134
출가	-10.8136
▁심사	-10.8136
▁훈습	-10.8138
씨	-10.8146
영모전	-10.8149
彼	-10.8151
▁수양에	-10.8151
▁아상	-10.8154
영가시여	-10.8157
▁개과	-10.8161
▁정녀	-10.8164
출가위	-10.8164
회규	-10.8172
▁후생	-10.8175
▁축	-10.8178
념	-10.8184
▁공개	-10.8191
▁재계	-10.8192
▁위함이	-10.8193
침과	-10.8196
동란	-10.8197
▁대중적	-10.8198
▁물으시니	-10.8206
▁구하기	-10.8207
不信	-10.8215
形	-10.8221
▁없기	-10.8224
생사	-10.8231
▁去	-10.8234
하오면	-10.8243
▁조촐	-10.8247
▁용이	-10.8257
▁주인공	-10.8266
▁공부니	-10.8269
▁사회에서	-10.8271
물과	-10.8272
不見	-10.8272
▁지낼	-10.8272
▁依	-10.8275
▁어리	-10.8276
▁보관	-10.8276
逆	-10.8278
▁열고	-10.828
보은	-10.8286
▁주요	-10.8287
▁43	-10.8289
목	-10.829
▁때문이니	-10.8291
▁취사하	-10.8292
▁부족함	-10.8299
▁개조	-10.8303
▁是爲	-10.8319
▁대전	-10.832
▁긴요	-10.8323
▁법기	-10.8324
▁즐기는	-10.8327
▁나타나나니	-10.8328
▁날에	-10.8333
▁사생을	-10.8343
어떠	-10.8344
하자	-10.8351
▁心生	-10.8351
주는	-10.8351
소리	-10.8352
▁이적	-10.8353
▁선원에	-10.836
▁정이	-10.8372
▁재산이	-10.8374
▁불리	-10.8387
▁동지간	-10.8389
사업	-10.8392
▁유의	-10.8396
시와	-10.8401
▁51	-10.8402
▁하심	-10.8402
▁예수	-10.8404
▁교단에서	-10.8413
었노라	-10.842
법계	-10.8423
심고	-10.8434
▁공변되	-10.8438
▁영화	-10.8442
▁밝음	-10.8446
시었으나	-10.8453
▁중생상	-10.846
▁안내	-10.8461
▁此	-10.8463
▁깨닫	-10.8468
▁새벽	-10.8472
치고	-10.8474
으려	-10.8475
▁아홉	-10.8484
▁교파	-10.8488
▁오나니	-10.8489
▁아라한	-10.849
▁구성	-10.8494
▁맞추	-10.8496
▁거울이	-10.8501
▁가라	-10.8501
수도인	-10.8503
▁생에	-10.8504
▁주장이	-10.851
▁난경	-10.851
▁29	-10.8511
▁응용하여	-10.8513
▁복종	-10.853
론	-10.8535
▁집착하	-10.8538
▁회장	-10.8541
▁괴롭	-10.8543
▁망녕	-10.8549
▁맞이	-10.855
▁준다	-10.8552
살	-10.8553
▁근실	-10.8553
▁명의	-10.8563
▁수도에	-10.8564
랑	-10.8567
▁막힘	-10.8571
▁생일	-10.8585
▁승급식	-10.8587
▁유상	-10.859
▁얻었	-10.8592
▁하자	-10.8593
▁37	-10.8597
우주	-10.8597
▁이상에	-10.861
▁겉	-10.861
▁넷	-10.8612
▁위치	-10.8617
▁방편으로	-10.8621
▁북돋	-10.8624
▁공식	-10.8625
▁개설	-10.8627
▁잊어버리	-10.863
▁조감하	-10.863
칙	-10.8639
▁깨우쳐	-10.8643
▁기다려	-10.8645
지이다	-10.8646
▁만덕산	-10.8649
▁내리는	-10.8649
▁커	-10.8653
▁교정원	-10.8654
▁교우	-10.8656
▁따르지	-10.8656
룡	-10.8657
▁어긋나	-10.8662
慈	-10.8663
志	-10.8664
回	-10.8665
存	-10.8665
▁위대	-10.8665
條	-10.8665
微	-10.8665
思	-10.8665
葬	-10.8665
陽	-10.8665
木	-10.8665
s	-10.8666
玉	-10.8666
N	-10.8666
o	-10.8666
工	-10.8666
臨	-10.8666
藥	-10.8666
黙	-10.8666
▁숯	-10.8666
▁뺏	-10.8666
一合相	-10.8666
壞	-10.8666
李共珠	-10.8666
發靷式	-10.8666
綱	-10.8666
西	-10.8666
香	-10.8666
▁南無三界大師四生慈父	-10.8666
▁끓	-10.8666
▁딸	-10.8666
▁무릅쓰고	-10.8666
▁바깥	-10.8666
▁부딪	-10.8666
▁쓴	-10.8666
了	-10.8666
圖	-10.8666
痴	-10.8666
完	-10.8666
忿	-10.8666
農	-10.8666
▁영육쌍전	-10.8666
堂	-10.8666
慶	-10.8666
懷	-10.8666
殿	-10.8666
金大擧	-10.8666
▁甚多	-10.8666
旬	-10.8666
洞	-10.8666
▁탐진치	-10.8666
牛	-10.8666
▁연등불	-10.8666
朴光田	-10.8666
▁억압	-10.8666
▁재방언	-10.8666
▁우러러	-10.8666
▁감싸	-10.8666
▁봉독	-10.8666
▁낭비	-10.8666
休	-10.8667
▁최령	-10.8667
▁허례	-10.8667
▁금액	-10.8667
▁수다원	-10.8667
▁봉청	-10.8667
▁몇몇	-10.8668
▁봉건	-10.8668
會上	-10.8669
▁당초	-10.8669
▁며칠	-10.867
人間	-10.867
坐禪	-10.867
己未	-10.867
▁관청	-10.867
▁주최	-10.867
▁인륜	-10.867
▁가리키	-10.8671
▁부여	-10.8671
▁있으리오	-10.8671
▁싶나이다	-10.8672
邪道	-10.8672
▁밀어	-10.8673
▁멈추	-10.8674
▁모르거나	-10.8674
▁본관	-10.8675
▁낳아	-10.8676
▁본체	-10.8676
▁인욕	-10.8676
▁비루	-10.8677
▁삼창	-10.8678
▁봉래산에서	-10.8678
▁아니한지라	-10.8678
▁무루	-10.8678
▁두렵	-10.8679
▁없사오니	-10.8679
▁조복	-10.868
▁상봉	-10.8681
▁대봉공인	-10.8682
▁면하	-10.8684
▁신망	-10.8684
▁본연	-10.8685
▁원동력이	-10.8685
이리요	-10.8685
▁연락	-10.8688
▁귀절	-10.8688
▁커서	-10.8688
▁단련하	-10.8689
▁제거	-10.8689
▁무량세계	-10.869
▁다르나니	-10.8692
▁축생	-10.8693
▁밑에서	-10.8695
▁창립단	-10.8696
배하며	-10.8697
▁결혼식	-10.8698
▁이때	-10.8699
▁올린	-10.8699
▁요란하지	-10.8701
▁십계	-10.8702
▁신축	-10.8703
▁고요하	-10.8704
▁전신	-10.8704
.[3]	-10.8706
▁도중	-10.8707
▁통달하여	-10.8707
▁중간	-10.8707
▁비난	-10.8708
▁닫	-10.8711
하거든	-10.8712
▁여부	-10.8714
착한	-10.8716
▁공자께서	-10.8717
▁쌓아야	-10.8719
▁격	-10.872
▁둘러	-10.8721
시켰다	-10.8721
▁소개소	-10.8721
▁어디서	-10.8723
▁방향으로	-10.8723
▁현묘	-10.8723
▁신중	-10.8723
▁육체	-10.8724
▁벽조	-10.8724
▁원광대학	-10.8724
▁언론	-10.8724
▁타자녀	-10.8724
▁있음이	-10.8724
▁떨어진	-10.8724
▁내세에	-10.8725
▁알음알이	-10.8727
▁맡기고	-10.8728
▁법인절	-10.873
▁살면서	-10.873
▁기색	-10.8731
▁근기요	-10.8731
▁종래	-10.8732
▁신구	-10.8732
▁넘어서	-10.8733
▁入	-10.8733
▁62.	-10.8734
▁삼강령	-10.8735
▁죄악	-10.8735
▁종종	-10.8735
▁묘위	-10.8739
▁누구에게	-10.874
▁즐거움	-10.8741
▁무엇인가	-10.8741
不可	-10.8743
▁영령	-10.8744
▁배우며	-10.8748
▁말아서	-10.8748
능	-10.8751
▁포수	-10.8753
▁가려	-10.8756
▁통한	-10.8759
▁이외에	-10.8763
▁까닭이라	-10.8763
▁되려	-10.8763
▁합한	-10.8763
▁되든지	-10.8766
됨으로써	-10.877
▁껍질	-10.8772
묘	-10.8773
▁빌고	-10.8774
▁당하였	-10.8775
▁없어지지	-10.8776
▁전무	-10.8779
▁탈복	-10.878
▁결심	-10.8783
▁공명	-10.8785
▁아우	-10.8785
善知識	-10.8787
▁원망하지	-10.8789
▁시방세계	-10.879
▁정하시고	-10.879
▁익히	-10.8791
▁삼례	-10.8791
▁음양	-10.8793
▁사리연구	-10.8795
▁63.	-10.8796
▁틀	-10.8796
▁하셨으니	-10.8797
▁내거나	-10.8798
받는	-10.8801
具	-10.8802
▁가나니	-10.8806
▁도산	-10.8808
▁세상으로	-10.8809
▁의식에	-10.8811
▁적절	-10.882
▁조직하여	-10.8821
강령은	-10.8825
▁원광사	-10.8827
▁혜택	-10.8832
탈	-10.8833
▁밖이	-10.8836
▁받으면	-10.8838
▁주고받	-10.8839
▁공경심	-10.8843
▁사뢰니	-10.8843
▁자라고	-10.8846
▁세계주의	-10.8847
▁생기고	-10.8852
▁양로원	-10.8856
▁나무와	-10.8858
▁들었다	-10.8858
▁칠	-10.8858
▁저축조합	-10.8858
▁힘입어	-10.8859
▁종합	-10.8859
▁찬송가	-10.8862
▁희사위	-10.8862
▁범과	-10.8864
法界	-10.8869
▁4.5	-10.8876
▁유사	-10.888
▁의제	-10.8881
▁경어	-10.8882
▁법률과	-10.8883
▁얻으면	-10.8884
▁皆	-10.8887
삼	-10.8892
▁필	-10.8898
아제	-10.89
되면	-10.89
▁올라가	-10.8903
▁공전	-10.8906
16	-10.8908
▁말씀이요	-10.8912
▁경지에	-10.8914
▁명랑	-10.8915
▁것같이	-10.8915
▁예로	-10.8916
▁원망하	-10.8918
▁퇴임	-10.8921
▁보통급	-10.8925
▁입각	-10.8927
▁부안	-10.8928
▁대성	-10.8929
▁발휘하	-10.8933
▁촉진	-10.8938
것이	-10.8944
▁내놓으	-10.8944
못하겠나이다	-10.8948
려고	-10.8954
▁두마음	-10.8957
▁친절한	-10.8959
▁근래에	-10.8961
대학	-10.8962
▁정정	-10.8966
▁일관하	-10.8968
▁환경에	-10.8968
▁밖에도	-10.8969
▁산에	-10.8971
▁짐작하	-10.8974
▁경영하	-10.8975
▁하시더니	-10.8976
▁한즉	-10.8979
▁세존이	-10.8982
하시나	-10.8984
▁종전	-10.8985
▁천어	-10.8985
尊	-10.899
▁청년회	-10.8993
▁나와서	-10.8995
▁풀리	-10.8996
▁준비하고	-10.8996
▁돌아와	-10.8999
▁선과	-10.9001
부의	-10.9002
▁하다	-10.9014
▁고하시	-10.9019
▁진경에	-10.9022
현하	-10.9022
▁양면	-10.9023
▁숭배하	-10.9025
▁복문	-10.9028
▁김제	-10.9028
▁예배	-10.9033
▁도의	-10.9034
如如	-10.9039
▁만나고	-10.9042
▁대과	-10.9044
▁호념	-10.9051
▁왕래	-10.9052
▁보되	-10.9062
등은	-10.9063
▁많을	-10.9074
▁간음	-10.9079
歸	-10.9083
▁대법	-10.9084
▁신봉하	-10.9091
▁45	-10.9101
▁부근	-10.9105
▁않았	-10.9117
을지라도	-10.9125
佛事	-10.9127
▁돌아오고	-10.9127
대중	-10.9129
▁겨	-10.9141
▁버림	-10.9144
▁치료하	-10.9147
▁회상에서	-10.9149
▁기억	-10.9154
▁차지하	-10.9162
四恩	-10.9174
▁법요	-10.9177
▁일천	-10.9181
▁구내에	-10.9182
▁않아	-10.9185
▁양계	-10.9188
▁경치	-10.9201
▁주의하여	-10.9203
▁이르게	-10.9204
▁응하	-10.9207
▁회의	-10.9207
▁써야	-10.921
일반적으로	-10.921
▁장수	-10.9211
▁장만하	-10.9213
▁척	-10.9214
(1919	-10.9216
어질	-10.9217
▁전기	-10.9225
▁도라	-10.923
▁교화단	-10.9231
▁경전들	-10.9234
▁당신	-10.9234
生歡喜	-10.924
立	-10.9245
e	-10.9249
▁전정	-10.925
▁사람이라고	-10.9255
▁방식	-10.926
率性	-10.9264
로는	-10.9265
▁색에	-10.927
오는	-10.9271
▁그치	-10.9277
법률	-10.928
정신	-10.9284
▁유정	-10.9285
인으로	-10.9289
▁안일	-10.9291
▁칭찬	-10.9297
▁삼는	-10.9303
▁국토에	-10.9304
▁則	-10.9305
▁우로	-10.9305
▁보신	-10.9309
▁잊어	-10.931
워서	-10.9311
祖	-10.9314
타	-10.932
수가	-10.9322
▁아나니	-10.9329
▁현재에	-10.933
▁따름이	-10.9332
三界	-10.9335
▁방법에	-10.9335
보살	-10.9336
▁고난	-10.9337
▁월명암에	-10.9338
▁봉불식	-10.9341
▁활	-10.9341
결한	-10.9345
혼	-10.9346
트	-10.9349
▁충의	-10.935
千	-10.9351
▁젊은	-10.9355
이지마는	-10.9356
▁형성	-10.9357
▁외면	-10.9366
자연	-10.9376
▁모로	-10.9376
▁터전	-10.9379
▁목적이	-10.9391
▁신설	-10.9391
▁합치	-10.9397
야만	-10.9398
었다가	-10.9399
正法	-10.9403
▁공부하여	-10.9407
▁종교인이	-10.9414
▁잡는	-10.943
▁행함	-10.9434
▁사명	-10.9435
라면	-10.9442
▁서원이	-10.9442
可	-10.9443
▁설하여	-10.9446
돌아	-10.9454
▁번역	-10.9455
▁추모하	-10.9455
정하여	-10.9459
▁건물	-10.9459
▁창시	-10.9461
▁임기	-10.9462
▁선의	-10.9463
▁정심	-10.9466
▁마지막	-10.9472
66.	-10.948
▁후회	-10.948
母	-10.9482
▁이래	-10.9482
공사	-10.9483
▁건설되	-10.9483
그러하옵니다	-10.9487
▁그래	-10.9496
어리석	-10.9497
▁실천하여	-10.9499
▁因	-10.9504
達	-10.9504
忘	-10.9511
罪	-10.9513
獻	-10.9515
慢	-10.9522
▁白	-10.9526
준	-10.9526
▁늦	-10.9527
▁교구	-10.9531
희	-10.9531
忍	-10.9537
告	-10.9539
▁주세불	-10.9552
▁구내	-10.9552
影	-10.9554
막	-10.9555
▁불국	-10.9555
廣	-10.9557
▁이루어지는	-10.9561
▁존장	-10.9564
▁바로잡	-10.9566
▁정치를	-10.9567
▁인간락	-10.9567
釋	-10.9578
▁경전은	-10.9581
▁길이라	-10.9584
▁함으로써	-10.9587
▁달성	-10.9588
▁편입	-10.959
회화	-10.959
골	-10.959
▁불평	-10.9591
커	-10.9592
만유	-10.9597
妄	-10.9599
▁순환하	-10.9599
조선	-10.9602
▁사참	-10.9603
▁착용	-10.9607
▁솥	-10.9613
▁감이	-10.9614
▁뒷날	-10.962
성명	-10.962
▁내놓	-10.9624
서울	-10.9624
猶	-10.9628
괴	-10.9629
▁명심	-10.9631
동지	-10.9637
▁의사	-10.964
▁조건이	-10.9643
짓	-10.9654
想	-10.9654
데에	-10.9656
▁신도	-10.9657
원의	-10.9668
法門	-10.9696
▁발생	-10.97
▁녹아	-10.9712
▁우리들	-10.9713
▁게양	-10.9713
▁한가	-10.9713
▁없으	-10.9714
▁오게	-10.9725
友	-10.9728
단에	-10.9729
▁유명	-10.9729
▁應	-10.9745
업은	-10.9754
도와	-10.9758
▁초월하	-10.9762
▁놀	-10.9765
▁지리	-10.9768
▁채택	-10.9768
▁판단하	-10.977
▁본사	-10.977
▁오늘에	-10.977
▁가야	-10.9771
▁단체로	-10.9774
▁개인에	-10.9777
徐	-10.978
結	-10.978
▁修	-10.9781
邊	-10.9798
▁가뭄	-10.9799
하시	-10.9803
▁운전하는	-10.9804
라리	-10.9805
▁기도에	-10.9805
정치	-10.9809
되어야	-10.9815
▁자리이타로	-10.9816
▁전력	-10.9818
▁판	-10.9824
▁비치는	-10.9826
▁은혜에	-10.9829
▁티끌이	-10.9837
▁마음이니	-10.9837
▁교사	-10.9838
▁분이	-10.9841
▁고하	-10.9846
界	-10.9846
잘	-10.9847
1)	-10.9847
하더라도	-10.9852
▁쓰이	-10.9855
위로	-10.9859
할지니	-10.9861
▁제창	-10.9864
▁경사	-10.9868
결	-10.9869
▁종교계	-10.987
▁행함이	-10.9874
▁영모전에	-10.988
▁증득	-10.9882
물이	-10.9887
▁이끌	-10.9899
▁파괴	-10.99
阿耨多羅三藐三菩提	-10.9903
▁치우	-10.9909
▁사상이	-10.9911
국가에	-10.9914
년도	-10.9915
經典	-10.9919
一心	-10.9919
雖	-10.9919
▁어두워지	-10.9927
▁봄이	-10.9938
里	-10.9942
운동	-10.9943
▁파견	-10.9943
▁가르치기	-10.995
▁모습	-10.9964
悉	-10.997
▁태양이	-10.9974
▁부친	-10.9975
▁모친	-10.9978
▁찾기	-10.9979
▁여섯	-10.9981
▁방탕	-10.9988
惡道	-10.999
▁객	-10.9993
했	-10.9994
耳	-10.9996
▁쇠약	-11.0001
▁천인	-11.0008
▁참아	-11.0013
▁삼독	-11.0015
▁동력	-11.0021
▁다리	-11.0025
喜	-11.0027
▁병이니	-11.0028
衆	-11.0033
▁봉찬	-11.0037
▁지체	-11.0039
▁충만	-11.0045
▁단결로	-11.0048
▁도무	-11.0052
▁멀어지	-11.0058
▁갖추기	-11.0062
▁음식으로	-11.0062
▁53	-11.0066
▁교의회	-11.0067
▁조물주	-11.0067
▁태도로	-11.0067
▁닦으	-11.0071
▁동남풍	-11.0072
▁통례	-11.0073
▁물에	-11.0073
▁채우	-11.0078
춰	-11.0083
▁대자	-11.0084
賢	-11.0085
랄	-11.0087
▁시체	-11.0087
부처님의	-11.0088
育	-11.0091
執	-11.0091
像	-11.0092
胎	-11.0093
▁숭	-11.0093
辭	-11.0094
n	-11.0094
戰	-11.0094
雨	-11.0094
曲	-11.0094
血	-11.0094
癡	-11.0094
細	-11.0094
劣	-11.0094
息	-11.0094
峰	-11.0094
太	-11.0094
亂	-11.0094
誦	-11.0094
諦	-11.0094
x	-11.0094
擧	-11.0094
仙	-11.0094
博	-11.0094
建	-11.0094
示	-11.0094
三千大千世界	-11.0094
原	-11.0094
麽	-11.0094
▁낫	-11.0094
▁닿	-11.0094
▁바뀌	-11.0094
▁슬픔	-11.0094
▁자칫	-11.0094
▁즈음	-11.0094
▁충효열	-11.0094
▁탓	-11.0094
基	-11.0094
壁	-11.0094
致	-11.0094
靈肉雙全	-11.0094
齊	-11.0094
흰	-11.0094
▁머슴	-11.0094
▁뱀	-11.0094
▁성주괴공	-11.0094
商	-11.0094
城	-11.0094
全飮光	-11.0094
吉	-11.0094
拜	-11.0094
散	-11.0094
江	-11.0094
燒	-11.0094
社	-11.0094
遊	-11.0094
開闢	-11.0094
朴將植	-11.0094
紀念	-11.0094
隨相門定慧	-11.0094
▁奉請	-11.0094
返照	-11.0095
▁願諸	-11.0095
▁목숨	-11.0095
정산종사법어	-11.0095
▁이소성대	-11.0095
▁탑묘	-11.0095
▁방언공사	-11.0095
▁일대겁	-11.0095
尊長	-11.0095
▁불쾌	-11.0095
▁보살펴	-11.0095
▁신정절	-11.0095
▁아껴	-11.0096
▁작농	-11.0096
▁묵묵	-11.0096
作用	-11.0096
▁대부분	-11.0096
▁고삐	-11.0097
▁투쟁	-11.0097
▁있어지나니	-11.0097
▁6.25	-11.0097
▁성숙	-11.0097
▁깨칠	-11.0097
▁궁금	-11.0097
正典	-11.0098
▁속박	-11.0098
부와	-11.0098
▁계시더니	-11.0098
定力	-11.0098
▁주객	-11.0099
▁번잡	-11.0099
▁반갑	-11.0099
▁망극	-11.01
無私	-11.01
▁이르렀다	-11.0101
▁추호	-11.0102
▁不爲	-11.0102
敎化	-11.0102
▁달라	-11.0102
▁틀림	-11.0103
▁내빈	-11.0103
▁규모	-11.0103
▁대액	-11.0103
▁한민족	-11.0104
이니꼬	-11.0104
▁결정보	-11.0104
▁없으리요	-11.0104
▁대단	-11.0105
▁복혜	-11.0106
大義	-11.0106
▁글귀	-11.0106
었는데	-11.0106
▁공동체	-11.0107
▁총독부	-11.0107
▁신종법사	-11.0107
▁비결	-11.0107
▁숨어	-11.0108
▁고축	-11.0108
▁않겠는가	-11.0109
▁달마	-11.0109
▁기념문	-11.011
▁초당	-11.011
▁내정정	-11.0111
▁예감	-11.0111
▁따름이요	-11.0111
▁아나함	-11.0111
▁세우시고	-11.0113
▁되었는가	-11.0113
▁체득하여	-11.0114
▁사다함	-11.0114
▁있사오니	-11.0115
▁극진	-11.0116
▁된지라	-11.0116
▁천성이	-11.0118
▁구하므로	-11.0121
▁인도에	-11.0121
▁부연	-11.0121
▁실현하기	-11.0121
▁도량이	-11.0121
▁권능	-11.0122
▁되었는데	-11.0123
▁못하리니	-11.0123
▁피우	-11.0123
▁대례	-11.0124
▁좌산	-11.0125
▁생략	-11.0127
▁앎이	-11.0127
▁있었으며	-11.0127
▁공심이	-11.0127
▁성격	-11.0129
▁요란함	-11.013
▁있었사오	-11.013
▁괴롭게	-11.0131
▁음부	-11.0133
▁정신행	-11.0134
▁불생	-11.0134
▁편으로는	-11.0135
▁법회에	-11.0135
▁여실	-11.0137
微塵衆	-11.0137
움이	-11.0137
▁허망하게	-11.0137
人道	-11.0138
▁봉대	-11.0138
▁기도는	-11.0138
▁좋으니	-11.0138
▁본원이요	-11.0141
▁함양	-11.0142
▁위태한	-11.0143
부처님에게	-11.0146
▁완성	-11.0147
▁인보	-11.0148
▁학	-11.015
智慧	-11.015
邪見	-11.015
▁빙	-11.0151
▁받으려	-11.0152
▁많아서	-11.0154
▁빚이	-11.0155
▁소멸	-11.0155
▁신령	-11.0157
▁생장	-11.0158
▁친족	-11.016
▁선연	-11.016
▁지극하면	-11.016
▁운명	-11.0161
▁유일학림	-11.0163
▁후천개벽	-11.0163
▁尊者曰	-11.0163
▁하려는	-11.0163
▁불편	-11.0163
부장	-11.0164
▁배경	-11.0165
▁그러하오나	-11.0165
▁우주만유	-11.0167
▁되려니와	-11.0168
▁야회	-11.0168
▁성스러운	-11.0168
一切法	-11.0169
▁진급기에	-11.0169
▁모르나	-11.0171
佛祖	-11.0171
▁원진	-11.0173
▁공손	-11.0174
▁若人	-11.0175
▁용서하고	-11.0175
▁겨울	-11.0176
▁줌이	-11.0176
▁군자	-11.0176
▁작게	-11.0178
▁여기는	-11.0178
▁목동	-11.0178
▁해제식	-11.0179
▁십년	-11.0181
▁못하다가	-11.0181
▁마나니라	-11.0182
▁귀일	-11.0182
▁치심	-11.0184
▁지역에	-11.0185
▁입법	-11.0188
이라하시니	-11.0188
▁후계	-11.0192
▁然	-11.0192
▁활불	-11.0193
▁전법	-11.0193
▁주장하여	-11.0195
▁구경	-11.0196
▁유로	-11.0197
▁돈공	-11.02
▁자지	-11.0203
▁영문	-11.0206
▁불고	-11.0208
▁정의는	-11.0209
▁외우	-11.0209
▁부산	-11.0212
▁외화	-11.0212
▁얻도록	-11.0213
▁설교	-11.0217
▁동물	-11.0217
▁구비하여	-11.0221
▁것처럼	-11.0225
▁백수	-11.0226
▁흐르고	-11.0226
對治	-11.0231
▁바퀴	-11.0231
▁我今	-11.0232
▁허식	-11.0232
▁대접	-11.0234
▁청춘	-11.0234
▁우편	-11.0234
▁솟고	-11.0234
▁말함이요	-11.0236
수도	-11.0237
正氣	-11.0237
원장	-11.0237
▁십이인연	-11.0238
▁내역과	-11.0239
▁飯	-11.0241
▁슬퍼하	-11.0241
▁될꼬	-11.0244
문이	-11.0246
▁떨어지고	-11.0247
▁따르고	-11.0247
▁입교한	-11.0249
▁없애고	-11.025
▁없으시	-11.025
▁타인	-11.0251
▁국방	-11.0251
▁종일	-11.0252
▁진리적	-11.0256
▁요인	-11.0257
▁금수	-11.0257
져야	-11.0258
▁서울에서	-11.0263
▁교단에	-11.0266
▁자신에게	-11.0267
▁위원	-11.0269
▁보람	-11.0271
65.	-11.0272
▁이르기를	-11.0272
▁거두	-11.0274
▁머물지	-11.0282
▁훈	-11.0283
▁월간	-11.0284
▁법연이	-11.0284
▁念念	-11.0284
천지에	-11.0285
▁영혼이	-11.0287
시나니라	-11.0289
▁표본이	-11.0292
가에서	-11.0293
▁各	-11.0297
▁간사	-11.0299
修養	-11.03
▁것이로다	-11.03
▁바위	-11.0308
스승이	-11.0308
▁중근기	-11.0308
▁장단	-11.0312
▁무시하	-11.0313
1891	-11.0315
▁기준	-11.0317
▁참회문	-11.032
▁각성하여	-11.032
▁묵상	-11.0321
▁출가하여	-11.0321
▁돌아가고	-11.0322
▁자손이	-11.0323
▁대명	-11.0325
▁찾아와	-11.0328
▁삼보	-11.0332
▁요지는	-11.0333
▁호주	-11.0336
▁변동이	-11.0337
그러	-11.0338
▁넓히	-11.0346
▁하지마는	-11.0348
▁갖게	-11.0349
微塵	-11.0351
▁취지	-11.0351
▁여러분은	-11.0351
▁마음이니라	-11.0352
▁이룬다	-11.0353
▁세우자	-11.0357
▁힘쓰면	-11.036
▁심력	-11.0361
▁쌓고	-11.0362
▁도와주	-11.0366
승한	-11.037
▁낼	-11.037
▁사대	-11.0379
▁만덕	-11.0381
▁자리이타	-11.0381
▁강연	-11.0383
▁행하며	-11.0384
▁주의나	-11.0384
▁등록	-11.0387
▁배우기	-11.0389
이던	-11.0389
▁검사	-11.039
▁유아	-11.0392
증이	-11.0394
▁변화시키	-11.0397
▁순응하	-11.0403
▁공자님	-11.0406
▁경제적	-11.0409
▁새벽에	-11.0411
▁초창기에	-11.0412
형제	-11.0413
해지고	-11.0415
▁억	-11.0423
▁없었나니	-11.0429
했으	-11.0431
▁분명하	-11.0433
▁건지	-11.0434
▁기운만	-11.0437
(1941	-11.0444
이시요	-11.0444
취할	-11.0445
▁이참	-11.045
▁의문	-11.046
打	-11.0464
▁인가를	-11.0471
▁무애	-11.0475
하였건마는	-11.0479
(1943	-11.048
▁퇴치	-11.048
하셨	-11.0481
련	-11.0482
▁윤기	-11.0484
▁행하라	-11.0485
인들에게	-11.0486
어지고	-11.0492
인화	-11.0501
▁승리	-11.051
▁신앙에	-11.0512
년만	-11.0516
▁공포	-11.0517
▁모이	-11.0517
하오나	-11.0525
▁기뻐	-11.0527
▁일어나고	-11.0529
▁동지는	-11.0531
▁교도들	-11.0532
▁정법이	-11.0532
▁통지	-11.0537
▁보아야	-11.0539
분간	-11.0539
▁이론	-11.0544
▁본받	-11.0544
▁가졌다	-11.0551
▁성가	-11.0553
천만	-11.0555
▁이로써	-11.0555
無心	-11.0557
▁起於	-11.0558
▁而此	-11.0566
▁어떠	-11.0567
정의	-11.057
자들이	-11.0572
般若波羅蜜	-11.0573
▁공덕으로	-11.0573
生死	-11.0583
▁불퇴전	-11.0587
▁않으시	-11.0587
▁기지	-11.0597
종사	-11.0606
▁십이	-11.0606
▁배출하	-11.0612
▁병상에	-11.0616
▁드러내는	-11.0621
▁유가	-11.0631
▁선이	-11.0635
▁수수	-11.0647
하였음이요	-11.0649
▁싸움	-11.0649
▁이르러서	-11.0649
無不	-11.065
▁옥	-11.0651
▁자유자재	-11.0652
▁애호	-11.0655
▁보답	-11.066
▁설하	-11.067
▁상속	-11.0671
▁不知	-11.0673
▁청렴	-11.0674
계에서	-11.0675
▁물질이	-11.0676
▁듯하나	-11.068
▁佛說	-11.068
▁이번에	-11.0686
▁가감	-11.0686
▁농사에	-11.0692
▁이름하나	-11.0694
▁배출되	-11.0701
났다	-11.0704
했던	-11.0713
▁필요하나니	-11.0714
▁등지	-11.0716
▁교육이	-11.0724
▁마지	-11.0729
▁자성문	-11.073
▁열반하시	-11.0731
회가	-11.0731
▁법률은	-11.0736
▁아래에	-11.0746
▁전심	-11.0748
▁復	-11.0757
려서	-11.0757
출	-11.0759
▁마음이라	-11.0759
▁부수	-11.076
▁진수	-11.0761
▁여한	-11.0766
▁불경	-11.0772
가고	-11.0781
▁신앙이	-11.0782
▁건설하	-11.0786
▁마음만	-11.0794
▁화하여	-11.0795
▁겸양	-11.0801
▁귀한	-11.0801
사로	-11.0803
▁환자	-11.0804
▁자체	-11.0806
▁좋아지	-11.0807
▁물질로	-11.0808
▁수천	-11.0829
옥	-11.083
▁자산	-11.0834
백여	-11.0835
악	-11.0835
▁총부에서	-11.084
행하여야	-11.0846
민	-11.0846
▁구애	-11.0849
▁약혼	-11.0851
▁도덕으로	-11.0852
▁중음	-11.0854
다든지	-11.0854
▁배양	-11.0858
▁담화	-11.086
▁전과	-11.0874
명으로	-11.0876
▁건립	-11.0876
▁일신	-11.0882
▁증명	-11.0898
▁삼나니	-11.0901
▁조종	-11.0901
▁말이나	-11.0907
▁정수	-11.091
▁이십	-11.0914
▁성사	-11.0925
하시는	-11.0939
▁육신에	-11.0939
▁귀가	-11.094
▁지게	-11.0941
이어니와	-11.0948
훈	-11.0951
되게	-11.0952
26	-11.0953
▁위함	-11.0956
▁實	-11.0958
▁법상	-11.0961
▁하나만	-11.0965
응	-11.0966
▁남도	-11.0966
▁隨	-11.0967
▁회향	-11.0973
▁활동하	-11.0973
안에	-11.099
▁일여	-11.0993
빈	-11.1001
▁무시	-11.1002
▁불교도	-11.1003
누	-11.1003
▁싫어	-11.1006
접	-11.1014
▁사리에	-11.1019
▁분발	-11.1019
▁두려워	-11.1022
百	-11.1024
務	-11.1027
(1961	-11.1028
짐	-11.1039
▁수월	-11.1043
▁실행하	-11.1043
글	-11.1046
▁순환	-11.1048
▁永	-11.105
▁출현	-11.1053
▁유여하	-11.1054
▁사리간	-11.1055
▁도교	-11.1057
恒	-11.1061
겠다	-11.1072
건	-11.1073
대각	-11.1074
투	-11.1083
▁간부	-11.1085
▁주저하	-11.1088
▁의식이	-11.1091
▁요구	-11.1091
▁무별	-11.1093
습니까	-11.1093
남녀	-11.1096
末	-11.1106
▁두시	-11.1108
▁종교들	-11.1109
▁요건이	-11.112
▁기계	-11.1122
였는데	-11.1123
▁공연	-11.1124
▁돌이	-11.1125
보통	-11.1126
▁교복	-11.1135
회장	-11.1135
원은	-11.1138
凡	-11.1138
▁정화	-11.1141
단체	-11.1148
久	-11.115
공부니	-11.115
世尊	-11.1151
▁조심할	-11.1153
고락	-11.1153
▁옆에	-11.1154
▁매각	-11.1155
▁한탄	-11.1157
나지	-11.1157
少	-11.1159
불조요경	-11.1162
▁다를	-11.1162
양이	-11.1163
▁만인	-11.1163
▁덕이라	-11.1164
遠	-11.1168
▁돌파	-11.1177
頓	-11.1182
시더니	-11.1189
효	-11.1191
▁묻는	-11.1193
輕	-11.1193
▁화상	-11.1194
四生	-11.1195
▁자녀로	-11.1195
서지	-11.1197
▁이사	-11.1197
放	-11.1199
▁입지	-11.1201
▁공인	-11.1208
似	-11.1214
▁나가자	-11.1215
大宗師	-11.1217
▁수승	-11.1225
被	-11.1227
▁삼교	-11.1227
便	-11.1228
▁벗이	-11.1228
▁희미	-11.123
대범	-11.1231
落	-11.1235
법위	-11.1236
욕심	-11.1236
▁옷이	-11.1238
四大	-11.1238
復有	-11.1239
▁하매	-11.124
압	-11.1241
▁등한한	-11.1241
진급	-11.1244
영산	-11.1245
▁不能	-11.1251
▁천년	-11.1254
0	-11.1254
빈곤	-11.1256
강연	-11.1257
정기	-11.1258
무릇	-11.1263
질병	-11.1263
或	-11.1265
▁기념일	-11.1269
須	-11.1271
▁서고	-11.1278
其心	-11.1281
경제	-11.1282
▁조문	-11.1285
阿那含	-11.1285
육영	-11.1285
사장	-11.1286
▁가지지	-11.129
하심이	-11.1295
▁바다에	-11.1311
▁성취할	-11.1316
▁신기	-11.1318
▁협	-11.1326
폐	-11.1328
물질로	-11.133
▁보존	-11.1334
력으로	-11.1338
복이	-11.1339
탑	-11.1339
기관	-11.134
▁감상	-11.1352
▁교지	-11.1357
▁꺼	-11.1357
▁노력하여	-11.1359
▁말함이니	-11.136
▁비로	-11.136
▁한때	-11.1361
▁불고하	-11.1364
▁구인제자	-11.1364
▁병진하여	-11.1366
▁편만	-11.137
▁내실	-11.1377
▁진흥	-11.1378
하는데	-11.1384
▁무식	-11.1386
14	-11.1393
▁점에	-11.1397
▁허다	-11.1398
▁내심	-11.1402
▁시상	-11.141
▁북	-11.1412
▁저력	-11.1414
▁읽어	-11.1416
▁친우	-11.1421
하겠는가	-11.1424
진하여	-11.1426
▁보았	-11.1431
▁이뤄	-11.1431
▁불도	-11.144
들여	-11.1457
▁하시어	-11.1465
▁용서하	-11.1473
▁많나니	-11.1484
憂	-11.1485
었	-11.1491
▁춘	-11.1495
▁태극	-11.1496
▁인자	-11.1498
▁투철	-11.1506
▁사욕	-11.1514
▁한문	-11.1521
▁늙	-11.1521
법은	-11.1532
▁공장	-11.1532
▁일꾼	-11.154
昧	-11.1546
▁73	-11.1551
▁가례	-11.1561
사은	-11.1567
▁제법	-11.1569
無量	-11.157
▁지으	-11.1573
▁이해에	-11.1579
▁다스려	-11.1582
▁병은	-11.1589
▁일곱	-11.1598
▁금전	-11.1603
▁수도원	-11.1603
手	-11.1611
▁만생	-11.1611
須陀洹	-11.1612
▁등한	-11.1613
▁수행자	-11.1613
사상을	-11.1619
▁윗	-11.162
▁구현	-11.1626
▁너희	-11.1629
▁수위단회에서	-11.1632
▁내일	-11.164
▁듯하니	-11.1643
그것	-11.1644
▁꽃이	-11.1644
▁비쳐	-11.1649
▁완연	-11.165
▁집이	-11.1653
▁슬퍼	-11.166
▁선으로	-11.1664
답하되	-11.1665
▁젊	-11.167
람	-11.1677
륜	-11.1683
▁담박	-11.1684
자선	-11.1687
▁중요하	-11.1689
▁여기시	-11.169
67.	-11.1691
▁놓을	-11.1695
▁질투	-11.1704
▁깨달	-11.1705
▁펼	-11.1705
▁싸우	-11.1706
하루	-11.1711
▁희유	-11.1715
▁변산	-11.1718
였으나	-11.1723
▁적었음이	-11.1723
▁화장	-11.1726
▁실내에	-11.1728
고도	-11.1731
▁이루었다	-11.1734
失	-11.1735
곧	-11.174
▁요약	-11.1741
▁얼	-11.1743
▁얻으려	-11.1749
약한	-11.1753
입니까	-11.1753
▁칼	-11.1754
▁영전	-11.1755
닐	-11.1756
輪	-11.1757
器	-11.1758
士	-11.1758
勞	-11.1759
▁석가모니	-11.176
歲	-11.176
極	-11.176
財	-11.1761
魂	-11.1761
t	-11.1761
靑	-11.1761
松	-11.1761
怖	-11.1761
參	-11.1761
講	-11.1761
▁붕우	-11.1761
乎	-11.1761
鳴	-11.1761
點	-11.1761
亡	-11.1761
▁感生外	-11.1761
呼	-11.1761
哲	-11.1761
床	-11.1761
盛	-11.1761
級	-11.1761
▁너그럽	-11.1761
▁맨	-11.1761
▁사통오달	-11.1761
▁상견례	-11.1761
▁쉼	-11.1761
▁열반기념제	-11.1761
▁지수화풍	-11.1761
▁클	-11.1761
▁횃불	-11.1761
同源道理	-11.1761
味	-11.1761
堰	-11.1761
室	-11.1761
徹	-11.1761
民	-11.1761
煥	-11.1761
玄	-11.1761
的	-11.1761
낄	-11.1761
듦	-11.1761
렬	-11.1761
쉴	-11.1761
▁어지럽	-11.1761
交	-11.1761
惺惺	-11.1761
柔	-11.1761
歌	-11.1761
河	-11.1761
狀	-11.1761
計	-11.1761
集	-11.1761
伊麽	-11.1761
捲	-11.1761
費	-11.1761
▁동기연계	-11.1761
▁전라북도	-11.1761
拓	-11.1761
破	-11.1761
▁양하운	-11.1761
監	-11.1761
▁간석지	-11.1761
ter	-11.1761
動靜一如	-11.1761
▁넘나들고	-11.1761
▁見他得	-11.1761
▁기성조합	-11.1761
▁노릇	-11.1761
▁不如飯一	-11.1761
▁일제강점기	-11.1761
▁독점하	-11.1761
▁도솔천	-11.1761
濟衆	-11.1761
工夫	-11.1761
▁동척사업	-11.1761
宋奎	-11.1761
▁부끄러워	-11.1761
解脫	-11.1761
▁옹호	-11.1761
▁취침	-11.1762
血印	-11.1762
人分上	-11.1762
▁특신부	-11.1762
▁농토	-11.1762
靈識	-11.1762
李東	-11.1763
▁수용품	-11.1763
▁육영부	-11.1763
戊午	-11.1763
用布施	-11.1763
俱空	-11.1763
▁모름	-11.1763
▁밝아질	-11.1763
▁듣느냐	-11.1763
▁금욕	-11.1763
妄念	-11.1764
▁예시	-11.1764
▁명맥	-11.1764
▁사시화	-11.1764
▁무섭	-11.1764
▁알았으니	-11.1764
▁연결	-11.1764
▁성경신	-11.1764
▁변태	-11.1764
▁나팔	-11.1764
▁도탄	-11.1764
▁성냥	-11.1764
▁치재	-11.1765
▁깨달을	-11.1765
癸未	-11.1765
終齋	-11.1765
▁어떠하오리까	-11.1765
▁올리오니	-11.1765
▁떠난	-11.1765
▁요긴	-11.1766
▁간척사업	-11.1766
▁잊으시고	-11.1766
▁초재	-11.1767
▁其人	-11.1767
▁지었도다	-11.1767
▁해로움	-11.1768
▁만민	-11.1768
▁입태	-11.1768
▁넣어	-11.1768
▁병환	-11.1769
▁총재	-11.1769
▁봉축사	-11.1769
▁방울	-11.1769
▁근원이로다	-11.1769
▁초종	-11.1769
靈山	-11.1769
▁계통	-11.1769
▁뵈오니	-11.177
▁자주력	-11.177
▁복표	-11.1771
▁밑천	-11.1771
之力	-11.1771
▁역력	-11.1771
▁단단	-11.1771
▁될지니	-11.1772
▁배례	-11.1772
▁간판	-11.1772
▁비료	-11.1772
▁길이길이	-11.1772
▁반면에	-11.1772
▁방종	-11.1772
▁살아난	-11.1772
▁사귀게	-11.1772
▁접응할	-11.1773
▁끼니	-11.1773
淨信	-11.1774
▁나투	-11.1774
▁육진	-11.1774
▁취미	-11.1774
▁종통	-11.1775
▁거두어	-11.1775
▁실체	-11.1775
▁일원대도	-11.1776
▁것인데	-11.1776
▁인권	-11.1777
▁송경	-11.1778
▁총설	-11.1778
▁퇴전	-11.1779
마저	-11.1779
▁못하셨	-11.1779
▁바는	-11.1779
於此經	-11.1779
公道	-11.1779
▁못하였으나	-11.178
▁중추	-11.178
▁欲	-11.178
心身	-11.1781
▁입문	-11.1781
▁잃어버리	-11.1781
▁천직	-11.1781
▁있겠나이까	-11.1781
▁바쳐	-11.1782
(1959.	-11.1782
제를	-11.1782
▁부설	-11.1783
▁풍속에	-11.1784
▁주셨나니	-11.1784
▁전하였으나	-11.1784
▁무엇보다	-11.1784
▁절실	-11.1784
▁영송	-11.1784
▁폐회	-11.1784
▁영단	-11.1785
▁산모	-11.1785
▁총명	-11.1786
▁없으되	-11.1786
▁궤도	-11.1787
▁보림	-11.1787
▁밀려	-11.1788
▁연임	-11.1788
▁밝히시고	-11.1788
▁허리	-11.1789
▁있거니와	-11.1789
▁혜명	-11.179
▁일원세계	-11.179
▁다르며	-11.1791
40.	-11.1791
▁노승	-11.1792
▁이로움	-11.1793
▁앞장	-11.1793
▁올리며	-11.1794
▁맡겨	-11.1794
▁감명	-11.1795
▁출영	-11.1796
▁그러한다면	-11.1796
▁기성	-11.1796
▁원호	-11.1796
▁나태	-11.1797
▁대각전에서	-11.1799
▁전권	-11.18
▁증득하여	-11.18
▁세배	-11.18
▁부동심	-11.18
▁음덕	-11.1801
▁본성이	-11.1802
▁살피어	-11.1802
.[7]	-11.1803
▁위기에	-11.1803
▁시대화	-11.1804
▁마시고	-11.1805
▁장학회	-11.1805
▁물론이요	-11.1805
▁헌공금	-11.1807
▁되었사오니	-11.1808
▁방침	-11.1808
▁동선	-11.1808
▁만든	-11.1808
▁원경	-11.181
不可得	-11.1812
▁거느리	-11.1814
▁수족	-11.1816
▁부드러	-11.1817
.[3	-11.1818
▁아랫사람	-11.182
▁양양	-11.1821
▁추위	-11.1821
▁치사	-11.1821
▁이해하기	-11.1822
▁종교적	-11.1822
▁얻으며	-11.1823
▁참석하여	-11.1823
▁베풀어서	-11.1824
▁짐작	-11.1825
▁혜안	-11.1825
▁예산	-11.1827
▁교선	-11.1828
▁불가에서	-11.1828
▁증거라	-11.1829
▁미륵	-11.1829
▁결단	-11.1829
▁주셨으니	-11.1832
되기	-11.1832
▁접대	-11.1832
▁교의회에서	-11.1833
▁번수	-11.1834
▁타파	-11.1834
▁곤	-11.1834
▁전남	-11.1835
▁잊어버리지	-11.1837
하셨으나	-11.1838
▁아들	-11.1838
▁염	-11.1841
▁하근기	-11.1843
식에	-11.1843
▁부모전	-11.1843
▁사반야지	-11.1843
▁알겠	-11.1843
▁솟아나	-11.1843
▁외정정	-11.1844
▁밀	-11.1845
▁장소로	-11.1845
▁자루	-11.1846
▁냉수	-11.1847
▁옹기	-11.1847
▁소경	-11.1847
是經	-11.1847
▁세철	-11.1848
大衆	-11.1849
▁교육에	-11.185
▁後	-11.185
▁쓰되	-11.1851
▁경관	-11.1851
▁흙	-11.1852
▁밑에	-11.1853
▁억만	-11.1854
▁농원	-11.1855
되리라	-11.1858
▁형세	-11.1858
▁기연	-11.1859
▁영구	-11.186
▁드리며	-11.1861
▁회상임	-11.1862
▁순응	-11.1862
▁심불	-11.1865
▁직위	-11.1868
▁유무식	-11.1868
▁설계	-11.1869
▁색신이	-11.187
▁수명이	-11.187
▁그럴	-11.187
▁뻗어	-11.1873
▁기다	-11.1874
▁주시는	-11.1874
아무	-11.1875
▁놓으셨	-11.1877
▁기념제를	-11.1879
▁살다가	-11.1879
▁추대식	-11.1879
▁있거나	-11.1881
▁영근에	-11.1882
▁더위	-11.1882
▁조소	-11.1884
▁어둡고	-11.1884
▁상태	-11.1884
▁탄탄	-11.1885
▁추구	-11.1885
▁ᄋᄋ의	-11.1887
▁대답하시기를	-11.1889
▁주시와	-11.1889
▁신앙처	-11.189
▁허일	-11.1892
▁되리니	-11.1895
▁조사하여	-11.1897
▁하셨사오니	-11.1898
▁지으며	-11.1899
▁산하	-11.1901
▁보이시	-11.1905
▁없었고	-11.1913
▁운수	-11.1915
▁기침	-11.1917
▁삼대	-11.1917
▁만상	-11.1918
▁두가지	-11.1918
▁태어	-11.1919
▁선성	-11.1919
▁그리하면	-11.1919
▁심통	-11.192
▁천작	-11.1921
한들	-11.1921
▁지구	-11.1924
正覺	-11.1924
▁보다	-11.1925
▁표정	-11.1927
我相	-11.1927
▁강연히	-11.1928
▁인명	-11.1928
薰	-11.1928
▁갈래	-11.1929
이리	-11.193
▁선거	-11.1931
▁미신에	-11.1932
▁대희사	-11.1934
▁변화하고	-11.1934
▁실천으로	-11.1935
▁오호라	-11.1935
▁지키라	-11.1936
▁폐인	-11.1936
▁잡초	-11.1936
▁생계	-11.1937
▁발령	-11.1937
▁말한다면	-11.1938
▁교문	-11.194
▁팔산	-11.194
▁잘한	-11.1941
▁소설	-11.1941
消	-11.1943
서원	-11.1946
상이라	-11.1948
▁방지하	-11.1948
▁所謂	-11.1949
▁하거니와	-11.1949
▁["	-11.1951
▁경전이라	-11.1951
▁닦을	-11.1953
하오며	-11.1954
▁今	-11.1957
▁도모	-11.1959
▁박해	-11.1963
▁사은이	-11.1964
▁汝	-11.1964
▁생전	-11.1966
거니	-11.1967
▁건네지	-11.1968
▁오십	-11.1969
▁겨울에	-11.1972
▁비단	-11.1974
▁교화에	-11.1975
▁펴지	-11.1975
▁촉	-11.1976
▁끝내	-11.1978
▁말한다	-11.1979
▁소승	-11.1979
不昧	-11.198
▁드러내고	-11.1983
▁還	-11.1983
▁무엇인	-11.1989
▁문자	-11.1991
▁분상에	-11.1991
機	-11.1992
▁참선	-11.1993
▁당하와	-11.1995
▁부합되	-11.1999
▁입장	-11.2
▁집착하지	-11.2001
▁다르고	-11.2001
▁문하에	-11.2003
▁王曰	-11.2004
▁은연	-11.2004
▁백지	-11.2005
▁삼재	-11.2007
▁어렵지	-11.201
▁각성	-11.2013
▁예로는	-11.2014
▁연마하고	-11.2014
▁스승님들	-11.2018
▁대책	-11.2019
▁이름이라	-11.202
▁상조조합	-11.2021
▁미륵불	-11.2021
▁태어나는	-11.2022
▁범하여	-11.2022
▁의견이	-11.2023
▁빠지지	-11.2023
이어니	-11.2023
▁80	-11.2027
▁차지	-11.2029
각도	-11.2029
▁후천	-11.2032
▁보살도	-11.2033
▁선차	-11.2034
▁입관	-11.2038
▁대정	-11.204
▁남편	-11.2041
69.	-11.2044
▁당장에	-11.2045
▁사나	-11.2048
▁기업	-11.2049
▁여래위에	-11.205
▁드러내시	-11.2052
▁저희들로	-11.2052
▁선양	-11.2053
▁헤아리	-11.2055
▁오른	-11.2056
▁기대	-11.2058
▁왔으	-11.2059
▁끼	-11.2059
▁지금에	-11.2061
대저	-11.2064
▁거짓이	-11.2065
▁차등	-11.2065
▁인류에게	-11.2067
▁실력이	-11.2067
▁조감하시	-11.207
▁무난	-11.2073
▁관념	-11.2074
▁확대	-11.2076
▁어리석음	-11.2078
▁안내인	-11.208
▁찬송	-11.2086
▁홍	-11.2091
▁개칭	-11.2094
▁힘들	-11.2094
無明	-11.2099
善法	-11.2099
▁참례	-11.2102
▁고락에	-11.2105
▁기약	-11.2108
▁구경에	-11.211
▁부합	-11.2118
▁연하고	-11.212
▁경상	-11.2121
▁태연	-11.2121
▁근본이니라	-11.2125
▁정산종사	-11.2127
▁도량에	-11.2127
▁當	-11.2127
▁용납	-11.2128
답게	-11.2131
▁동지들이	-11.2132
▁너희들	-11.2133
▁사견	-11.2133
▁학생	-11.2135
▁건설하여	-11.2139
▁땅으로	-11.2141
▁평상	-11.2142
▁정법으로	-11.2143
▁회계	-11.2144
▁고해에	-11.2145
▁나가기	-11.2146
▁들어오	-11.2147
▁발전시키는	-11.2149
▁다스림	-11.2151
▁세도	-11.2156
나무	-11.2157
▁방해하	-11.2159
▁은자	-11.216
▁마음병	-11.2162
▁최대	-11.2168
▁강약이	-11.217
의두	-11.2171
▁좋다	-11.2174
▁신사	-11.2175
▁교육사업	-11.2175
▁그림	-11.2181
하시는지라	-11.2183
▁순수	-11.2185
전하여	-11.2189
신은	-11.2189
▁학교	-11.2195
▁영산회상	-11.2197
중앙	-11.22
먼저	-11.22
▁물들	-11.2206
도로	-11.2207
▁위니라	-11.2209
▁허위	-11.2212
▁뚜렷	-11.2212
▁법회는	-11.2217
▁불문	-11.2224
▁흐르는	-11.223
▁추도	-11.2233
정에	-11.2235
이어	-11.2238
▁증정하	-11.2247
겠습니	-11.2247
▁지면	-11.2249
▁서울에	-11.2255
사온데	-11.2258
▁합니	-11.226
▁인물로	-11.226
▁들기	-11.2262
어늘	-11.2264
9)	-11.2269
▁저리	-11.2272
▁출세	-11.2273
▁익어	-11.2276
中正	-11.2281
▁관하여	-11.2283
종의	-11.2287
번	-11.2288
▁하리니	-11.2296
▁않듯	-11.2298
▁낮에	-11.2299
▁하겠	-11.23
수행	-11.2302
▁열반식	-11.2302
▁질병	-11.2305
▁이롭	-11.2309
▁반대	-11.2309
夫	-11.2311
▁신성이	-11.2313
▁출입하	-11.2315
▁처지에서	-11.2316
▁같음	-11.2317
▁夫	-11.2317
▁낙도	-11.2321
소에	-11.2321
취하는	-11.2326
손으로	-11.2328
▁양식	-11.233
시요	-11.235
▁강화	-11.235
▁코	-11.2353
▁없거니	-11.2355
▁실제	-11.2358
것이니라	-11.2358
▁주산	-11.236
온데	-11.2366
▁一心	-11.2368
▁전진하여	-11.2369
▁발전시키	-11.2375
자면	-11.2383
▁하시었	-11.2383
▁아수라	-11.2385
沙	-11.2386
법이	-11.2387
▁바이니	-11.2392
▁名	-11.2394
정으로	-11.2397
▁천사	-11.2397
신을	-11.2402
▁못하리	-11.2402
황	-11.2403
▁건전	-11.2407
▁옆	-11.2407
소장	-11.241
▁하겠는가	-11.2412
▁교도는	-11.2413
▁불평이	-11.2414
▁문명에	-11.2417
때에	-11.2425
▁인천	-11.2426
▁원망이	-11.2427
인들이	-11.2436
▁완비	-11.2443
▁부서	-11.2443
▁걸인	-11.2444
▁나로	-11.2451
▁나아가서	-11.2454
▁원천이	-11.2455
▁제자만	-11.2457
성적	-11.2458
▁동정간	-11.2466
하노니	-11.2473
▁손상	-11.2474
하시더니	-11.2476
▁요법이	-11.2485
▁수행이	-11.2488
▁층	-11.2489
행하는	-11.249
▁소회	-11.2495
▁법문에	-11.2498
修道	-11.2499
▁영가시여	-11.25
▁초기에	-11.2507
어갈	-11.251
▁들었	-11.2512
극	-11.2513
▁부모은	-11.2519
所生	-11.2521
보라	-11.2526
▁수록	-11.2532
▁與	-11.2532
▁감시	-11.2535
▁맞이하	-11.2538
▁문서	-11.2541
▁사람에	-11.2541
▁가지가지	-11.2548
처가	-11.2549
▁거만	-11.2551
▁十方	-11.2556
치와	-11.2559
▁원만하여	-11.256
萬事	-11.2564
▁심법이	-11.2564
몸	-11.2567
▁회장에	-11.2567
▁공덕에	-11.2583
무소	-11.2584
▁우대	-11.2587
▁새롭	-11.2588
▁진리니라	-11.2594
▁성해	-11.2594
▁패	-11.2597
▁말하	-11.2602
▁절도	-11.2602
▁암	-11.2605
▁전라	-11.2609
▁지나가	-11.2615
▁겸행	-11.2618
▁범부들	-11.2625
▁미치	-11.2627
때	-11.2631
▁식물	-11.2631
▁일경	-11.2632
▁때마	-11.2635
▁작업에	-11.2638
▁聞	-11.2639
▁제자로	-11.2641
▁산과	-11.2646
一念	-11.2651
▁해원	-11.2653
▁검소	-11.2654
▁수단	-11.2665
잡	-11.2665
▁되었을	-11.2666
성의	-11.2672
▁하소서	-11.2673
(1952	-11.2673
▁기록하	-11.2678
▁독송	-11.2691
▁역수	-11.2702
開敎	-11.2702
었느냐	-11.2703
▁봉축	-11.2707
▁전무출신이	-11.271
▁승급하여	-11.2713
▁심중	-11.2714
▁그간	-11.2715
▁계승하	-11.2726
히고	-11.2726
비비	-11.2734
▁밤이	-11.2735
▁이러하	-11.2736
▁길들	-11.2736
▁해석하	-11.2739
▁개척하여	-11.2739
▁이렇	-11.274
▁하셨다	-11.2743
▁깨	-11.2745
▁액	-11.2748
고로	-11.2748
교무	-11.2752
▁강자로	-11.2757
자로	-11.2762
▁직장에	-11.2762
▁사람들로	-11.2771
▁동산	-11.2781
양한	-11.2783
마라	-11.2784
▁출신	-11.2788
三大	-11.279
▁천록	-11.2793
대가	-11.2794
(2	-11.2795
▁장내	-11.2802
▁망상이	-11.2802
▁성인이라	-11.2802
▁깊어져	-11.2805
▁其福	-11.2814
불보살	-11.2817
락에	-11.2819
행이	-11.2828
▁공부법이	-11.2828
▁사회적	-11.2845
었나니	-11.2847
했나니	-11.2857
▁불은	-11.2859
▁일면	-11.2875
▁양방에	-11.2876
▁나누	-11.2877
▁생기나니	-11.2878
하든지	-11.2878
▁更	-11.2879
었음이요	-11.2891
▁정치에	-11.2891
▁회고	-11.2893
▁머무	-11.2894
▁못할지라	-11.2901
▁가족들	-11.2902
▁시작한	-11.2903
▁발표하	-11.291
▁동포은	-11.2914
▁돌보	-11.2915
修習	-11.2916
▁살지	-11.2922
▁정돈	-11.2926
▁부르시	-11.2931
▁꽃을	-11.2932
▁중단	-11.2933
▁떨	-11.2934
▁받아서	-11.2934
▁편이	-11.2944
▁마장	-11.2944
▁生	-11.2948
▁때니	-11.2948
無所	-11.2949
▁고치기	-11.2958
▁더하여	-11.2964
기념	-11.2975
▁같으	-11.2986
▁윤	-11.2988
▁萬	-11.2988
염불	-11.2993
▁대중화	-11.2999
▁없었노	-11.3003
▁무거	-11.3007
▁讚歎	-11.302
▁상대방	-11.3021
大道	-11.3028
嚴	-11.3029
지방	-11.303
▁자라나	-11.303
시었으니	-11.3032
보시	-11.3036
▁사업으로	-11.3043
▁포용하	-11.3046
▁저녁	-11.3047
▁성자들	-11.305
▁방황하	-11.3052
比	-11.3053
▁간이	-11.3054
▁노자	-11.3059
▁공과	-11.3059
봉공	-11.3062
▁공자	-11.3062
파	-11.3063
달	-11.3066
갑	-11.3067
▁전하는	-11.3071
장한	-11.3071
變	-11.3071
림에	-11.3083
삼아	-11.3084
▁자랑	-11.3085
▁화기	-11.3086
▁신앙심	-11.309
▁사자	-11.3095
▁오후	-11.3097
繼	-11.3106
소태산	-11.3106
郡	-11.311
▁짐승	-11.3112
▁5)	-11.3113
▁천의	-11.3114
패	-11.3115
▁장만	-11.3121
請	-11.3124
그러한	-11.3129
色身	-11.3137
▁학설	-11.3138
노	-11.3144
지기	-11.3145
近	-11.3147
범	-11.3147
▁각지에	-11.315
라하시니	-11.3154
▁평상심	-11.3154
動靜	-11.3154
▁신년	-11.3156
濟生醫世	-11.3157
判	-11.3158
익산	-11.3159
롭	-11.3159
주고	-11.316
惱	-11.3162
▁사모하	-11.3162
云	-11.3163
문명	-11.3164
依	-11.3169
尙	-11.317
분은	-11.3172
부활	-11.3173
▁발견하는	-11.3173
▁이왕	-11.3176
▁인공	-11.3177
靈知	-11.3178
六根	-11.318
찬송	-11.3183
연중	-11.3186
었으므로	-11.3186
27.	-11.3189
건국	-11.319
삼동윤리	-11.3191
直	-11.3194
老	-11.3194
證	-11.3194
원광대학교	-11.3195
▁觀	-11.3196
옵	-11.3201
▁잇	-11.3202
最	-11.3203
▁及	-11.3205
재래	-11.3206
冥	-11.3206
攝	-11.3206
쪼	-11.3206
助	-11.3206
質	-11.3206
斯陀含	-11.3212
건국론	-11.3212
찬	-11.3218
되니	-11.3218
▁선기	-11.3221
세존	-11.3224
▁진작	-11.3225
▁국기	-11.3227
▁여명	-11.3231
훈련원	-11.3231
주소	-11.3231
활	-11.3232
예로부터	-11.3233
대에	-11.3235
무시선	-11.3237
밥	-11.324
普	-11.324
▁정통	-11.3244
爾	-11.3246
▁진경	-11.325
[2]	-11.325
억	-11.3251
둔	-11.3252
▁해로	-11.3259
반야바라밀다	-11.326
是故	-11.3261
▁무렵	-11.3262
毁	-11.3262
夜	-11.3262
졸	-11.3269
김제	-11.3272
▁부동	-11.3274
꺼	-11.3279
걸음	-11.3281
不及	-11.3281
畏	-11.3283
使	-11.3283
行施	-11.3283
상행	-11.3284
편으로	-11.3287
▁悟	-11.329
월일	-11.3291
시키	-11.3298
▁청년들	-11.3303
▁先	-11.3306
▁포용	-11.3308
▁면하기	-11.331
연한	-11.3312
當	-11.3319
▁두려워하	-11.3328
셨으나	-11.3333
不生	-11.3336
▁정업	-11.334
굴	-11.334
▁듯하	-11.3341
▁줄기	-11.3341
▁광대하	-11.3343
▁상대편에	-11.3347
교사	-11.3347
▁준공	-11.3355
일심	-11.336
▁전수	-11.3362
▁대정진	-11.3368
▁공력이	-11.3369
공덕	-11.3379
▁뭉치	-11.3382
▁교육은	-11.3387
▁고등	-11.3391
▁병고	-11.3395
▁표방하	-11.3396
염	-11.3402
▁뿐이니	-11.3411
적이	-11.342
▁천상	-11.342
▁장려하	-11.3429
이시니	-11.3432
▁법당에	-11.344
▁감응하시	-11.3461
▁습	-11.3462
▁막아	-11.3471
▁모순	-11.3475
▁목적하	-11.3477
한국	-11.3485
▁준비하여	-11.349
늘	-11.3496
▁곤궁	-11.3498
▁체득	-11.3498
▁나오나니	-11.3499
켜	-11.35
▁수기	-11.35
▁현생	-11.3502
세상에서	-11.3502
▁불구	-11.351
▁털끝만	-11.3512
▁기본이	-11.3513
▁사업회	-11.3514
▁교도로	-11.3515
...	-11.3524
▁불어	-11.3527
자력	-11.353
▁자식	-11.3537
貫	-11.3538
▁못함이니	-11.3542
定慧	-11.3543
정은	-11.3557
▁합력으로	-11.3559
들인	-11.356
▁공부법	-11.3565
▁여덟	-11.3575
▁가꾸	-11.3578
불경	-11.359
성인	-11.3591
벌	-11.3595
▁눕	-11.3595
▁교학	-11.3597
하시었으나	-11.3597
▁長	-11.3608
▁받음이	-11.3611
諸相	-11.3613
▁깨쳤	-11.3617
▁헌	-11.362
무애	-11.362
▁다하지	-11.3627
▁뽑	-11.3639
▁무너	-11.364
들로	-11.3646
우나	-11.3653
佛性	-11.3658
▁항마위	-11.3659
럽	-11.366
상하	-11.366
▁얽	-11.3661
▁시행하	-11.3665
졌으나	-11.3666
▁드물	-11.3669
▁고장	-11.3672
▁상식	-11.3678
▁봉래산	-11.368
偈	-11.3681
▁사제	-11.3685
▁무너지	-11.3693
학생	-11.3694
▁때에나	-11.3697
▁헛되	-11.3699
是人	-11.3699
▁행해	-11.37
悔	-11.3701
▁총부로	-11.3703
▁종류	-11.3705
▁찍	-11.3706
▁아프	-11.3706
▁세밀	-11.3715
▁다해	-11.3718
▁하옵시	-11.3719
▁해설	-11.3719
降	-11.372
시키면	-11.3721
▁아름답	-11.3723
▁재세	-11.3724
▁해탈하	-11.3724
▁꾸준	-11.3724
▁사십	-11.3727
▁현실적	-11.3731
▁연습	-11.3732
▁불공이	-11.3733
재단	-11.3735
▁힘쓰지	-11.3736
엽	-11.3736
般若波羅蜜多	-11.3737
▁헤	-11.3743
▁왼	-11.3746
▁일종	-11.3746
▁구원하	-11.3748
▁초창	-11.3756
▁곤충	-11.3756
께	-11.3756
화한	-11.3757
냥	-11.3757
▁통칭	-11.3757
▁분석하	-11.3758
端	-11.3758
益	-11.3759
怨	-11.3759
第一	-11.376
良	-11.376
昌	-11.376
金剛	-11.376
▁35	-11.376
將	-11.376
倫	-11.376
p	-11.3761
貞	-11.3761
言語	-11.3761
衣	-11.3761
m	-11.3761
誼	-11.3761
廟	-11.3761
布	-11.3761
幾	-11.3761
▁공법	-11.3761
空寂靈知	-11.3761
希有	-11.3761
b	-11.3761
强	-11.3761
珠	-11.3761
役	-11.3761
授	-11.3761
溪	-11.3761
▁빼	-11.3761
興	-11.3761
再	-11.3761
顯	-11.3761
中央	-11.3761
座	-11.3761
次第	-11.3761
熟	-11.3761
産	-11.3761
處處佛像	-11.3761
領	-11.3761
事事佛供	-11.3761
件	-11.3761
觸	-11.3761
鐵	-11.3761
▁其義備	-11.3761
▁歸家無爲	-11.3761
▁結婚	-11.3761
▁거슬려	-11.3761
▁거슬리	-11.3761
▁공회당	-11.3761
▁날뛰	-11.3761
▁대각개교절	-11.3761
▁바느질	-11.3761
▁억조창생	-11.3761
▁엷	-11.3761
倍	-11.3761
大寂光	-11.3761
席	-11.3761
急	-11.3761
悅	-11.3761
望	-11.3761
林	-11.3761
梁	-11.3761
欺	-11.3761
泥	-11.3761
省	-11.3761
逢	-11.3761
찮	-11.3761
▁卽是非相	-11.3761
▁步步超三界	-11.3761
▁조선총독부	-11.3761
三同倫理	-11.3761
乾坤	-11.3761
同氣連契	-11.3761
孝	-11.3761
底	-11.3761
張	-11.3761
技	-11.3761
操	-11.3761
改	-11.3761
罵	-11.3761
隱	-11.3761
劉	-11.3761
含	-11.3761
吳	-11.3761
周	-11.3761
員	-11.3761
單	-11.3761
崔	-11.3761
弔	-11.3761
律	-11.3761
忠	-11.3761
涵養	-11.3761
緩	-11.3761
繫	-11.3761
脈	-11.3761
音	-11.3761
▁독립	-11.3761
京	-11.3761
儒	-11.3761
婆羅	-11.3761
蓬萊	-11.3761
亨	-11.3761
寧	-11.3761
恭敬	-11.3761
祿	-11.3761
▁기러기	-11.3761
won	-11.3761
▁사사물물	-11.3761
鼎山宗師	-11.3761
▁成就	-11.3761
▁옥녀봉	-11.3761
초대원장	-11.3761
名譽	-11.3761
▁훼방하	-11.3761
鼎山	-11.3761
▁며느리	-11.3761
▁존엄	-11.3761
▁공동시장	-11.3761
▁부른다	-11.3761
▁應如是	-11.3761
宋道性	-11.3761
▁봉헌	-11.3761
白指	-11.3761
영천영지	-11.3761
▁법위등급	-11.3761
章句	-11.3761
無時禪	-11.3761
▁염두에	-11.3761
▁왕궁	-11.3761
▁제외하고는	-11.3761
▁법위사정	-11.3761
▁모셔	-11.3761
▁흠모하	-11.3761
寂寂	-11.3761
▁목욕하오며	-11.3762
▁고등학교	-11.3762
▁수덕호	-11.3762
例會	-11.3762
▁녹여버리	-11.3762
▁生在	-11.3762
▁얽혀	-11.3762
▁자연현상	-11.3762
▁즐겁	-11.3762
同志	-11.3762
▁구슬	-11.3762
▁민망	-11.3762
▁기념대회	-11.3762
慾	-11.3762
▁든든하	-11.3762
滅度	-11.3762
▁천도법문	-11.3762
無記	-11.3762
▁풍랑	-11.3762
平等	-11.3762
▁넘겨	-11.3762
上中下	-11.3762
不淨	-11.3762
▁혈연	-11.3762
利他	-11.3762
▁여쭈니	-11.3763
▁되옵나니	-11.3763
▁허덕이	-11.3763
福田	-11.3763
萬里	-11.3763
▁학습	-11.3763
情欲	-11.3763
寂知	-11.3763
▁출역	-11.3763
▁아름다운	-11.3763
▁위엄	-11.3763
▁타일러	-11.3763
▁끼칠	-11.3763
報本	-11.3763
▁진취	-11.3764
▁갖출	-11.3764
法身佛	-11.3764
▁명백하	-11.3764
▁가벼워	-11.3764
▁주택	-11.3764
▁철석	-11.3765
▁열쇠	-11.3765
▁何因	-11.3765
他人	-11.3765
▁미움	-11.3765
▁친애	-11.3765
成年	-11.3766
▁화강	-11.3766
▁근근	-11.3766
▁금옥	-11.3766
▁이동진화	-11.3766
▁언행	-11.3766
▁편협	-11.3766
▁태어났다	-11.3766
▁여겨	-11.3766
▁不如	-11.3766
▁연례	-11.3766
三學	-11.3767
▁명명식	-11.3767
▁일어내어	-11.3767
▁영결사	-11.3768
▁부채	-11.3768
▁음조	-11.3768
▁보필	-11.3768
▁대열에	-11.3769
十二	-11.3769
▁대완	-11.3769
自利	-11.3769
▁야단	-11.3769
▁도둑맞	-11.3769
▁되었느냐	-11.3769
▁있사온데	-11.3769
佛地	-11.3769
▁평온	-11.377
萬難	-11.377
▁소독	-11.377
無爲法	-11.377
▁같아	-11.3771
▁권모	-11.3771
▁명심하라	-11.3771
大小	-11.3771
▁현장에	-11.3771
▁호남	-11.3771
▁봉안소	-11.3772
▁쉬우므로	-11.3772
▁얻으리요	-11.3772
▁용화	-11.3772
爲道者	-11.3772
無上	-11.3772
▁맹세하옵고	-11.3772
▁당체	-11.3772
門中	-11.3773
▁화재	-11.3773
천봉	-11.3773
▁若言	-11.3773
▁기존	-11.3774
▁농작물	-11.3774
▁있사오나	-11.3774
▁학명	-11.3774
▁주빈	-11.3774
▁조급	-11.3774
要道	-11.3774
▁혜두	-11.3774
▁주체삼아	-11.3775
▁있었는가	-11.3775
禪定	-11.3775
▁쉬울	-11.3775
大地	-11.3775
▁졸업식	-11.3775
▁아견	-11.3775
▁공론	-11.3776
之位	-11.3776
▁서면으로	-11.3776
▁흐름	-11.3776
▁치료법	-11.3776
▁동서양	-11.3776
▁주력하여	-11.3777
▁예증	-11.3777
比丘	-11.3778
▁실행하기	-11.3778
▁개교절	-11.3778
▁시작되	-11.3778
▁성품자리	-11.3779
▁독선	-11.3779
身相	-11.3779
▁현상이라	-11.378
▁대표적	-11.378
▁수립	-11.378
▁이기주의	-11.3781
▁사무소	-11.3781
정읍	-11.3781
▁난관	-11.3781
▁처리건	-11.3781
▁정맥	-11.3781
▁스님	-11.3782
▁교육기관	-11.3783
▁선언	-11.3783
▁바란다	-11.3783
▁단전주	-11.3783
▁번영	-11.3784
▁얻었으나	-11.3784
▁계속한다면	-11.3784
▁천국	-11.3784
▁있었나니	-11.3785
2004	-11.3786
▁편성	-11.3786
▁민	-11.3786
▁알으시고	-11.3786
▁난행	-11.3786
▁측면	-11.3788
▁운영하	-11.3788
▁중등부	-11.3788
▁국량	-11.379
▁진흥하여	-11.379
머니	-11.3791
▁주력하고	-11.3791
▁태모	-11.3792
▁기념제	-11.3792
초량	-11.3793
▁특등	-11.3793
▁안목	-11.3793
▁삼갈	-11.3793
▁버려야	-11.3794
▁존대	-11.3794
▁맑히고	-11.3794
語者	-11.3795
▁자력이	-11.3796
▁아니하였으나	-11.3796
衆生相	-11.3797
▁진출	-11.3798
▁진대지	-11.3799
▁산실	-11.3799
公心	-11.3799
▁입각하여	-11.38
대리	-11.38
▁청풍이	-11.3801
▁제초	-11.3801
▁관례	-11.3802
▁입등	-11.3802
▁일꾼으로	-11.3802
▁동하	-11.3802
智者	-11.3803
▁갑자년	-11.3803
▁결집	-11.3803
▁허실	-11.3804
行道	-11.3804
不得	-11.3805
▁어렸	-11.3805
▁이룩되	-11.3806
▁터득	-11.3807
▁말할진대	-11.3807
▁현실적으로	-11.3808
학력	-11.381
▁동풍	-11.3813
▁붙이고	-11.3813
▁것이냐	-11.3814
▁미치게	-11.3814
▁만들며	-11.3815
▁심화	-11.3815
▁반복	-11.3816
▁받들며	-11.3816
之所	-11.3816
▁자타력	-11.3816
▁전문부	-11.3816
▁무너지고	-11.3817
▁천불	-11.3817
▁대서원	-11.3818
▁독서	-11.3818
▁없지마는	-11.3818
▁뽑히	-11.3819
▁같은지라	-11.3819
▁가르치며	-11.3819
▁지중한	-11.3819
▁풀며	-11.382
▁개인이	-11.382
▁방법이니	-11.382
▁향례	-11.3821
▁호소하	-11.3822
▁전송	-11.3822
▁위주하고	-11.3822
▁포장	-11.3823
▁천조	-11.3825
▁육안	-11.3827
▁욕됨	-11.3828
▁天下	-11.3831
▁봉양	-11.3831
▁아버님	-11.3831
▁선생이라	-11.3831
▁소인	-11.3832
白雲	-11.3832
▁있지마는	-11.3832
道心	-11.3833
▁평천하	-11.3833
▁입단하	-11.3834
▁임야	-11.3834
▁않으나	-11.3834
▁있거늘	-11.3834
▁커진	-11.3835
▁깨끗하게	-11.3835
▁큼	-11.3837
諸菩薩	-11.3837
▁목수	-11.3838
▁且	-11.3839
▁그쳐	-11.3842
而行	-11.3842
▁무방하	-11.3842
▁만화	-11.3843
發阿耨多羅三藐三菩提心者	-11.3844
▁합하도록	-11.3844
▁사배	-11.3844
▁봉찬회	-11.3845
▁석존	-11.3845
▁亦不	-11.3845
▁진철	-11.3846
入定	-11.3846
▁망라	-11.3847
▁숙겁	-11.3847
▁운권	-11.3848
▁성품이며	-11.385
▁산부처	-11.385
▁석두암	-11.385
▁김대거	-11.385
▁보리심	-11.385
▁아니하므로	-11.3851
▁적벽	-11.3852
▁이단치교	-11.3852
▁혜환	-11.3852
▁싫어하고	-11.3853
▁잡혀	-11.3854
▁모범적	-11.3855
▁무아봉공	-11.3855
▁삼으라	-11.3855
중앙에	-11.3856
▁告辭	-11.3857
▁방안	-11.3857
▁돈수	-11.3858
▁챙기며	-11.3858
▁사회생활	-11.3859
▁똑같	-11.3859
▁어찌할꼬	-11.3859
▁지배하	-11.386
▁보은행	-11.386
之寶	-11.3861
▁게송으로	-11.3861
▁혜문	-11.3861
▁타종교	-11.3862
▁찰나	-11.3862
▁육조	-11.3863
▁공로자	-11.3865
▁받았고	-11.3865
▁당부하	-11.3865
▁속일	-11.3866
▁귀의하여	-11.3866
▁구타원	-11.3866
▁용상	-11.3866
▁악행	-11.3866
▁기재시키	-11.3866
▁해소	-11.3869
생활에	-11.387
▁없음이요	-11.387
▁부러워하	-11.387
▁만족하지	-11.3872
▁붓고	-11.3873
▁되었으므로	-11.3873
▁부호	-11.3873
▁엄부	-11.3874
▁자지하여	-11.3874
▁배출하여	-11.3875
▁존경하	-11.3876
▁고요함	-11.3877
▁없거나	-11.3877
▁가득하여	-11.3878
日月	-11.3878
▁가시니	-11.3878
▁저버리	-11.3881
▁세존께서	-11.3881
합니	-11.3882
▁표현되어	-11.3882
▁상상하	-11.3883
▁수양력으로	-11.3883
▁태아	-11.3883
▁삼독심	-11.3884
성품	-11.3884
어찌	-11.3885
운이	-11.3885
▁인품	-11.3886
▁대회에	-11.389
▁성비	-11.3893
▁손길	-11.3895
시킴이요	-11.3898
▁깨달음이	-11.3899
▁옛적	-11.3899
▁교만	-11.3899
▁서당	-11.3902
▁합하면	-11.3904
▁어른들	-11.3907
▁퍼	-11.3909
▁경위	-11.3909
▁사로잡	-11.391
▁공화	-11.3912
▁지날	-11.3912
▁국운	-11.3914
▁병중에	-11.3916
▁드리고	-11.3917
▁제주	-11.3918
▁성금	-11.3919
▁강제	-11.3921
▁윗사람	-11.3924
▁기다리고	-11.3924
▁무리와	-11.3924
▁과오	-11.3927
▁눕는	-11.3927
▁태워	-11.3928
▁수준이	-11.3928
▁품고	-11.3928
▁연관	-11.3929
▁알으셨	-11.393
▁작업이	-11.3931
▁덕행	-11.3933
▁구미	-11.3933
▁통하며	-11.3934
▁발견하고	-11.3935
▁청정해	-11.3937
▁치우쳐	-11.3944
▁함인가	-11.3945
▁연합	-11.3946
▁좁고	-11.3946
▁툭	-11.3946
▁정식으로	-11.3947
▁길들여	-11.3947
▁실질적	-11.3948
그러므로	-11.3949
▁백억	-11.3953
업으로	-11.3954
▁사마	-11.3956
▁흉년	-11.3958
▁대수	-11.3958
▁종교인들	-11.3961
▁교도에게	-11.3962
▁계룡산	-11.3962
▁보육원	-11.3963
▁운행하	-11.3964
▁신경	-11.3964
어져서	-11.3965
▁사업가들	-11.3966
▁동원도리	-11.3967
▁비치고	-11.3967
▁개발	-11.3967
▁견성만	-11.3969
▁나쁘	-11.3969
▁對	-11.397
▁동지들에게	-11.3971
▁분에게	-11.3972
▁현대	-11.3973
▁어려운데	-11.3975
▁원이	-11.3975
▁작고	-11.3977
▁죽이	-11.3979
▁방송	-11.3983
▁장년기에	-11.3983
▁원장	-11.3983
▁대종사께옵서	-11.3984
▁온전하고	-11.3985
▁집이요	-11.3986
▁학업	-11.3989
▁강연회	-11.399
▁개요	-11.399
▁제재하	-11.3991
▁적조	-11.3991
▁엿보	-11.3993
▁주어서	-11.3994
▁자기와	-11.3996
▁얻는다	-11.3997
▁만지	-11.3999
만이	-11.4
우며	-11.4
▁익산에	-11.4001
▁합하고	-11.4004
후에	-11.401
▁막힘없	-11.4012
▁모신	-11.4015
▁작음	-11.4016
▁설립하여	-11.4018
▁환영식	-11.4019
▁삼방면	-11.4021
▁하늘로	-11.4022
▁광대한	-11.4024
▁되매	-11.4025
▁소멸되	-11.4026
▁이용할	-11.4027
▁입어	-11.4028
▁선경	-11.4028
▁탕	-11.4031
▁사중	-11.4031
▁전공	-11.4031
▁뜰	-11.4032
지요	-11.4036
▁출가식	-11.4036
계에	-11.4039
惑	-11.4039
▁보시며	-11.4039
▁천복	-11.404
▁증득하	-11.4042
▁卽是	-11.4042
불보살들	-11.4044
착이	-11.4045
▁乃	-11.4045
▁통일하기	-11.4048
▁커지	-11.4052
▁육근문	-11.4054
▁열람하	-11.4056
▁비롯이	-11.4059
▁스승님께서	-11.4059
▁生於	-11.4062
서원으로	-11.4063
▁주었다	-11.4065
경남	-11.4066
향	-11.4066
부전	-11.4068
▁자비로	-11.4069
▁본경	-11.4071
▁不離	-11.4073
어찌하여	-11.4077
▁천안	-11.4079
▁「1	-11.4083
▁사세	-11.4086
▁목전	-11.4089
▁얼굴로	-11.409
▁체험	-11.409
▁동생	-11.4094
▁주인이요	-11.4094
보고	-11.41
▁장소에서	-11.4101
68.	-11.4104
▁공중사	-11.4105
▁일이므로	-11.4105
▁앉으	-11.4106
▁마르	-11.4106
▁말하였다	-11.4107
▁매어	-11.4108
▁경력	-11.4109
▁스승이라	-11.4112
▁판이	-11.4124
▁만리	-11.4125
▁선방	-11.4125
▁범하고	-11.4128
▁간행	-11.4129
性理	-11.413
▁되는지라	-11.4131
▁저희들을	-11.4133
定業	-11.4135
금은	-11.4136
▁혁명이	-11.414
일보	-11.4141
▁불사르	-11.4142
▁나왔으	-11.4142
▁심량	-11.4142
▁지선	-11.4143
▁당면	-11.4144
▁위요	-11.4145
▁후생에	-11.4152
](	-11.4153
▁가나	-11.4156
▁유용한	-11.4157
▁만경	-11.4158
▁심신이	-11.4159
▁밝음이	-11.4161
취임사	-11.4163
▁습관에	-11.4163
▁순간	-11.4164
▁타력신	-11.4165
一人	-11.4166
▁視	-11.4166
기지	-11.4168
▁작용이	-11.4169
▁쉬었다	-11.4169
▁學道	-11.4171
▁得阿耨多羅三藐三菩提	-11.4173
▁옴	-11.4178
▁녹히	-11.4179
▁예복	-11.4181
▁천대	-11.4184
▁만났	-11.4189
▁표방	-11.4189
▁自然	-11.4192
▁고유	-11.4192
▁다소	-11.4193
이었으며	-11.4195
시사	-11.4196
▁건설할	-11.4198
▁가뭄이	-11.4202
▁동서	-11.4204
▁분간하	-11.4206
으리요	-11.4206
▁다녀	-11.4207
▁초조	-11.4207
▁섭섭함	-11.4208
▁앞날	-11.4213
▁형용	-11.4219
▁상사	-11.422
▁해결하	-11.4224
▁心不	-11.4226
▁업에	-11.423
▁함축	-11.4231
▁기화	-11.4232
학대학	-11.4233
▁공유	-11.4233
▁오다가	-11.4233
▁唯	-11.4234
▁붙이	-11.4236
▁격려하	-11.4238
▁다니면	-11.4239
▁성품으로	-11.4249
▁활용하고	-11.425
▁不生	-11.4251
▁개의	-11.4252
▁성립	-11.4253
▁적당하	-11.4255
▁기념식에	-11.4257
▁면하고	-11.4257
▁요란하	-11.4261
▁한다든지	-11.4263
▁해산	-11.4264
▁문장	-11.427
▁장소는	-11.427
▁법규	-11.4273
▁비방하	-11.4284
▁금년	-11.4284
▁식이	-11.4285
계가	-11.4287
하느냐	-11.4288
▁반야바라밀다	-11.4288
(1945	-11.429
▁간다면	-11.4292
▁목표는	-11.4297
▁협조	-11.4298
▁분심	-11.4299
▁동지에게	-11.4301
▁비판	-11.4301
▁깨치지	-11.4303
▁實無有法	-11.4309
▁확정	-11.4319
하였으므로	-11.4321
▁하겠다	-11.4323
▁대해서	-11.4328
▁살면	-11.4332
▁선천	-11.4337
리시고	-11.4339
▁관문	-11.4342
▁무성하	-11.4346
▁전래	-11.4349
▁수위단회는	-11.4357
▁무간	-11.4358
▁아니하려	-11.4358
▁골라지	-11.4358
▁백일	-11.4358
結實	-11.4361
▁청정하고	-11.4374
▁수효	-11.4375
▁법강항마위에	-11.4378
▁대상이	-11.438
▁도장	-11.4384
▁靈知	-11.4386
▁청정하	-11.4386
▁투	-11.4386
▁참여	-11.4393
▁오시	-11.4399
▁일원화	-11.44
▁새해	-11.4405
▁요달	-11.4407
▁대학원	-11.4409
으오리까	-11.4409
▁잃어	-11.4411
▁형제간	-11.4415
▁빈곤	-11.4415
▁임원들	-11.4418
▁여행	-11.442
▁사양	-11.442
▁하나인	-11.4422
산에	-11.4423
不二	-11.4424
▁덕으로	-11.4428
불이	-11.4432
대향	-11.4433
▁이백	-11.4433
▁경의	-11.4433
교감	-11.4438
▁좌우에	-11.4439
▁발견하	-11.4439
▁수련	-11.4441
▁승려들	-11.4441
▁원하며	-11.4442
▁만났으	-11.4443
感	-11.445
▁짐승이	-11.4457
▁물건이라	-11.4464
▁인연들	-11.4465
▁느낌	-11.4465
▁임금	-11.447
해진	-11.4473
念佛	-11.4483
▁사람까지	-11.4491
▁감탄	-11.4492
▁노력하고	-11.45
식이	-11.4504
▁적적함	-11.4512
▁공부길	-11.4526
▁구천	-11.4527
각하고	-11.4532
▁세신이	-11.4533
▁아니하기로	-11.4534
▁문란	-11.4534
▁귀의한	-11.4539
▁공산	-11.4545
▁활발	-11.4545
▁설정	-11.4548
시로	-11.4562
▁새겨	-11.4563
▁주장한다	-11.4564
▁떠들	-11.4566
▁장로	-11.4567
▁착수하여	-11.4567
▁來	-11.4569
자리	-11.457
▁원조	-11.4574
▁분만	-11.4589
▁68	-11.4593
▁회상이라	-11.4597
▁각계	-11.4603
▁동포들	-11.4604
▁대행	-11.4611
주신	-11.4611
기라	-11.4614
▁평가	-11.4619
▁활선	-11.4622
▁좌	-11.4623
한다고	-11.4628
▁일년	-11.4628
▁간고	-11.4628
▁제정하	-11.4629
자연적	-11.4629
▁나타내어	-11.4629
▁사우	-11.4637
▁되었으	-11.4638
▁생육	-11.4642
▁거사	-11.4642
▁당하고	-11.4651
▁갔으	-11.4656
▁국가적	-11.4658
▁수행으로	-11.4661
▁경에	-11.4661
▁勝	-11.4661
▁영명	-11.4662
▁열리지	-11.4664
▁허가	-11.4665
대인	-11.4665
▁들어가서	-11.4669
▁향하	-11.4669
▁싫어하	-11.4674
▁합력하여	-11.468
▁무리들	-11.4687
▁선이요	-11.4696
교도	-11.4697
▁풀어지	-11.4701
▁일어서	-11.4703
들어	-11.4704
塔	-11.4706
▁오백	-11.471
음과	-11.4716
▁양보하	-11.4717
중생들	-11.4718
▁돌파하	-11.4722
▁나아간	-11.4722
▁쌓기	-11.4727
▁가사	-11.4732
▁혀	-11.4742
▁충실하	-11.4749
▁가꾸어	-11.4755
▁성내	-11.4762
▁제도하라	-11.4763
▁일생이	-11.4767
▁여래위	-11.4767
하였는가	-11.477
▁말하며	-11.4771
▁동일	-11.4776
진다	-11.478
중도	-11.4785
▁논의	-11.4788
▁평상심이니	-11.4791
▁하감하시	-11.4793
』(	-11.4794
삼원	-11.4798
▁유학	-11.48
▁장엄이	-11.48
일상	-11.4804
▁예수님	-11.4807
▁졌다	-11.4812
▁전파	-11.4814
▁교육과	-11.4815
▁佛告	-11.482
▁자력신	-11.4828
▁涅槃	-11.4829
▁지니	-11.483
▁답답	-11.4832
▁찬양	-11.4833
▁자리라	-11.4836
되며	-11.4837
▁마장이	-11.4841
▁들인	-11.4847
급하여	-11.4858
경전으로	-11.486
▁심판	-11.4867
▁연도	-11.4867
▁열이	-11.4869
▁조절	-11.4874
▁대적공	-11.4875
▁융성	-11.4878
▁치성	-11.489
▁원한	-11.4892
▁사방에	-11.4894
▁얻어지	-11.4894
▁치하	-11.49
▁성안	-11.4901
▁가난하	-11.4902
▁발하	-11.4905
▁오전	-11.4908
▁자만	-11.4908
▁종이	-11.4912
▁공부라	-11.4913
하시기	-11.4917
대학원	-11.492
▁위협	-11.4921
▁정직	-11.4926
▁득	-11.4929
하려니와	-11.4933
▁안분	-11.4939
▁성현들이	-11.494
▁관찰	-11.495
▁인의	-11.4957
▁저녁에	-11.496
말고	-11.4963
지게	-11.4963
▁많았	-11.4964
하였사오니	-11.4967
▁펼치	-11.4968
人天	-11.4971
▁오성	-11.4972
▁제기	-11.498
▁초목	-11.4983
▁봉불식에	-11.4984
명의	-11.4985
좋은	-11.4985
▁원평	-11.4986
▁주변	-11.499
▁所	-11.4991
▁종족	-11.4992
▁세웠	-11.4993
도의	-11.4993
是汝	-11.4995
▁便	-11.4997
하심	-11.4999
오매	-11.5
▁고기	-11.5001
▁존	-11.5007
▁터전이	-11.5009
▁물질에	-11.5013
▁개최하	-11.5014
見如來	-11.5028
▁서문	-11.503
▁도통	-11.5036
치며	-11.5042
서와	-11.5043
대임	-11.5044
▁노력이	-11.5045
▁받나니	-11.5046
▁離	-11.5048
▁불교에서	-11.5049
▁찬양하	-11.5049
공심	-11.505
하듯	-11.5064
▁사면	-11.5065
▁서양	-11.5066
▁고난이	-11.5069
부처	-11.507
道德	-11.5074
▁잡았	-11.508
▁가문	-11.5081
▁포용하는	-11.5081
▁분과	-11.509
▁방심하	-11.5095
▁분명한	-11.5097
▁혜시	-11.5098
1]	-11.511
▁장양	-11.5111
▁회상으로	-11.5112
▁자체에	-11.5113
▁성장	-11.5116
그러나	-11.512
수고	-11.5124
▁보살이라	-11.5128
▁거행하여	-11.5135
▁확립하여	-11.5137
회보	-11.5138
▁공사는	-11.5145
▁가질지니	-11.5147
▁이것으로	-11.5149
▁일가	-11.5155
▁닭	-11.5156
시키며	-11.5157
▁공부하고	-11.5171
▁아상이	-11.5172
▁연령	-11.5173
미한	-11.5184
특별	-11.5186
五福德	-11.5188
▁실내	-11.5191
於法	-11.5192
▁깨달으	-11.5193
▁나며	-11.5196
▁각국	-11.5198
▁공이요	-11.5199
▁이루나니	-11.521
▁조실	-11.521
修心	-11.5213
▁활동에	-11.5218
▁매장	-11.522
唯	-11.5233
▁경으로	-11.5237
▁23	-11.5239
하시었나니	-11.5246
자인	-11.525
▁주선	-11.5255
▁본심	-11.5259
▁施	-11.5261
▁願	-11.5263
천도	-11.5266
▁선진자	-11.5267
▁발전의	-11.5268
▁남음	-11.5269
▁족	-11.527
▁以爲	-11.5272
▁결제식	-11.5274
▁설치하	-11.5275
님	-11.5275
▁공부하기	-11.5275
▁수백	-11.5276
말씀하시기를	-11.5278
▁죄과	-11.5278
▁이르는	-11.5279
▁착수하	-11.5279
▁지침	-11.528
▁지시	-11.5281
▁꿈에	-11.5282
▁반만	-11.5282
움	-11.5283
▁그것만	-11.5284
▁布施	-11.5285
내는	-11.5286
d	-11.5287
▁법률에	-11.5291
인류	-11.5291
▁낳으	-11.5294
72.	-11.5307
제일	-11.5308
▁착실	-11.531
시켰	-11.531
으시고	-11.5326
▁사례	-11.5327
(4	-11.5329
▁발족되	-11.5332
▁닦는다	-11.5336
▁철없	-11.5339
▁조직이	-11.534
▁활발하	-11.5341
▁주관	-11.5343
창립	-11.5348
▁생함	-11.5349
청정	-11.5354
평화	-11.5356
▁하시는	-11.5378
▁나오시	-11.5379
액	-11.538
법회	-11.538
업이	-11.5384
▁마련해	-11.5387
▁보답하	-11.5388
▁선에	-11.5396
지혜	-11.5404
▁배척하	-11.5419
▁없으면서	-11.5421
▁밝아	-11.5436
끼	-11.544
▁통촉하	-11.5444
▁미미	-11.5446
▁변지	-11.5447
▁일합상	-11.545
▁무성	-11.5451
▁푸	-11.5454
▁없음이	-11.5455
드리	-11.5456
▁종재식	-11.5457
장으로	-11.5459
시간	-11.5461
▁공기	-11.5462
▁부리	-11.5466
善根	-11.5471
최	-11.5474
충	-11.5476
▁받으시	-11.5477
▁기르자	-11.5477
▁본성에	-11.5479
▁강이	-11.5482
보장	-11.5484
▁극도	-11.5484
밖으로	-11.5486
▁전반	-11.5487
▁운동이	-11.5489
원이	-11.5491
시다가	-11.5492
▁대계	-11.5493
▁가르침이	-11.5494
18.	-11.5496
▁왕래하	-11.5498
탁	-11.5499
▁요달하	-11.5506
촌	-11.5506
제자	-11.5513
무념	-11.5525
▁斷	-11.5533
정성	-11.5537
허공	-11.5537
▁교환하	-11.5539
資	-11.554
無礙	-11.5541
▁환경이	-11.5542
▁실상이	-11.5543
▁벌레	-11.5554
▁그려	-11.5555
▁일치	-11.5556
감이	-11.5558
▁근본해	-11.5565
세워	-11.5568
賢者	-11.5575
삼세	-11.5579
首迦	-11.558
萬古	-11.5582
하였거니와	-11.5582
▁수용하나	-11.5583
역사	-11.5585
承	-11.5593
▁당해	-11.5597
▁될지라	-11.5597
하더니	-11.56
낙	-11.56
연원	-11.5602
絶	-11.5603
걸	-11.5603
▁於諸	-11.5604
▁감시하	-11.5605
▁책임자	-11.561
드	-11.5612
▁신뢰	-11.5616
감사	-11.5617
선원	-11.5617
▁위함이니	-11.5618
삼대력	-11.5623
▁인연에	-11.5624
▁대요	-11.5625
▁정세	-11.5627
▁제조	-11.5632
산은	-11.5633
하옵니다	-11.5635
▁않으	-11.5636
▁존숭하	-11.5643
▁견지	-11.5644
信義	-11.5649
생이	-11.5652
▁친근하	-11.5657
흐	-11.5659
북	-11.5664
숙	-11.5667
세계에	-11.5669
▁세간에	-11.567
위원장	-11.5671
▁기구에	-11.5671
휘	-11.5672
頓漸	-11.5672
▁압제	-11.5676
▁즐거워하	-11.5677
삼매	-11.5677
法名	-11.5677
▁여래라	-11.5678
임이	-11.5678
患	-11.568
法者	-11.568
天眞	-11.5685
조행	-11.5688
反	-11.5692
공중	-11.5693
일신	-11.5695
쇠	-11.5695
往來	-11.5696
▁연구해	-11.5696
危	-11.5698
野	-11.5698
▁시급	-11.57
漸門劣機	-11.5701
필	-11.5705
어진	-11.5706
▁주라	-11.5708
滿	-11.5709
멸도	-11.5709
▁참사람	-11.571
무량	-11.571
동학	-11.5712
면이어니와	-11.5713
정신수양	-11.5714
懺悔	-11.5714
▁영리	-11.5716
▁정면	-11.5716
▁출현하	-11.5718
焉	-11.5719
예술	-11.5719
교례	-11.5721
▁수용할	-11.5722
▁그만	-11.5724
목표	-11.5725
▁참으	-11.5726
오백	-11.5727
是也	-11.5727
허	-11.5732
병원	-11.5732
스승과	-11.5732
영육	-11.5735
팔조	-11.5736
옴	-11.5736
▁말씀하셨	-11.5737
道場	-11.5737
어니와	-11.5737
都	-11.5739
보통급	-11.5741
自然	-11.5741
객	-11.5748
▁촉진하	-11.5748
不能	-11.575
▁혼인이	-11.5751
▁웃	-11.5751
▁모자	-11.5753
누구	-11.5754
홍	-11.5757
▁신령하	-11.5762
이시라	-11.5762
視	-11.5764
저희	-11.5769
▁직후	-11.5771
었도다	-11.5772
저녁	-11.5772
▁헌신한	-11.5773
天下	-11.5773
삼가	-11.5775
부안	-11.5775
근래에	-11.5776
▁초가	-11.5782
▁열반일	-11.5783
오욕	-11.5785
▁붙잡	-11.5786
했는데	-11.5786
▁受	-11.5789
행하여	-11.5789
▁끄	-11.5789
▁空	-11.5791
천하에	-11.5791
분의	-11.5797
주시옵소서	-11.5798
又	-11.5798
시옵고	-11.5801
無我	-11.5802
▁정진할	-11.5809
영혼이	-11.5811
▁위태	-11.5814
마음으로	-11.5815
勸	-11.5819
▁豈	-11.582
▁행실이	-11.5823
저희들	-11.5838
▁부르는	-11.584
▁판정	-11.584
垢	-11.5844
(3	-11.5844
▁노인	-11.5846
▁사양하	-11.5847
▁재철이	-11.5853
▁흘	-11.5863
▁통일하는	-11.5866
수계	-11.5868
▁무서워	-11.587
▁정확	-11.5877
▁순응하여	-11.5879
心性	-11.5887
▁닦음	-11.5889
▁선임	-11.5889
▁아니하였	-11.589
▁선생이	-11.5891
▁세전	-11.5893
상도	-11.5894
▁병원	-11.5897
▁훈련에	-11.5904
세계가	-11.5908
림이	-11.5914
▁계산	-11.5915
몸은	-11.5926
▁복전이	-11.5926
깨	-11.5927
相生	-11.5929
왔	-11.5931
養性	-11.5934
내지	-11.5935
▁단련이	-11.5937
▁항복받	-11.594
虛空	-11.594
▁위문하	-11.5943
▁살림이	-11.5944
如意	-11.5945
▁사람일	-11.5953
▁단결이	-11.5957
▁여가	-11.5963
▁분담	-11.5964
▁좋아하나	-11.5968
▁못함이	-11.5969
▁강산	-11.597
▁부인	-11.5973
▁당대	-11.5974
▁되리요	-11.5975
▁잠자	-11.5977
레	-11.5978
▁하여서	-11.5986
▁숭상하	-11.5987
▁정비하	-11.5997
▁전무출신들	-11.6002
▁보나니	-11.6009
▁협의	-11.6012
▁遇	-11.6016
▁대학교	-11.6016
하시다가	-11.6018
기화	-11.6022
게송	-11.6022
▁허비	-11.6023
시킴	-11.6024
되었	-11.6027
▁혈	-11.6027
▁등에서	-11.6027
萬法	-11.6029
어가는	-11.603
▁명성	-11.6033
▁농민	-11.6034
길로	-11.6038
▁말이요	-11.604
▁완정하	-11.6041
▁뻗	-11.6041
▁혜택으로	-11.6043
▁밑	-11.6043
▁본지	-11.6044
▁생의	-11.6047
▁결과에	-11.6048
▁얽매	-11.6052
▁해의	-11.6067
▁순숙	-11.6068
▁그물	-11.607
▁생존	-11.6073
선생님	-11.608
無念	-11.6081
▁비하여	-11.6082
▁부고	-11.6088
私利	-11.6094
心師	-11.6095
▁영근	-11.6097
▁피은이	-11.61
주로	-11.6109
▁교무들	-11.611
용한	-11.6116
法身	-11.6116
신통	-11.6118
▁들어와	-11.6123
▁붓으로	-11.6123
▁순리	-11.6129
수는	-11.613
僞	-11.6134
공보다	-11.6134
▁자비심이	-11.6137
마침	-11.6138
▁썼	-11.6146
▁분분하	-11.6151
▁교역	-11.6154
大業	-11.6158
대전	-11.6159
▁가까와	-11.616
▁스승님께	-11.6163
▁애석	-11.6166
▁중화	-11.6167
자동	-11.6172
▁자리니	-11.6174
▁사지	-11.6176
성지	-11.6177
▁건너	-11.6181
▁거느	-11.6182
▁음식이	-11.6182
▁설위	-11.6184
▁주교	-11.6187
▁지엽	-11.6189
하시나니	-11.6192
▁승하	-11.6196
▁배운	-11.6196
增上	-11.6197
0]	-11.6202
▁슬기	-11.6204
롭지	-11.6204
▁장학	-11.6206
무지	-11.621
▁물으	-11.6211
하였을	-11.6212
우면	-11.6215
具足色身	-11.622
▁당장	-11.6223
▁되는가	-11.6223
▁굶	-11.6223
▁원동력	-11.6225
시키기	-11.6228
▁후원으로	-11.6229
▁다스	-11.6231
▁더럽	-11.6232
불공	-11.6232
께옵서	-11.6232
▁즐	-11.6232
세상이	-11.6237
▁허영	-11.6238
건대	-11.624
강에	-11.6242
산에서	-11.6245
覓	-11.6245
작용하는	-11.6246
▁마쳤	-11.6246
쇄	-11.625
▁쏟	-11.625
버리	-11.6252
▁법마상전	-11.6252
▁부끄러	-11.6254
녕	-11.6255
勳	-11.6258
▁같으니	-11.6258
富	-11.6259
哉	-11.6259
弟	-11.6259
漏	-11.6259
肉	-11.6259
舊	-11.626
露	-11.626
趙	-11.626
迎	-11.626
c	-11.626
提	-11.626
連	-11.626
不可思議	-11.626
醜陋	-11.6261
客	-11.6261
脫	-11.6261
奎	-11.6261
丹	-11.6261
億	-11.6261
C	-11.6261
六途	-11.6261
k	-11.6261
序	-11.6261
ht	-11.6261
句	-11.6261
y	-11.6261
向	-11.6261
關	-11.6261
符	-11.6261
硏	-11.6261
秋	-11.6261
莊嚴	-11.6261
個	-11.6261
飢	-11.6261
▁염라국	-11.6261
俗	-11.6261
冬	-11.6261
吳昌建	-11.6261
待	-11.6261
朝	-11.6261
浪	-11.6261
濕	-11.6261
筆	-11.6261
車	-11.6261
▁善知敬	-11.6261
▁안창호	-11.6261
囊	-11.6261
孔	-11.6261
察	-11.6261
尋	-11.6261
棄捨	-11.6261
濁	-11.6261
狂	-11.6261
角	-11.6261
骨	-11.6261
▁亦復如是	-11.6261
▁信解受持	-11.6261
▁均調昏亂	-11.6261
▁거둬	-11.6261
▁급선무	-11.6261
▁나머지	-11.6261
▁덕송옥	-11.6261
▁몰랐	-11.6261
▁뭔가	-11.6261
▁밑받침	-11.6261
▁뱃	-11.6261
▁뼈	-11.6261
▁서울회관	-11.6261
▁쏠리	-11.6261
▁어짊	-11.6261
▁잠깐	-11.6261
▁피땀	-11.6261
佛日增輝	-11.6261
侍	-11.6261
候	-11.6261
兒	-11.6261
却	-11.6261
君	-11.6261
師傅前	-11.6261
恨	-11.6261
慰	-11.6261
懶	-11.6261
救	-11.6261
易	-11.6261
李載	-11.6261
棟	-11.6261
棺	-11.6261
永天永地	-11.6261
洽	-11.6261
渴	-11.6261
澁	-11.6261
盖	-11.6261
碧	-11.6261
祈禱	-11.6261
經綸	-11.6261
綺語	-11.6261
群	-11.6261
詩	-11.6261
誑	-11.6261
譯	-11.6261
賞	-11.6261
走	-11.6261
金光旋	-11.6261
鏡	-11.6261
顚倒	-11.6261
鬪	-11.6261
낀	-11.6261
덥	-11.6261
뜬	-11.6261
센	-11.6261
즘	-11.6261
츰	-11.6261
퍽	-11.6261
펄	-11.6261
▁곁	-11.6261
▁땀	-11.6261
▁안타까	-11.6261
塗	-11.6261
崔道華	-11.6261
干	-11.6261
特	-11.6261
獲	-11.6261
碑	-11.6261
約	-11.6261
臣	-11.6261
薦度	-11.6261
謹	-11.6261
速	-11.6261
閣	-11.6261
鷄	-11.6261
신분검사	-11.6261
▁形容	-11.6261
▁강일순	-11.6261
▁무문관	-11.6261
▁사홍서원	-11.6261
偸	-11.6261
宇	-11.6261
導	-11.6261
支	-11.6261
敷	-11.6261
業報差別	-11.6261
洋	-11.6261
災	-11.6261
碩	-11.6261
移	-11.6261
融	-11.6261
覩	-11.6261
誨	-11.6261
議	-11.6261
金正勇	-11.6261
揭諦	-11.6261
▁한국전쟁	-11.6261
保任	-11.6261
喩	-11.6261
恥	-11.6261
送	-11.6261
▁동화병원	-11.6261
▁어떠하더냐	-11.6261
每	-11.6261
牧牛	-11.6261
磊	-11.6261
綠	-11.6261
▁중앙교의회	-11.6261
▁見他失	-11.6261
▁살신성인	-11.6261
決定報	-11.6261
▁평교간이	-11.6261
火宅	-11.6261
▁보답하옵기	-11.6261
授記	-11.6261
▁몰두하	-11.6261
▁생애였	-11.6261
諦聽	-11.6261
蓮花	-11.6261
▁日久	-11.6261
▁육영재단	-11.6261
▁떠오르	-11.6261
回向	-11.6261
▁돌이키	-11.6261
注意	-11.6261
幾千	-11.6261
▁최도화	-11.6261
千峰	-11.6261
▁何況	-11.6261
▁혼돈	-11.6261
▁명절대재	-11.6261
戴謝式	-11.6261
應無所住	-11.6261
▁노년기에	-11.6262
▁흥왕하	-11.6262
▁我當	-11.6262
▁口行	-11.6262
理懺	-11.6262
▁훈훈	-11.6262
法認	-11.6262
▁모략	-11.6262
十二因緣	-11.6262
信仰	-11.6262
大圓正覺	-11.6262
▁不知敬	-11.6262
▁터인즉	-11.6262
▁궁촌	-11.6262
▁재겸	-11.6262
威德	-11.6262
事懺	-11.6262
▁육도사생	-11.6262
修羅	-11.6262
▁충돌	-11.6262
▁광활	-11.6262
▁분쟁	-11.6262
情曲	-11.6262
▁성불제중	-11.6262
▁莫作是念	-11.6262
▁손가락	-11.6262
▁한가롭	-11.6262
▁원융	-11.6262
圓滿	-11.6262
▁가리왕	-11.6262
▁밝혔	-11.6262
▁何假	-11.6262
陰陽	-11.6262
▁반기복	-11.6262
건곤	-11.6262
▁아만심	-11.6262
▁광채	-11.6262
▁생겼	-11.6262
精神	-11.6262
▁군색	-11.6262
淸風	-11.6262
▁밝아져서	-11.6262
▁如是如是	-11.6262
▁헌축	-11.6262
石頭	-11.6262
▁언답	-11.6262
▁두려움	-11.6263
開悟	-11.6263
八條	-11.6263
▁名爲	-11.6263
▁意行	-11.6263
▁今時	-11.6263
▁강녕	-11.6263
▁월례	-11.6263
神通	-11.6263
▁見諸	-11.6263
▁두드러	-11.6263
智愚	-11.6263
▁추루	-11.6263
▁언어도단	-11.6263
▁들으시매	-11.6263
[18]	-11.6263
▁연필	-11.6263
▁자력양성	-11.6263
合其	-11.6263
▁所言	-11.6263
▁목례	-11.6263
▁탈선	-11.6263
習氣	-11.6263
▁받았으니	-11.6263
▁뜨거	-11.6263
▁맞이하오니	-11.6263
▁중앙단원	-11.6263
▁존속	-11.6263
▁춤추	-11.6264
▁탄식	-11.6264
▁험난	-11.6264
▁가끔	-11.6264
▁가깝	-11.6264
聽法	-11.6264
▁존모	-11.6264
慧命	-11.6264
▁팔타원	-11.6264
▁은법형	-11.6264
安樂	-11.6264
▁최상승	-11.6264
最上乘	-11.6264
▁십계문	-11.6264
法勳	-11.6264
眞如	-11.6264
磨	-11.6264
▁업신여기	-11.6265
▁응당	-11.6265
▁흡수	-11.6265
生活	-11.6265
▁일어난	-11.6265
▁녹듯	-11.6265
子女	-11.6265
▁존야기	-11.6265
▁노예	-11.6265
▁제불제성	-11.6265
▁개폐	-11.6266
▁애국	-11.6266
▁혼잡	-11.6266
▁분향	-11.6266
▁허용	-11.6266
法器	-11.6266
進行	-11.6266
▁견해	-11.6266
至善	-11.6267
通用	-11.6267
▁만남이요	-11.6267
▁너그러	-11.6267
爲主	-11.6267
▁게으름	-11.6267
▁양육	-11.6267
▁雖有	-11.6267
반야바라밀다심경	-11.6267
원불교예전	-11.6267
▁다닌다	-11.6267
▁삼켜	-11.6267
正因	-11.6267
化身	-11.6268
▁쏟아져	-11.6268
▁제약사	-11.6268
▁받았으며	-11.6268
▁어려웠	-11.6268
▁학위	-11.6268
靈氣	-11.6268
▁초래하	-11.6268
▁망동	-11.6269
▁객진	-11.6269
어학원	-11.6269
▁입정처	-11.6269
▁천륜	-11.6269
▁未	-11.6269
言說	-11.6269
與我	-11.6269
▁현성들	-11.627
▁평안	-11.627
▁은부자	-11.627
▁변론	-11.627
▁축전	-11.627
▁아니하였으므로	-11.627
▁나타남	-11.627
▁역순	-11.627
▁증세	-11.627
▁모자람	-11.6271
▁모른다	-11.6271
준하여	-11.6271
▁心無	-11.6271
▁못하였는가	-11.6271
▁갑오	-11.6271
▁강급기에	-11.6271
▁임종	-11.6271
▁구습	-11.6271
▁재판	-11.6271
▁무엇이오니까	-11.6271
▁올리는지라	-11.6271
▁안정시키고	-11.6271
▁나타났다	-11.6272
相傳	-11.6272
▁밝히시니	-11.6272
▁박애	-11.6272
▁선사께서	-11.6273
後修	-11.6273
燃燈佛	-11.6273
▁파당	-11.6273
색채	-11.6273
▁백골	-11.6273
▁아니하였음이니라	-11.6273
▁학교에서	-11.6273
事理	-11.6273
▁내다보	-11.6274
▁경강	-11.6274
▁권유	-11.6274
▁업연	-11.6274
成聖	-11.6274
▁언덕	-11.6274
▁불과하나	-11.6274
▁이루어지나니	-11.6275
▁자랄	-11.6275
▁대자유	-11.6275
▁착심에	-11.6275
▁세칙	-11.6275
▁용광로	-11.6276
▁비춰	-11.6276
▁대표하와	-11.6276
▁소례	-11.6276
▁모셨	-11.6276
▁새끼	-11.6277
▁중죄	-11.6277
▁십자가	-11.6277
佛恩	-11.6277
觀心	-11.6277
▁삼매화	-11.6277
▁어려울지라	-11.6277
▁만겁	-11.6278
▁공효	-11.6278
▁북일	-11.6278
득하여	-11.6278
▁많았으나	-11.6278
▁동국	-11.6278
▁묘방	-11.6279
無德	-11.6279
▁동네	-11.6279
▁당인들	-11.628
교례편	-11.628
▁선각자	-11.628
▁상좌	-11.628
▁들어갔다	-11.6281
▁은현	-11.6281
▁강력	-11.6281
▁무료	-11.6281
▁감옥	-11.6281
▁오른쪽	-11.6281
▁대질리	-11.6282
▁아니냐	-11.6282
▁잡으라	-11.6283
▁연화	-11.6283
▁않았으나	-11.6284
▁않사오리까	-11.6284
▁않사오니	-11.6284
▁유산자	-11.6285
一食	-11.6285
▁묘용	-11.6285
▁대기도회	-11.6286
▁연합회	-11.6286
▁알겠는가	-11.6286
▁출장	-11.6287
▁인색	-11.6287
▁있었사오니	-11.6287
▁지묵	-11.6287
▁연꽃	-11.6287
▁진리로	-11.6288
▁친선	-11.6288
▁남용하여	-11.6288
▁구경처	-11.6289
▁순리로	-11.6289
▁굽어	-11.6289
▁실재	-11.629
▁트집	-11.629
▁도처에	-11.629
在家	-11.629
▁않으리라	-11.6291
▁진위	-11.6291
▁법칙	-11.6291
▁공존	-11.6292
▁심안	-11.6292
人生	-11.6293
▁살필	-11.6293
▁사무처	-11.6293
▁비평	-11.6294
▁부질없	-11.6295
춘천	-11.6295
배은	-11.6295
▁출현하시와	-11.6295
▁좌편	-11.6296
였	-11.6297
▁흥하게	-11.6297
▁토양	-11.6299
▁모르는데	-11.6299
▁놓았다	-11.63
▁잡철	-11.63
▁불과하나니	-11.63
▁호위하	-11.63
▁반포	-11.6301
▁섬	-11.6301
▁달라서	-11.6301
▁낙성	-11.6302
▁역방하	-11.6302
▁닦으며	-11.6302
生心	-11.6302
▁못하거늘	-11.6302
▁멸하지	-11.6303
▁갖추려	-11.6303
▁연습하기	-11.6304
▁동문	-11.6304
▁무능	-11.6304
▁경외	-11.6304
▁화신불	-11.6305
大事	-11.6305
無處	-11.6305
▁언동	-11.6306
▁현재까지	-11.6306
▁출진	-11.6307
▁건설한다	-11.6307
▁청산하	-11.6308
▁무력	-11.6309
▁더럽히	-11.6309
▁어기고	-11.6309
▁겸손하고	-11.631
▁소위	-11.631
▁발하시고	-11.631
▁근동	-11.6311
▁자성불	-11.6312
▁없었으며	-11.6312
▁소멸하여	-11.6314
▁구비하	-11.6314
▁개인적으로	-11.6314
▁주봉	-11.6314
▁스승님들께서	-11.6314
▁모르나니	-11.6315
▁청수	-11.6317
▁구성하여	-11.6318
▁시행되	-11.6318
▁해변	-11.6318
▁들으니	-11.6319
正心	-11.6319
▁집심	-11.632
▁학자들	-11.632
▁음욕	-11.6321
▁징	-11.6322
,000	-11.6322
▁거진	-11.6322
▁망어	-11.6324
▁여김이	-11.6324
▁바치며	-11.6325
▁산아	-11.6325
增上心	-11.6326
▁나열	-11.6327
▁身行	-11.6327
▁육대	-11.6327
▁당하였으나	-11.6327
者說	-11.6328
▁풀지	-11.6329
▁않음이요	-11.6329
▁법락	-11.633
▁잇고	-11.633
▁맞이하와	-11.6331
▁없도다	-11.6332
言之	-11.6332
▁삼건	-11.6332
▁천주교	-11.6335
▁열매	-11.6335
▁주창하	-11.6336
▁성직자	-11.6336
▁연합장	-11.6337
▁더디	-11.6338
▁알리어	-11.6338
▁성조	-11.6338
월호	-11.6339
▁생겨서	-11.634
▁정체	-11.634
▁등속	-11.634
▁내방	-11.6341
▁아니지마는	-11.6342
▁고집하	-11.6342
▁불상에게	-11.6343
▁하실	-11.6343
▁권면하여	-11.6343
▁못했	-11.6343
▁종교로서	-11.6343
법으로	-11.6343
▁주나니	-11.6343
▁사망	-11.6344
▁입장에서	-11.6345
▁요동하	-11.6345
▁금하지	-11.6345
▁넣	-11.6346
합기	-11.6347
▁만행	-11.6349
▁사리자	-11.6349
師兄	-11.635
▁달래	-11.635
▁권두	-11.6351
▁열린다	-11.6351
▁송주	-11.6351
▁사체	-11.6352
▁실상사	-11.6352
▁후대에	-11.6355
▁살리고	-11.6355
인즉	-11.6355
▁해에	-11.6357
▁비교	-11.6357
▁한글	-11.6357
▁권력	-11.6358
▁부모국	-11.6358
▁이때에	-11.6359
▁불구자	-11.6359
▁모이고	-11.6359
▁신정	-11.636
▁발기인	-11.636
▁콩	-11.636
▁통리	-11.6361
漸修	-11.6361
▁골자	-11.6362
▁종사께	-11.6362
덕이	-11.6362
▁애석하	-11.6362
▁빠진	-11.6364
▁둥	-11.6364
하였노라	-11.6364
▁於此	-11.6365
독로	-11.6366
▁이제부터	-11.6366
▁거두고	-11.6366
之功	-11.6367
▁발아	-11.6367
▁신용이	-11.6367
▁하섬	-11.6368
▁觀如來	-11.6368
▁遠離	-11.6368
▁작정하	-11.6368
▁영도자	-11.6369
▁선양하	-11.6369
▁봉황	-11.637
▁몽매	-11.637
▁그중에서	-11.637
▁길흉	-11.6371
▁태평	-11.6371
▁況	-11.6371
▁가마귀	-11.6372
▁캠퍼스	-11.6372
▁뿐더러	-11.6373
▁김광선	-11.6373
▁종교연합	-11.6373
▁곡절	-11.6374
▁양족	-11.6375
▁동산선원	-11.6375
▁동정일여	-11.6375
▁일심합력	-11.6376
▁마쳤다	-11.6376
▁중고등학교	-11.6376
회에	-11.6376
▁기업체	-11.6377
▁광복	-11.6377
▁조견	-11.6378
▁아량	-11.6378
▁세탁	-11.6378
▁태중에서	-11.6379
▁공경하며	-11.638
▁장애	-11.638
▁지키되	-11.638
得道	-11.6381
▁팔조목	-11.6381
▁겉으로	-11.6382
▁하셨으므로	-11.6383
▁공물	-11.6383
▁어렵다	-11.6384
[4]	-11.6385
▁채워	-11.6385
▁물고기	-11.6385
▁영역	-11.6386
▁문자에	-11.6387
▁자리로서	-11.6387
▁황등	-11.6387
▁장귀	-11.6388
▁해설하	-11.6388
▁중등	-11.6389
▁삼천년	-11.639
▁정곡	-11.639
▁조사법	-11.6391
▁학생들	-11.6393
▁강습회	-11.6394
▁상설	-11.6395
▁증산교	-11.6395
▁수행하	-11.6396
▁미주	-11.6396
▁199	-11.6396
라하니	-11.6396
▁봉우리	-11.6397
▁얻었고	-11.6398
가사량	-11.6398
▁터이니	-11.6398
▁장난	-11.6399
▁7.7	-11.6399
▁입장식	-11.6399
▁넘나	-11.64
▁시기라	-11.6401
▁애착이	-11.6402
▁부자유	-11.6404
▁주권	-11.6405
▁전체장	-11.6405
▁헌장	-11.6406
▁체요	-11.6407
▁심계	-11.6408
▁만전	-11.641
▁쓰기	-11.6413
▁궁극	-11.6413
▁일으키고	-11.6414
▁신체	-11.6415
▁용처	-11.6415
▁희사하여	-11.6415
▁동양	-11.6416
▁운상	-11.6418
▁벼	-11.6419
▁친구	-11.6421
▁실시하여	-11.6421
▁주색	-11.6421
▁은법결의	-11.6421
▁대처하	-11.6421
▁삼위	-11.6423
되었으나	-11.6424
▁기연이	-11.6424
▁계발하고	-11.6424
▁출세하여	-11.6425
▁금연	-11.6425
▁소중한	-11.6426
▁공간	-11.6426
.[1	-11.6429
▁무량수	-11.643
▁위안	-11.6431
▁여진	-11.6432
▁작업으로	-11.6433
▁상대처	-11.6435
▁연구소	-11.6436
[6]	-11.6437
▁墮	-11.6438
졌으며	-11.644
▁발달되	-11.644
▁은부	-11.6445
▁이루어지고	-11.6446
▁살리	-11.6447
상장	-11.6447
▁오시고	-11.6449
▁차지하고	-11.645
▁교육이니	-11.6451
▁고역	-11.6454
然燈佛	-11.6456
▁만나시었	-11.6456
▁是諸	-11.6457
▁아래에서	-11.6459
작	-11.6459
▁정조	-11.6459
▁일임	-11.6463
▁미타	-11.6463
▁명예욕	-11.6465
▁훈사	-11.6467
▁탐내	-11.6468
▁녹아지	-11.6469
▁심심	-11.6469
▁미소	-11.647
▁살리라	-11.647
▁많아지	-11.6471
▁남과	-11.6472
▁차별법	-11.6472
▁버린	-11.6474
▁기도문	-11.6476
▁예절	-11.6476
▁경축식	-11.6476
▁사문	-11.6476
▁탁태되	-11.6477
▁사연	-11.6477
▁정금	-11.6479
▁말년에	-11.648
▁만덕산에	-11.6482
남도	-11.6485
▁말하리라	-11.6485
▁객심	-11.6486
▁주의하며	-11.6488
▁도량에서	-11.6489
▁도량이라	-11.649
하였더니	-11.6494
▁유가에서	-11.6494
▁촌	-11.6495
▁하나하나	-11.6498
▁짓는다	-11.65
▁심천	-11.6501
▁빈부	-11.6501
▁왜	-11.6502
▁헐	-11.6502
▁잔	-11.6502
▁은밀	-11.6509
▁탄	-11.651
▁태자	-11.651
▁대도며	-11.6511
非法	-11.6511
▁지목	-11.6512
.」「	-11.6512
▁잠기	-11.6513
▁허영심	-11.6513
▁확립하고	-11.6513
▁수위단회에서는	-11.6515
▁망녕되	-11.6515
▁소개하고	-11.6515
▁常	-11.6515
▁번째	-11.6516
不樂	-11.6516
▁걱정할	-11.652
▁혁신론	-11.6521
▁참여하	-11.6521
▁흔들려	-11.6522
일도	-11.6522
▁빛내	-11.6522
▁직할	-11.6522
者也	-11.6524
▁대우법	-11.6524
▁쌓여	-11.6524
18	-11.6524
시하여	-11.6525
大乘	-11.6525
▁요양원	-11.6526
兩門	-11.6527
▁보려	-11.6527
▁무기	-11.6527
▁참회라	-11.6528
▁일자	-11.6528
▁가니	-11.6531
▁처해	-11.6531
▁분야에서	-11.6537
▁쇠함	-11.6537
▁천만가지	-11.6539
▁연속	-11.6539
▁사무치	-11.6541
▁못하다	-11.6543
慧門	-11.6545
千里	-11.6545
▁무궁화	-11.6546
▁평정	-11.6547
▁분이라	-11.6547
▁보내기	-11.6547
▁공급	-11.6548
▁제거할	-11.6548
▁동지요	-11.6551
▁삼산	-11.6551
▁표하고	-11.6552
▁성취하여	-11.6554
기구	-11.6554
一貫	-11.6555
▁받아들이	-11.6555
▁이루어진	-11.6557
되므로	-11.6561
▁설명하여	-11.6562
▁안전	-11.6564
▁정토회	-11.657
▁각별	-11.657
▁교서들	-11.6571
▁물품이	-11.6573
▁뛰어나	-11.6577
▁것이지마는	-11.6578
▁일시적으로	-11.6579
▁간섭	-11.6582
모의	-11.6584
▁대적	-11.6587
어니	-11.659
착하	-11.6594
▁대하	-11.6595
신상	-11.6597
▁심월	-11.6599
差別	-11.66
▁단기	-11.6601
▁간다	-11.6603
▁환영과	-11.6603
▁알맞	-11.6607
▁장만하기	-11.6609
▁휴	-11.6609
사상	-11.6616
▁조심하고	-11.6618
해지며	-11.6618
▁원시	-11.6623
▁지기	-11.6625
▁증답	-11.6626
▁후부터	-11.6626
▁찾으시	-11.6629
萬德	-11.6633
▁맑아	-11.6634
▁난경에	-11.6638
▁必	-11.6639
▁아니하셨	-11.6639
▁폐물이	-11.664
▁총회에	-11.6641
▁요인들	-11.6642
▁행하되	-11.6644
▁꿀	-11.6646
▁任運	-11.6647
▁주역	-11.6648
▁만성	-11.665
▁불공법	-11.665
은족	-11.6653
▁내기	-11.6655
▁취함이	-11.6655
▁둥글	-11.6655
▁회합	-11.6659
▁갈망하	-11.6663
▁속여	-11.6663
▁진화시키	-11.6664
선의	-11.6664
▁개령	-11.6665
▁아나	-11.6669
▁성취하는	-11.6671
▁一時	-11.6673
▁주었	-11.6673
▁중생으로	-11.6674
▁갚지	-11.6679
▁깨끗하	-11.668
▁변할	-11.6681
▁여하	-11.6686
消滅	-11.6688
可思量	-11.6692
▁시주	-11.6694
▁진성	-11.6695
▁불상에	-11.6695
▁계산하	-11.6696
▁원인은	-11.6696
▁현실에	-11.6696
▁주해	-11.6699
▁깨어	-11.6701
▁행하기	-11.6701
(1	-11.6709
▁상도	-11.671
▁가을에	-11.6712
▁하늘이요	-11.6713
▁피하고	-11.6714
▁지었다	-11.6715
▁가호	-11.6724
▁거년	-11.6725
▁공도사업	-11.6725
▁당대에	-11.6727
▁대회에서	-11.6732
속에서	-11.6732
▁만복	-11.6741
▁又	-11.6743
▁삼기	-11.6746
▁촉구	-11.6747
천이	-11.6748
無情	-11.6752
▁보거나	-11.676
▁했	-11.6761
▁법문으로	-11.6763
▁했는데	-11.6763
▁거짓으로	-11.6764
25	-11.6772
▁선원으로	-11.6774
2)	-11.6777
▁결의가	-11.678
▁진면	-11.6781
富樂	-11.6781
▁기도식	-11.6785
▁걸리지	-11.6785
▁대도라	-11.6788
▁是知	-11.6788
▁복구	-11.679
諸法	-11.6795
▁인작	-11.6796
▁돌로	-11.6798
▁천도교	-11.6801
했고	-11.6801
善惡	-11.6802
▁보리	-11.6802
▁돋	-11.6803
▁조만	-11.6804
부러	-11.6806
▁엎드	-11.6809
▁유감이	-11.6813
▁다하라	-11.6814
회상	-11.6814
▁道場	-11.6816
▁46)	-11.6818
▁깊어지	-11.6819
▁뜨면	-11.6819
▁날이요	-11.682
▁경동	-11.6822
▁연계	-11.6827
▁계속하다	-11.683
▁불교로	-11.6832
▁종지로	-11.6839
▁조서	-11.6842
趣	-11.6844
▁滿	-11.6844
▁개화	-11.6845
▁발기	-11.6845
輪廻	-11.6847
하옵는데	-11.6848
▁효자	-11.6849
하였음이니라	-11.685
▁복기	-11.6852
제도와	-11.6855
▁만족하	-11.6855
▁시절에	-11.6855
▁인복	-11.6856
▁정녀들	-11.6861
▁無有	-11.6863
▁없어진다	-11.6865
▁들으시	-11.6868
徐大	-11.687
▁먼지	-11.6871
용신	-11.6873
▁지음	-11.6878
▁즐거워	-11.6884
▁열으	-11.6884
신이	-11.6885
▁보류	-11.6886
법의	-11.6889
▁잃으	-11.689
▁바라지	-11.6901
▁말하기	-11.6903
▁영전에	-11.6906
▁커나	-11.6907
▁연구하고	-11.6908
▁창립주	-11.6908
▁결심하	-11.691
▁처사하	-11.691
▁태극기	-11.6917
갱생	-11.6921
구한	-11.6921
▁이후에	-11.6926
▁임명되었	-11.6928
▁의혹이	-11.6932
▁닦음이	-11.6934
▁오해	-11.6936
민들	-11.6938
▁夜	-11.694
▁毁	-11.694
▁일념에	-11.6941
▁뵈오	-11.6942
▁내생에	-11.6947
▁기름	-11.6948
▁도덕이요	-11.6948
회계	-11.6951
▁거행함	-11.6952
▁대가	-11.6955
▁공부해	-11.696
▁전화	-11.696
▁지방에서	-11.6964
▁당하기	-11.6966
▁찾아오	-11.6967
▁면에서	-11.6971
▁말해	-11.6971
師友	-11.6976
▁발휘하여	-11.6977
이거든	-11.6977
▁끝나기	-11.6979
▁출생한	-11.6979
▁누르	-11.6981
▁배은자	-11.6983
▁성공하기	-11.699
▁조행	-11.6992
▁보복	-11.7
▁내면	-11.7017
▁일성이	-11.7018
▁삼라	-11.702
1935	-11.7021
▁덕치	-11.7021
오다가	-11.7022
▁고대	-11.7024
▁나아가고	-11.703
▁나오지	-11.7033
▁교화함이	-11.7035
五百	-11.7035
▁띠	-11.704
人相	-11.7051
님께서	-11.7053
▁육영	-11.7059
▁잡히	-11.7061
▁걸고	-11.7061
본교는	-11.7062
▁汝若	-11.7064
▁정월	-11.7067
▁상전	-11.7069
▁부임	-11.707
圓正	-11.7074
▁이름으로	-11.7076
▁벗어나고	-11.7077
▁수행하여	-11.7079
▁축원하	-11.7079
▁법등	-11.7088
▁죄벌이	-11.709
▁천지에게	-11.7092
으셨나니	-11.7093
▁만나는	-11.7095
▁편제	-11.7098
▁필요하다	-11.71
▁신앙문	-11.7101
셨으니	-11.7105
▁공헌함	-11.7106
▁육신으로	-11.7107
▁제창하시	-11.7109
▁조상이	-11.7113
▁시시	-11.7121
▁대자비	-11.7125
▁삼대력이	-11.7129
경에	-11.7129
▁창도	-11.7134
사자	-11.7136
내어	-11.7137
▁채찍질	-11.7139
▁두며	-11.7139
心訣	-11.714
▁기관에서	-11.7143
▁방문하	-11.7145
실에	-11.715
▁동거	-11.716
▁소의	-11.716
▁사당	-11.7163
시었나니	-11.7164
▁변경	-11.7165
圓佛敎	-11.7165
▁장려한	-11.7168
▁불가	-11.717
▁장벽이	-11.717
▁주장하	-11.7175
▁과학이	-11.7175
▁어제	-11.7185
▁일심에	-11.7186
보지	-11.719
▁내조	-11.7199
大明	-11.7199
▁잘못하	-11.72
▁위주하여	-11.7204
▁수행문	-11.7206
▁피은자	-11.7214
▁먹이는	-11.7215
▁어기	-11.7215
▁과도	-11.7219
▁가리어	-11.7221
▁관공	-11.7223
하였는데	-11.7227
▁78	-11.7229
▁전성	-11.7233
▁건설하자	-11.7234
▁서원하고	-11.7235
운하	-11.7237
놓고	-11.7239
책으로	-11.7252
▁해결하는	-11.7254
▁갚는	-11.7254
착	-11.7261
색이	-11.7262
▁진세	-11.7263
▁대법이	-11.7264
▁오후에	-11.7265
71.	-11.7265
▁적어	-11.727
▁곳곳에	-11.728
▁개선되	-11.7281
▁법이며	-11.7287
▁순종	-11.7291
▁云何	-11.7291
▁희미해	-11.7295
▁원년	-11.7295
▁바라고	-11.7295
▁亦是	-11.7299
同心	-11.73
렀다	-11.7306
▁한탄하	-11.7308
▁회화	-11.732
▁발휘할	-11.7321
상에서	-11.7324
아질	-11.7324
▁상대방에	-11.7325
▁여길	-11.7326
그러하	-11.7326
▁거상	-11.7328
▁可以	-11.7329
▁지나면	-11.7332
▁거듭하	-11.7334
▁복만	-11.7334
▁영광에	-11.7337
▁하오며	-11.7338
i	-11.734
▁탈	-11.734
▁합력하	-11.7359
▁밝으면	-11.736
순을	-11.7365
치에	-11.7365
(1916	-11.7369
▁성공시키	-11.7378
▁향상심	-11.7379
▁만들지	-11.7381
聞法	-11.7382
구인	-11.7389
▁곡	-11.7399
▁빌어	-11.74
▁순사	-11.7403
▁근면	-11.7406
▁예시하	-11.7416
합하여	-11.7417
▁외람	-11.7419
▁파도	-11.7421
▁골라져	-11.7422
▁항산	-11.7423
▁합하	-11.7423
작은	-11.7425
주지	-11.7427
▁조선에	-11.7429
▁공금	-11.7432
케하	-11.7433
▁두호하	-11.7439
으려고	-11.744
▁수호하	-11.7441
▁한마음	-11.7444
푼	-11.7447
범부	-11.7456
▁회사	-11.746
▁등한시	-11.7461
無窮	-11.7467
▁종재식에	-11.7468
되느니라	-11.7469
(7	-11.747
그대들이여	-11.7476
▁불교에	-11.7484
▁更無	-11.7487
▁세상일	-11.7488
▁장성하	-11.7491
원에서	-11.7495
▁65	-11.7497
▁노인들	-11.7497
▁인간과	-11.7498
▁각국에	-11.7499
▁경영	-11.75
▁母	-11.7502
▁일미	-11.7504
▁해득	-11.7504
▁함지	-11.7504
▁요구하는	-11.7505
▁심상	-11.7508
나가는	-11.751
버리고	-11.7511
시던	-11.7516
▁결제식에	-11.7519
▁적공이	-11.752
▁마음속에	-11.7521
▁경문	-11.7522
▁불민	-11.7523
▁연기	-11.7525
▁정계	-11.7527
▁남용	-11.7534
▁스승들	-11.754
▁적극적	-11.7548
▁시장	-11.7548
▁힘입	-11.7549
▁보자	-11.755
▁임명	-11.755
련한	-11.7551
▁선이라	-11.756
▁근본이라	-11.7561
▁조심해	-11.7564
▁나타나기	-11.7565
▁종교로	-11.7565
▁쌍전하여	-11.7565
으리오	-11.7565
▁除	-11.7566
▁일합상이	-11.7567
▁정원	-11.7568
1953	-11.758
으셨	-11.758
▁성대	-11.7585
▁불교계	-11.7585
▁두신	-11.7594
▁있으리	-11.7594
▁出家	-11.7599
응하는	-11.7608
▁종교학	-11.7608
▁분발하	-11.7611
▁돌아가는	-11.7618
▁하감하	-11.7621
▁끝마	-11.7626
▁꺼리	-11.7629
▁그것이니	-11.7638
문은	-11.7642
▁박히	-11.7642
▁거칠	-11.7644
지면	-11.7653
▁中	-11.7656
▁열의	-11.766
이시며	-11.766
▁신라	-11.766
▁무엇이라	-11.7663
닭이	-11.7665
▁화육하	-11.7668
▁빠르	-11.767
▁신근	-11.767
(197	-11.7673
▁煩惱	-11.7673
원화	-11.7677
▁역사적	-11.7678
▁구분하	-11.7687
▁열반하	-11.7688
▁식물이	-11.7689
▁유족	-11.769
▁정하였나니	-11.7695
▁병원에	-11.7697
▁持	-11.7699
惡行	-11.7701
▁특성	-11.7701
▁보전	-11.7703
침	-11.7705
사업을	-11.771
▁튼튼	-11.771
▁편성하	-11.7711
▁운	-11.7724
▁다수	-11.773
▁대권	-11.773
▁가진다	-11.7738
▁이의	-11.775
▁휴간	-11.7756
사께서	-11.7761
화하여	-11.7763
標	-11.7766
▁공영	-11.7768
으려니와	-11.7769
▁일까지	-11.7771
▁일이든	-11.7773
▁주변에	-11.7776
▁없어지나니	-11.7779
▁세상이라	-11.7781
▁說	-11.7782
▁밝은가	-11.7783
▁도착	-11.7787
▁상에	-11.7788
▁경전에	-11.7789
▁반기	-11.779
▁편착하	-11.7792
▁갚아	-11.7793
인간	-11.78
▁집행	-11.7828
世間	-11.783
▁관조하	-11.7832
▁분망	-11.7834
▁위경	-11.7835
천에	-11.7836
이러	-11.7838
▁새기	-11.7845
▁而不	-11.7846
雙	-11.7846
▁보수	-11.7846
▁奉	-11.7847
오직	-11.7849
▁당자	-11.7849
▁선도하는	-11.7862
▁극락이	-11.7863
3]	-11.7871
▁튼튼하	-11.7872
▁벌어	-11.7878
▁세우기	-11.7882
▁이동	-11.7883
크게	-11.7884
▁어리석지	-11.7885
▁사업심	-11.79
▁내정	-11.7902
▁迷	-11.7903
▁직장	-11.7908
▁내왕하	-11.7914
았느니라	-11.7915
▁대종사에	-11.792
▁관계자	-11.7921
▁이날	-11.7923
▁대적공하	-11.7924
물이요	-11.7924
▁설법은	-11.7926
▁소득이	-11.7927
▁속인	-11.7939
아니라	-11.7942
▁이익주	-11.7944
▁교산	-11.7944
▁모양이	-11.7947
▁위인	-11.7949
▁소임	-11.795
▁선교	-11.7951
▁200	-11.7959
先悟後修	-11.7966
▁분산	-11.7967
▁중천	-11.797
▁형이	-11.7987
▁인수	-11.7993
▁병에	-11.7994
▁표시하	-11.7999
▁화한	-11.8004
사심이	-11.8007
▁머금	-11.8009
▁박멸하	-11.8009
▁각성이	-11.8009
▁좌절되	-11.8013
주군	-11.8015
▁사조	-11.8021
▁원심	-11.8023
▁원평에	-11.8036
g	-11.8037
en	-11.8038
교가	-11.8039
수자	-11.8039
▁남기	-11.804
▁속임이	-11.804
▁치성하	-11.8043
▁섭섭하	-11.8046
▁내세우	-11.805
▁편입되었	-11.8052
복과	-11.8053
▁칭찬하	-11.8055
▁신근이	-11.8061
신부	-11.807
었는가	-11.8072
▁이들이	-11.8074
▁일부에	-11.8077
▁출현하시	-11.8091
▁과일	-11.8091
왕왕	-11.8099
▁여시	-11.8104
非非	-11.8104
근본	-11.8105
면에	-11.8107
▁형편이	-11.8112
▁소개하	-11.8124
받아	-11.8127
▁필요하	-11.8132
1920	-11.8133
동하여	-11.8134
▁기관지	-11.8135
▁만방	-11.8136
▁전지	-11.8138
▁자모	-11.8138
▁지지	-11.8138
▁모르는가	-11.8145
▁등한시하	-11.8145
▁높아	-11.8149
▁소유한	-11.815
▁당인에	-11.8152
▁믿으	-11.8152
▁선생님	-11.8156
놓	-11.8158
낱이	-11.8165
▁통교	-11.8168
▁서기	-11.8168
▁경축하	-11.817
▁두라	-11.8173
▁말법	-11.8174
▁끊음이	-11.8187
▁恩	-11.8192
▁매하여	-11.8197
▁만들자	-11.8199
▁知	-11.8199
▁말만	-11.8199
▁은의로	-11.82
▁듣는다	-11.82
수에	-11.8206
▁두려워하는	-11.8207
▁어른들이	-11.822
▁생각되	-11.822
▁아니하시	-11.822
▁채굴	-11.8223
▁두렷하	-11.8224
▁달성하	-11.8225
▁습기	-11.8226
▁深	-11.8226
것이니	-11.8228
이는	-11.823
▁미안	-11.8241
▁바이라	-11.8241
不殺	-11.8242
킨	-11.8246
▁주리	-11.8248
일기	-11.8256
▁시도	-11.8258
▁간명	-11.826
▁지냈	-11.8268
▁모이는	-11.8268
▁90	-11.8271
▁외도	-11.8272
▁기억하	-11.8281
35.	-11.8288
▁근성	-11.8288
▁없을지	-11.829
▁원대	-11.8298
▁음계	-11.8303
▁훈계	-11.8308
▁기념은	-11.8312
▁수용하시	-11.8317
율	-11.8319
▁인증하	-11.832
▁열반이	-11.8322
▁평범하	-11.8327
1951	-11.8333
▁융창하	-11.8334
쳤	-11.8337
▁남원	-11.8339
▁삼았	-11.8342
諸聖	-11.8346
▁많으	-11.8347
▁치료해	-11.8347
화해	-11.8354
▁악연	-11.8354
▁순종하	-11.8357
法通	-11.8359
▁이곳	-11.8359
▁당국에	-11.8366
▁사건	-11.8368
죄	-11.8375
▁본가	-11.8375
자성	-11.8376
일로	-11.8382
무상	-11.8386
▁숭배함	-11.839
▁천지은	-11.8404
28.	-11.8406
▁끊을	-11.8411
▁현인	-11.8411
▁마음이며	-11.8413
▁전서	-11.8414
교리	-11.8415
▁해주	-11.8415
▁심리	-11.8418
해지나니	-11.8422
▁부근에	-11.8423
▁없더라	-11.8423
4]	-11.8428
▁개원	-11.8429
▁쓰나니	-11.8437
▁화목	-11.8444
▁신자로	-11.8454
닫고	-11.8455
▁악수	-11.8455
▁부족하	-11.8455
24.	-11.8456
받지	-11.8457
▁내왕하는	-11.8459
▁이생	-11.846
▁장벽	-11.8462
無所得	-11.847
▁차별심	-11.8472
▁집주	-11.8476
▁令	-11.8476
손	-11.8481
▁신앙하	-11.8483
▁편입되	-11.8494
我見人見衆生見壽者見	-11.8495
▁색으로	-11.8498
▁개벽이	-11.8512
▁발라	-11.8519
▁겸해	-11.8522
▁맹세하	-11.8524
▁반백	-11.8524
二門	-11.8526
▁표하는	-11.8529
처에	-11.8535
父母前	-11.8538
개교	-11.8544
심에	-11.8549
▁貪	-11.8552
▁다하기	-11.8553
인도	-11.8558
▁변해	-11.8559
▁하시와	-11.8563
안으로	-11.8565
▁주의하	-11.8567
▁지혜에	-11.8571
화하는	-11.8576
신성	-11.8579
▁느낌이	-11.8582
▁亦無	-11.8586
▁수선	-11.8588
▁기대하	-11.8589
욕에	-11.859
▁이타로	-11.8596
▁뵈옵	-11.8597
▁풀기	-11.86
▁회갑식에	-11.8603
원상	-11.8605
▁두게	-11.8609
▁옳으니	-11.861
되도록	-11.861
삼학	-11.8615
눈	-11.8615
▁후심	-11.8622
佛敎	-11.8622
▁벌이는	-11.8632
시방	-11.8633
▁곳곳	-11.8637
於惡	-11.8638
지화	-11.8639
▁넘는	-11.8641
頓悟	-11.8651
▁중생계	-11.8657
멸함이	-11.8657
영과	-11.8657
▁주법	-11.8662
성불	-11.8663
▁중요하나	-11.8674
▁신통이	-11.8675
재가	-11.8679
▁거주하	-11.8682
▁기울어	-11.8687
온다	-11.869
▁성탑에	-11.8693
▁불공이니	-11.8696
隨相門	-11.87
▁의의	-11.8701
펴서	-11.8702
▁70	-11.8708
설법	-11.8713
뿌리	-11.8715
▁기념이	-11.8719
▁금강산이	-11.8726
주함이	-11.8727
정당	-11.8735
승부	-11.8735
▁문의	-11.8744
아닌	-11.8745
개원	-11.8747
▁물건에	-11.8747
▁집회	-11.875
▁영산회상이	-11.8755
神通變化	-11.8755
▁능사	-11.8757
아갈	-11.8758
받은	-11.8759
▁바라다	-11.8762
쪽	-11.8764
익	-11.8764
種種	-11.877
▁따뜻하	-11.8773
▁화합하여	-11.8775
성에	-11.8781
궁	-11.8781
▁꾸	-11.8781
▁우애	-11.8783
겠지마는	-11.8783
▁응용하	-11.8783
인지	-11.8784
▁못하옵	-11.8788
프	-11.8788
▁단결이니	-11.8794
▁편의	-11.8797
남에게	-11.8798
▁손상하	-11.8801
쓸	-11.8801
▁생불	-11.8803
▁불토에	-11.8807
▁연고이니	-11.881
로서는	-11.881
百年	-11.8812
▁악인	-11.8814
▁실업	-11.8815
무궁	-11.8818
▁황홀하	-11.8819
학교	-11.8823
▁감정이	-11.8824
▁재촉하	-11.8825
就	-11.8826
佛道	-11.8826
▁각오	-11.8827
▁외인	-11.8838
육근	-11.884
▁용납하	-11.884
너무	-11.8842
중화	-11.8844
▁지라	-11.8845
▁간섭하	-11.8846
▁연후	-11.8847
▁겸전	-11.8848
▁선용하	-11.885
▁꾸중	-11.8859
참회	-11.8862
記	-11.8862
희사	-11.8862
제보살	-11.8865
▁온전하	-11.8865
장차	-11.8866
▁묵어	-11.8866
영광	-11.8872
戴	-11.8881
▁발간되었	-11.8881
회사	-11.8883
▁소이	-11.8885
평상심	-11.8886
是非	-11.889
淡	-11.8892
조합	-11.8893
▁물음	-11.8894
▁의혹	-11.8894
체제	-11.8895
生業	-11.8895
반백년	-11.8897
▁잡으	-11.8902
▁강약	-11.8907
▁명랑하	-11.891
▁상대자	-11.891
았으며	-11.8912
선생	-11.8914
W	-11.8914
聽	-11.8915
공익	-11.8917
돈	-11.8917
삼계	-11.8922
歷	-11.8926
▁인과법	-11.8926
心和	-11.8932
본위	-11.8932
신흥	-11.8936
▁自	-11.8937
▁예언하	-11.8939
고유문	-11.8939
生佛	-11.894
했으며	-11.8941
▁於善	-11.8941
줌	-11.8948
음식	-11.895
▁찬란	-11.8954
산업	-11.8954
보주	-11.8955
精進	-11.8956
29	-11.8957
수지	-11.8958
假	-11.8959
주간	-11.8961
▁증진	-11.8964
자재	-11.8969
▁좋아하나니	-11.8969
해당	-11.897
맑	-11.897
촉	-11.8972
▁놓치	-11.8972
退	-11.8974
▁수입이	-11.8975
▁호의	-11.8976
▁해서	-11.8976
쳤다	-11.8977
명에	-11.8983
捨	-11.8984
입교	-11.8984
사람으로서	-11.8985
본다면	-11.8987
깨친	-11.8987
자에	-11.8989
▁양주	-11.8991
S	-11.8991
솔성	-11.8993
▁간략	-11.8994
연합	-11.8995
키는	-11.8996
재계하옵고	-11.8997
회갑	-11.8997
총회	-11.8998
기심	-11.9001
독경	-11.9002
자격	-11.9005
흉	-11.9008
▁지향	-11.9008
惡人	-11.9009
정산종사	-11.901
륙	-11.901
대봉도	-11.901
머리	-11.9011
自力	-11.9014
절하고	-11.9018
▁창시자	-11.9019
분과	-11.902
철학	-11.9021
정법	-11.9021
專務出身	-11.9025
법규	-11.9026
돌	-11.9028
하나님	-11.9028
낱	-11.903
노소	-11.9032
종교계	-11.9033
▁얻으시	-11.9034
기독교	-11.9034
▁공덕이라	-11.9036
등상불	-11.9036
明月	-11.9036
17	-11.9041
心告	-11.9041
거진출진	-11.9042
不忘	-11.9043
락과	-11.9043
無盡	-11.9044
저축조합	-11.9045
堅	-11.9046
▁담당하	-11.9048
愛欲	-11.9048
겠노라	-11.905
상조조합	-11.905
양로원	-11.9053
▁준비해	-11.9056
용맹	-11.9056
짜	-11.9056
참회문	-11.9058
생활화	-11.9058
응접	-11.9059
▁낙에	-11.9059
후원	-11.9062
천도재	-11.9063
▁중앙이	-11.9063
신랑	-11.9069
▁돈오문	-11.9069
만방	-11.9072
旣	-11.9072
不離	-11.9072
통하여	-11.9073
휴	-11.9076
경력	-11.9077
메	-11.9078
일합상	-11.9081
任運	-11.9081
還	-11.9081
꿀	-11.9082
폭	-11.9082
항복	-11.9084
▁협력하	-11.9085
수자상	-11.9085
一時	-11.9086
答	-11.9087
▁갈망	-11.9089
必	-11.9089
정남	-11.9089
선천	-11.909
광주	-11.909
各	-11.9092
▁양성하여	-11.9095
▁향상되	-11.9095
▁무산자	-11.9096
生於	-11.9096
▁회복하	-11.9097
▁변동	-11.9098
찬란	-11.9101
乃	-11.9105
세전	-11.9106
어디	-11.9106
지도자	-11.9109
동에	-11.9111
▁신속하	-11.9124
근래	-11.9125
유아	-11.9125
측	-11.9127
하겠다	-11.9127
▁심하여	-11.9128
열반인	-11.913
▁연마하면	-11.9131
遇	-11.9133
▁개과하	-11.9136
▁이정	-11.9142
름	-11.9143
ᄋ	-11.9144
▁비롯되	-11.9148
동산	-11.915
▁인가	-11.9153
應用	-11.9159
之道	-11.916
만물이	-11.9161
정하였다	-11.9163
하심에	-11.9165
▁경례하	-11.9166
▁현세	-11.9167
후무	-11.9168
▁바루	-11.917
물에	-11.9171
24)	-11.9176
범상	-11.9177
겼다	-11.9183
상조	-11.9186
개조	-11.9192
함이어늘	-11.9192
역할	-11.9193
해방	-11.9194
교헌	-11.9196
취	-11.9199
기반	-11.921
▁줄이	-11.9216
단계	-11.9218
▁자녀들	-11.9222
이성	-11.9223
▁끊기	-11.9224
法義	-11.9225
생과	-11.9234
▁생각한	-11.9235
▁출중	-11.9237
▁본분이	-11.9238
법어	-11.9239
색신	-11.9246
▁증답하	-11.9248
▁크옵	-11.9249
▁자비에	-11.925
仁義	-11.9255
▁대안	-11.926
▁최후에	-11.9261
법인	-11.9261
▁如我	-11.9262
▁不應	-11.9272
졌고	-11.9274
▁처사함이	-11.9275
▁설해	-11.9281
卽是	-11.9282
땅이	-11.9289
강자	-11.9292
조에	-11.9292
굽이	-11.9293
으리니	-11.9293
용할	-11.9294
▁무등	-11.9296
▁활용되	-11.9301
동정간	-11.9303
장수	-11.9304
▁시찰	-11.9308
립	-11.9308
▁탁태	-11.931
업에	-11.931
임이요	-11.9313
1946	-11.9319
치의	-11.9322
원으로	-11.9322
탑은	-11.9324
이라하니	-11.9328
1919	-11.9329
▁심공	-11.933
▁세속에	-11.9331
승이라	-11.9331
▁주력	-11.9332
▁협력하여	-11.9335
▁淸淨	-11.9335
등으로	-11.9339
부부	-11.9339
▁부문	-11.9341
▁살생하	-11.9344
▁전능	-11.9346
硏究	-11.9351
37.	-11.9352
▁출석	-11.9353
▁종부주	-11.9356
▁생각만	-11.9358
▁마련하	-11.9362
▁썩	-11.9362
지식	-11.9366
▁교단으로	-11.9366
▁결합	-11.9367
사회에	-11.9369
▁혼탁	-11.9369
淨	-11.9372
날이	-11.9373
▁바라밀이	-11.9374
▁미진들이	-11.9379
님들	-11.9381
조화	-11.9387
시나	-11.9388
대원	-11.9388
▁준수	-11.9389
학과	-11.9393
▁안위	-11.9394
대성	-11.9395
▁위반	-11.9398
왔다	-11.9401
▁부러워	-11.9402
▁연구회	-11.9408
▁유공	-11.9408
1945	-11.9412
셨으므로	-11.9424
▁근기니	-11.9427
07	-11.9431
신용	-11.9432
▁권면하	-11.9436
▁계승한	-11.9442
▁유람하	-11.9442
佛佛	-11.9442
▁어그러	-11.9444
빠르	-11.9445
」「	-11.9448
▁發阿耨多羅三藐三菩提心	-11.9449
주인	-11.945
▁계합하	-11.9453
이었고	-11.9458
▁선지자들	-11.9458
▁앎	-11.9463
정이	-11.9464
▁주인이니	-11.9467
▁은의	-11.9467
31.	-11.9468
▁부분적	-11.9471
▁파괴하	-11.9471
▁개편되었	-11.9481
▁상통	-11.9482
▁전날	-11.9483
사리	-11.9483
▁못하니	-11.9487
▁성탄절	-11.9491
▁57	-11.9492
였나니	-11.9492
▁大	-11.9495
불상	-11.9496
▁양성하자	-11.9498
▁명명	-11.9498
응하여	-11.95
럴	-11.9503
▁늙어	-11.9505
▁혜가	-11.9507
▁쪽	-11.9511
여만	-11.9516
▁염원하	-11.9518
▁성직	-11.952
▁조객	-11.953
되나니라	-11.9533
▁설법하	-11.9536
▁何者	-11.9539
而修	-11.9542
▁단속	-11.9542
▁교중에	-11.9547
▁평안하	-11.9549
▁어른에게	-11.9549
▁원하나	-11.955
▁분상	-11.9557
所說義	-11.9557
▁살림에	-11.9559
▁동지로	-11.9563
▁주종	-11.9565
▁悟後	-11.9572
▁신룡	-11.9572
▁풍부	-11.9573
▁표어로	-11.9578
▁서가	-11.9579
▁묘리	-11.9583
▁뛰어넘	-11.9586
▁간척	-11.9587
羅	-11.9588
씀에	-11.9588
삐	-11.9589
古	-11.9589
北	-11.959
혔	-11.959
乘	-11.9591
泰	-11.9592
場	-11.9592
材	-11.9592
讀	-11.9592
毒	-11.9593
釋迦牟尼	-11.9593
餘	-11.9593
離慾	-11.9593
幻	-11.9593
謝	-11.9593
威	-11.9593
夢	-11.9593
例	-11.9594
陀	-11.9594
_	-11.9594
▁침노	-11.9594
플	-11.9594
樹	-11.9594
族	-11.9594
府	-11.9594
▁팔조로	-11.9594
://	-11.9594
殃	-11.9594
舌	-11.9594
T	-11.9594
創	-11.9594
恐	-11.9594
密	-11.9594
步	-11.9594
L	-11.9594
尾	-11.9594
宮	-11.9594
婆	-11.9594
豪	-11.9594
M	-11.9594
呂	-11.9594
囑	-11.9594
尺	-11.9594
篇	-11.9594
衰	-11.9594
賴	-11.9594
項	-11.9594
勇	-11.9594
全八根	-11.9594
喚	-11.9594
墨	-11.9594
容	-11.9594
彌	-11.9594
月末通信	-11.9594
朝鮮	-11.9594
氷	-11.9594
紅	-11.9594
絲	-11.9594
聖骸	-11.9594
薄	-11.9594
裏	-11.9594
遣蕩	-11.9594
▁造地獄業	-11.9594
婚	-11.9594
+	-11.9594
▁頗	-11.9594
▁박사시화	-11.9594
▁성소작지	-11.9594
▁우담바라	-11.9594
不增不減	-11.9594
井	-11.9594
厭	-11.9594
呑	-11.9594
嫌	-11.9594
宜	-11.9594
愈	-11.9594
慮	-11.9594
拍	-11.9594
楚	-11.9594
濃	-11.9594
熱	-11.9594
痛	-11.9594
純	-11.9594
統	-11.9594
謗	-11.9594
貴	-11.9594
遍	-11.9594
須臾	-11.9594
首	-11.9594
#	-11.9594
10.1925)	-11.9594
>	-11.9594
news	-11.9594
▁切須在意	-11.9594
▁在舍衛國祗樹給孤獨園	-11.9594
▁定慧等持之義	-11.9594
▁居塵出塵	-11.9594
▁所得功德	-11.9594
▁祝願文	-11.9594
▁與佛無殊	-11.9594
▁굉장	-11.9594
▁꿇어앉	-11.9594
▁꿈꾸	-11.9594
▁꿋꿋	-11.9594
▁꿰뚫	-11.9594
▁나툰	-11.9594
▁동고동락	-11.9594
▁동서남북	-11.9594
▁두텁	-11.9594
▁뒷받침하	-11.9594
▁띄	-11.9594
▁머리카락	-11.9594
▁면면약존	-11.9594
▁명지장단	-11.9594
▁무릎	-11.9594
▁밉	-11.9594
▁바뀐	-11.9594
▁복숭아	-11.9594
▁뵙	-11.9594
▁분기점이	-11.9594
▁빗	-11.9594
▁뿔	-11.9594
▁숫	-11.9594
▁신혼경례	-11.9594
▁쌀	-11.9594
▁용지불근	-11.9594
▁우마육축	-11.9594
▁원광테크노마켓	-11.9594
▁원만보신불	-11.9594
▁육일대재	-11.9594
▁은생어해	-11.9594
▁일률	-11.9594
▁찢	-11.9594
▁테	-11.9594
▁하느님	-11.9594
▁하룻	-11.9594
▁핵심	-11.9594
▁헒	-11.9594
▁황도불교화	-11.9594
▁휩쓸	-11.9594
▁희로애락	-11.9594
丈夫	-11.9594
人類	-11.9594
全羅北道	-11.9594
募	-11.9594
卵	-11.9594
去來覺道無窮花	-11.9594
受天地之	-11.9594
受想行識	-11.9594
右	-11.9594
同胞	-11.9594
固	-11.9594
坦坦	-11.9594
壇	-11.9594
外勝報	-11.9594
大通門	-11.9594
姜	-11.9594
媱	-11.9594
嫉妬	-11.9594
寒	-11.9594
寫	-11.9594
左右	-11.9594
忍辱波羅蜜	-11.9594
怒	-11.9594
怠	-11.9594
慈愍心	-11.9594
憐愍	-11.9594
投	-11.9594
拙	-11.9594
接	-11.9594
推	-11.9594
昊	-11.9594
朴元石	-11.9594
李靑春	-11.9594
査	-11.9594
格	-11.9594
案	-11.9594
步步一切大聖經	-11.9594
歸依佛兩足尊	-11.9594
歸依僧衆中尊	-11.9594
池	-11.9594
淸風月上時	-11.9594
湧	-11.9594
炷	-11.9594
無我無不我	-11.9594
理事竝行	-11.9594
甑山	-11.9594
生中國	-11.9594
盧	-11.9594
確	-11.9594
礎	-11.9594
祥	-11.9594
科	-11.9594
竹	-11.9594
笑	-11.9594
第一波羅蜜	-11.9594
米	-11.9594
線	-11.9594
繞	-11.9594
臥	-11.9594
萬世滅度常獨露	-11.9594
製	-11.9594
覆	-11.9594
訓	-11.9594
詞	-11.9594
負	-11.9594
責	-11.9594
遷	-11.9594
那伽大定	-11.9594
鉢	-11.9594
錢	-11.9594
霽	-11.9594
頓門箇者	-11.9594
餓鬼	-11.9594
黑	-11.9594
딴	-11.9594
떡	-11.9594
뜯	-11.9594
류병덕	-11.9594
앨	-11.9594
읜	-11.9594
짚	-11.9594
쩔	-11.9594
청풍월상시	-11.9594
폈	-11.9594
휴휴암좌선문	-11.9594
▁<	-11.9594
▁꺼버림	-11.9594
▁똥	-11.9594
▁말미암	-11.9594
▁몫	-11.9594
▁백억화신불	-11.9594
▁보보일체	-11.9594
▁불야세존	-11.9594
▁셈	-11.9594
▁얘기	-11.9594
▁원불교출판사	-11.9594
▁위령문	-11.9594
▁캐	-11.9594
身口意	-11.9594
▁一切世間天人阿修羅	-11.9594
▁已於無量	-11.9594
▁略	-11.9594
▁균형	-11.9594
▁길흉화복	-11.9594
▁이룸	-11.9594
▁최제우	-11.9594
▁해생어은	-11.9594
▁헌거롭	-11.9594
事必歸	-11.9594
佐	-11.9594
儒佛仙	-11.9594
嗟	-11.9594
大休大歇	-11.9594
大宗經	-11.9594
宣揚無窮	-11.9594
帝	-11.9594
幼	-11.9594
弱	-11.9594
慕	-11.9594
植	-11.9594
榮	-11.9594
殊妙	-11.9594
淺	-11.9594
渡水	-11.9594
無無亦無無	-11.9594
珍	-11.9594
留	-11.9594
皎皎	-11.9594
看	-11.9594
組	-11.9594
設	-11.9594
誕	-11.9594
豫	-11.9594
這	-11.9594
金剛般若波羅密經	-11.9594
霜雪	-11.9594
駕	-11.9594
鳳	-11.9594
龍象大定	-11.9594
만상자연명	-11.9594
사필귀정	-11.9594
▁수계농원	-11.9594
而生其心	-11.9594
궐	-11.9594
kr	-11.9594
▁갖춤	-11.9594
▁삽삼조사	-11.9594
▁응감지위	-11.9594
▁이차돈	-11.9594
▁총선거	-11.9594
▁추원보본	-11.9594
▁하감지위	-11.9594
一念而生	-11.9594
借	-11.9594
克	-11.9594
原始反本	-11.9594
呈	-11.9594
岸	-11.9594
張寂照	-11.9594
截	-11.9594
捨捐	-11.9594
摩	-11.9594
早	-11.9594
暮	-11.9594
朴四時華	-11.9594
李恩錫	-11.9594
校	-11.9594
武	-11.9594
水昇火降	-11.9594
淫	-11.9594
究竟	-11.9594
船	-11.9594
谷	-11.9594
貧窮	-11.9594
透	-11.9594
選	-11.9594
閑	-11.9594
防堰	-11.9594
鶴	-11.9594
鼻	-11.9594
족집게	-11.9594
태흡	-11.9594
▁UN	-11.9594
▁빈부귀천	-11.9594
▁서가세존께서	-11.9594
▁알으신다	-11.9594
史	-11.9594
孤	-11.9594
飛	-11.9594
▁심전계발	-11.9594
▁이생기심	-11.9594
▁宗法師	-11.9594
▁잃어버린	-11.9594
▁조부님	-11.9594
戶	-11.9594
無諍三昧	-11.9594
醫王	-11.9594
▁任運雙修	-11.9594
▁실망하지	-11.9594
▁원형이정	-11.9594
▁측근자	-11.9594
▁침략	-11.9594
値佛世	-11.9594
誰	-11.9594
현자오복덕경	-11.9594
▁我得阿羅漢道	-11.9594
▁묻자오매	-11.9594
芳草	-11.9595
▁드나들	-11.9595
▁버티	-11.9595
마당바위	-11.9595
▁惱亂	-11.9595
▁대원경지	-11.9595
▁위령재	-11.9595
狐疑	-11.9595
▁법인성사	-11.9595
▁不在於	-11.9595
▁굴레	-11.9595
炬火	-11.9595
▁대독하고	-11.9595
▁본격적	-11.9595
▁솟아올라	-11.9595
cm	-11.9595
▁如來說卽非	-11.9595
慈悲	-11.9595
▁서두르	-11.9595
▁백지혈인	-11.9595
▁過一切	-11.9595
圓紀	-11.9595
如之何	-11.9595
▁後還	-11.9595
少威德	-11.9595
機關	-11.9595
▁가시밭	-11.9595
雨露	-11.9595
ac	-11.9595
co	-11.9595
사십이장경	-11.9595
▁任意	-11.9595
▁회무총장	-11.9595
第一希有	-11.9595
作對	-11.9595
▁명부사자	-11.9595
▁사바세계	-11.9595
▁고등선원	-11.9595
▁수미산	-11.9595
太極	-11.9595
無我奉公	-11.9595
總序	-11.9595
畜生	-11.9595
▁석존성탄절	-11.9595
▁증험	-11.9595
▁종교연합운동	-11.9595
▁不生輕賤	-11.9595
▁한남동	-11.9595
▁곡출	-11.9595
▁天下善知識	-11.9595
▁피곤	-11.9595
勤實	-11.9595
▁汝須	-11.9595
▁독립운동	-11.9595
▁독특	-11.9595
▁취득하고	-11.9595
一直心	-11.9595
念過去	-11.9595
空寂靈知之心	-11.9595
▁엄격	-11.9595
[22]	-11.9595
他子女敎	-11.9595
▁고혈마	-11.9595
恒沙	-11.9595
同一體	-11.9595
契合	-11.9595
▁無壽者相	-11.9595
先頓悟	-11.9595
▁밤낮	-11.9595
▁확충	-11.9595
업보차별경	-11.9595
丹田	-11.9595
▁접촉	-11.9595
▁천신만고	-11.9595
背恩	-11.9595
▁令汝	-11.9595
▁토플	-11.9595
▁총서편	-11.9595
▁대원정각	-11.9595
▁만세멸도	-11.9595
벼슬	-11.9595
▁제위께옵서	-11.9595
▁커짐	-11.9595
▁本來	-11.9595
▁날카	-11.9595
玉女	-11.9595
법의대전	-11.9595
▁침범	-11.9595
▁원광학원	-11.9595
▁펼쳐	-11.9595
▁끼쳐	-11.9595
諸惡業	-11.9595
▁구원겁래	-11.9595
殺盜	-11.9595
▁총대회	-11.9595
▁명첩	-11.9595
幻化	-11.9595
▁계십니까	-11.9595
▁부합시켜	-11.9595
▁휘호	-11.9595
古聖	-11.9595
金泰	-11.9595
▁태조사	-11.9596
▁칭송	-11.9596
境界	-11.9596
忘緣	-11.9596
草木	-11.9596
龍里	-11.9596
▁풍파	-11.9596
▁눌러	-11.9596
▁문고리	-11.9596
▁위령가	-11.9596
▁화택	-11.9596
▁야학원	-11.9596
▁기둥	-11.9596
▁기혈	-11.9596
奉迎	-11.9596
▁찾으셨	-11.9596
▁편중하여	-11.9596
▁本空	-11.9596
▁섞이지	-11.9596
父母及	-11.9596
거문고	-11.9596
朴濟	-11.9596
▁빨리	-11.9596
▁汝於	-11.9596
六塵	-11.9596
慧眼	-11.9596
▁성탄	-11.9596
▁학벌	-11.9596
苦戰	-11.9596
▁창황	-11.9596
▁시탕	-11.9596
本末	-11.9596
▁친필	-11.9596
▁돌아다니다가	-11.9596
▁전통적	-11.9596
▁豈有	-11.9596
▁관헌	-11.9596
▁노닐	-11.9596
先進	-11.9596
▁몰아	-11.9596
▁귀의승	-11.9596
▁원만구족	-11.9596
化被	-11.9596
和尙	-11.9597
惡口	-11.9597
有差別	-11.9597
疑頭	-11.9597
▁등사판	-11.9597
聲聞	-11.9597
▁밝으매	-11.9597
祖宗	-11.9597
平安	-11.9597
▁초하루	-11.9597
[17]	-11.9597
▁풍토	-11.9597
▁준용하되	-11.9597
結義	-11.9597
▁밝아짐	-11.9597
▁더듬어	-11.9597
佛塔	-11.9597
三昌	-11.9597
▁무관심	-11.9597
▁노혼	-11.9597
▁자칭	-11.9597
▁표현했다	-11.9597
[12]	-11.9597
▁대법륜	-11.9597
▁吾何	-11.9597
▁대원견성	-11.9597
弟子	-11.9597
聖胎	-11.9597
▁영험	-11.9597
初齋	-11.9597
▁개시하였다	-11.9597
金剛經	-11.9597
소희사	-11.9597
▁還有	-11.9597
務本	-11.9597
▁교섭	-11.9597
▁용건	-11.9597
回甲	-11.9597
▁전기복	-11.9597
▁넘쳐	-11.9598
▁타이르	-11.9598
▁일직심	-11.9598
本無碍	-11.9598
[19]	-11.9598
▁我於	-11.9598
▁전개하였나니	-11.9598
▁걸었다가	-11.9598
圓寂	-11.9598
四維	-11.9598
▁문총	-11.9598
出現	-11.9598
▁잦으	-11.9598
疑情	-11.9598
▁채포	-11.9598
淨心	-11.9598
▁십타원	-11.9598
東方	-11.9598
輕安	-11.9598
分上	-11.9598
同樂	-11.9598
羅漢	-11.9598
▁끼친	-11.9598
法師	-11.9598
▁得聞	-11.9598
四果	-11.9598
[16]	-11.9598
▁가리울	-11.9598
▁총관하	-11.9598
▁거액	-11.9598
守志	-11.9598
[13]	-11.9598
▁불가사의	-11.9598
▁친근자로서	-11.9599
▁토스	-11.9599
▁규례	-11.9599
▁정신개벽	-11.9599
養空	-11.9599
會報	-11.9599
▁종교윤리	-11.9599
▁알아듣고	-11.9599
▁되리로다	-11.9599
甚大	-11.9599
▁파멸	-11.9599
聖呪	-11.9599
▁의연금	-11.9599
▁명훈	-11.9599
公衆	-11.9599
得聞如是	-11.9599
九陀圓	-11.9599
▁가셨다가	-11.9599
▁있었겠는가	-11.9599
▁준공되니	-11.9599
▁매달려	-11.9599
척법	-11.9599
▁승강	-11.9599
[14]	-11.9599
▁무조건	-11.9599
▁어지러운	-11.9599
不放	-11.9599
敎務	-11.9599
[15]	-11.9599
▁산골	-11.9599
意識	-11.9599
▁초학자	-11.9599
▁돋아	-11.96
▁경북	-11.96
苦樂	-11.96
▁드러났다	-11.96
本源	-11.96
爲寶	-11.96
▁막았다	-11.96
▁민족종교	-11.96
▁무너진	-11.96
▁편달하	-11.96
▁방황하다가	-11.96
▁받아버리	-11.96
▁이광정	-11.96
▁액수	-11.96
▁유지하	-11.96
▁보존하나니라	-11.96
▁승락	-11.96
▁안녕	-11.96
▁어깨	-11.96
▁보내려고	-11.96
▁在於	-11.96
▁취급	-11.96
之想	-11.96
▁묻는다면	-11.96
▁빼앗으려	-11.96
▁죽었고	-11.96
代明	-11.9601
▁일어났다	-11.9601
▁결의인들	-11.9601
長養	-11.9601
▁않았는가	-11.9601
▁自不	-11.9601
▁대장부	-11.9601
▁장관이	-11.9601
▁최근	-11.9601
▁호상소	-11.9601
▁항복받아	-11.9601
▁요강	-11.9601
何處	-11.9601
▁변화시켜	-11.9601
▁자라난	-11.9601
▁환후	-11.9602
▁뒤이어	-11.9602
▁결속	-11.9602
天眼	-11.9602
果不	-11.9602
▁백발	-11.9602
▁읊어	-11.9602
▁무상대도	-11.9602
▁대세계주의	-11.9602
▁보존한다	-11.9602
▁보험	-11.9602
元氣	-11.9602
▁왕생	-11.9602
觀空	-11.9602
▁엄동	-11.9602
▁금산사에	-11.9602
法輪	-11.9602
▁시작했다	-11.9603
▁가호하심	-11.9603
▁기필	-11.9603
▁당일복	-11.9603
三寶	-11.9603
▁육통	-11.9603
▁칠보화	-11.9603
萬方	-11.9603
▁맡긴	-11.9603
我慢	-11.9603
有情	-11.9603
敎團	-11.9604
▁움직임	-11.9604
▁책망	-11.9604
大海	-11.9604
▁不可以	-11.9604
▁호령하	-11.9604
▁금품	-11.9604
▁망연	-11.9604
▁이어받아	-11.9604
涅槃相	-11.9604
▁겪으면서	-11.9604
▁명색	-11.9604
아시아	-11.9604
▁막힌	-11.9604
眞我	-11.9604
▁주민들	-11.9604
不可量	-11.9604
生育	-11.9604
▁입을지언정	-11.9604
▁송도성	-11.9604
所現	-11.9604
▁받아들여	-11.9604
▁혼례	-11.9604
▁독공	-11.9605
▁골수	-11.9605
▁단점	-11.9605
▁대체적으로	-11.9605
[20]	-11.9605
▁권태	-11.9605
▁경향	-11.9605
▁오손	-11.9605
無數	-11.9605
▁관습	-11.9605
家禮	-11.9606
옵건대	-11.9606
▁죽순	-11.9606
▁질소	-11.9606
▁뛰어넘어	-11.9606
▁인의화	-11.9606
▁물었더니	-11.9606
▁봉안문	-11.9606
無等	-11.9606
▁재풍	-11.9606
▁창교	-11.9607
▁막혀	-11.9607
▁읊으시	-11.9607
▁비구니	-11.9607
난측	-11.9607
▁화답하	-11.9607
▁중학생	-11.9607
▁먹으려	-11.9607
▁들었으니	-11.9607
▁편술	-11.9607
悉見	-11.9607
▁계열	-11.9608
▁묵묵함	-11.9608
▁감역	-11.9608
▁크도다	-11.9608
▁빈궁	-11.9608
▁면회하	-11.9608
▁문왕	-11.9608
▁설하심	-11.9608
聖位	-11.9608
滄海	-11.9609
▁밝히시어	-11.9609
견여래	-11.9609
▁야위	-11.9609
▁不解	-11.9609
▁노송	-11.9609
▁극복	-11.9609
▁묘우	-11.9609
▁이바지	-11.9609
▁그르다	-11.9609
先後	-11.9609
萬和	-11.961
▁사은사요	-11.961
業力	-11.961
識心	-11.961
▁방해될	-11.961
▁비웃	-11.961
八山	-11.961
▁찾아온	-11.961
▁칼날	-11.961
聖聖	-11.9611
▁애경	-11.9611
▁보패	-11.9611
▁장점	-11.9611
▁저축하자	-11.9611
▁불러들이	-11.9611
▁기재하되	-11.9611
▁명근	-11.9611
▁초범	-11.9612
▁창조적	-11.9612
▁숙녀	-11.9612
▁영욕	-11.9612
敎學	-11.9612
智以	-11.9613
圓成	-11.9613
▁되어지이다	-11.9613
▁정숙	-11.9613
▁고민	-11.9613
事上	-11.9613
▁아니하였다면	-11.9613
▁어울리	-11.9613
민주화	-11.9613
▁선량하여	-11.9613
▁아랫	-11.9613
▁발표하시며	-11.9613
▁충남	-11.9613
自家	-11.9614
▁영결식	-11.9614
聖業	-11.9614
道通	-11.9614
出生	-11.9614
▁중앙봉	-11.9614
▁제주도에	-11.9614
▁급무	-11.9614
▁흥분	-11.9614
公道者	-11.9614
▁보았으며	-11.9614
正體	-11.9614
▁성취하시며	-11.9614
기념사업회	-11.9615
▁재배	-11.9615
▁구족하다	-11.9615
▁조국	-11.9615
▁주장함이요	-11.9615
▁병증	-11.9615
▁존공	-11.9616
李正	-11.9616
祈願文	-11.9616
▁동락	-11.9616
▁분항	-11.9616
▁경박	-11.9616
▁따르리라	-11.9617
▁풍수	-11.9617
▁발원문	-11.9617
大體	-11.9617
▁심락	-11.9617
▁헤어	-11.9617
之處	-11.9617
法印	-11.9617
▁났	-11.9617
▁십부	-11.9617
▁환란	-11.9618
身中	-11.9618
▁파악	-11.9618
▁등상불에게	-11.9618
▁백절	-11.9618
▁청정법신불	-11.9618
▁칭호	-11.9618
奉公	-11.9619
▁약재	-11.9619
▁거절하	-11.9619
▁반목	-11.962
入理	-11.962
르침이	-11.962
▁진체	-11.962
▁전개하였고	-11.9621
▁생애	-11.9621
▁되었는지라	-11.9621
▁천업이라	-11.9621
▁식량	-11.9621
▁모신다	-11.9621
此身	-11.9621
大身	-11.9621
▁주막	-11.9621
▁기연이다	-11.9621
▁관변	-11.9622
▁재난	-11.9622
▁연호	-11.9622
▁귀의법	-11.9623
▁不斷不	-11.9623
▁서원하오니	-11.9623
▁추수	-11.9623
空中	-11.9623
▁동일체	-11.9623
▁감사문	-11.9623
▁열반락	-11.9623
▁전곡	-11.9623
▁상승	-11.9623
行空	-11.9624
▁삼는다면	-11.9624
▁추진해	-11.9624
▁천권	-11.9624
之氣	-11.9624
▁사양하며	-11.9625
▁주었더니	-11.9625
▁대참회	-11.9625
▁맛보	-11.9626
四緣	-11.9626
▁살아나도록	-11.9626
▁개체	-11.9626
有衆生	-11.9626
▁장녀	-11.9627
▁신룡리	-11.9627
▁맹자	-11.9627
▁묘법	-11.9627
▁입참	-11.9627
▁엄교	-11.9627
▁인내력	-11.9628
▁세계평화	-11.9628
如此	-11.9628
진영	-11.9628
▁막심하	-11.9628
이번에	-11.9629
▁향상될	-11.9629
▁이완철	-11.9629
▁맑으며	-11.9629
악취	-11.963
▁부속	-11.963
▁삼는다	-11.963
元無	-11.963
▁성국	-11.963
受持讀誦此經	-11.963
▁아무렇게	-11.963
成大	-11.963
중용	-11.9631
心力	-11.9631
則豈	-11.9632
▁이슬	-11.9632
▁결단력	-11.9632
▁아라한이라	-11.9632
▁궁전	-11.9633
▁가졌으며	-11.9633
▁살려내	-11.9633
▁아닌데	-11.9633
成人	-11.9633
▁열두	-11.9634
▁중책	-11.9634
▁승진	-11.9634
▁심체	-11.9634
之則	-11.9635
▁생자녀	-11.9635
▁2022	-11.9635
음계	-11.9635
▁바라문	-11.9636
목포	-11.9637
▁우방	-11.9637
▁이참이라	-11.9637
▁친제	-11.9637
▁옳으나	-11.9638
▁총론에	-11.9638
▁여의주	-11.9638
▁앉으며	-11.9638
▁덜하지	-11.9639
▁각급	-11.9639
▁금주	-11.9639
▁선원들	-11.9639
▁어려워	-11.9639
▁찾으	-11.9639
▁축산	-11.9639
▁적으나	-11.9639
▁일으키어	-11.964
▁단순한	-11.964
▁보내시어	-11.964
▁긴장	-11.964
▁수자견	-11.964
▁솔이	-11.9641
▁진열	-11.9641
▁재화	-11.9641
▁구송	-11.9641
▁붙여	-11.9641
▁풀어내	-11.9642
▁중타원	-11.9642
▁평거	-11.9642
▁제막	-11.9642
▁무언	-11.9643
▁漸薰	-11.9643
▁사념	-11.9643
▁끊으며	-11.9643
▁지도국	-11.9643
法恩	-11.9644
학생회	-11.9644
병아리	-11.9645
▁何故	-11.9645
▁동석하	-11.9645
降魔	-11.9645
▁그러하다	-11.9647
▁열리리라	-11.9647
▁화평	-11.9647
▁아니지만	-11.9648
▁수염	-11.9648
明心	-11.9648
奉告文	-11.9648
▁구체적	-11.9648
▁재능	-11.9648
▁조판	-11.9648
▁이루었고	-11.9648
나가야	-11.9649
▁일어내고	-11.9649
▁준공하고	-11.9649
▁드러나리라	-11.9649
▁원석	-11.965
▁가르친다	-11.965
▁알아보고	-11.965
▁정하노라	-11.965
▁동귀일	-11.9651
無常	-11.9651
▁덕무	-11.9651
▁평안히	-11.9651
▁착란	-11.9652
▁생활불교	-11.9652
▁경난	-11.9652
▁깨닫는다	-11.9653
▁올챙이들	-11.9654
▁일요일	-11.9654
天人	-11.9655
▁다르다	-11.9655
▁은부모	-11.9655
▁그만두	-11.9656
▁정책	-11.9656
▁정하시어	-11.9657
▁세운다	-11.9657
不異	-11.9657
▁진정으로	-11.9658
▁하옵소서	-11.9658
▁보증하	-11.9658
▁묻히고	-11.9659
▁如來所說	-11.966
▁있을까	-11.966
禮文	-11.966
身心	-11.9661
▁뒷산	-11.9662
▁보았다	-11.9662
양류	-11.9663
▁사색	-11.9663
▁본분이라	-11.9663
▁택하여	-11.9663
誓願文	-11.9664
▁쌓으며	-11.9665
송죽	-11.9665
▁올렸다	-11.9665
(3.7	-11.9665
▁열가지	-11.9666
無智	-11.9666
▁중순	-11.9667
▁불편하고	-11.9667
▁제언	-11.9668
▁見怨病	-11.9669
▁부동하고	-11.967
▁부산에서	-11.967
▁섬기	-11.967
▁세존	-11.967
心佛	-11.9671
▁아니하옵고	-11.9671
▁망하게	-11.9671
▁식장	-11.9672
▁이르기	-11.9672
▁안개	-11.9673
▁수탈	-11.9673
▁있삽	-11.9673
▁교환하며	-11.9674
▁인내	-11.9674
▁성구	-11.9675
▁찬란하	-11.9675
▁풍속이	-11.9676
▁나타내며	-11.9677
▁결의식	-11.9677
▁착오	-11.9677
▁조항으로	-11.9678
▁입교하	-11.9678
▁본질	-11.9678
▁우열	-11.9678
연화장	-11.9679
▁비근	-11.9679
▁심고하라	-11.9679
▁피해	-11.9679
▁색색	-11.968
▁물화	-11.9681
▁오백세	-11.9681
▁급속	-11.9681
▁기성종교	-11.9681
中心	-11.9682
▁돌아오나니	-11.9682
▁체용	-11.9682
▁깊어서	-11.9682
此法	-11.9682
[5]	-11.9683
▁고시법	-11.9683
하솔	-11.9683
▁입혔다	-11.9684
▁자만심	-11.9684
▁달라진	-11.9684
▁보잘	-11.9685
不知先後	-11.9687
▁걸어서	-11.9687
▁세밀히	-11.9688
▁유지하며	-11.9688
▁낙오	-11.9688
▁떨어지기	-11.9688
▁명산	-11.9689
▁무의미	-11.969
▁선후천	-11.969
▁대서원으로	-11.969
▁빌려서	-11.969
선학대학	-11.9691
如來位	-11.9691
▁호장	-11.9692
▁판단하며	-11.9692
▁존중하며	-11.9692
▁재계하고	-11.9693
無門	-11.9695
▁분량	-11.9697
▁간교	-11.9698
▁아프고	-11.9698
▁정관	-11.9699
▁자연화	-11.9699
▁살피며	-11.97
▁행주	-11.97
▁개척정신	-11.9701
▁축제	-11.9701
▁공표	-11.9702
▁주유	-11.9703
오륜	-11.9703
당했	-11.9705
▁현명	-11.9705
▁몰라주	-11.9705
▁되었다든지	-11.9705
▁창조자	-11.9706
▁퇴	-11.9708
▁규제	-11.9708
▁쫓으	-11.9708
▁구세	-11.9709
▁교우회	-11.9709
▁고쳐서	-11.971
▁지상	-11.971
▁공통	-11.971
▁쳐	-11.9711
▁지엽에	-11.9712
동이	-11.9712
▁구전	-11.9712
▁종류도	-11.9713
▁약조	-11.9713
▁고물	-11.9713
佛所	-11.9714
▁예견하	-11.9714
▁전력하여	-11.9714
▁짓던	-11.9714
▁기뻐하여	-11.9715
自性定慧	-11.9715
▁사실이나	-11.9715
▁개명	-11.9716
▁상종	-11.9716
▁이룩하여	-11.9716
행정	-11.9717
▁지척	-11.9717
▁모시기	-11.9718
▁성성식	-11.9718
▁경산	-11.9718
▁북돋우	-11.9719
▁現在	-11.972
▁질투심	-11.972
▁원리니	-11.972
일까	-11.972
글씨	-11.9721
▁당하나니	-11.9721
▁싸우고	-11.9722
▁항마위에	-11.9722
인간훈련	-11.9723
▁칭	-11.9724
립하여	-11.9724
▁셋이라	-11.9726
何如	-11.9726
▁不落	-11.9726
▁똑	-11.9726
▁확신	-11.9726
▁재해	-11.9726
▁봉래산에	-11.9727
▁비구	-11.9727
▁삭	-11.9727
▁불공하듯	-11.9728
스러움	-11.9728
▁작으면	-11.9728
▁남자계	-11.9728
▁전체불	-11.9729
▁모르며	-11.973
命終	-11.973
天心	-11.973
▁어두워	-11.973
▁연설	-11.9731
▁간행하였으	-11.9733
▁왔을	-11.9733
▁보호하며	-11.9733
▁곽	-11.9733
▁씌	-11.9733
▁성편	-11.9733
▁치사에서	-11.9734
나갔다	-11.9734
▁悉	-11.9735
鎭安	-11.9735
▁구절	-11.9735
▁정용	-11.9736
▁벽지	-11.9736
▁회복하여	-11.9737
▁왔지마는	-11.9738
▁폐지하고	-11.9738
說偈	-11.9738
▁알으시는	-11.974
▁수용하며	-11.974
而不	-11.9741
▁않으셨	-11.9741
▁가늘	-11.9741
▁이루었다고	-11.9741
▁而復	-11.9741
▁석가모니불	-11.9741
▁일언	-11.9742
▁서원함	-11.9743
▁못하거나	-11.9743
▁取其	-11.9743
▁겨레	-11.9744
▁멀어지고	-11.9744
▁슬프	-11.9744
▁對治功	-11.9744
▁경찰	-11.9744
▁爲發	-11.9745
▁定慧等持	-11.9745
▁我等	-11.9746
不瞋	-11.9746
태국	-11.9747
▁사위국	-11.9748
▁산돼지	-11.9748
▁소금	-11.9748
▁無漏智	-11.9748
▁역부여	-11.9749
▁죽는다	-11.9749
▁유치원	-11.9749
▁진강급	-11.9749
▁선서문	-11.9749
▁경편차	-11.9749
▁규범	-11.975
▁민심	-11.975
▁삼귀의	-11.975
▁높여	-11.9751
▁갑종	-11.9751
▁言語道斷	-11.9751
▁不生不滅	-11.9751
▁날부터	-11.9752
▁대성경	-11.9752
▁하심으로써	-11.9752
▁육타원	-11.9753
▁병자에게	-11.9754
▁사무여한	-11.9754
▁대륙	-11.9754
▁헛되지	-11.9755
▁골라서	-11.9755
▁기수급고독원	-11.9755
▁염주	-11.9755
▁면밀	-11.9755
고하	-11.9755
▁장강	-11.9755
▁乃至四句偈等	-11.9755
▁죽었다	-11.9755
大悲	-11.9756
월보	-11.9756
썼다	-11.9756
해지는	-11.9757
▁각파	-11.9757
진묵	-11.9757
▁이뤄지	-11.9758
▁용화회상	-11.9758
▁發菩提心	-11.9758
▁시속	-11.9759
▁기울어지	-11.9759
▁어그러지	-11.9759
제의	-11.976
▁所行也	-11.976
▁삼삼	-11.976
一生	-11.9762
▁주셨으므로	-11.9762
▁효력	-11.9763
▁어지러	-11.9763
▁內外	-11.9764
▁요행	-11.9765
▁않았고	-11.9766
▁공덕이여	-11.9766
菩薩摩訶薩	-11.9767
▁감복	-11.9769
▁서양에	-11.9769
▁수여식	-11.977
도통	-11.977
었삽	-11.977
▁일어내	-11.977
▁장마	-11.9774
▁실행하라	-11.9774
▁담박하	-11.9774
고액	-11.9774
▁법계장	-11.9775
숙명	-11.9775
▁변산에	-11.9775
▁충성	-11.9776
▁천주	-11.9776
▁충동	-11.9777
▁해득하여	-11.9777
▁결의문	-11.9778
▁일일시	-11.9778
▁훈장	-11.9779
▁분분	-11.978
겠사오며	-11.978
▁수증	-11.9781
▁입선하	-11.9781
▁주는지라	-11.9782
▁선보	-11.9783
▁자손에게	-11.9783
▁각항	-11.9784
▁受持讀誦	-11.9785
준타원	-11.9786
류에	-11.9786
▁훈련은	-11.9787
▁나오며	-11.9789
▁회복하고	-11.9789
▁노자께서	-11.9789
▁일직	-11.979
▁많으시	-11.979
▁외국인	-11.979
▁공평	-11.979
▁창립하는	-11.9791
▁산동	-11.9791
▁간다고	-11.9791
▁무념으로	-11.9792
▁분립	-11.9792
▁지옵고	-11.9793
▁고백	-11.9794
▁그치라	-11.9794
▁신도안	-11.9794
▁추대사	-11.9795
▁눈앞	-11.9796
▁맑아지	-11.9797
▁유연	-11.9798
▁세우며	-11.9798
▁침중	-11.9799
▁바쁘고	-11.9799
▁씻기	-11.9801
▁귀의처	-11.9801
▁바라며	-11.9804
▁각혼	-11.9805
▁불성으로	-11.9806
▁싫어함	-11.9806
▁가더라도	-11.9807
▁착의	-11.9809
▁돈독	-11.9809
▁여자계	-11.981
▁교육비	-11.9811
▁표서	-11.9811
▁평상시에	-11.9811
[3	-11.9812
▁철인들	-11.9813
▁끌어	-11.9813
▁드러나며	-11.9815
출해	-11.9817
▁잡으려	-11.9819
▁받도록	-11.982
▁맡겼	-11.982
평의	-11.9821
▁괴로우	-11.9821
▁신임	-11.9822
▁나만	-11.9822
▁흐	-11.9823
▁예물	-11.9824
▁회식	-11.9825
▁이루려고	-11.9825
▁양보하고	-11.9828
▁명부	-11.9829
▁흔들리기	-11.9829
▁흘리	-11.9831
방이라	-11.9833
▁삼가며	-11.9834
분에	-11.9836
▁조약	-11.9836
▁맞이하고	-11.9836
▁찾아다니	-11.9836
▁특색	-11.9837
▁관리법	-11.9838
▁대세계	-11.984
▁맡았	-11.9841
▁구태	-11.9843
▁성원	-11.9845
▁걱정이요	-11.9846
▁서무	-11.9848
▁행하시	-11.9848
▁붙들	-11.9848
▁긴급	-11.9848
▁가두	-11.9849
▁방식으로	-11.9849
위존령	-11.985
▁제약	-11.985
▁예식에	-11.9852
▁묘위법	-11.9852
▁不應住色	-11.9852
▁일국	-11.9852
▁조장	-11.9853
▁청정주	-11.9854
올지	-11.9854
▁소아	-11.9855
▁전등	-11.9855
▁실내에서	-11.9855
▁쓰며	-11.9856
여의	-11.9857
▁내놓았	-11.9857
▁통해서	-11.986
▁수집	-11.9861
▁의연	-11.9861
▁처처	-11.9862
▁미숙	-11.9862
與天地	-11.9863
나간	-11.9863
▁이치까지	-11.9864
동양	-11.9866
之者	-11.9866
간다면	-11.9867
▁이전	-11.9868
▁사재	-11.9868
▁소요	-11.987
▁각색	-11.987
▁위반되	-11.9871
▁그러니	-11.9871
▁짓기에	-11.9871
▁계발하	-11.9872
▁하였으되	-11.9873
시오	-11.9873
▁부동함	-11.9875
▁배움	-11.9875
▁태도에	-11.9875
▁서늘하	-11.9875
▁무너지지	-11.9876
▁이흥	-11.9877
▁청결	-11.9877
所有	-11.9878
▁능란	-11.9879
▁주거나	-11.988
었을	-11.988
▁오리라	-11.9881
▁물심	-11.9881
▁확고	-11.9882
▁계법	-11.9884
▁지내며	-11.9885
見佛性	-11.9886
▁범위에	-11.9888
▁가까와지	-11.9889
터나	-11.989
▁실시하고	-11.9891
▁제한	-11.9892
▁길러내	-11.9893
▁실천력	-11.9896
萬物	-11.9896
▁이치인	-11.9899
▁개학	-11.99
▁있음이요	-11.99
▁접응	-11.99
▁부인에게	-11.99
▁이치로	-11.9901
▁깨치기	-11.9903
도하는	-11.9903
▁놓아버리	-11.9904
▁나타났	-11.9904
▁하더라	-11.9904
▁令諸	-11.9905
▁생활의식	-11.9905
▁산물	-11.9905
▁국경	-11.9907
▁색이	-11.9907
▁다녀가	-11.9908
[8]	-11.9908
▁보시니	-11.9912
▁긴박	-11.9912
[9]	-11.9913
▁구현하	-11.9919
▁소질	-11.992
佛所說	-11.9921
▁소집	-11.9921
▁자선기관	-11.9923
▁사람들이여	-11.9923
▁종시	-11.9925
▁못하였고	-11.9926
무와	-11.9927
동래	-11.9927
▁주셨고	-11.9928
▁눌	-11.9929
재비	-11.9929
▁수양이라	-11.9931
음으로	-11.9932
▁굳어지	-11.9932
이사장	-11.9933
▁모함	-11.9933
~	-11.9935
▁행복이	-11.9935
▁청소년	-11.9936
▁소홀한	-11.9936
▁지친	-11.9937
▁상황은	-11.9938
▁시각	-11.9938
▁평화롭	-11.9939
▁加	-11.994
有我相人相衆生相壽者相	-11.9941
▁예수교	-11.9943
인데	-11.9944
▁발간하고	-11.9945
▁의견으로	-11.9945
▁굽은	-11.9945
▁다과	-11.9946
▁치하하	-11.9946
▁사과	-11.9949
호라	-11.995
▁죽어서	-11.9951
▁망치	-11.9954
▁이목	-11.9954
▁외학	-11.9954
조사	-11.9955
▁흐를	-11.9956
▁허비하	-11.9956
주일	-11.9957
▁永保	-11.9957
정하고	-11.9958
▁法說	-11.9958
매하여	-11.9958
▁산신은	-11.9959
▁收	-11.996
▁오래가	-11.9961
우고	-11.9961
▁좌포	-11.9961
▁겸비한	-11.9961
▁안정하고	-11.9963
▁진전	-11.9963
▁입신	-11.9964
▁가권	-11.9965
▁덩어리	-11.9966
▁증참인	-11.9966
▁금산	-11.9967
▁고아원	-11.9967
▁대중에	-11.9968
▁수심결	-11.9969
▁法輪常轉	-11.9971
▁방어	-11.9971
▁진리적으로	-11.9971
▁제일대	-11.9972
▁게을리	-11.9972
▁恩法結義	-11.9974
▁산업기관	-11.9975
▁능력으로	-11.9975
▁창건사	-11.9975
▁명절	-11.9976
▁늙은이	-11.9979
▁원불교사상	-11.9981
▁웅	-11.9982
▁俱	-11.9982
▁모자라	-11.9983
▁희유함	-11.9984
▁계시는	-11.9986
▁집집	-11.9987
화합	-11.9989
위의	-11.9989
▁인견	-11.999
▁금전이	-11.999
▁수업	-11.9992
▁아니할지니	-11.9993
▁이룩하자	-11.9995
것이며	-11.9995
▁실행하며	-11.9995
h	-11.9995
ive	-11.9995
▁회집	-11.9996
▁근원이요	-11.9997
▁아귀	-11.9998
▁중생견	-11.9998
▁기차	-11.9999
▁야회를	-12
▁면하려	-12.0001
▁동남	-12.0001
주어보	-12.0001
▁땅이요	-12.0001
▁상법	-12.0001
▁得福	-12.0003
▁본교에서	-12.0004
▁更爲	-12.0004
▁절식	-12.0005
▁정천	-12.0005
有我	-12.0006
▁몸이라	-12.0006
▁한석	-12.0006
▁드러내려	-12.0008
▁명령에	-12.0008
▁구원하고	-12.0011
화상	-12.0014
▁편착심	-12.0015
▁無相	-12.0016
▁알려주	-12.0017
▁作	-12.0018
시다	-12.0018
▁측	-12.0021
▁봉공회	-12.0021
▁탑신	-12.0022
▁끊어졌으	-12.0024
▁신해	-12.0024
▁편안하여	-12.0029
▁정행	-12.0031
여천지	-12.0031
▁返	-12.0032
대금	-12.0034
▁하선	-12.0035
▁속세	-12.0038
▁시범	-12.0039
▁소견으로	-12.004
▁겨를	-12.004
▁한시	-12.0041
▁신상	-12.0043
▁별좌에	-12.0043
▁양정	-12.0043
▁제일이라	-12.0047
▁약해지	-12.0048
▁자심	-12.005
▁치중하	-12.005
▁않을까	-12.005
잡이	-12.0051
▁미개	-12.0052
▁화장이	-12.0052
▁든다	-12.0053
▁있는바	-12.0054
▁계미	-12.0054
▁굴	-12.0056
▁初如	-12.0056
▁떠났으	-12.006
▁장경	-12.0062
▁융화	-12.0062
▁송구	-12.0063
▁하나이며	-12.0063
▁마땅하게	-12.0065
▁응하고	-12.0065
공생	-12.0065
應用無	-12.0067
▁강원	-12.0068
▁모시지	-12.0068
▁인망	-12.0069
해탈	-12.007
▁좌선으로	-12.007
▁보이고	-12.007
▁도적	-12.0072
▁전임	-12.0074
술수로	-12.0074
▁봉고하	-12.0076
▁낙원이	-12.0079
으되	-12.0079
▁주자	-12.0087
▁아니하시니	-12.0088
▁뜻밖	-12.0088
천진	-12.0093
▁온몸	-12.0093
▁한반도에	-12.0093
▁화하며	-12.0094
▁한편으로	-12.0095
▁열려가	-12.0096
17.	-12.0097
▁완고	-12.0097
▁곱	-12.0097
▁邪	-12.0098
▁재정	-12.0098
▁어긋난	-12.0099
일자	-12.01
得阿耨多羅三藐三菩提	-12.01
修道之	-12.0101
▁없는데	-12.0101
▁겸손	-12.0101
▁단련시키	-12.0101
▁소실	-12.0102
하온데	-12.0103
▁체계	-12.0104
▁길인	-12.0107
▁동참	-12.0108
▁무덕	-12.0109
▁조직하시	-12.011
▁소모	-12.0111
▁항복받을	-12.0113
▁의식주	-12.0114
▁봉안하고	-12.0116
▁무념이	-12.0117
▁유촉	-12.0117
▁식당	-12.0118
▁참회게	-12.0121
▁동기는	-12.0124
▁조촐함	-12.0124
▁피로	-12.0125
▁천화	-12.0125
▁물어보	-12.0127
▁대하라	-12.0127
특신급	-12.0127
▁자라서	-12.0128
▁그렇	-12.0129
不見道	-12.013
▁상관	-12.013
▁돈으로	-12.0131
▁들며	-12.0133
▁건수	-12.0134
▁뚫리	-12.0136
▁객실	-12.0138
▁메	-12.0138
▁정화사는	-12.014
▁면면	-12.014
▁경전이요	-12.0142
▁종목	-12.0144
▁진단	-12.0144
▁석가	-12.0145
▁평탄하	-12.0147
▁구하며	-12.0149
0)	-12.0149
▁교파들	-12.0149
▁처리한	-12.0152
▁영산원	-12.0156
▁52)	-12.0159
▁도미	-12.0162
▁38)	-12.0162
▁현생에	-12.0162
셨사오니	-12.0167
▁이름인	-12.0167
▁통할	-12.0168
▁조장하	-12.0168
▁활동하여	-12.0169
리거나	-12.0169
▁행동으로	-12.0169
▁매대	-12.0171
▁愛欲	-12.0174
▁바라보	-12.0174
▁깨쳤을	-12.0175
▁근본이니	-12.0176
철이	-12.018
▁신령스러	-12.018
▁만중생	-12.018
▁사용하고	-12.0181
▁군인	-12.0181
나라는	-12.0182
▁영접하여	-12.0183
▁어린이들	-12.0184
▁중요하고	-12.0186
▁유래	-12.0188
수신	-12.0189
▁初	-12.0191
▁선택에	-12.0192
염불법	-12.0194
▁부여되	-12.0194
병보	-12.0195
▁신비	-12.0196
▁떠났	-12.0196
▁외우면	-12.0197
▁영신	-12.0198
▁專務出身	-12.0198
▁사랑하여	-12.0198
▁주악	-12.0199
心垢	-12.0205
마음에	-12.0208
▁광장	-12.021
▁법구	-12.0214
▁초청하	-12.0216
▁한울	-12.0217
대공심	-12.0217
법당과	-12.0217
▁대회사	-12.0219
▁불화하	-12.0222
無憂	-12.0223
▁교기	-12.0224
自力養	-12.0225
▁농지	-12.0226
▁나기	-12.0228
▁諸法	-12.023
住聲香味觸法	-12.023
▁47)	-12.0232
▁집필	-12.0233
▁언제든	-12.024
成佛	-12.0241
▁頓悟	-12.0242
▁타력이	-12.0242
▁捨	-12.0242
▁심령	-12.0243
▁공심과	-12.0243
견성에	-12.0244
▁파괴자	-12.0245
▁인력	-12.0246
▁병행하	-12.0252
▁법종	-12.0254
매사	-12.0254
▁退	-12.0254
▁통한다	-12.0254
▁뇌	-12.0257
▁수고롭	-12.026
▁각오하여	-12.0269
▁위문	-12.027
▁하듯이	-12.0272
▁없애기	-12.0273
쪽으로	-12.0275
이백	-12.0276
來世	-12.0279
법과	-12.028
▁성공하	-12.0284
▁법문이	-12.0285
▁미약	-12.0287
이어다	-12.0288
▁사천	-12.029
▁있었을	-12.029
▁의용	-12.0296
▁무안	-12.0307
만년	-12.0309
▁그르지	-12.031
▁정이며	-12.031
!]	-12.031
▁경계요	-12.0312
이로소이다	-12.0313
▁일행	-12.0314
▁죽으	-12.0314
▁규정한	-12.0314
▁투자	-12.0314
▁찬탄하기	-12.0315
▁제거해	-12.0315
▁이해하여	-12.0316
▁이해하	-12.0316
▁이룩하	-12.0317
군데	-12.0317
▁고전	-12.0318
▁聽	-12.0319
▁올렸으	-12.032
▁양의	-12.0322
▁자가	-12.0325
▁맑히	-12.0325
▁懺悔	-12.0325
량한	-12.0327
是佛法	-12.0328
▁도래하	-12.0329
相布施	-12.0329
과거에	-12.033
▁제도하려	-12.033
▁직원	-12.033
▁자진	-12.0337
▁기재하	-12.034
▁성섭	-12.0341
▁자원이	-12.0346
▁등급으로	-12.0348
▁거듭나	-12.0352
▁화하기	-12.0356
할꼬	-12.0357
▁가중	-12.0359
▁전통	-12.0359
있다	-12.0359
법상	-12.036
▁증명하	-12.0362
보나	-12.0363
▁법하에	-12.0367
▁백성	-12.0367
▁서방	-12.0368
▁엄연	-12.0368
▁都	-12.0369
▁대성지이	-12.037
나와서	-12.037
▁힘쓰자	-12.037
▁나뉘어	-12.0371
▁달에	-12.0372
▁교악	-12.0373
날에	-12.0375
후의	-12.0376
▁알아보	-12.0377
▁대리	-12.038
▁과제	-12.0381
殺生	-12.0382
日記	-12.0382
▁생에서	-12.0382
▁숨기	-12.0384
다지	-12.0384
▁선종	-12.0387
▁지명	-12.0388
有礙	-12.0388
▁깨지	-12.0393
輕賤	-12.0395
▁노력으로	-12.0395
▁趣	-12.0398
점이	-12.0398
▁중앙위	-12.0399
▁焉	-12.0399
▁교례	-12.0403
▁벗어난	-12.0405
我心	-12.0409
▁양성하고	-12.0409
▁노고	-12.041
중도행	-12.041
▁근신이	-12.0414
으라	-12.0415
空寂	-12.0416
▁성불하고	-12.042
▁是也	-12.0422
▁感	-12.0423
▁인부	-12.0425
선이	-12.0426
▁예술	-12.043
▁설산	-12.0432
▁묻히	-12.0435
▁발휘	-12.0437
▁나누이	-12.0441
▁갑자	-12.0442
▁내려가	-12.0443
▁反	-12.0443
▁성인이시	-12.0445
▁염불이	-12.0445
▁삼으시었	-12.0446
▁시키기	-12.0452
和氣	-12.0457
▁원하심이	-12.0457
▁매진	-12.0459
之患	-12.0463
▁얻나니	-12.0465
▁경중	-12.0467
▁흘러가	-12.0468
국문	-12.0469
▁상여	-12.0469
▁휘	-12.0472
▁明月	-12.0473
▁불어나	-12.0473
▁재물에	-12.0475
▁장남	-12.0476
▁후진들	-12.0481
▁자라지	-12.0483
▁들이고	-12.0484
念無念	-12.0488
此心	-12.049
▁따뜻	-12.049
▁하시다가	-12.049
▁병설	-12.0493
치라	-12.0495
▁양로	-12.0495
공부인	-12.0496
반야지	-12.0498
▁참가	-12.0499
▁하나이나	-12.05
▁공적에	-12.0502
▁불만	-12.0503
▁32	-12.0505
▁설산이	-12.0507
행하면서	-12.051
▁하였는가	-12.051
▁창시자이	-12.0512
23	-12.0513
▁원하	-12.0514
▁살다	-12.0516
與人	-12.0516
결이	-12.0518
▁운전사	-12.0525
▁유행	-12.0532
관할	-12.0543
▁수화	-12.0545
▁인도하기	-12.0549
민지	-12.055
▁집무	-12.055
▁지중하	-12.0553
▁여인	-12.0555
▁않겠	-12.0556
혐의	-12.0562
▁대종사님께서	-12.0563
▁영화에	-12.0565
풍이	-12.0569
▁사전	-12.0573
▁밝히셨	-12.0573
건만	-12.0575
▁명하여	-12.0576
▁그것이나	-12.0577
원불교교	-12.0578
▁설함	-12.0578
▁만수	-12.0579
▁자력으로	-12.058
▁대도로	-12.0583
▁돈오라	-12.0583
▁시작된	-12.0586
▁제도함	-12.059
▁如來說非	-12.059
면으로	-12.059
제도	-12.059
▁普	-12.0593
▁숲	-12.0594
▁자재하시	-12.0598
▁돌아오기	-12.0606
▁분명하여	-12.061
가를	-12.0611
▁부림	-12.0611
▁국제적	-12.062
사람은	-12.0622
▁불법이라	-12.0622
▁경영한	-12.0625
▁결정이	-12.063
▁정확하	-12.0631
납	-12.0633
▁단체에	-12.064
라가	-12.0641
▁산이	-12.0644
▁가지에	-12.0646
▁실시하	-12.0648
▁이루시	-12.065
▁묘사	-12.0652
可說	-12.0652
▁돌아가지	-12.0653
▁업인	-12.0655
▁斯陀含	-12.0655
▁外	-12.0656
▁건국론	-12.0658
▁아내	-12.0659
천여	-12.066
▁타력에	-12.066
▁주물러	-12.066
▁견지에	-12.0661
정도	-12.0661
▁목표사업	-12.0661
▁깊어	-12.0667
▁꺾어버	-12.0667
▁길이니	-12.0669
▁벌레들	-12.067
미륵불이	-12.0674
▁외지	-12.0675
▁돕는	-12.0677
▁좌우되	-12.0678
▁혜수	-12.0681
▁悉知	-12.0682
▁老	-12.069
▁공중이	-12.0692
▁하듯	-12.0693
▁非非	-12.0699
하셨나니라	-12.07
▁주의하고	-12.0702
▁종래에	-12.071
대하여	-12.0711
32)	-12.0713
생각이	-12.0714
▁이행하	-12.0715
▁阿那含	-12.0717
財團	-12.0717
▁저들	-12.0718
반본	-12.0721
▁관대하	-12.0722
▁효시	-12.0725
▁생각하시	-12.0729
▁이름하오	-12.0732
▁고취	-12.0734
▁응감	-12.0736
▁승급인	-12.0736
▁관통하시	-12.0739
으시며	-12.0739
자나	-12.074
▁과목이	-12.0742
은산	-12.0743
▁친우들	-12.0744
▁들어가야	-12.0748
▁병법	-12.0749
▁선승	-12.075
▁포섭하는	-12.0751
▁흔연	-12.0751
하에	-12.0751
▁탐심이	-12.0755
▁사무쳐	-12.0756
)'	-12.0757
▁하운	-12.0758
▁계획이	-12.0759
▁사랑이	-12.076
▁전라도	-12.0763
▁일본에	-12.0773
德尊	-12.0773
▁天	-12.0776
술이	-12.0778
▁기여하	-12.0787
▁하였음이요	-12.0788
▁맺으	-12.0791
▁베푸시	-12.0792
▁정밀	-12.0799
이온	-12.0799
▁효도하	-12.08
▁않으려	-12.08
▁자란	-12.0806
正傳	-12.0811
▁반수	-12.0812
▁밝으	-12.0817
▁중요하지	-12.0818
▁학설에	-12.0819
55.	-12.0825
리며	-12.0827
▁위정	-12.0832
만국	-12.0837
正行	-12.0837
▁이기려	-12.084
기어	-12.0841
장자	-12.0841
▁외식	-12.0848
것이라	-12.0848
▁시도하였	-12.085
▁인정받	-12.0852
▁의장	-12.0852
▁통촉하시	-12.0855
갔다	-12.0858
▁괴	-12.0861
▁被	-12.0864
▁평정하	-12.0874
▁안이	-12.0877
▁가림	-12.0878
▁문제로	-12.0879
▁손자	-12.0879
▁선량	-12.0885
▁후원자	-12.0893
▁없는가	-12.0893
▁大宗師	-12.0893
▁오인	-12.0898
▁화목하	-12.0901
옵다가	-12.0903
▁있더라	-12.0903
사오며	-12.0903
我得	-12.0907
▁보시려	-12.0907
하였노니	-12.0907
發心	-12.091
▁이리에	-12.0913
▁정신만	-12.0914
▁각성하	-12.0916
▁원각	-12.0917
대사	-12.0917
▁긴요하	-12.0924
치도	-12.0925
▁大道	-12.093
▁발송	-12.094
▁신앙법	-12.0942
수의	-12.0947
불의	-12.095
▁철저하여	-12.095
재산	-12.0953
▁이상으로	-12.0953
하셨다가	-12.0953
不變	-12.0956
▁구주	-12.0956
▁예정	-12.0964
▁좌우되나니	-12.0966
▁부귀가	-12.0973
▁돌아간	-12.0973
▁妄	-12.0977
▁갈리	-12.0978
29)	-12.098
▁좌선에	-12.0981
▁보았노	-12.0986
▁고락이	-12.0986
▁방황	-12.0994
▁교화하여	-12.0995
시대	-12.0995
▁경륜이	-12.0998
38	-12.1
▁갚기	-12.1001
▁트이	-12.1002
爲萬	-12.1003
▁잃기	-12.1009
만덕	-12.101
학부	-12.101
린다	-12.1017
호의	-12.1017
▁개성	-12.1021
▁유지하기	-12.1021
▁황도	-12.1022
▁교당장	-12.1023
▁生死	-12.1025
▁쓰시	-12.1026
其形	-12.1029
▁소유하	-12.103
▁방식이	-12.103
▁하나요	-12.1034
▁조상에	-12.1035
▁창고	-12.1036
24	-12.1036
▁구일	-12.1039
지부	-12.1041
▁허락하시	-12.1042
▁노자님	-12.1042
모요	-12.1044
▁위원회는	-12.1046
▁선영	-12.1048
▁갖추어지	-12.105
▁여주	-12.1058
신지라	-12.1058
▁釋	-12.106
▁사랑에	-12.1062
▁상황에	-12.1066
▁창조하	-12.1068
시되	-12.1069
▁인용하	-12.1071
정부	-12.1074
▁몸이요	-12.1075
▁익산시	-12.1075
00	-12.1082
▁재원	-12.1083
다시	-12.1087
바에	-12.1092
불가	-12.1102
▁품으	-12.1102
▁교무부에	-12.1104
▁지키기	-12.1107
▁민첩하	-12.1108
소로	-12.1126
▁되겠	-12.1127
▁기특하	-12.1128
▁악연이	-12.1129
▁아이들	-12.1131
▁존장들	-12.1142
▁자본이	-12.1145
백주	-12.1147
▁말이라	-12.1151
▁잡음	-12.1151
▁도양	-12.1151
識自心	-12.1151
▁우자	-12.1155
▁의왕	-12.1156
▁반조해	-12.1157
▁절에	-12.1157
▁비유하	-12.1159
▁달기	-12.1162
▁불안하	-12.1166
▁떨어지나니	-12.1174
▁크나니	-12.118
▁사서	-12.1182
▁삼지	-12.1187
▁허망하	-12.1188
▁합일한	-12.1189
▁실현하	-12.119
▁지혜로	-12.119
심하지	-12.1192
▁통용	-12.1192
오온	-12.1193
▁76	-12.1194
▁소개는	-12.1197
▁퇴보	-12.1199
▁강사	-12.12
▁권한	-12.1201
하느니라	-12.1204
▁발인	-12.1205
▁비어	-12.1206
▁...	-12.1218
▁서신	-12.1219
▁여일	-12.122
시불	-12.122
▁법위에	-12.1223
▁처한	-12.1224
▁간명하	-12.1224
▁이름하였	-12.1233
▁찾았으	-12.1239
유가	-12.1241
▁통함	-12.1243
▁선임되었	-12.1243
던가	-12.1249
▁졸업	-12.125
同歸一	-12.125
▁선행자	-12.1254
▁忘	-12.1256
소자	-12.1257
▁참예하	-12.1257
▁악심	-12.1272
▁자재하	-12.1273
▁심교	-12.1279
▁것까지	-12.1281
19	-12.1281
▁맞으면	-12.1291
▁보은자	-12.1292
▁생산의	-12.1295
▁彼	-12.1298
▁그런가	-12.1298
▁머무시	-12.1307
▁일원상으로	-12.1323
▁없애라	-12.1323
用之	-12.1327
▁책임자로	-12.1334
▁서양이	-12.1334
▁무엇에	-12.1335
▁전문적	-12.1339
▁삼자	-12.1342
▁과자	-12.1344
명리	-12.1344
▁皆應	-12.1344
운동에	-12.1349
영기	-12.1353
의자에	-12.1353
▁만물과	-12.1355
들이라	-12.1356
장이나	-12.1358
▁明	-12.1359
1917	-12.137
음이니라	-12.1372
▁어느곳	-12.1374
▁무엇이든	-12.1385
는가	-12.1386
▁시중	-12.1386
▁시끄러	-12.1389
▁사귀	-12.1392
▁마지막에	-12.1396
▁많으니	-12.1397
▁산회	-12.1401
▁만년에	-12.1401
▁죄해	-12.1406
성하고	-12.1408
품이	-12.1411
▁모여들	-12.1413
▁개선하	-12.1414
▁가면서	-12.1422
▁중일	-12.1425
▁기르기	-12.1425
▁守	-12.1425
▁지킴	-12.1427
▁위기를	-12.143
▁훈련이	-12.1432
▁탄생하시	-12.1435
▁위한다	-12.1439
▁놓고도	-12.1451
▁勸人	-12.1455
▁견성이	-12.1456
自性門	-12.1457
▁담담하	-12.1459
▁높으	-12.1465
▁절제	-12.1471
편에	-12.1473
▁주저	-12.1474
▁기울이	-12.1478
▁머금은	-12.148
근심하지	-12.1482
▁생기기	-12.1493
▁참고하	-12.1494
▁금지하	-12.1497
▁나가지	-12.1503
중일	-12.1503
▁부지	-12.1506
▁침울	-12.1508
▁통과	-12.1509
용으로	-12.1512
千萬	-12.1517
▁구하라	-12.1525
▁凡夫	-12.1528
▁묻기에	-12.1531
▁허락	-12.1534
▁소통	-12.1535
성년	-12.1535
▁적합	-12.1538
음에	-12.1542
▁승공	-12.1543
우리들	-12.1547
하리요마는	-12.1549
▁흩어져	-12.1551
▁보내면	-12.1561
았으니	-12.1563
▁차자	-12.1567
▁묵연	-12.1567
▁인격이	-12.1572
▁반성하	-12.1575
▁임의	-12.1587
機緣	-12.1592
三千	-12.1592
▁생각생각	-12.1593
령이	-12.1594
드리면	-12.1595
▁전개하여	-12.1596
생함	-12.1599
▁나아	-12.1599
▁담아	-12.1605
시련	-12.1606
▁잘하	-12.1613
▁낙망하	-12.1625
전은	-12.1644
▁법력에	-12.1651
▁서약하	-12.1651
상한	-12.1655
▁밝혀주	-12.1667
▁단정하	-12.1671
위하고	-12.1671
▁父	-12.1675
▁변환하	-12.1675
▁행례하	-12.1684
學道	-12.1686
▁잠들	-12.1694
주요	-12.17
집으로	-12.1704
요사이	-12.1707
▁잡기	-12.1708
신과	-12.171
▁않았나니	-12.171
不名	-12.171
해지면	-12.1717
고창	-12.172
수한	-12.1723
▁크지	-12.1729
(5	-12.1731
▁소임이	-12.1732
▁근성이	-12.1732
▁받쳐	-12.1756
▁역리	-12.1759
▁청정함	-12.1761
▁대령	-12.1762
산의	-12.177
▁절약하	-12.177
▁최고의	-12.1778
▁교회에	-12.1778
▁관찰하	-12.1783
령이라	-12.1784
▁수행력	-12.1784
▁결성되	-12.1792
하셨으니	-12.1794
여서	-12.1794
▁주간	-12.1796
▁관조	-12.1797
▁도가에	-12.1799
▁未免	-12.1806
인생	-12.1807
▁낼지니	-12.1809
▁소득	-12.181
▁착하	-12.1816
多生	-12.1818
▁결성	-12.1819
▁참회하	-12.1821
▁인재들	-12.1821
▁설하셨나	-12.1824
심으로써	-12.1828
▁들려	-12.1831
(6	-12.1832
▁앙	-12.1837
▁십분	-12.1838
▁월명암	-12.1848
시면서	-12.1848
▁좋아함	-12.1848
▁경계에서	-12.1863
라하니라	-12.1863
못	-12.1871
▁학과	-12.1871
▁차제	-12.1875
▁노루목	-12.1875
비로	-12.1884
▁못하겠	-12.189
▁나오리	-12.189
發大	-12.1894
▁보완	-12.1896
▁등한하	-12.19
공장	-12.1904
전에는	-12.1905
▁상합	-12.1906
▁애도	-12.1909
▁속임	-12.191
▁처했	-12.1911
▁추측	-12.1911
▁諸	-12.1912
회상의	-12.1915
▁나가시	-12.1917
받을	-12.1918
겁래로	-12.1921
▁求	-12.1921
유의	-12.1921
▁상쾌하	-12.1923
해졌	-12.1926
▁삼심	-12.1936
▁종으로	-12.1936
▁사업인	-12.1937
망하	-12.1938
▁국가에서	-12.1939
▁四大	-12.1943
▁오래되	-12.1946
때에는	-12.1947
▁심판이	-12.1949
▁수계	-12.1954
하였는지	-12.1955
▁노력하자	-12.1964
▁훈련원	-12.1965
▁합치되	-12.197
▁진인	-12.1971
▁천치	-12.1971
▁법설들	-12.1972
▁이상이라	-12.1972
오수	-12.1973
▁행한다	-12.1977
단이	-12.1981
▁손이	-12.1981
신에게	-12.1981
▁의식으로	-12.1991
▁먹기	-12.2002
念之	-12.2003
▁내장사	-12.2003
▁차와	-12.2006
기자	-12.2009
자도	-12.2015
▁부면	-12.2019
▁상단	-12.2019
▁경애	-12.2024
수라	-12.2026
▁百	-12.2026
해지	-12.203
定法	-12.2031
▁건물이	-12.2034
▁은인이	-12.2039
▁권하	-12.2043
▁기념주	-12.2045
▁일관하시	-12.2047
▁봉래정사	-12.2048
先以	-12.2048
대종사와	-12.2053
▁천록이	-12.2054
學人	-12.2056
▁훈시	-12.206
척	-12.2063
▁구해	-12.2066
▁다하	-12.2068
無作	-12.207
전의	-12.2072
▁거칠어	-12.2074
되는지라	-12.2078
▁죄송	-12.2083
쌍수	-12.2086
버려	-12.2087
▁안주하	-12.209
▁취임식	-12.2092
▁후인	-12.2093
▁배양하	-12.2094
▁주례자	-12.21
▁영접	-12.2103
▁자손들	-12.2106
1948	-12.2107
▁울리	-12.2117
Ar	-12.213
처음	-12.2137
▁법안	-12.2142
▁정령	-12.2143
▁교학과	-12.2155
▁어질	-12.2164
▁편화신불	-12.2169
54)	-12.2171
▁성취하기	-12.2173
▁조리	-12.2176
▁심장	-12.2187
여러	-12.219
▁쉬어	-12.219
리로다	-12.2191
▁불성이	-12.2192
▁그날	-12.2196
▁근처에	-12.2197
세가	-12.2198
▁모색하였	-12.2204
▁단원에	-12.2211
▁화로	-12.2215
▁참예	-12.2217
▁말단	-12.2223
▁드리기	-12.2232
不善	-12.2242
나라	-12.2244
用心	-12.2247
▁역전	-12.2248
▁젊은이	-12.2251
▁응연	-12.2251
▁간부들	-12.2257
▁봉안하였	-12.2263
▁엄수	-12.2264
▁열중	-12.2276
受持	-12.228
▁곳이라	-12.2282
두고	-12.2283
▁등이요	-12.2285
양의	-12.2285
▁남지	-12.2285
窮	-12.2291
라든지	-12.2304
九天	-12.2309
▁떨어졌	-12.2309
미륵불	-12.2312
▁아까	-12.2312
▁초인	-12.2313
▁卽得	-12.2316
▁盡	-12.2316
惡趣	-12.2318
응할	-12.2322
▁상대심	-12.2324
▁닦으시	-12.2324
無差別	-12.2328
거리	-12.2329
▁밝히자	-12.233
▁습관되	-12.2344
고해	-12.2348
여평	-12.235
▁불은화하	-12.2359
56.	-12.236
▁眼	-12.2361
고는	-12.2361
▁시봉하	-12.2366
사무장	-12.237
心樂	-12.2371
▁절제하	-12.2375
▁기상	-12.2375
▁법당	-12.2378
본회	-12.238
▁금강산으로	-12.2384
▁싶어	-12.2387
경계	-12.2387
▁의학	-12.2394
▁대각전이	-12.2406
장경	-12.2417
▁만사에	-12.2423
만지	-12.2436
有相	-12.2437
있게	-12.244
▁능하	-12.2445
▁창조	-12.2448
각자	-12.2452
▁존중함이	-12.2457
▁정해	-12.2457
▁강요	-12.246
▁입기	-12.2465
▁청렴하	-12.2465
▁미비	-12.2465
▁사다	-12.2471
▁한국으로	-12.2484
났으나	-12.2485
교재	-12.2489
58	-12.2504
▁문구	-12.252
道之人	-12.2522
▁병진해	-12.2535
▁다음날	-12.2538
可見	-12.2546
▁장엄한	-12.2548
▁싸움이	-12.255
▁꼬	-12.2551
▁정치인	-12.2554
방에	-12.2556
한다든지	-12.2569
병에	-12.2574
▁대기	-12.2574
▁자문	-12.2577
장의	-12.2582
卽無	-12.2587
▁보전하	-12.2591
이를	-12.2592
▁싫어하나	-12.2594
▁면목이	-12.2596
▁여년	-12.2603
▁已	-12.261
본래	-12.2612
扶安	-12.2613
있	-12.2615
시라	-12.2615
▁확보	-12.2616
▁好	-12.2617
念念	-12.2622
▁수행인	-12.2625
▁무법	-12.2627
▁我得	-12.2638
▁악의	-12.2643
▁생일이	-12.2655
▁보살로	-12.2655
▁내정하시	-12.2666
▁當得	-12.267
▁다니시	-12.267
▁원천	-12.2674
일산	-12.2677
身佛	-12.2679
국에	-12.2681
▁팔방	-12.2683
시옵	-12.2684
▁은사	-12.2685
워져	-12.2689
용하는	-12.2698
선인이	-12.2703
곳에	-12.2705
▁萬劫	-12.2713
▁피어	-12.2713
물의	-12.2716
▁중생계에	-12.2719
▁정인	-12.2721
▁회상하오	-12.2723
▁가지기	-12.2726
減	-12.2726
▁의세하	-12.2731
▁초보이	-12.2731
▁1940	-12.2731
▁따름	-12.2733
땅	-12.2734
▁떠나가	-12.2743
1926	-12.2743
▁세움	-12.2756
▁以此	-12.2761
▁此是	-12.2761
지로	-12.2765
▁인종이	-12.2766
▁요건이니	-12.2789
안이	-12.279
▁부정이	-12.2792
▁내용이	-12.2802
▁귀신	-12.2806
▁감응되	-12.2821
▁뒤에라	-12.2822
▁넉넉하	-12.2822
▁먹음이	-12.2824
▁별도	-12.2825
▁누워	-12.2825
리이까	-12.2828
사람에게	-12.2832
류를	-12.2832
聖而	-12.2839
訣	-12.284
▁시행한	-12.2843
▁수호	-12.2853
약하여	-12.2858
▁着	-12.286
▁주셨음이	-12.2866
▁지으려	-12.2874
▁살아가	-12.2886
▁비상	-12.2887
인바	-12.2887
명이었	-12.289
정보	-12.2894
옵기	-12.291
▁축원하옵	-12.291
64)	-12.2912
밖에	-12.2913
▁69	-12.2916
傳心	-12.2917
더기	-12.2917
사는	-12.293
▁청정심	-12.2932
1929	-12.2933
처와	-12.2936
▁出	-12.2939
▁죄벌	-12.2943
옵시고	-12.2945
▁움직	-12.2947
▁바요	-12.2948
▁도만	-12.2948
▁달사	-12.295
增	-12.2955
▁정리하	-12.2955
▁단위	-12.296
겨서	-12.2964
문이라	-12.2964
96	-12.2967
▁간절하	-12.2973
용이	-12.2974
▁眞	-12.2985
▁無法	-12.2986
경전	-12.2989
空圓	-12.2994
키	-12.2999
▁알자	-12.3002
▁걸어	-12.3004
삽더니	-12.3006
▁거리에	-12.3006
▁없으리	-12.3008
▁권도	-12.301
▁잘되	-12.3013
▁교무부	-12.3016
▁비우	-12.3016
▁외면이	-12.3017
감하여	-12.3019
三世諸佛	-12.3021
월간	-12.3022
수계리	-12.3029
년기에	-12.3032
▁영도	-12.3032
▁하루에	-12.3036
▁각부	-12.3041
四五	-12.3041
▁갖는	-12.3045
두리	-12.3059
▁예배하	-12.3059
▁저것	-12.306
▁가득한	-12.3062
랴	-12.3082
3)	-12.3084
▁교당은	-12.3086
▁떠나면	-12.3086
57.	-12.3091
1950	-12.3094
▁양계에	-12.3099
말을	-12.3107
▁일조	-12.3107
▁자비심	-12.3108
▁먹어	-12.3108
이니이	-12.3109
▁實無	-12.3113
세로	-12.3115
爲無	-12.3125
▁했으	-12.3141
妙用	-12.3143
▁숲에	-12.3147
▁순연	-12.3147
불과	-12.3148
▁총섭	-12.3156
▁익숙	-12.3165
▁방심이	-12.3167
지니	-12.317
對治之功	-12.3171
不打	-12.3174
▁동화	-12.3178
실행	-12.3187
▁논하	-12.3191
▁드나니	-12.3194
였으므로	-12.3196
福慧	-12.3197
이름	-12.3204
이런고	-12.3207
▁及諸	-12.3209
▁협조하	-12.3211
이지	-12.3225
거의	-12.3231
맞은	-12.3234
나고	-12.3246
1919)	-12.3251
▁축원하오	-12.326
짓되	-12.3262
▁미혹되	-12.3267
▁중앙총부에	-12.3274
일반	-12.3275
爲一	-12.328
27	-12.3283
▁해당한	-12.3285
난다면	-12.3285
▁막연하	-12.3285
▁즐기나	-12.3289
▁본부	-12.33
▁원불교라	-12.3304
제는	-12.3305
今	-12.3311
▁증정	-12.3314
르며	-12.3315
래도	-12.3317
▁지도하여	-12.3319
▁원칙이	-12.3322
▁시키	-12.3325
▁받는다	-12.3329
▁교수	-12.3329
▁격려	-12.3329
건설	-12.3333
▁행사로	-12.3334
▁되면서	-12.3352
▁다하며	-12.3359
돌아오	-12.3366
▁법상이	-12.3368
빠	-12.3371
▁중지	-12.3373
관계	-12.3378
신문	-12.3379
▁지소	-12.3383
亦非	-12.3384
▁만남	-12.3386
▁기도하	-12.3387
▁성도	-12.3387
▁해석에	-12.3387
▁사원	-12.3391
정사로	-12.3391
▁봉사하	-12.3394
주기	-12.3396
▁제공	-12.3399
원회	-12.3399
지어	-12.3399
▁시설이	-12.34
▁앉았	-12.3408
▁수단으로	-12.3411
강산	-12.3418
定期日	-12.3428
▁나타냄이	-12.3429
昔	-12.3432
▁67	-12.3435
▁난다	-12.3436
▁정이요	-12.344
격	-12.3441
1932	-12.3442
▁엎	-12.3449
▁성지에	-12.3449
根機	-12.3455
更	-12.3456
동정	-12.3458
▁닦았	-12.3459
다니	-12.346
▁지도인이	-12.3464
心通	-12.3465
▁자재할	-12.3466
택	-12.3471
▁포섭	-12.3475
▁말함이	-12.3479
1921	-12.348
▁않았으	-12.3482
앞	-12.3489
례로	-12.3493
거기에	-12.3502
▁고결	-12.3503
▁성행	-12.3513
▁한국에	-12.3519
▁가지도	-12.3519
먹	-12.3532
선이라	-12.3536
▁택	-12.3538
생산	-12.354
대학교	-12.3542
규	-12.3548
아래	-12.3549
▁막지	-12.3551
▁하나라	-12.3552
▁화해	-12.3557
사업으로	-12.3562
작업	-12.3563
▁못하는가	-12.3564
무적	-12.3566
말이	-12.3568
▁춤	-12.3571
심정	-12.3573
▁검사하	-12.3577
불법	-12.3584
느라	-12.3587
세간	-12.3589
당시	-12.3591
뇌	-12.3592
宗師	-12.3602
헌	-12.3604
기까지	-12.3606
5)	-12.361
▁必有	-12.3613
간으로	-12.3613
大疑	-12.363
▁사실이	-12.363
▁허송하	-12.3633
숭배	-12.3634
▁수라	-12.3635
목적	-12.3638
之用	-12.3639
▁見不	-12.3641
道行	-12.3644
행사	-12.3657
국민	-12.3661
▁주인들	-12.3661
▁가산	-12.3662
새로	-12.3663
▁적실	-12.3664
▁수용하기	-12.3665
悲	-12.3666
조금	-12.3668
12.	-12.3668
총	-12.3668
완	-12.367
究	-12.3676
▁진리계	-12.3676
思量	-12.3679
▁순교	-12.3684
▁그에게	-12.3686
1930	-12.3688
세우	-12.3692
▁세수	-12.3697
差	-12.3698
▁확립해	-12.3699
영겁	-12.3704
▁살펴보	-12.3705
大信	-12.3708
거짓	-12.3712
▁않음이	-12.3713
▁체험하	-12.3713
▁감소	-12.3717
▁겸손하	-12.3719
▁경하	-12.3722
초대	-12.3724
선악	-12.3727
▁스승님이시	-12.3729
▁밝히시	-12.3733
개인	-12.3742
▁간행하였	-12.3742
응용	-12.3744
▁깊으	-12.3746
歸依	-12.3748
나가면	-12.3748
▁심경이니	-12.3749
홀	-12.375
음이니	-12.3756
으시옵고	-12.3757
불멸	-12.3757
님의	-12.3761
냈	-12.3764
▁마치시	-12.3765
할만	-12.3777
▁일반이	-12.3778
說是經	-12.3778
▁정하였	-12.3779
진화	-12.3781
▁무난하	-12.3785
▁확립되	-12.3786
70	-12.3787
▁사가에	-12.3789
승으로	-12.3789
▁산다	-12.379
확립	-12.3792
▁조합원	-12.3792
영생	-12.3793
가지로	-12.3794
선진	-12.3798
내에	-12.3798
교악	-12.3801
공동	-12.3802
▁상화하	-12.3803
그릇	-12.3806
宣	-12.381
▁개척하자는	-12.3812
▁終不	-12.3812
님과	-12.3815
▁친감	-12.3816
▁수도하	-12.3818
불각	-12.3825
보거나	-12.3825
▁대성지	-12.3826
▁방로	-12.3827
시는지라	-12.3828
정녀	-12.3828
하셨다	-12.3833
경륜	-12.3837
▁시용	-12.3839
▁亦如	-12.3839
자들	-12.384
흘	-12.3841
정진	-12.3843
祈願	-12.3843
수만	-12.3853
▁외치	-12.3855
無始	-12.3859
전생	-12.3866
▁안분하	-12.3867
敎徒	-12.3868
▁저축하	-12.3868
노래	-12.3868
不滅	-12.3869
▁구한다	-12.387
대자대비	-12.3872
▁드러나나니	-12.3872
예회	-12.3872
여래께서	-12.3877
▁지내보	-12.3878
▁권속이니	-12.3881
오나니라	-12.3881
자신이	-12.3883
미래	-12.3883
소개	-12.3884
竝	-12.3887
대소	-12.3888
평소	-12.3888
▁막는	-12.389
▁법보	-12.3891
甘	-12.3897
過去	-12.3897
숨	-12.3898
甚	-12.3899
▁아파	-12.39
부처님들	-12.3902
공도자	-12.3902
愼	-12.3904
탐	-12.3904
▁필요하나	-12.3905
▁머	-12.391
복덕	-12.391
指	-12.391
▁기록하였	-12.391
▁별좌	-12.3912
自性不	-12.3912
주례	-12.3913
서가모니	-12.3914
무시선법	-12.3916
返	-12.3917
풀	-12.3923
출생	-12.3924
교환	-12.3927
기술	-12.393
표어	-12.393
稱	-12.3931
최초	-12.3931
시설	-12.3932
주문	-12.3932
대호법	-12.3933
광전	-12.3933
리리라	-12.3934
1962	-12.3935
▁공경함	-12.3938
예수님	-12.3938
탄	-12.3939
71	-12.394
금강산	-12.394
잠	-12.394
셔서	-12.3943
곳마다	-12.3944
틀	-12.3946
업보	-12.3946
형상	-12.3948
得福	-12.3948
障	-12.3949
대각여래위	-12.3951
▁선법이	-12.3953
▁대도니	-12.3956
목우십도송	-12.3958
구조	-12.396
과목	-12.396
제위	-12.3961
엄	-12.3962
긍	-12.3962
호념	-12.3962
반야심경	-12.3962
죽은	-12.3962
생로병사	-12.3963
師傅道德	-12.3964
首迦長者	-12.3964
莊嚴佛土	-12.3964
忍辱	-12.3967
마령	-12.3968
조단	-12.397
병행	-12.3971
▁귀함이	-12.3973
以恒河沙等身	-12.3975
80	-12.3976
주머니	-12.3978
▁이르나니	-12.3979
▁불하	-12.398
유교	-12.3981
▁순회	-12.3982
웅	-12.3983
아침	-12.3983
飯	-12.3983
俱	-12.3984
優	-12.3985
결산	-12.3986
兩舌	-12.3986
여래위에	-12.3986
山童	-12.3986
일본	-12.3987
普通	-12.3987
果報	-12.3987
중앙총부	-12.3987
사찰	-12.3988
관촌	-12.3988
겸임	-12.3988
運轉	-12.3988
송별	-12.3989
주관	-12.3989
밤	-12.3989
좌선법	-12.3989
일심으로	-12.3989
즉시	-12.399
춘추	-12.3991
금강	-12.3991
초목	-12.3991
공산	-12.3992
합력이	-12.3992
세기	-12.3992
포태	-12.3993
▁병법이	-12.3993
명필	-12.3994
수양원	-12.3994
작업취사	-12.3995
▁잊었	-12.3995
인과보응	-12.3996
혼자	-12.3997
不求	-12.3997
惡心	-12.3998
執心	-12.3999
善哉	-12.4
▁법만	-12.4001
냈다	-12.4001
對	-12.4004
▁설법에	-12.4006
개성	-12.4006
恩法結義	-12.4006
사리연구	-12.4006
法輪常轉	-12.4008
원불교사상	-12.4009
심량	-12.401
조석	-12.401
희사위	-12.4011
偏	-12.4012
縱	-12.4012
흑	-12.4012
십이인연	-12.4013
정토	-12.4013
성쇠	-12.4014
증참인	-12.4016
전공	-12.4016
덩어리	-12.4016
수심결	-12.4016
無能	-12.4017
오르는	-12.4018
所謂	-12.4019
44	-12.402
소멸	-12.4021
중생견	-12.4021
상전	-12.4021
건물	-12.4022
▁좌석에	-12.4022
달성	-12.4022
동원도리	-12.4023
收	-12.4024
천도교	-12.4024
방송	-12.4026
회광	-12.4026
永保	-12.4029
병든	-12.4029
삼동	-12.4029
혁신론	-12.4029
要法	-12.403
▁장년기	-12.4031
좌포	-12.4031
빛이	-12.4031
보육원	-12.4032
중근	-12.4032
무궁화	-12.4032
사견	-12.4032
▁교만하	-12.4032
계룡산	-12.4033
오호라	-12.4034
▁얻음	-12.4034
삼례	-12.4035
대종사께옵서	-12.4036
▁如云	-12.4036
고아원	-12.4037
업무	-12.4038
주역	-12.4038
국방	-12.4038
곳에서	-12.4038
바퀴	-12.4038
끝내	-12.4039
맛	-12.4039
我今	-12.4039
팔산	-12.404
번째	-12.4041
묘위	-12.4041
愚者	-12.4041
▁이웃에	-12.4042
청춘	-12.4044
진안	-12.4048
一體	-12.4049
▁겸비	-12.405
가에	-12.405
대희사	-12.4051
새겨	-12.4053
加	-12.4054
천주교	-12.4054
▁판단할	-12.4054
∼19	-12.4055
틈	-12.4056
應現	-12.4057
개발	-12.4058
순간	-12.4058
백억	-12.4059
일원화	-12.4061
안정	-12.4061
매일	-12.4061
답사	-12.4064
▁방해되	-12.4064
漸	-12.4065
너희	-12.4066
왜	-12.4068
잔	-12.4068
헐	-12.4068
복전	-12.4068
눌	-12.4069
▁합의	-12.407
커나	-12.4072
아귀	-12.4073
툭	-12.4073
윤	-12.4074
운외	-12.4076
원평	-12.4076
無相	-12.4078
▁본좌	-12.4079
▁맹세한	-12.4079
진리적	-12.4081
무사	-12.4083
法說	-12.4085
몽	-12.4085
요양원	-12.4086
출세	-12.4086
농장	-12.4089
▁노쇠	-12.409
무덕	-12.4091
▁구비	-12.4091
▁친밀	-12.4091
병자	-12.4093
온전	-12.4095
▁일반적	-12.4101
남원	-12.4101
날까지	-12.4102
똑	-12.4107
▁보물이	-12.4108
뿐이요	-12.4108
주려	-12.4109
중생상	-12.411
세속에	-12.4112
비한	-12.4116
▁효도	-12.412
소설	-12.4121
▁불단에	-12.4121
천화	-12.4121
▁손수	-12.4122
태극	-12.4128
이오니	-12.4128
통치	-12.4129
성주	-12.413
혼인	-12.4134
념으로	-12.4138
수위단회의	-12.4139
끌려	-12.4141
인견	-12.4145
心靈	-12.4145
통신	-12.4145
되옵고	-12.4148
치법	-12.4149
바람	-12.4155
원인이	-12.4156
명절	-12.4158
사참	-12.4158
▁하였거니	-12.4159
계미	-12.4159
취지	-12.416
▁참배	-12.4163
임원	-12.4164
▁적공한	-12.4168
금산	-12.4169
전력	-12.4169
▁自性	-12.4171
탈복	-12.4175
여성들	-12.4176
▁어떠하오	-12.4176
시의	-12.4179
▁법력으로	-12.418
▁되옵	-12.4181
역경이	-12.4182
讚	-12.4185
부산	-12.4188
주세	-12.4189
귀의불	-12.419
감찰	-12.419
▁정립	-12.419
지출	-12.419
▁서늘	-12.4191
온순	-12.4192
▁으뜸이	-12.4192
불사	-12.4194
될꼬	-12.4196
▁천연	-12.4196
거주	-12.42
▁실질	-12.42
일단	-12.4204
계와	-12.4205
▁포기	-12.4206
▁의지한	-12.4206
오십	-12.4208
단결	-12.4214
▁다하였	-12.4215
점수	-12.4218
우리에게	-12.422
是佛	-12.4224
r	-12.4225
러운	-12.423
좁아	-12.4232
수운	-12.4235
몰	-12.4243
말세	-12.4246
법훈	-12.4251
▁念	-12.4252
▁술수	-12.4253
교리도	-12.4255
▁붙였	-12.4255
본래에	-12.4256
세계에서	-12.4263
▁전하셨	-12.4266
친우	-12.4268
▁뿌	-12.427
찬송가	-12.4271
▁올리나이	-12.4275
▁졌	-12.4275
▁장중	-12.4277
그간	-12.4278
▁평상시	-12.4279
行大	-12.4286
손이	-12.4288
▁방에	-12.4291
렁	-12.4294
邪魔	-12.4304
▁方	-12.4305
▁如何	-12.4306
정경	-12.4307
▁기념식	-12.4309
성인이	-12.431
요양	-12.4316
종목	-12.4317
상극	-12.4317
설신	-12.432
▁승하리	-12.4321
▁사이로	-12.4322
有一	-12.4325
苦行	-12.4327
만사에	-12.4332
시나니	-12.4336
방식	-12.4338
▁저지	-12.4338
7]	-12.434
▁시내	-12.434
▁시끄	-12.4354
겠거든	-12.4356
된다면	-12.4357
34.	-12.4358
▁위안하	-12.436
▁문하	-12.436
예수교	-12.4368
▁포양	-12.4368
▁적절하	-12.437
기연	-12.4372
所行	-12.4374
후진들	-12.4378
유지	-12.4381
▁쓰나	-12.4388
心功	-12.4391
성산	-12.4392
▁풍속	-12.4394
兄	-12.4395
▁63	-12.4397
天命	-12.4398
圓佛	-12.4399
種性	-12.4401
▁뭉	-12.4401
▁인도하시	-12.4401
▁없으셨	-12.4403
9]	-12.4405
▁결과이니	-12.4405
평상심이	-12.4407
敎禮	-12.4409
▁쫓	-12.4411
▁한편에	-12.4414
▁횡	-12.4414
▁부드	-12.4416
▁이로서	-12.4417
오른	-12.442
1952	-12.442
▁민족이	-12.4422
▁양기	-12.4422
다대	-12.4423
체계	-12.4427
▁맞은	-12.4433
▁대외	-12.4435
▁집안사람	-12.4437
▁거래하	-12.444
생령	-12.4441
자성귀의	-12.445
▁행공	-12.4453
▁愼無	-12.4456
可得	-12.446
▁제중하	-12.4464
강사	-12.4467
▁옹	-12.4467
▁있삽거	-12.447
되매	-12.4473
▁들어왔	-12.4474
법신	-12.4475
도가에서	-12.4479
법률은	-12.448
病苦	-12.4481
▁게으	-12.4482
▁걱정하	-12.4484
속한	-12.4485
▁악기	-12.4485
▁청풍	-12.4494
겼	-12.4495
니시면	-12.4497
▁요구하	-12.4499
▁챙	-12.4504
모로	-12.4511
인천	-12.4515
▁찌	-12.4517
▁오르내	-12.4517
▁가르친	-12.4521
▁다하겠	-12.4522
此經	-12.4527
▁스승님들께	-12.4529
▁뉘우	-12.4529
십팔	-12.4529
▁옮	-12.4529
남으로	-12.4529
어선	-12.4531
룰	-12.4531
룬	-12.4531
▁법문이니	-12.4533
6]	-12.4537
▁시달	-12.4537
諸比丘	-12.4539
▁다루	-12.454
▁기일	-12.4541
▁단순	-12.4545
목에	-12.4547
초가	-12.4549
▁지도해	-12.4549
▁내적	-12.4549
섭	-12.455
▁목적지	-12.4552
▁71	-12.4553
▁멈	-12.4553
▁박람	-12.4556
爲人	-12.4556
잣	-12.4557
ar	-12.4557
▁종법	-12.4557
汝所	-12.4558
▁농작	-12.4559
▁읊	-12.4563
▁윤활	-12.4563
▁어떻	-12.4565
뢰	-12.4566
悟此	-12.4566
▁희생하	-12.4567
燃	-12.4568
▁용광	-12.4569
▁도인이니	-12.457
웃거	-12.4571
가령	-12.4571
▁민주	-12.4576
▁흡	-12.4576
수일	-12.4578
▁(188	-12.4579
▁걸렸	-12.4581
▁이르렀	-12.4581
▁물었	-12.4582
▁환희	-12.4582
대중화	-12.4582
페	-12.4583
첩	-12.4584
▁내부	-12.4585
譬	-12.4586
▁있거니	-12.4587
畢	-12.4587
마하살	-12.4587
▁아름다	-12.4589
친소	-12.4589
▁잦	-12.4589
維	-12.4589
▁좇	-12.4589
껴	-12.459
土	-12.459
不休	-12.459
蒼	-12.459
碍	-12.4591
仰	-12.4591
勤	-12.4591
턱	-12.4592
懺	-12.4592
▁섞	-12.4592
色天報	-12.4592
曾	-12.4592
諍	-12.4592
徒	-12.4592
准	-12.4592
汚	-12.4592
둠	-12.4592
敢	-12.4592
樞	-12.4592
▁暫	-12.4592
▁흠	-12.4593
損	-12.4593
▁勸	-12.4593
燈	-12.4593
럼	-12.4593
십니까	-12.4593
有所說法	-12.4593
背	-12.4593
決	-12.4593
剛	-12.4593
菩提心	-12.4593
于	-12.4594
哀	-12.4594
壽者相	-12.4594
貧	-12.4594
着我人衆生壽者	-12.4594
免	-12.4594
戴謝	-12.4594
View	-12.4594
準	-12.4594
談	-12.4594
蓮	-12.4594
▁훼	-12.4594
楊	-12.4594
昏	-12.4594
奔	-12.4594
炬	-12.4594
▁금강반야	-12.4594
曠劫	-12.4594
宅	-12.4594
貢	-12.4594
步步	-12.4594
四句偈等	-12.4594
演	-12.4594
릉	-12.4594
岫	-12.4594
州	-12.4594
頂	-12.4594
騰騰	-12.4594
EBS	-12.4594
仲	-12.4594
取靜爲行	-12.4594
喃	-12.4594
奢	-12.4594
幽	-12.4594
彩	-12.4594
整	-12.4594
湖	-12.4594
踏	-12.4594
酒	-12.4594
鬼	-12.4594
魚	-12.4594
남부민	-12.4594
소국집	-12.4594
일끝장	-12.4594
惟	-12.4594
揚	-12.4594
當爲汝說	-12.4594
飾	-12.4594
捐	-12.4594
▁묘관찰지	-12.4594
付	-12.4594
備	-12.4594
優婆塞	-12.4594
優婆夷	-12.4594
冠	-12.4594
坪	-12.4594
天長地久	-12.4594
弓弓	-12.4594
忌	-12.4594
斗	-12.4594
晦	-12.4594
柴	-12.4594
毘	-12.4594
毫	-12.4594
畝良	-12.4594
疎	-12.4594
立弘	-12.4594
肯	-12.4594
萬年又萬年	-12.4594
袒	-12.4594
跡	-12.4594
遮	-12.4594
釜	-12.4594
馬	-12.4594
鳥	-12.4594
곤륜산	-12.4594
乾	-12.4594
坤	-12.4594
▁URL	-12.4594
▁碎爲	-12.4594
發願廻向	-12.4594
R	-12.4594
▁不可稱量	-12.4594
▁不妨	-12.4594
▁何須更	-12.4594
▁如有福	-12.4594
▁至於今	-12.4594
▁기다렸삽	-12.4594
▁웹	-12.4594
亦復如	-12.4594
兵	-12.4594
勢	-12.4594
命盡而業不盡	-12.4594
嗚	-12.4594
圭	-12.4594
宗法師章	-12.4594
對境而念念	-12.4594
島山	-12.4594
峻	-12.4594
巍	-12.4594
巨	-12.4594
庶	-12.4594
憑	-12.4594
憲	-12.4594
拔	-12.4594
曹溪云	-12.4594
有實無實	-12.4594
殊勝	-12.4594
無所有處定	-12.4594
牢獄	-12.4594
發現也	-12.4594
礫	-12.4594
端的意	-12.4594
缺漏	-12.4594
舍衛大城	-12.4594
苑	-12.4594
萬象	-12.4594
解制式	-12.4594
道氣長存	-12.4594
適	-12.4594
錚錚	-12.4594
굼	-12.4594
종교자평화회의	-12.4594
▁不忘照顧	-12.4594
▁人不喜見	-12.4594
▁來生果	-12.4594
▁協贊	-12.4594
▁吾保此	-12.4594
▁得畜生報	-12.4594
▁得短命報	-12.4594
▁得餓鬼報	-12.4594
▁無實無虛	-12.4594
▁照鑑無惑	-12.4594
▁爲利益	-12.4594
▁닥	-12.4594
▁링크	-12.4594
▁모제사바하	-12.4594
▁문맹퇴치	-12.4594
▁박물관	-12.4594
▁뱉	-12.4594
▁사슴	-12.4594
▁선부촉	-12.4594
▁엉겨붙	-12.4594
▁짊어	-12.4594
▁틔	-12.4594
▁학교기업	-12.4594
▁훔	-12.4594
世飢饉	-12.4594
凝然	-12.4594
名譽遠聞	-12.4594
奉贊	-12.4594
得大富饒財多寶	-12.4594
業命俱不盡	-12.4594
業盡而命不盡	-12.4594
欲天報	-12.4594
生怯弱	-12.4594
緊	-12.4594
離一切相	-12.4594
다녔	-12.4594
밴	-12.4594
0%	-12.4594
44.1959)	-12.4594
▁26.27.28)	-12.4594
▁Marketing	-12.4594
▁一般	-12.4594
▁人所樂見	-12.4594
▁判云此是	-12.4594
▁勇猛精進	-12.4594
▁契乎本	-12.4594
▁得多病報	-12.4594
▁得阿修羅報	-12.4594
▁心不隨緣	-12.4594
▁忽	-12.4594
▁愼勿	-12.4594
▁擇法觀空	-12.4594
▁明其道而不計其功	-12.4594
▁明明不昧	-12.4594
▁更不重造	-12.4594
▁更無階級	-12.4594
▁有而非有	-12.4594
▁此間消息	-12.4594
▁歷代祖	-12.4594
▁然余	-12.4594
▁爲人解說	-12.4594
▁爲復先依	-12.4594
▁用無功之功	-12.4594
▁皆得成就	-12.4594
▁皆爲自家之	-12.4594
▁皎然	-12.4594
▁盡地獄壽	-12.4594
▁能生信心	-12.4594
▁膚體光澤	-12.4594
▁菩提薩	-12.4594
▁諸根殘缺	-12.4594
▁貧而	-12.4594
▁身口臭穢	-12.4594
▁輔翼	-12.4594
▁개운하리	-12.4594
▁갯벌	-12.4594
▁거극심	-12.4594
▁거꾸러지	-12.4594
▁건넌다	-12.4594
▁결부시켜	-12.4594
▁공즉시색	-12.4594
▁괭이	-12.4594
▁구석구석에	-12.4594
▁기슭에	-12.4594
▁김홍철	-12.4594
▁깎	-12.4594
▁껍데기	-12.4594
▁나쁨	-12.4594
▁남존여비사상	-12.4594
▁내원궁	-12.4594
▁늠름하	-12.4594
▁대한민국	-12.4594
▁댓가	-12.4594
▁돼지	-12.4594
▁떠올랐나니	-12.4594
▁마흔	-12.4594
▁맞춤	-12.4594
▁메아리	-12.4594
▁몹	-12.4594
▁바꿔서	-12.4594
▁바꿨다	-12.4594
▁바닷물	-12.4594
▁박공명선	-12.4594
▁박동국	-12.4594
▁배은망덕	-12.4594
▁변혁	-12.4594
▁빙공영사	-12.4594
▁샀	-12.4594
▁상부상조	-12.4594
▁석립청수성	-12.4594
▁성업봉찬	-12.4594
▁섶	-12.4594
▁소소영령	-12.4594
▁소태산기념관	-12.4594
▁스님네들	-12.4594
▁싣고	-12.4594
▁쓰러트리	-12.4594
▁알맹이	-12.4594
▁애당초	-12.4594
▁얕	-12.4594
▁어젯	-12.4594
▁연맹	-12.4594
▁연화대석	-12.4594
▁원탑대동제	-12.4594
▁육영장학회	-12.4594
▁은악양선	-12.4594
▁이매망량	-12.4594
▁일귀하처	-12.4594
▁일컫는다	-12.4594
▁일컬으오나	-12.4594
▁잉	-12.4594
▁자물쇠	-12.4594
▁잠재우	-12.4594
▁조롱	-12.4594
▁지붕	-12.4594
▁지켰	-12.4594
▁짖는	-12.4594
▁천붕지통	-12.4594
▁쳇줄	-12.4594
▁출가봉공회	-12.4594
▁카카오	-12.4594
▁커피숍	-12.4594
▁탈퇴	-12.4594
▁튀	-12.4594
▁팥	-12.4594
▁품삯	-12.4594
▁핑계	-12.4594
▁허례허식	-12.4594
▁허장성세	-12.4594
▁황정신행	-12.4594
▁훤하	-12.4594
○	-12.4594
一相圓	-12.4594
不作不集	-12.4594
不惜身命	-12.4594
不遇福田	-12.4594
二百五十	-12.4594
互	-12.4594
亦作亦集	-12.4594
人身長大	-12.4594
佛法硏究會	-12.4594
作業取捨	-12.4594
作而不集	-12.4594
修在悟前	-12.4594
健	-12.4594
僧閑坐聽	-12.4594
兀	-12.4594
允	-12.4594
兌	-12.4594
入無餘涅槃	-12.4594
全奪全與	-12.4594
刃	-12.4594
刷	-12.4594
刺	-12.4594
創立聯合團	-12.4594
功曹	-12.4594
勿形段者	-12.4594
千山萬水	-12.4594
千聖軌轍也	-12.4594
卷	-12.4594
厄	-12.4594
厚	-12.4594
叢叢	-12.4594
呵	-12.4594
咫尺	-12.4594
唯一學林	-12.4594
唾	-12.4594
啓	-12.4594
喜怒哀樂	-12.4594
喬	-12.4594
四肢	-12.4594
圃	-12.4594
圓光大學	-12.4594
圓覺聖尊	-12.4594
坎	-12.4594
執捉	-12.4594
塵埃	-12.4594
壓	-12.4594
大多羅尼門	-12.4594
大空心	-12.4594
夭	-12.4594
如是沙等恒河	-12.4594
妻子	-12.4594
婦	-12.4594
字	-12.4594
寃	-12.4594
崖	-12.4594
川	-12.4594
左山	-12.4594
巽	-12.4594
巾	-12.4594
庭	-12.4594
延	-12.4594
怪	-12.4594
恚	-12.4594
恩惠	-12.4594
手共行	-12.4594
才	-12.4594
把芒繩	-12.4594
抱	-12.4594
拘	-12.4594
招	-12.4594
振	-12.4594
換	-12.4594
搖	-12.4594
撓	-12.4594
星	-12.4594
昭昭	-12.4594
時時處處	-12.4594
晝	-12.4594
晨昏敬禮	-12.4594
景	-12.4594
暗	-12.4594
曆	-12.4594
有殊	-12.4594
未生前	-12.4594
松收萬木餘春立	-12.4594
梵	-12.4594
業命俱盡	-12.4594
歌利王	-12.4594
歸依法離欲尊	-12.4594
殉	-12.4594
殷重	-12.4594
汚染	-12.4594
浦	-12.4594
浩	-12.4594
浮	-12.4594
淑	-12.4594
淳	-12.4594
湯	-12.4594
滛	-12.4594
漸修之義	-12.4594
漸機所行	-12.4594
瀾	-12.4594
炎	-12.4594
烈	-12.4594
無生法印	-12.4594
無罣碍	-12.4594
照見五蘊皆空	-12.4594
牌	-12.4594
物貨	-12.4594
牽	-12.4594
犇	-12.4594
甛	-12.4594
疆	-12.4594
疲	-12.4594
百骸	-12.4594
眞空妙有	-12.4594
眼耳鼻舌身意	-12.4594
睡	-12.4594
石立聽水聲	-12.4594
离	-12.4594
秀	-12.4594
空而不空	-12.4594
範	-12.4594
系	-12.4594
納	-12.4594
累	-12.4594
結制式	-12.4594
綿	-12.4594
織	-12.4594
美	-12.4594
職	-12.4594
胞胎	-12.4594
能見聞覺知	-12.4594
自己靈知	-12.4594
臺	-12.4594
與四時	-12.4594
舟	-12.4594
艮	-12.4594
苗稼	-12.4594
荷	-12.4594
菜	-12.4594
萬像自然明	-12.4594
蕩蕩	-12.4594
薰濛	-12.4594
藍	-12.4594
蜜	-12.4594
衆生之類	-12.4594
衍	-12.4594
術	-12.4594
衾	-12.4594
訥	-12.4594
誤	-12.4594
警	-12.4594
赦	-12.4594
躍	-12.4594
輝	-12.4594
逾	-12.4594
道明德化	-12.4594
違	-12.4594
邊山九曲路	-12.4594
醍	-12.4594
錯	-12.4594
鍊成	-12.4594
闊	-12.4594
集而不作	-12.4594
電	-12.4594
靖亂	-12.4594
鞭	-12.4594
頓悟漸修兩門	-12.4594
頓悟頓修	-12.4594
顔	-12.4594
顧	-12.4594
風雲雨露	-12.4594
飄	-12.4594
飯辟支佛	-12.4594
髮	-12.4594
鹿	-12.4594
교육팀	-12.4594
껄	-12.4594
꼈	-12.4594
꼼	-12.4594
꽉	-12.4594
끈	-12.4594
낡	-12.4594
댁	-12.4594
댈	-12.4594
덧	-12.4594
동포응감지위	-12.4594
듀	-12.4594
뗀	-12.4594
뚜벅	-12.4594
랍	-12.4594
랩	-12.4594
릿	-12.4594
바닥	-12.4594
법률응감지위	-12.4594
변산구곡로	-12.4594
부모하감지위	-12.4594
부증불감	-12.4594
불교종단협의회	-12.4594
빽	-12.4594
뺨	-12.4594
삼처전심	-12.4594
샅	-12.4594
샐	-12.4594
샘	-12.4594
솜	-12.4594
숱	-12.4594
스크랩	-12.4594
신정의례준칙	-12.4594
아승기겁	-12.4594
엔	-12.4594
웨	-12.4594
웬	-12.4594
윽	-12.4594
줍	-12.4594
쭝긋	-12.4594
쯤	-12.4594
천지하감지위	-12.4594
킹	-12.4594
텄	-12.4594
템	-12.4594
페스티벌	-12.4594
핀	-12.4594
핍	-12.4594
▁世世生生	-12.4594
▁廻光返照	-12.4594
▁長老須菩提	-12.4594
▁탁아소	-12.4594
동그라미	-12.4594
▁不盡其壽	-12.4594
▁侵奪	-12.4594
▁先世罪業	-12.4594
▁入道因緣	-12.4594
▁分毫不殊	-12.4594
▁初時貧苦	-12.4594
▁如無福	-12.4594
▁得少病報	-12.4594
▁得少資生報	-12.4594
▁得身心俱	-12.4594
▁心心斷惑	-12.4594
▁或瞋或喜	-12.4594
▁是樂阿蘭那行	-12.4594
▁爲公反自成	-12.4594
▁遇緣而心心	-12.4594
▁阿修羅等	-12.4594
▁공명정대하	-12.4594
▁관자재보살	-12.4594
▁누웠을	-12.4594
▁마읍리	-12.4594
▁마찬가지	-12.4594
▁몰이꾼	-12.4594
▁보잘것없	-12.4594
▁부끄러우리요	-12.4594
▁삼불봉	-12.4594
▁신앙공동체	-12.4594
▁앱	-12.4594
▁유유상종	-12.4594
▁잎사귀	-12.4594
▁촬	-12.4594
▁쾌락	-12.4594
▁풍겨나	-12.4594
無我無人無衆生無壽者	-12.4594
爲人演說	-12.4594
現千百億化身	-12.4594
깃	-12.4594
냇	-12.4594
붉	-12.4594
앓	-12.4594
일시무시일	-12.4594
▁佛佛聖聖	-12.4594
▁切莫	-12.4594
▁卒難	-12.4594
▁南無靈山會上	-12.4594
▁展轉	-12.4594
▁無彼此	-12.4594
▁種諸善根	-12.4594
▁絃	-12.4594
▁간화선	-12.4594
▁걸터앉	-12.4594
▁권모술수	-12.4594
▁발뒤꿈치	-12.4594
▁범현동	-12.4594
▁생각해보자	-12.4594
▁생활시불법	-12.4594
▁일체유심조	-12.4594
▁조견오온개공	-12.4594
▁지저귀	-12.4594
一大藏敎	-12.4594
不作之	-12.4594
不定報	-12.4594
世間有爲之	-12.4594
全信全受	-12.4594
兮	-12.4594
刀	-12.4594
列	-12.4594
包	-12.4594
否	-12.4594
哭	-12.4594
嘗	-12.4594
委	-12.4594
官	-12.4594
定期訓練	-12.4594
寶庫	-12.4594
尹	-12.4594
屬	-12.4594
巧	-12.4594
常時訓練	-12.4594
庸	-12.4594
廉	-12.4594
快樂	-12.4594
懈怠	-12.4594
懸	-12.4594
整備	-12.4594
昏沈	-12.4594
李廣淨	-12.4594
正其義而不謀其利	-12.4594
殘害	-12.4594
水火風	-12.4594
潟	-12.4594
炳	-12.4594
燮	-12.4594
爵	-12.4594
班	-12.4594
程	-12.4594
穩	-12.4594
紙	-12.4594
般若波羅密多心經	-12.4594
蓋	-12.4594
詔	-12.4594
諮	-12.4594
赤	-12.4594
金海運	-12.4594
阿修羅	-12.4594
響	-12.4594
額	-12.4594
飯持五戒者	-12.4594
髓	-12.4594
꿩	-12.4594
사원기일월	-12.4594
송수만목여춘립	-12.4594
음양상승	-12.4594
▁亦勸他	-12.4594
▁膚體	-12.4594
[...]
