<unk>	0
<s>	0
</s>	0
▁그	-0
▁사	-1
▁것	-2
▁하	-3
▁이	-4
▁말	-5
▁것이	-6
▁사람	-7
기를	-8
하여	-9
▁일	-10
▁대	-11
▁있	-12
▁[	-13
.]	-14
▁아	-15
▁가	-16
▁없	-17
종사	-18
하시	-19
나니	-20
으로	-21
하는	-22
▁자	-23
▁말씀	-24
▁되	-25
▁다	-26
하시기를	-27
▁어	-28
▁말씀하시기를	-29
▁마	-30
▁공	-31
하고	-32
▁아니	-33
▁지	-34
▁수	-35
▁정	-36
▁나	-37
▁보	-38
▁못	-39
▁생	-40
▁모	-41
▁세	-42
▁한	-43
▁제	-44
▁도	-45
▁주	-46
▁마음	-47
▁때	-48
▁부	-49
▁사람이	-50
▁대종사	-51
▁무	-52
▁법	-53
▁바	-54
에게	-55
▁또	-56
▁알	-57
▁같	-58
▁여	-59
에는	-60
▁만	-61
대종사	-62
나니라	-63
▁천	-64
▁그러	-65
▁인	-66
므로	-67
▁불	-68
▁모든	-69
니라	-70
▁기	-71
▁오	-72
▁것이요	-73
▁우	-74
▁공부	-75
▁할	-76
이라	-77
에서	-78
▁하는	-79
▁그대	-80
▁받	-81
▁선	-82
▁세상	-83
하지	-84
▁교	-85
▁원	-86
▁잘	-87
▁성	-88
▁1	-89
▁시	-90
▁동	-91
▁위	-92
▁경	-93
▁조	-94
▁내	-95
▁들	-96
▁얻	-97
하면	-98
지라	-99
▁사람은	-100
이요	-101
▁중	-102
▁서	-103
하게	-104
▁없는	-105
▁큰	-106
▁우리	-107
▁따	-108
▁고	-109
▁물	-110
▁전	-111
▁곧	-112
▁신	-113
▁구	-114
▁있는	-115
▁비	-116
▁하여	-117
▁같이	-118
▁2	-119
▁많	-120
들이	-121
▁있으	-122
리라	-123
▁방	-124
▁실	-125
▁가지	-126
▁생각	-127
▁것은	-128
▁것이며	-129
▁영	-130
▁일을	-131
들은	-132
▁길	-133
이나	-134
▁상	-135
▁저	-136
▁것이니	-137
▁남	-138
▁때에	-139
▁혹	-140
운데	-141
▁진	-142
▁어찌	-143
▁따라	-144
▁가운데	-145
▁데	-146
▁각	-147
▁당	-148
▁삼	-149
어서	-150
다면	-151
▁자기	-152
▁의	-153
▁소	-154
▁더	-155
▁행	-156
나이	-157
▁정신	-158
▁하고	-159
▁후	-160
▁그러므로	-161
▁두	-162
▁심	-163
▁제자	-164
▁3	-165
▁과	-166
▁근	-167
▁미	-168
▁또는	-169
▁유	-170
▁계	-171
▁본	-172
▁생활	-173
▁않	-174
▁연	-175
▁여쭙	-176
▁될	-177
▁죄	-178
▁부처	-179
▁여쭙기를	-180
▁해	-181
▁살	-182
▁없이	-183
▁참	-184
▁또한	-185
▁일이	-186
▁거	-187
▁좋	-188
▁돌	-189
▁안	-190
▁대중	-191
▁아니하	-192
리요	-193
▁못하	-194
▁서로	-195
▁마음을	-196
아서	-197
▁때에는	-198
▁항	-199
▁것을	-200
▁천지	-201
▁하나	-202
▁사람의	-203
▁줄	-204
▁분	-205
▁함	-206
▁육	-207
리를	-208
▁배	-209
▁병	-210
▁처	-211
▁허	-212
으나	-213
▁이치	-214
▁감	-215
▁뜻	-216
▁발	-217
▁스	-218
▁재	-219
는가	-220
▁만일	-221
▁회	-222
▁능	-223
▁악	-224
이니	-225
▁여러	-226
▁부처님	-227
▁적	-228
든지	-229
▁차	-230
▁강	-231
시고	-232
▁장	-233
것이	-234
▁사업	-235
▁것이니라	-236
▁놓	-237
이니라	-238
▁반	-239
다가	-240
▁결	-241
▁먼	-242
▁힘	-243
으며	-244
▁항상	-245
▁개	-246
▁작	-247
▁마음이	-248
심이	-249
▁세계	-250
▁예	-251
▁노	-252
오니	-253
하며	-254
▁4	-255
리는	-256
▁가르	-257
▁다시	-258
▁먼저	-259
▁편	-260
라도	-261
▁회상	-262
▁화	-263
▁복	-264
째는	-265
▁어떠	-266
▁몸	-267
▁문	-268
▁입	-269
마는	-270
▁법을	-271
▁권	-272
▁번	-273
▁앞	-274
도를	-275
연히	-276
▁데에	-277
▁돌아	-278
▁무슨	-279
▁하면	-280
▁밝	-281
하였	-282
▁보면	-283
▁위하여	-284
▁깨	-285
자의	-286
▁되는	-287
▁부모	-288
▁아무	-289
▁관	-290
▁변	-291
들의	-292
▁말하	-293
지라도	-294
▁곳	-295
▁경계	-296
▁하였	-297
▁아니하고	-298
▁열	-299
▁집	-300
그대	-301
어지	-302
5.	-303
▁것과	-304
▁다른	-305
▁있고	-306
나이까	-307
▁있나니	-308
▁명	-309
▁순	-310
▁종	-311
하기	-312
▁나의	-313
▁아는	-314
▁알지	-315
▁하며	-316
나이다	-317
▁아니라	-318
▁있어서	-319
까지	-320
심을	-321
▁기운	-322
▁되고	-323
▁크	-324
▁나타	-325
▁모르	-326
▁수도	-327
▁중생	-328
▁세상에	-329
▁끌	-330
▁단	-331
▁요	-332
▁그대들은	-333
6.	-334
▁날	-335
▁그것	-336
▁어느	-337
▁혹은	-338
▁취	-339
리어	-340
▁되었	-341
▁없으	-342
▁간	-343
자는	-344
▁사뢰	-345
▁오직	-346
▁자기의	-347
리지	-348
인이	-349
▁도를	-350
▁많이	-351
▁사람을	-352
▁어떠한	-353
7.	-354
사람	-355
▁들어	-356
▁못할	-357
▁그러나	-358
▁국	-359
▁버	-360
▁염	-361
당한	-362
리가	-363
▁되나니라	-364
▁사뢰기를	-365
▁믿	-366
▁짓	-367
▁일원	-368
▁제도	-369
▁은	-370
▁직	-371
사를	-372
자가	-373
▁죽	-374
력을	-375
▁능히	-376
▁못한	-377
▁수양	-378
▁알고	-379
▁못하고	-380
8.	-381
▁드	-382
▁쓰	-383
▁등	-384
▁범	-385
기도	-386
▁근본	-387
▁많은	-388
▁실행	-389
▁공부를	-390
▁이것이	-391
▁통	-392
되는	-393
▁같은	-394
▁바가	-395
▁자리	-396
9.	-397
▁산	-398
다는	-399
더니	-400
리고	-401
치는	-402
▁정성	-403
하여야	-404
▁사람에게	-405
▁몇	-406
▁설	-407
기에	-408
▁길이	-409
▁더욱	-410
▁주의	-411
▁그러한	-412
▁매	-413
▁온	-414
▁잡	-415
▁평	-416
상을	-417
으시	-418
▁경전	-419
▁되어	-420
▁이름	-421
▁지금	-422
▁하시	-423
▁생활을	-424
▁청	-425
거나	-426
에도	-427
▁2.	-428
▁방법	-429
▁육신	-430
생의	-431
으니	-432
▁1.	-433
▁내가	-434
▁좋은	-435
▁둘	-436
▁양	-437
▁출	-438
▁치	-439
▁형	-440
대로	-441
▁도덕	-442
▁주는	-443
▁현	-444
거늘	-445
께서	-446
다고	-447
드시	-448
▁3.	-449
▁가정	-450
▁과거	-451
▁말을	-452
▁바로	-453
▁받는	-454
▁비록	-455
▁없고	-456
▁원만	-457
▁이루	-458
▁있을	-459
▁반드시	-460
▁우리의	-461
0.	-462
▁달	-463
▁듣	-464
▁먹	-465
▁새	-466
▁점	-467
부터	-468
스로	-469
▁그런	-470
▁사회	-471
▁스승	-472
▁이는	-473
▁것이라	-474
▁스스로	-475
▁약	-476
▁무엇	-477
▁알아	-478
▁지도	-479
▁정신을	-480
▁금	-481
▁낙	-482
▁막	-483
▁좌	-484
▁타	-485
노라	-486
하라	-487
▁말고	-488
▁귀	-489
▁올	-490
▁외	-491
도록	-492
어나	-493
지는	-494
▁일에	-495
으로써	-496
▁그대로	-497
▁얼	-498
▁응	-499
력이	-500
▁나는	-501
▁천만	-502
▁되리라	-503
기가	-504
▁각각	-505
▁뜻을	-506
▁사이	-507
▁염불	-508
▁은혜	-509
▁이와	-510
▁조금	-511
▁이치를	-512
▁특	-513
거든	-514
기로	-515
시에	-516
▁말며	-517
사람이	-518
▁각자의	-519
▁도리어	-520
▁세상을	-521
▁아무리	-522
▁대중에게	-523
1.	-524
▁건	-525
러한	-526
▁물질	-527
▁수행	-528
▁잘못	-529
▁크게	-530
이라도	-531
적으로	-532
▁우리는	-533
2.	-534
▁광	-535
▁누	-536
▁속	-537
기는	-538
▁연구	-539
▁작은	-540
▁하지	-541
▁그대들	-542
▁나타나	-543
3.	-544
▁창	-545
와서	-546
이며	-547
▁대한	-548
▁만물	-549
▁말라	-550
▁자연	-551
▁돌아오	-552
▁견	-553
▁욕	-554
▁책	-555
▁초	-556
식을	-557
▁4.	-558
▁영원	-559
▁이르	-560
겠는가	-561
▁못하는	-562
▁있으나	-563
▁할지라도	-564
▁"	-565
▁깊	-566
▁역	-567
▁태	-568
▁피	-569
리까	-570
으면	-571
인의	-572
▁계속	-573
▁되지	-574
▁신앙	-575
▁어려	-576
▁연고	-577
▁자신	-578
오리까	-579
▁사람들이	-580
4.	-581
▁돈	-582
▁목	-583
▁쉬	-584
▁착	-585
▁활	-586
는데	-587
▁관계	-588
▁길을	-589
▁배우	-590
▁보고	-591
▁인연	-592
▁자녀	-593
▁하라	-594
하나니	-595
▁하시고	-596
▁걸	-597
▁너	-598
▁덕	-599
▁승	-600
로써	-601
상의	-602
함이	-603
▁공덕	-604
▁않는	-605
▁이익	-606
▁인도	-607
▁종교	-608
▁되나니	-609
▁부처님의	-610
▁된	-611
▁벌	-612
▁혜	-613
져서	-614
▁나라	-615
▁대로	-616
▁선원	-617
▁얻어	-618
▁책임	-619
▁하늘	-620
는지라	-621
▁말하기를	-622
▁밖	-623
▁준	-624
도에	-625
리와	-626
인가	-627
함을	-628
▁동안	-629
▁오래	-630
▁유무	-631
▁자유	-632
▁함은	-633
에서는	-634
한다면	-635
▁그것을	-636
▁마음에	-637
▁이러한	-638
▁끊	-639
▁운	-640
▁즐	-641
▁체	-642
▁학	-643
되어	-644
락을	-645
래에	-646
리석	-647
▁교화	-648
▁마치	-649
▁말이	-650
▁받아	-651
▁보은	-652
▁시비	-653
▁일체	-654
▁좌선	-655
▁지혜	-656
▁처음	-657
▁기운이	-658
▁자연히	-659
▁없나니라	-660
▁송	-661
▁십	-662
▁업	-663
▁완	-664
▁증	-665
▁찾	-666
내가	-667
니와	-668
떻게	-669
사에	-670
자면	-671
하나	-672
하려	-673
▁가히	-674
▁것도	-675
▁나를	-676
▁문명	-677
▁법률	-678
▁불공	-679
▁사실	-680
▁우주	-681
▁우리가	-682
▁정당한	-683
▁땅	-684
▁쉽	-685
▁친	-686
▁훈	-687
사의	-688
▁5.	-689
▁국가	-690
▁노력	-691
▁수가	-692
▁이해	-693
으로는	-694
▁가지고	-695
▁농	-696
▁떨	-697
▁뿐	-698
▁존	-699
간에	-700
들을	-701
오면	-702
▁드러	-703
▁미리	-704
▁사용	-705
▁이를	-706
▁이제	-707
지마는	-708
▁것이나	-709
▁있으며	-710
▁진리를	-711
▁있나니라	-712
▁떠	-713
▁숭	-714
▁철	-715
▁탐	-716
정한	-717
지를	-718
▁강령	-719
▁남의	-720
▁동포	-721
▁마침	-722
▁받을	-723
▁성공	-724
▁차차	-725
▁하루	-726
사오니	-727
▁동시에	-728
▁못하면	-729
▁사람도	-730
▁어떻게	-731
▁사람들은	-732
▁극	-733
▁맞	-734
▁애	-735
▁언	-736
▁용	-737
▁음	-738
▁잃	-739
▁필	-740
그러	-741
성을	-742
원을	-743
▁물건	-744
▁없을	-745
▁조목	-746
▁구하는	-747
▁조금도	-748
▁박	-749
▁봉	-750
▁뵈	-751
▁절	-752
▁환	-753
사가	-754
시키	-755
하신	-756
▁6.	-757
▁남을	-758
▁들으	-759
▁시대	-760
▁이것	-761
▁인간	-762
▁있어	-763
▁지내	-764
▁하게	-765
께서는	-766
▁난	-767
▁눈	-768
▁뒤	-769
▁망	-770
▁벗	-771
로서	-772
문을	-773
법을	-774
보다	-775
움을	-776
▁가는	-777
▁개인	-778
▁그가	-779
▁받게	-780
▁법이	-781
▁보라	-782
▁복을	-783
▁어렵	-784
▁얻을	-785
▁인과	-786
▁일은	-787
▁죄복	-788
▁직접	-789
▁후에	-790
▁훈련	-791
건마는	-792
론하고	-793
으므로	-794
하기를	-795
▁어리석	-796
▁잠	-797
▁충	-798
▁표	-799
보살	-800
생을	-801
의를	-802
▁경우	-803
▁과목	-804
▁사랑	-805
▁숭배	-806
▁아직	-807
▁오늘	-808
하시고	-809
하여도	-810
▁끌리지	-811
▁있으면	-812
▁천지의	-813
▁하나니	-814
▁행하는	-815
▁하나니라	-816
▁꾸	-817
▁백	-818
▁손	-819
같이	-820
로운	-821
리니	-822
지가	-823
▁7.	-824
▁교육	-825
▁기관	-826
▁바라	-827
▁아닌	-828
▁얻게	-829
▁없게	-830
▁일반	-831
▁줄을	-832
▁직업	-833
▁짓는	-834
▁천하	-835
▁힘을	-836
들에게	-837
▁경계를	-838
▁그것이	-839
▁모르는	-840
▁사람으로	-841
▁괴	-842
▁면	-843
▁옳	-844
▁희	-845
나는	-846
에만	-847
정을	-848
지에	-849
하되	-850
▁당할	-851
▁대개	-852
▁도인	-853
▁모두	-854
▁본래	-855
▁어디	-856
▁와서	-857
▁이미	-858
▁일과	-859
▁좋아	-860
▁중에	-861
▁취사	-862
▁치료	-863
▁하니	-864
하므로	-865
▁거기에	-866
▁것으로	-867
▁못하게	-868
▁생각이	-869
▁아니한	-870
▁알아서	-871
▁원만한	-872
▁정신이	-873
▁같나니라	-874
▁갈	-875
▁빠	-876
▁싫	-877
▁쌓	-878
▁호	-879
경을	-880
마다	-881
▁결과	-882
▁만들	-883
▁삼학	-884
▁선을	-885
▁성품	-886
▁소유	-887
▁응용	-888
▁편안	-889
▁마침내	-890
▁물으시	-891
▁불보살	-892
하나니라	-893
▁말하자면	-894
▁5	-895
▁끝	-896
▁네	-897
▁첫	-898
상이	-899
생에	-900
연한	-901
▁가장	-902
▁교당	-903
▁그렇	-904
▁누구	-905
▁단련	-906
▁도가	-907
▁몸을	-908
▁악한	-909
▁어떤	-910
▁얻지	-911
▁오르	-912
▁원래	-913
▁있게	-914
▁재주	-915
▁죄를	-916
▁지은	-917
▁창립	-918
▁한다	-919
▁활용	-920
▁공부의	-921
▁남에게	-922
▁인하여	-923
▁공부하는	-924
▁갖	-925
▁늘	-926
▁볼	-927
▁잊	-928
▁팔	-929
계를	-930
고자	-931
로다	-932
면서	-933
식이	-934
오나	-935
일이	-936
▁8.	-937
▁결국	-938
▁국한	-939
▁놓고	-940
▁다르	-941
▁다만	-942
▁대조	-943
▁되며	-944
▁마땅	-945
▁발견	-946
▁얼마	-947
▁원망	-948
▁특별	-949
▁허공	-950
함이요	-951
▁가르쳐	-952
▁가르치	-953
▁못하였	-954
▁아니할	-955
▁참으로	-956
▁하나는	-957
▁회상을	-958
▁있어서는	-959
▁닦	-960
▁듯	-961
▁습	-962
▁합	-963
▁효	-964
성의	-965
음을	-966
중에	-967
▁나가	-968
▁날이	-969
▁명예	-970
▁미워	-971
▁받지	-972
▁방면	-973
▁법신	-974
▁보통	-975
▁생겨	-976
▁알게	-977
▁제일	-978
▁조심	-979
▁지극	-980
더라도	-981
▁그런즉	-982
▁일어나	-983
▁사람이라	-984
▁아니하면	-985
).	-986
▁낮	-987
▁흔	-988
경에	-989
다운	-990
부로	-991
성이	-992
수록	-993
언정	-994
옵고	-995
▁9.	-996
▁가진	-997
▁공을	-998
▁그와	-999
▁놓은	-1000
▁대소	-1001
▁듣고	-1002
▁떠나	-1003
▁불법	-1004
▁습관	-1005
▁시간	-1006
▁않게	-1007
▁없었	-1008
▁열반	-1009
▁오는	-1010
▁자주	-1011
▁재산	-1012
▁진리	-1013
▁차별	-1014
로부터	-1015
어지고	-1016
지언정	-1017
▁들어가	-1018
▁사업을	-1019
▁생활에	-1020
▁아니요	-1021
▁알아야	-1022
▁앞으로	-1023
▁어려운	-1024
▁영원한	-1025
▁은혜를	-1026
▁함부로	-1027
▁막론하고	-1028
▁생각하여	-1029
▁널	-1030
▁옛	-1031
▁파	-1032
강산	-1033
물을	-1034
지도	-1035
▁고락	-1036
▁공도	-1037
▁널리	-1038
▁다스	-1039
▁목적	-1040
▁바르	-1041
▁보는	-1042
▁생사	-1043
▁양성	-1044
▁얻는	-1045
▁완전	-1046
▁자력	-1047
▁작용	-1048
▁점점	-1049
▁하겠	-1050
▁공부에	-1051
▁나에게	-1052
▁마음의	-1053
▁못하여	-1054
▁벗어나	-1055
▁세상의	-1056
▁있으니	-1057
▁통하여	-1058
▁하루는	-1059
▁하여금	-1060
▁가르치는	-1061
▁있으리요	-1062
▁묻	-1063
▁짐	-1064
▁최	-1065
▁탁	-1066
▁향	-1067
느냐	-1068
도다	-1069
되고	-1070
명을	-1071
시며	-1072
심에	-1073
움이	-1074
위에	-1075
음이	-1076
지로	-1077
▁도량	-1078
▁뒤에	-1079
▁들이	-1080
▁말로	-1081
▁바를	-1082
▁밝히	-1083
▁배은	-1084
▁법은	-1085
▁사리	-1086
▁선생	-1087
▁세간	-1088
▁싫어	-1089
▁심고	-1090
▁알았	-1091
▁이용	-1092
▁있었	-1093
▁지키	-1094
▁피은	-1095
▁행동	-1096
▁힘이	-1097
▁10.	-1098
▁공부인	-1099
▁당하여	-1100
▁따라서	-1101
▁마땅히	-1102
▁법신불	-1103
▁사이에	-1104
▁생각을	-1105
▁세상은	-1106
▁없나니	-1107
▁자기가	-1108
▁정성을	-1109
▁하리요	-1110
▁그대들의	-1111
▁그러하면	-1112
▁어리석은	-1113
▁걱	-1114
▁규	-1115
▁글	-1116
▁별	-1117
▁판	-1118
름이	-1119
수가	-1120
시는	-1121
어버	-1122
인을	-1123
진대	-1124
▁걱정	-1125
▁건설	-1126
▁견성	-1127
▁그리	-1128
▁그에	-1129
▁따로	-1130
▁뜻이	-1131
▁매양	-1132
▁물품	-1133
▁생기	-1134
▁선악	-1135
▁성불	-1136
▁아이	-1137
▁예를	-1138
▁육도	-1139
▁이에	-1140
▁있사	-1141
▁죄업	-1142
▁주장	-1143
▁체받	-1144
▁초월	-1145
▁행할	-1146
다든지	-1147
오니까	-1148
▁대중이	-1149
▁데에도	-1150
▁버리고	-1151
▁주의할	-1152
그대들이	-1153
▁마음대로	-1154
▁물으시기를	-1155
▁곡	-1156
▁급	-1157
▁까	-1158
▁놀	-1159
▁독	-1160
▁왔	-1161
▁임	-1162
▁추	-1163
▁폐	-1164
과거	-1165
과를	-1166
노니	-1167
만한	-1168
어다	-1169
의가	-1170
일에	-1171
전에	-1172
지고	-1173
하사	-1174
회를	-1175
▁가까	-1176
▁가져	-1177
▁곳에	-1178
▁교회	-1179
▁구분	-1180
▁깊이	-1181
▁만유	-1182
▁만한	-1183
▁무념	-1184
▁보이	-1185
▁부지	-1186
▁사은	-1187
▁쉽게	-1188
▁심신	-1189
▁쓰는	-1190
▁요도	-1191
▁일러	-1192
▁전에	-1193
▁제거	-1194
▁준비	-1195
▁천도	-1196
▁출가	-1197
▁필요	-1198
▁형상	-1199
그대가	-1200
▁경계에	-1201
▁그대의	-1202
▁그렇지	-1203
▁근본이	-1204
▁금강산	-1205
▁대중을	-1206
▁대중의	-1207
▁세상이	-1208
▁정성이	-1209
▁특별한	-1210
▁하여도	-1211
▁하여야	-1212
▁대종사의	-1213
▁돌아오는	-1214
▁마음으로	-1215
▁아니하여	-1216
▁아니하리요	-1217
▁넘	-1218
▁높	-1219
▁멀	-1220
▁밤	-1221
▁쇠	-1222
▁싶	-1223
▁써	-1224
▁억	-1225
▁챙	-1226
단을	-1227
어늘	-1228
천이	-1229
행을	-1230
▁깨치	-1231
▁나서	-1232
▁병이	-1233
▁봉래	-1234
▁사항	-1235
▁살림	-1236
▁살피	-1237
▁서원	-1238
▁설사	-1239
▁세우	-1240
▁시방	-1241
▁어린	-1242
▁없지	-1243
▁작업	-1244
▁주로	-1245
▁지어	-1246
▁진행	-1247
▁처리	-1248
▁해석	-1249
심으로	-1250
어지는	-1251
▁같아서	-1252
▁경전을	-1253
▁공부가	-1254
▁그것은	-1255
▁그대가	-1256
▁데에는	-1257
▁보은의	-1258
▁아니니	-1259
▁아니면	-1260
▁영원히	-1261
▁이익을	-1262
▁일이라	-1263
▁하자는	-1264
▁가운데에	-1265
▁그대들이	-1266
▁들으시고	-1267
▁생각하는	-1268
▁이름이니	-1269
▁갚	-1270
▁넓	-1271
▁담	-1272
▁맑	-1273
▁머	-1274
▁묵	-1275
▁밟	-1276
▁베	-1277
▁쓸	-1278
▁앉	-1279
▁윤	-1280
▁익	-1281
▁총	-1282
▁커	-1283
▁포	-1284
념을	-1285
물이	-1286
상은	-1287
수를	-1288
시니	-1289
온데	-1290
이고	-1291
자를	-1292
지니	-1293
하건	-1294
▁감사	-1295
▁교도	-1296
▁그를	-1297
▁까닭	-1298
▁끌려	-1299
▁내리	-1300
▁내역	-1301
▁되면	-1302
▁떨어	-1303
▁방편	-1304
▁보시	-1305
▁보응	-1306
▁분별	-1307
▁상대	-1308
▁상시	-1309
▁수용	-1310
▁여의	-1311
▁예회	-1312
▁육근	-1313
▁의지	-1314
▁일도	-1315
▁있다	-1316
▁장차	-1317
▁정규	-1318
▁정법	-1319
▁제가	-1320
▁주고	-1321
▁주지	-1322
▁증거	-1323
▁11.	-1324
▁12.	-1325
▁13.	-1326
▁14.	-1327
▁15.	-1328
▁16.	-1329
▁대하여	-1330
▁되므로	-1331
▁둘째는	-1332
▁사업에	-1333
▁없으면	-1334
▁제자가	-1335
▁중생을	-1336
▁하시니	-1337
▁대종사께	-1338
▁아니하며	-1339
▁하나이다	-1340
▁사람에게는	-1341
▁아니하나니	-1342
▁맡	-1343
▁몰	-1344
▁색	-1345
▁식	-1346
▁엄	-1347
▁채	-1348
▁풀	-1349
▁풍	-1350
광이	-1351
나서	-1352
려는	-1353
무출	-1354
아야	-1355
우리	-1356
▁것만	-1357
▁고루	-1358
▁고통	-1359
▁과보	-1360
▁그릇	-1361
▁도와	-1362
▁둘은	-1363
▁듣는	-1364
▁무량	-1365
▁바람	-1366
▁부귀	-1367
▁불교	-1368
▁사가	-1369
▁성취	-1370
▁쉬운	-1371
▁않은	-1372
▁얻으	-1373
▁여기	-1374
▁영혼	-1375
▁위에	-1376
▁이른	-1377
▁인격	-1378
▁일의	-1379
▁저의	-1380
▁적지	-1381
▁지견	-1382
▁참회	-1383
▁천상	-1384
▁하기	-1385
무출신	-1386
상으로	-1387
시키는	-1388
지어다	-1389
하거나	-1390
하건대	-1391
하기로	-1392
▁17.	-1393
▁18.	-1394
▁19.	-1395
▁같나니	-1396
▁공부와	-1397
▁말하면	-1398
▁배우는	-1399
▁사람과	-1400
▁세계가	-1401
▁신심이	-1402
▁실행이	-1403
▁알고자	-1404
▁어떠하	-1405
▁이치가	-1406
▁인생의	-1407
▁있어야	-1408
▁자신이	-1409
▁지금은	-1410
▁첫째는	-1411
▁하리라	-1412
▁회상이	-1413
겠나이까	-1414
▁못하나니	-1415
▁방면으로	-1416
▁아니하는	-1417
▁그대들에게	-1418
▁못하나니라	-1419
▁사람으로서	-1420
▁사람이라도	-1421
▁굳	-1422
▁빚	-1423
▁뿌	-1424
▁술	-1425
▁옷	-1426
▁찬	-1427
▁확	-1428
가모	-1429
국가	-1430
들도	-1431
서를	-1432
조는	-1433
족한	-1434
주의	-1435
▁공익	-1436
▁공중	-1437
▁그는	-1438
▁그르	-1439
▁나무	-1440
▁내왕	-1441
▁놓아	-1442
▁놓지	-1443
▁대도	-1444
▁두루	-1445
▁밝은	-1446
▁범부	-1447
▁보내	-1448
▁보지	-1449
▁살아	-1450
▁시작	-1451
▁심전	-1452
▁온전	-1453
▁운전	-1454
▁집착	-1455
▁찾아	-1456
▁하셨	-1457
▁한갓	-1458
▁현재	-1459
가모니	-1460
성하여	-1461
하리라	-1462
하면서	-1463
하자는	-1464
▁관계가	-1465
▁그러하	-1466
▁도덕의	-1467
▁모르고	-1468
▁무엇을	-1469
▁보아서	-1470
▁부모의	-1471
▁사실로	-1472
▁세계에	-1473
▁세째는	-1474
▁없으나	-1475
▁없으며	-1476
▁육신을	-1477
▁자리를	-1478
▁자리에	-1479
▁자유를	-1480
▁참다운	-1481
▁하나를	-1482
▁한다면	-1483
▁그대들도	-1484
▁비하건대	-1485
▁세상에는	-1486
▁아니하였	-1487
▁일원상의	-1488
▁있으므로	-1489
▁녹	-1490
▁뜨	-1491
▁밭	-1492
▁붙	-1493
▁침	-1494
끄러	-1495
되지	-1496
렇게	-1497
법이	-1498
사회	-1499
상과	-1500
서는	-1501
어도	-1502
어진	-1503
유를	-1504
이면	-1505
자와	-1506
지의	-1507
하다	-1508
화를	-1509
▁가난	-1510
▁가령	-1511
▁각기	-1512
▁거래	-1513
▁것인	-1514
▁결함	-1515
▁계시	-1516
▁끊임	-1517
▁나오	-1518
▁날로	-1519
▁낮은	-1520
▁몸에	-1521
▁믿고	-1522
▁받은	-1523
▁방해	-1524
▁보아	-1525
▁보았	-1526
▁불의	-1527
▁살펴	-1528
▁생령	-1529
▁성질	-1530
▁수입	-1531
▁실로	-1532
▁실패	-1533
▁애착	-1534
▁어두	-1535
▁얼굴	-1536
▁없애	-1537
▁의심	-1538
▁입은	-1539
▁자비	-1540
▁정의	-1541
▁주인	-1542
▁줄도	-1543
▁집안	-1544
▁크고	-1545
▁하되	-1546
▁해결	-1547
▁해를	-1548
▁허다	-1549
▁후진	-1550
섯째는	-1551
었으나	-1552
에서도	-1553
하시며	-1554
하오면	-1555
▁공부는	-1556
▁그만한	-1557
▁만물의	-1558
▁말하여	-1559
▁방법은	-1560
▁보시고	-1561
▁안으로	-1562
▁원리를	-1563
▁이것은	-1564
▁이익이	-1565
▁일일이	-1566
▁책임을	-1567
▁회상의	-1568
▁후에는	-1569
▁생활하는	-1570
▁없으므로	-1571
▁이름이요	-1572
▁자리에서	-1573
▁처음에는	-1574
▁체받아서	-1575
▁하는지라	-1576
▁부처님께서는	-1577
▁곤	-1578
▁궁	-1579
▁든	-1580
▁웃	-1581
▁질	-1582
▁춘	-1583
▁혼	-1584
가는	-1585
궁한	-1586
동안	-1587
라고	-1588
복을	-1589
세를	-1590
소를	-1591
시어	-1592
으라	-1593
이가	-1594
일의	-1595
자녀	-1596
주를	-1597
치고	-1598
하니	-1599
하던	-1600
하실	-1601
▁1)	-1602
▁2)	-1603
▁갖추	-1604
▁개선	-1605
▁꾸짖	-1606
▁남녀	-1607
▁둘이	-1608
▁때를	-1609
▁만나	-1610
▁무사	-1611
▁무시	-1612
▁미래	-1613
▁바른	-1614
▁바탕	-1615
▁받고	-1616
▁받들	-1617
▁발심	-1618
▁법의	-1619
▁병진	-1620
▁부정	-1621
▁생멸	-1622
▁성현	-1623
▁속에	-1624
▁수레	-1625
▁승급	-1626
▁안에	-1627
▁않고	-1628
▁언제	-1629
▁얻은	-1630
▁없다	-1631
▁영산	-1632
▁의식	-1633
▁이상	-1634
▁이타	-1635
▁일심	-1636
▁입교	-1637
▁정기	-1638
▁주체	-1639
▁즐겨	-1640
▁참된	-1641
▁청년	-1642
▁충분	-1643
▁해탈	-1644
▁허망	-1645
까지도	-1646
려니와	-1647
면서도	-1648
시기를	-1649
었더니	-1650
음이요	-1651
하리요	-1652
▁20.	-1653
▁공연히	-1654
▁능력이	-1655
▁다하여	-1656
▁도움을	-1657
▁도인이	-1658
▁드러나	-1659
▁마음은	-1660
▁만사를	-1661
▁바르게	-1662
▁밖으로	-1663
▁뵈옵고	-1664
▁사업의	-1665
▁사회에	-1666
▁얼마나	-1667
▁없어서	-1668
▁연고라	-1669
▁이것을	-1670
▁잊어버	-1671
▁중생의	-1672
▁지극히	-1673
▁하나도	-1674
▁것이므로	-1675
▁나타나는	-1676
▁다스리는	-1677
▁되나이까	-1678
▁방법으로	-1679
▁부모에게	-1680
▁없으리라	-1681
▁일원상을	-1682
▁전무출신	-1683
▁제자에게	-1684
▁골	-1685
▁김	-1686
▁답	-1687
▁밥	-1688
▁빈	-1689
▁빼	-1690
▁솔	-1691
▁흐	-1692
가정	-1693
더라	-1694
동이	-1695
됨이	-1696
런히	-1697
만을	-1698
생이	-1699
세의	-1700
소서	-1701
없이	-1702
울러	-1703
의로	-1704
이는	-1705
제가	-1706
치를	-1707
풍이	-1708
히려	-1709
▁감응	-1710
▁계실	-1711
▁계율	-1712
▁고치	-1713
▁공경	-1714
▁교단	-1715
▁권면	-1716
▁근기	-1717
▁기념	-1718
▁기술	-1719
▁기재	-1720
▁꾸준	-1721
▁나아	-1722
▁다니	-1723
▁때가	-1724
▁밖에	-1725
▁밝아	-1726
▁배워	-1727
▁버리	-1728
▁분명	-1729
▁분석	-1730
▁빚을	-1731
▁빼앗	-1732
▁사는	-1733
▁상극	-1734
▁승려	-1735
▁아래	-1736
▁안다	-1737
▁않을	-1738
▁앞에	-1739
▁약간	-1740
▁어긋	-1741
▁여하	-1742
▁예수	-1743
▁위로	-1744
▁자손	-1745
▁자타	-1746
▁자행	-1747
▁청정	-1748
▁타락	-1749
▁필경	-1750
▁한량	-1751
▁허무	-1752
▁흔들	-1753
으시며	-1754
하거늘	-1755
하노라	-1756
하지도	-1757
▁21.	-1758
▁22.	-1759
▁23.	-1760
▁가지가	-1761
▁공덕이	-1762
▁교리와	-1763
▁그대는	-1764
▁근본을	-1765
▁누구나	-1766
▁마음과	-1767
▁무엇이	-1768
▁방법을	-1769
▁방식을	-1770
▁부모가	-1771
▁세계를	-1772
▁아닌가	-1773
▁아울러	-1774
▁오히려	-1775
▁욕심을	-1776
▁인연이	-1777
▁일원의	-1778
▁일이나	-1779
▁주인이	-1780
▁진리가	-1781
▁천도를	-1782
▁할진대	-1783
하시니라	-1784
하였나니	-1785
▁못하므로	-1786
▁발견하여	-1787
▁부지런히	-1788
▁사용하는	-1789
▁앞으로는	-1790
▁제도하는	-1791
▁제자들이	-1792
▁하더라도	-1793
▁아니하리라	-1794
▁겁	-1795
▁군	-1796
▁느	-1797
▁됨	-1798
▁맺	-1799
▁셋	-1800
▁싸	-1801
▁씨	-1802
▁왕	-1803
▁읽	-1804
▁터	-1805
▁흥	-1806
것은	-1807
고를	-1808
내는	-1809
니다	-1810
롭게	-1811
리에	-1812
마위	-1813
명이	-1814
상에	-1815
소에	-1816
신을	-1817
심은	-1818
었다	-1819
연구	-1820
우나	-1821
으신	-1822
음에	-1823
장이	-1824
주는	-1825
지금	-1826
처를	-1827
처에	-1828
하매	-1829
한다	-1830
함과	-1831
해를	-1832
히는	-1833
▁3)	-1834
▁강자	-1835
▁거름	-1836
▁거짓	-1837
▁계문	-1838
▁고해	-1839
▁곳을	-1840
▁곳이	-1841
▁광대	-1842
▁괴로	-1843
▁극락	-1844
▁깨끗	-1845
▁깨달	-1846
▁나고	-1847
▁낙을	-1848
▁내지	-1849
▁능력	-1850
▁대각	-1851
▁대답	-1852
▁대범	-1853
▁대체	-1854
▁대할	-1855
▁덕이	-1856
▁도에	-1857
▁돈이	-1858
▁동지	-1859
▁등을	-1860
▁만족	-1861
▁명심	-1862
▁무릇	-1863
▁무상	-1864
▁박람	-1865
▁법에	-1866
▁변화	-1867
▁보호	-1868
▁복이	-1869
▁부부	-1870
▁부분	-1871
▁비유	-1872
▁상벌	-1873
▁서울	-1874
▁선도	-1875
▁선진	-1876
▁설명	-1877
▁성인	-1878
▁세워	-1879
▁실지	-1880
▁심히	-1881
▁악을	-1882
▁안심	-1883
▁어른	-1884
▁유념	-1885
▁의뢰	-1886
▁이로	-1887
▁있지	-1888
▁전력	-1889
▁죽는	-1890
▁죽을	-1891
▁줄로	-1892
▁지방	-1893
▁철저	-1894
▁타력	-1895
▁형제	-1896
▁활동	-1897
거니와	-1898
어져서	-1899
▁24.	-1900
▁25.	-1901
▁26.	-1902
▁27.	-1903
▁28.	-1904
▁29.	-1905
▁30.	-1906
▁가까운	-1907
▁것인가	-1908
▁공덕을	-1909
▁과목을	-1910
▁네째는	-1911
▁당연한	-1912
▁도덕을	-1913
▁도움이	-1914
▁돌아가	-1915
▁때에도	-1916
▁떨어지	-1917
▁뜻인가	-1918
▁만물이	-1919
▁말씀에	-1920
▁무궁한	-1921
▁믿으며	-1922
▁부끄러	-1923
▁사람들	-1924
▁선생의	-1925
▁세계의	-1926
▁수행의	-1927
▁스승을	-1928
▁심고와	-1929
▁오르는	-1930
▁완전히	-1931
▁욕심이	-1932
▁원하는	-1933
▁위하는	-1934
▁유무를	-1935
▁육신의	-1936
▁인간의	-1937
▁인연을	-1938
▁자녀를	-1939
▁정신에	-1940
▁제도가	-1941
▁중생이	-1942
▁하거늘	-1943
▁하노라	-1944
▁하는가	-1945
그대들의	-1946
▁것이어늘	-1947
▁단련하여	-1948
▁되었으니	-1949
▁못하리라	-1950
▁서가모니	-1951
▁세상에서	-1952
▁우리에게	-1953
▁있으리라	-1954
▁정신으로	-1955
▁있사오리까	-1956
)"	-1957
▁게	-1958
▁넉	-1959
▁논	-1960
▁뛰	-1961
▁묘	-1962
▁슬	-1963
▁옹	-1964
▁울	-1965
▁융	-1966
▁즉	-1967
▁헌	-1968
▁헛	-1969
▁흩	-1970
강항	-1971
견을	-1972
공부	-1973
기지	-1974
나의	-1975
님을	-1976
대를	-1977
도가	-1978
디어	-1979
라는	-1980
러서	-1981
리로	-1982
사로	-1983
사와	-1984
생활	-1985
선이	-1986
시사	-1987
어야	-1988
업을	-1989
요한	-1990
원이	-1991
이를	-1992
이어	-1993
장을	-1994
정정	-1995
치가	-1996
통을	-1997
함은	-1998
해야	-1999
히고	-2000
▁4)	-2001
▁가벼	-2002
▁간단	-2003
▁같고	-2004
▁것에	-2005
▁계발	-2006
▁공적	-2007
▁교환	-2008
▁극히	-2009
▁기도	-2010
▁기타	-2011
▁깊은	-2012
▁깨닫	-2013
▁너른	-2014
▁넉넉	-2015
▁눈을	-2016
▁도학	-2017
▁두려	-2018
▁들면	-2019
▁따름	-2020
▁많고	-2021
▁많을	-2022
▁맑은	-2023
▁먹고	-2024
▁몸이	-2025
▁발달	-2026
▁번거	-2027
▁법설	-2028
▁베풀	-2029
▁보살	-2030
▁본분	-2031
▁부르	-2032
▁불고	-2033
▁불과	-2034
▁사심	-2035
▁삼계	-2036
▁삼대	-2037
▁새로	-2038
▁셋은	-2039
▁솔성	-2040
▁시키	-2041
▁신자	-2042
▁안정	-2043
▁업보	-2044
▁연마	-2045
▁열어	-2046
▁오랜	-2047
▁올리	-2048
▁위태	-2049
▁이가	-2050
▁일기	-2051
▁일념	-2052
▁일만	-2053
▁일월	-2054
▁제불	-2055
▁조건	-2056
▁조사	-2057
▁좋게	-2058
▁좋을	-2059
▁좌우	-2060
▁죄고	-2061
▁중근	-2062
▁지고	-2063
▁지공	-2064
▁지식	-2065
▁탐착	-2066
▁특히	-2067
▁하려	-2068
▁해가	-2069
▁화두	-2070
▁후로	-2071
▁흐르	-2072
▁힘쓰	-2073
▁힘쓸	-2074
그대의	-2075
취사의	-2076
하니라	-2077
하시는	-2078
하시니	-2079
▁31.	-2080
▁가정에	-2081
▁같으나	-2082
▁공정한	-2083
▁과거의	-2084
▁기도를	-2085
▁다름이	-2086
▁당하면	-2087
▁들어서	-2088
▁때마다	-2089
▁물품을	-2090
▁미치는	-2091
▁버리지	-2092
▁법계를	-2093
▁법으로	-2094
▁변하지	-2095
▁병자의	-2096
▁불상을	-2097
▁사이나	-2098
▁상당한	-2099
▁생활이	-2100
▁송광이	-2101
▁수도인	-2102
▁시비를	-2103
▁악도에	-2104
▁언제나	-2105
▁여의지	-2106
▁은혜가	-2107
▁이해를	-2108
▁인과의	-2109
▁있다면	-2110
▁정도를	-2111
▁정사에	-2112
▁정하고	-2113
▁종교의	-2114
▁좌선을	-2115
▁중에서	-2116
▁하다가	-2117
▁하오면	-2118
▁행동을	-2119
▁행하면	-2120
그대들은	-2121
어지나니	-2122
▁계속하면	-2123
▁사람들의	-2124
▁생각으로	-2125
▁어찌하여	-2126
▁얻으리라	-2127
▁일이라도	-2128
▁있는지라	-2129
▁하시니라	-2130
▁하였으니	-2131
그러하오면	-2132
▁가운데에는	-2133
▁아니하여도	-2134
▁제자들에게	-2135
▁방면으로든지	-2136
▁겨	-2137
▁긴	-2138
▁둔	-2139
▁빌	-2140
▁짧	-2141
▁흉	-2142
계에	-2143
내어	-2144
득이	-2145
라서	-2146
리의	-2147
모든	-2148
미를	-2149
받아	-2150
법은	-2151
부모	-2152
산을	-2153
소가	-2154
승이	-2155
어난	-2156
우며	-2157
으셨	-2158
이지	-2159
일원	-2160
일을	-2161
자력	-2162
주가	-2163
지지	-2164
체가	-2165
쳐서	-2166
치게	-2167
한즉	-2168
▁가게	-2169
▁공양	-2170
▁교중	-2171
▁근심	-2172
▁나게	-2173
▁나누	-2174
▁나도	-2175
▁남천	-2176
▁너무	-2177
▁농부	-2178
▁닦는	-2179
▁덕을	-2180
▁도로	-2181
▁동남	-2182
▁두고	-2183
▁듣지	-2184
▁따르	-2185
▁때의	-2186
▁무위	-2187
▁발전	-2188
▁법도	-2189
▁보게	-2190
▁보니	-2191
▁분수	-2192
▁불러	-2193
▁불상	-2194
▁불조	-2195
▁사도	-2196
▁사방	-2197
▁생의	-2198
▁세속	-2199
▁세월	-2200
▁소소	-2201
▁순응	-2202
▁쉬지	-2203
▁신용	-2204
▁싶은	-2205
▁쓰지	-2206
▁아홉	-2207
▁악도	-2208
▁언어	-2209
▁얻고	-2210
▁원을	-2211
▁인류	-2212
▁인증	-2213
▁일로	-2214
▁잃지	-2215
▁자성	-2216
▁자재	-2217
▁잡아	-2218
▁정각	-2219
▁주시	-2220
▁주신	-2221
▁지나	-2222
▁지옥	-2223
▁지위	-2224
▁지을	-2225
▁짓고	-2226
▁짓지	-2227
▁출세	-2228
▁태양	-2229
▁판단	-2230
▁한이	-2231
▁현실	-2232
▁희사	-2233
사람의	-2234
사오나	-2235
성으로	-2236
옵니다	-2237
하도록	-2238
하려는	-2239
▁32.	-2240
▁33.	-2241
▁가지로	-2242
▁거래에	-2243
▁곳에서	-2244
▁괴로운	-2245
▁교육의	-2246
▁그들이	-2247
▁기관을	-2248
▁꾸준히	-2249
▁끌리는	-2250
▁나아가	-2251
▁동하지	-2252
▁드디어	-2253
▁들으라	-2254
▁떠나지	-2255
▁면하지	-2256
▁무리가	-2257
▁무사한	-2258
▁물건을	-2259
▁물질을	-2260
▁바라는	-2261
▁변하여	-2262
▁복락을	-2263
▁사업도	-2264
▁쉽나니	-2265
▁스승의	-2266
▁스승이	-2267
▁않도록	-2268
▁약간의	-2269
▁약자가	-2270
▁어렵고	-2271
▁없다고	-2272
▁역사를	-2273
▁올리고	-2274
▁올리는	-2275
▁육근을	-2276
▁이루지	-2277
▁이상의	-2278
▁이어서	-2279
▁있는데	-2280
▁자성의	-2281
▁작용할	-2282
▁잘하는	-2283
▁재산을	-2284
▁재주를	-2285
▁지식을	-2286
▁차별이	-2287
▁책임이	-2288
▁청년이	-2289
▁취하여	-2290
▁하기로	-2291
▁하오니	-2292
▁함이요	-2293
▁합하여	-2294
▁허물을	-2295
하였으나	-2296
▁대조하여	-2297
▁대종사를	-2298
▁불공하는	-2299
▁사람이요	-2300
▁생겨나서	-2301
▁실행하고	-2302
▁아니리요	-2303
▁연구하여	-2304
▁있겠는가	-2305
▁있나이까	-2306
▁있어서도	-2307
▁잘못하는	-2308
▁제거하고	-2309
▁주로하여	-2310
▁취사하는	-2311
▁함이니라	-2312
▁불보살들은	-2313
▁사람이라야	-2314
▁년	-2315
▁멸	-2316
▁민	-2317
▁삿	-2318
▁석	-2319
▁섭	-2320
▁숨	-2321
▁쌍	-2322
▁야	-2323
▁엿	-2324
▁옮	-2325
▁졸	-2326
▁쥐	-2327
▁축	-2328
▁키	-2329
▁탄	-2330
▁토	-2331
▁펴	-2332
▁험	-2333
▁헤	-2334
▁혈	-2335
一圓	-2336
같은	-2337
겨서	-2338
경이	-2339
과가	-2340
기고	-2341
끼리	-2342
념이	-2343
덕을	-2344
드는	-2345
락과	-2346
려서	-2347
료를	-2348
륵불	-2349
리한	-2350
마상	-2351
만이	-2352
물에	-2353
부를	-2354
불어	-2355
상시	-2356
상히	-2357
세에	-2358
수도	-2359
스럽	-2360
실히	-2361
아무	-2362
어찌	-2363
오래	-2364
위를	-2365
재를	-2366
저는	-2367
체를	-2368
침이	-2369
해서	-2370
▁각자	-2371
▁감각	-2372
▁같다	-2373
▁같지	-2374
▁개척	-2375
▁구속	-2376
▁근원	-2377
▁기회	-2378
▁나면	-2379
▁나와	-2380
▁낙이	-2381
▁놀고	-2382
▁농사	-2383
▁높은	-2384
▁누가	-2385
▁다를	-2386
▁단원	-2387
▁당한	-2388
▁대의	-2389
▁동작	-2390
▁되기	-2391
▁들었	-2392
▁들을	-2393
▁들지	-2394
▁등한	-2395
▁뜻은	-2396
▁말은	-2397
▁멀리	-2398
▁명을	-2399
▁모범	-2400
▁물론	-2401
▁물을	-2402
▁물이	-2403
▁믿을	-2404
▁바에	-2405
▁밝혀	-2406
▁배울	-2407
▁배척	-2408
▁번뇌	-2409
▁병을	-2410
▁부자	-2411
▁부족	-2412
▁불가	-2413
▁비롯	-2414
▁비치	-2415
▁사무	-2416
▁살게	-2417
▁살고	-2418
▁삼을	-2419
▁선한	-2420
▁설법	-2421
▁섭섭	-2422
▁성성	-2423
▁소를	-2424
▁소리	-2425
▁수확	-2426
▁순환	-2427
▁시설	-2428
▁시험	-2429
▁써서	-2430
▁얻기	-2431
▁영향	-2432
▁옛날	-2433
▁올라	-2434
▁옷을	-2435
▁요란	-2436
▁위를	-2437
▁위한	-2438
▁이십	-2439
▁일어	-2440
▁적고	-2441
▁적당	-2442
▁적멸	-2443
▁전문	-2444
▁정도	-2445
▁정진	-2446
▁정할	-2447
▁제정	-2448
▁조직	-2449
▁조항	-2450
▁좋지	-2451
▁주문	-2452
▁죽어	-2453
▁즐거	-2454
▁지출	-2455
▁짐작	-2456
▁집에	-2457
▁최후	-2458
▁친히	-2459
▁탁태	-2460
▁탁한	-2461
▁편벽	-2462
▁표본	-2463
▁한가	-2464
▁한결	-2465
▁한즉	-2466
▁함께	-2467
▁함이	-2468
▁항복	-2469
▁해독	-2470
▁혼자	-2471
께서도	-2472
마상전	-2473
옵소서	-2474
으로서	-2475
이라고	-2476
이라는	-2477
자로서	-2478
하기가	-2479
하다가	-2480
▁34.	-2481
▁35.	-2482
▁36.	-2483
▁37.	-2484
▁38.	-2485
▁가정을	-2486
▁가정이	-2487
▁가지의	-2488
▁경우를	-2489
▁경전이	-2490
▁계율을	-2491
▁광명을	-2492
▁구족한	-2493
▁국한을	-2494
▁권리가	-2495
▁그들의	-2496
▁기관이	-2497
▁기운은	-2498
▁기운을	-2499
▁나타난	-2500
▁다르나	-2501
▁당하는	-2502
▁더불어	-2503
▁만유의	-2504
▁많으나	-2505
▁못하며	-2506
▁무량한	-2507
▁무자력	-2508
▁문명이	-2509
▁바로잡	-2510
▁받들어	-2511
▁번거한	-2512
▁범연히	-2513
▁본받아	-2514
▁본의를	-2515
▁부처가	-2516
▁사리를	-2517
▁사용할	-2518
▁사이의	-2519
▁삼학을	-2520
▁상극의	-2521
▁생령이	-2522
▁소리가	-2523
▁습관이	-2524
▁실생활	-2525
▁실행을	-2526
▁안정을	-2527
▁억지로	-2528
▁연유를	-2529
▁염불과	-2530
▁완전한	-2531
▁위력을	-2532
▁유무의	-2533
▁인격을	-2534
▁일시에	-2535
▁일에는	-2536
▁일이요	-2537
▁임의로	-2538
▁자기만	-2539
▁자타의	-2540
▁잘못을	-2541
▁장래에	-2542
▁제도를	-2543
▁죄복을	-2544
▁지경에	-2545
▁직업을	-2546
▁천지는	-2547
▁천하의	-2548
▁충분히	-2549
▁편안한	-2550
▁피은의	-2551
▁하노니	-2552
▁하였다	-2553
▁함이니	-2554
▁행하고	-2555
▁후일에	-2556
강항마위	-2557
겠나이다	-2558
하는지라	-2559
▁다섯째는	-2560
▁되었으며	-2561
▁무엇으로	-2562
▁물론하고	-2563
▁미워하고	-2564
▁벗어나서	-2565
▁부정당한	-2566
▁사람들을	-2567
▁스승에게	-2568
▁아니하나	-2569
▁어려우나	-2570
▁없어지고	-2571
▁예로부터	-2572
▁오래오래	-2573
▁웃으시며	-2574
▁하였으나	-2575
▁공부인에게	-2576
▁사람들에게	-2577
▁사람이니라	-2578
▁하겠나이다	-2579
▁하였사오니	-2580
▁갑	-2581
▁겸	-2582
▁굽	-2583
▁꺼	-2584
▁낳	-2585
▁냉	-2586
▁떳	-2587
▁맹	-2588
▁빛	-2589
▁얽	-2590
▁흘	-2591
率性	-2592
그마	-2593
난을	-2594
는지	-2595
님의	-2596
들과	-2597
떠한	-2598
란한	-2599
려고	-2600
력에	-2601
리게	-2602
묘한	-2603
문에	-2604
물과	-2605
물며	-2606
물질	-2607
법률	-2608
법의	-2609
상한	-2610
선을	-2611
수는	-2612
수한	-2613
시로	-2614
시의	-2615
식도	-2616
신의	-2617
신이	-2618
실한	-2619
았다	-2620
없는	-2621
역을	-2622
유한	-2623
인은	-2624
중생	-2625
중을	-2626
지게	-2627
철이	-2628
초가	-2629
칭찬	-2630
함에	-2631
▁가고	-2632
▁가득	-2633
▁가라	-2634
▁가며	-2635
▁가서	-2636
▁간격	-2637
▁감히	-2638
▁갖은	-2639
▁거느	-2640
▁거의	-2641
▁건네	-2642
▁고가	-2643
▁고로	-2644
▁골라	-2645
▁교의	-2646
▁구별	-2647
▁굳은	-2648
▁그럴	-2649
▁그의	-2650
▁기틀	-2651
▁깨쳐	-2652
▁나쁜	-2653
▁남은	-2654
▁남이	-2655
▁느끼	-2656
▁당초	-2657
▁대자	-2658
▁도모	-2659
▁돈을	-2660
▁돌려	-2661
▁돌리	-2662
▁동과	-2663
▁동정	-2664
▁되게	-2665
▁된다	-2666
▁들여	-2667
▁땅은	-2668
▁땅의	-2669
▁뜻에	-2670
▁만고	-2671
▁말한	-2672
▁말할	-2673
▁맞지	-2674
▁매일	-2675
▁맹세	-2676
▁모양	-2677
▁모여	-2678
▁몸과	-2679
▁미루	-2680
▁믿는	-2681
▁믿지	-2682
▁바와	-2683
▁반조	-2684
▁받으	-2685
▁발원	-2686
▁백년	-2687
▁벌레	-2688
▁본위	-2689
▁부탁	-2690
▁불이	-2691
▁사사	-2692
▁삼가	-2693
▁삼매	-2694
▁삿된	-2695
▁순서	-2696
▁신심	-2697
▁신통	-2698
▁쌍전	-2699
▁안락	-2700
▁여래	-2701
▁영육	-2702
▁오롯	-2703
▁요법	-2704
▁욕심	-2705
▁용화	-2706
▁우선	-2707
▁윤회	-2708
▁의두	-2709
▁의무	-2710
▁이룰	-2711
▁이행	-2712
▁일시	-2713
▁잃고	-2714
▁입선	-2715
▁입을	-2716
▁장래	-2717
▁재가	-2718
▁적었	-2719
▁적은	-2720
▁점이	-2721
▁조물	-2722
▁조용	-2723
▁조화	-2724
▁주면	-2725
▁죽은	-2726
▁즐기	-2727
▁지각	-2728
▁지배	-2729
▁차례	-2730
▁처지	-2731
▁통일	-2732
▁편에	-2733
▁한참	-2734
▁환영	-2735
▁후래	-2736
▁희망	-2737
그것은	-2738
그러면	-2739
기로써	-2740
력으로	-2741
리석은	-2742
시키고	-2743
아무리	-2744
어떠한	-2745
이라야	-2746
지니라	-2747
하거든	-2748
하기에	-2749
하는데	-2750
하였고	-2751
하오니	-2752
▁39.	-2753
▁가르칠	-2754
▁가져오	-2755
▁감정을	-2756
▁강자가	-2757
▁경우에	-2758
▁고락을	-2759
▁곡조는	-2760
▁곳마다	-2761
▁곳으로	-2762
▁공도자	-2763
▁관계로	-2764
▁국가에	-2765
▁그대를	-2766
▁근기요	-2767
▁근원을	-2768
▁기운과	-2769
▁기천이	-2770
▁끊어진	-2771
▁나라에	-2772
▁내역을	-2773
▁당일의	-2774
▁대도를	-2775
▁동남풍	-2776
▁동하고	-2777
▁두려워	-2778
▁뒤에는	-2779
▁말하되	-2780
▁말하지	-2781
▁문명을	-2782
▁물질의	-2783
▁바람이	-2784
▁바탕이	-2785
▁발하여	-2786
▁버리는	-2787
▁법문을	-2788
▁보응의	-2789
▁본다면	-2790
▁부득이	-2791
▁사은의	-2792
▁사회가	-2793
▁살펴서	-2794
▁상벌을	-2795
▁생각해	-2796
▁생활의	-2797
▁성의가	-2798
▁세우고	-2799
▁소유로	-2800
▁수고를	-2801
▁순서를	-2802
▁시간에	-2803
▁시대를	-2804
▁시대에	-2805
▁시일이	-2806
▁신앙을	-2807
▁아는가	-2808
▁알았다	-2809
▁어려울	-2810
▁어찌할	-2811
▁얼굴이	-2812
▁없도록	-2813
▁여기에	-2814
▁여하에	-2815
▁연구를	-2816
▁온전한	-2817
▁우연한	-2818
▁우연히	-2819
▁원상은	-2820
▁원인을	-2821
▁육신이	-2822
▁이렇게	-2823
▁이루려	-2824
▁이치는	-2825
▁이치에	-2826
▁인지가	-2827
▁일생을	-2828
▁있는가	-2829
▁있다가	-2830
▁자기를	-2831
▁자상히	-2832
▁자연의	-2833
▁정도에	-2834
▁정신은	-2835
▁제자의	-2836
▁중에도	-2837
▁지극한	-2838
▁지어서	-2839
▁지혜가	-2840
▁지혜를	-2841
▁천지가	-2842
▁천하에	-2843
▁청정한	-2844
▁평소에	-2845
▁하거든	-2846
▁하고자	-2847
▁하나가	-2848
▁하물며	-2849
▁행하여	-2850
어리석은	-2851
으로부터	-2852
하겠는가	-2853
▁것이라도	-2854
▁경우에는	-2855
▁공부인의	-2856
▁구분하여	-2857
▁구하므로	-2858
▁나타나고	-2859
▁돌아와서	-2860
▁바이니라	-2861
▁반성하여	-2862
▁법마상전	-2863
▁사업하는	-2864
▁사이에는	-2865
▁실생활에	-2866
▁아니니라	-2867
▁어찌하면	-2868
▁없는지라	-2869
▁위함이요	-2870
▁의지하여	-2871
▁일원상과	-2872
▁일이니라	-2873
▁자녀에게	-2874
▁자리에는	-2875
▁집착하여	-2876
▁천상락을	-2877
▁해석하여	-2878
▁허망하게	-2879
▁활용하여	-2880
▁근본적으로	-2881
▁이름이니라	-2882
▁허다하나니	-2883
▁걷	-2884
▁겪	-2885
▁꿈	-2886
▁끼	-2887
▁뒷	-2888
▁줌	-2889
▁촉	-2890
▁칠	-2891
▁칼	-2892
▁탑	-2893
▁퇴	-2894
▁트	-2895
▁품	-2896
▁황	-2897
天地	-2898
가에	-2899
감지	-2900
결한	-2901
경은	-2902
고는	-2903
교의	-2904
네가	-2905
님이	-2906
다른	-2907
되었	-2908
러운	-2909
력과	-2910
령을	-2911
로소	-2912
르고	-2913
리도	-2914
림이	-2915
만은	-2916
면에	-2917
보라	-2918
사는	-2919
선의	-2920
세가	-2921
세계	-2922
세상	-2923
소와	-2924
시켜	-2925
신급	-2926
악을	-2927
어느	-2928
어질	-2929
여래	-2930
오늘	-2931
우는	-2932
육신	-2933
을에	-2934
있는	-2935
자나	-2936
장에	-2937
전히	-2938
절로	-2939
질을	-2940
천을	-2941
추어	-2942
치지	-2943
침을	-2944
하가	-2945
▁5)	-2946
▁가시	-2947
▁간에	-2948
▁갚을	-2949
▁게송	-2950
▁겨울	-2951
▁결코	-2952
▁경험	-2953
▁고집	-2954
▁곤충	-2955
▁공이	-2956
▁공자	-2957
▁공주	-2958
▁과연	-2959
▁과학	-2960
▁관청	-2961
▁교무	-2962
▁구렁	-2963
▁구제	-2964
▁구할	-2965
▁권속	-2966
▁귀를	-2967
▁그로	-2968
▁기다	-2969
▁기한	-2970
▁나지	-2971
▁나팔	-2972
▁남용	-2973
▁내게	-2974
▁너희	-2975
▁네가	-2976
▁다음	-2977
▁다행	-2978
▁단체	-2979
▁대강	-2980
▁대신	-2981
▁대원	-2982
▁더할	-2983
▁도의	-2984
▁동할	-2985
▁두렷	-2986
▁두지	-2987
▁들은	-2988
▁땅이	-2989
▁때나	-2990
▁때와	-2991
▁떳떳	-2992
▁말과	-2993
▁먹을	-2994
▁먹지	-2995
▁모시	-2996
▁모아	-2997
▁무서	-2998
▁묵은	-2999
▁묻는	-3000
▁바다	-3001
▁밖의	-3002
▁반가	-3003
▁밭을	-3004
▁백천	-3005
▁벌여	-3006
▁범위	-3007
▁법과	-3008
▁병든	-3009
▁병은	-3010
▁보감	-3011
▁보기	-3012
▁본원	-3013
▁본의	-3014
▁부합	-3015
▁분분	-3016
▁분이	-3017
▁불멸	-3018
▁비방	-3019
▁빌고	-3020
▁빠른	-3021
▁사나	-3022
▁사시	-3023
▁사십	-3024
▁삼십	-3025
▁삼아	-3026
▁삼천	-3027
▁선지	-3028
▁성냥	-3029
▁성자	-3030
▁세존	-3031
▁소가	-3032
▁속히	-3033
▁수를	-3034
▁순순	-3035
▁술을	-3036
▁쉽고	-3037
▁시봉	-3038
▁신성	-3039
▁십대	-3040
▁십이	-3041
▁쓰면	-3042
▁아주	-3043
▁아침	-3044
▁악이	-3045
▁알며	-3046
▁알면	-3047
▁약을	-3048
▁어둡	-3049
▁어릴	-3050
▁얼음	-3051
▁연습	-3052
▁염려	-3053
▁영겁	-3054
▁영광	-3055
▁오고	-3056
▁운용	-3057
▁원동	-3058
▁위해	-3059
▁유가	-3060
▁유익	-3061
▁유전	-3062
▁이기	-3063
▁이러	-3064
▁이웃	-3065
▁이유	-3066
▁인물	-3067
▁일곱	-3068
▁자라	-3069
▁자지	-3070
▁자취	-3071
▁잠을	-3072
▁재미	-3073
▁재앙	-3074
▁저를	-3075
▁적게	-3076
▁적적	-3077
▁전일	-3078
▁전진	-3079
▁전해	-3080
▁절약	-3081
▁정이	-3082
▁정치	-3083
▁제생	-3084
▁조각	-3085
▁주야	-3086
▁주착	-3087
▁줄은	-3088
▁중추	-3089
▁쥐가	-3090
▁증득	-3091
▁지게	-3092
▁지는	-3093
▁진급	-3094
▁진실	-3095
▁천년	-3096
▁치우	-3097
▁칭찬	-3098
▁통달	-3099
▁파란	-3100
▁평화	-3101
▁해제	-3102
▁행을	-3103
▁허락	-3104
▁허물	-3105
▁혜택	-3106
▁확장	-3107
一圓相	-3108
감지위	-3109
그대는	-3110
그마한	-3111
랫동안	-3112
면으로	-3113
부터는	-3114
심이요	-3115
으로나	-3116
이든지	-3117
하기도	-3118
하다면	-3119
하였다	-3120
하지는	-3121
▁40.	-3122
▁강령이	-3123
▁것과도	-3124
▁것보다	-3125
▁공중에	-3126
▁과거와	-3127
▁관계를	-3128
▁광명이	-3129
▁교화를	-3130
▁교회가	-3131
▁교회의	-3132
▁구하여	-3133
▁국가나	-3134
▁권리를	-3135
▁기틀을	-3136
▁길들이	-3137
▁길이요	-3138
▁끌려서	-3139
▁끝까지	-3140
▁나와서	-3141
▁나타내	-3142
▁내역과	-3143
▁내왕시	-3144
▁노력을	-3145
▁누구를	-3146
▁당처에	-3147
▁대체로	-3148
▁도량의	-3149
▁도학을	-3150
▁동안에	-3151
▁된다면	-3152
▁만들어	-3153
▁말씀이	-3154
▁명예를	-3155
▁모르게	-3156
▁물건이	-3157
▁미륵불	-3158
▁발전에	-3159
▁법률을	-3160
▁법이니	-3161
▁법이라	-3162
▁변함이	-3163
▁병이니	-3164
▁보은이	-3165
▁보통급	-3166
▁부당한	-3167
▁부모와	-3168
▁분별이	-3169
▁분수에	-3170
▁불공을	-3171
▁불교는	-3172
▁뿐이요	-3173
▁새로운	-3174
▁생각과	-3175
▁생각할	-3176
▁생기는	-3177
▁생기면	-3178
▁생명을	-3179
▁선사가	-3180
▁선원에	-3181
▁성공을	-3182
▁성인이	-3183
▁성품을	-3184
▁소소한	-3185
▁수양의	-3186
▁시대가	-3187
▁신심을	-3188
▁신앙의	-3189
▁실수가	-3190
▁심경을	-3191
▁심신을	-3192
▁십계를	-3193
▁아래로	-3194
▁아이가	-3195
▁아직도	-3196
▁어두운	-3197
▁어디로	-3198
▁얻어서	-3199
▁없다면	-3200
▁없음을	-3201
▁연고요	-3202
▁염불의	-3203
▁영향이	-3204
▁오늘날	-3205
▁왔으나	-3206
▁우리를	-3207
▁위력이	-3208
▁육신에	-3209
▁의무와	-3210
▁이루는	-3211
▁이른바	-3212
▁이상이	-3213
▁이치와	-3214
▁이치의	-3215
▁이해가	-3216
▁인간락	-3217
▁인물이	-3218
▁인심을	-3219
▁인증할	-3220
▁일원상	-3221
▁잃어버	-3222
▁입교한	-3223
▁있거든	-3224
▁있다는	-3225
▁있음을	-3226
▁자녀가	-3227
▁자리로	-3228
▁자신의	-3229
▁재주와	-3230
▁저절로	-3231
▁적당한	-3232
▁전일에	-3233
▁정신의	-3234
▁정의를	-3235
▁제도의	-3236
▁조항을	-3237
▁졸지에	-3238
▁종자가	-3239
▁죄업을	-3240
▁주리니	-3241
▁주리라	-3242
▁중인의	-3243
▁지식이	-3244
▁지으면	-3245
▁진경에	-3246
▁진리와	-3247
▁착심을	-3248
▁처지에	-3249
▁통하고	-3250
▁편리를	-3251
▁편안히	-3252
▁하는데	-3253
▁하면서	-3254
▁현묘한	-3255
▁화하게	-3256
▁효과가	-3257
▁훈련을	-3258
이어니와	-3259
하나이다	-3260
하려니와	-3261
하였으며	-3262
함으로써	-3263
▁가르치고	-3264
▁가운데서	-3265
▁것으로써	-3266
▁것이로다	-3267
▁것이오니	-3268
▁계속하여	-3269
▁계시더니	-3270
▁그대들을	-3271
▁그런다면	-3272
▁나타나서	-3273
▁동포에게	-3274
▁되었나니	-3275
▁되오리까	-3276
▁될지언정	-3277
▁따름이요	-3278
▁떨어져서	-3279
▁못한다면	-3280
▁무엇이나	-3281
▁바라노라	-3282
▁벗어나지	-3283
▁부처님과	-3284
▁부처님을	-3285
▁부처님이	-3286
▁분석하고	-3287
▁비유하여	-3288
▁사람이나	-3289
▁사람이며	-3290
▁사리간에	-3291
▁성심으로	-3292
▁수도인이	-3293
▁스승으로	-3294
▁싫어하는	-3295
▁앞에서는	-3296
▁없어지는	-3297
▁여섯째는	-3298
▁염불로써	-3299
▁원만하게	-3300
▁인도하는	-3301
▁인연으로	-3302
▁일어나는	-3303
▁일이든지	-3304
▁있사오니	-3305
▁조그마한	-3306
▁죽기로써	-3307
▁하겠는가	-3308
▁하였나니	-3309
▁하오리까	-3310
하였나니라	-3311
▁그러한다면	-3312
▁까닭이니라	-3313
▁무엇이리요	-3314
▁어렵나니라	-3315
▁있겠나이까	-3316
▁잊어버리지	-3317
▁적었음이요	-3318
▁조금이라도	-3319
▁부처님께서도	-3320
),	-3321
."	-3322
19	-3323
▁6	-3324
▁늙	-3325
▁떼	-3326
▁북	-3327
▁붓	-3328
▁붕	-3329
▁솟	-3330
▁압	-3331
▁와	-3332
▁윗	-3333
▁젖	-3334
▁좀	-3335
▁좁	-3336
▁좇	-3337
▁틀	-3338
▁패	-3339
▁홀	-3340
▁훨	-3341
▁흠	-3342
佛供	-3343
佛法	-3344
修羅	-3345
如來	-3346
無爲	-3347
邪道	-3348
가고	-3349
가를	-3350
게도	-3351
공이	-3352
국에	-3353
국이	-3354
그는	-3355
기와	-3356
남이	-3357
다지	-3358
되면	-3359
되이	-3360
들고	-3361
들로	-3362
락에	-3363
려야	-3364
로를	-3365
로지	-3366
르지	-3367
리나	-3368
리며	-3369
마의	-3370
문이	-3371
밀한	-3372
번에	-3373
부처	-3374
산과	-3375
서로	-3376
선생	-3377
성할	-3378
실을	-3379
심과	-3380
심히	-3381
었고	-3382
연을	-3383
욕을	-3384
욕이	-3385
원기	-3386
원의	-3387
으되	-3388
은즉	-3389
음알	-3390
인즉	-3391
자도	-3392
자로	-3393
절한	-3394
조의	-3395
중한	-3396
중히	-3397
천에	-3398
초를	-3399
켜서	-3400
품을	-3401
하셨	-3402
행은	-3403
행이	-3404
호를	-3405
▁가리	-3406
▁가질	-3407
▁각종	-3408
▁간석	-3409
▁간섭	-3410
▁간혹	-3411
▁강급	-3412
▁강이	-3413
▁개과	-3414
▁개벽	-3415
▁거울	-3416
▁거처	-3417
▁건축	-3418
▁걸리	-3419
▁견고	-3420
▁결정	-3421
▁결혼	-3422
▁계교	-3423
▁고난	-3424
▁고백	-3425
▁공변	-3426
▁과한	-3427
▁관한	-3428
▁구애	-3429
▁구족	-3430
▁굳게	-3431
▁권능	-3432
▁권장	-3433
▁귀절	-3434
▁규칙	-3435
▁그만	-3436
▁그쳐	-3437
▁그칠	-3438
▁기구	-3439
▁기러	-3440
▁기약	-3441
▁기어	-3442
▁긴요	-3443
▁길에	-3444
▁깨우	-3445
▁끌린	-3446
▁나온	-3447
▁내려	-3448
▁내세	-3449
▁너의	-3450
▁넓고	-3451
▁넓은	-3452
▁다생	-3453
▁다섯	-3454
▁다투	-3455
▁다할	-3456
▁단전	-3457
▁대비	-3458
▁대승	-3459
▁대우	-3460
▁더러	-3461
▁데로	-3462
▁데를	-3463
▁도둑	-3464
▁도라	-3465
▁되라	-3466
▁드물	-3467
▁들고	-3468
▁들인	-3469
▁듯이	-3470
▁등이	-3471
▁땅에	-3472
▁때는	-3473
▁때라	-3474
▁떠날	-3475
▁마군	-3476
▁마친	-3477
▁막히	-3478
▁만난	-3479
▁맞아	-3480
▁멀지	-3481
▁모를	-3482
▁모친	-3483
▁목사	-3484
▁몰라	-3485
▁무루	-3486
▁무식	-3487
▁문득	-3488
▁문제	-3489
▁묻자	-3490
▁물러	-3491
▁미운	-3492
▁바느	-3493
▁박멸	-3494
▁받았	-3495
▁발휘	-3496
▁밝게	-3497
▁밤에	-3498
▁밥을	-3499
▁방지	-3500
▁배운	-3501
▁버는	-3502
▁벌써	-3503
▁법계	-3504
▁법위	-3505
▁법통	-3506
▁보되	-3507
▁복잡	-3508
▁본다	-3509
▁본말	-3510
▁뵈옵	-3511
▁부동	-3512
▁분야	-3513
▁불쌍	-3514
▁불을	-3515
▁불제	-3516
▁불합	-3517
▁불효	-3518
▁붕우	-3519
▁비루	-3520
▁빈천	-3521
▁사라	-3522
▁사생	-3523
▁삼고	-3524
▁상근	-3525
▁서게	-3526
▁선정	-3527
▁성리	-3528
▁성의	-3529
▁세세	-3530
▁소견	-3531
▁소용	-3532
▁손실	-3533
▁쇠약	-3534
▁슬퍼	-3535
▁시기	-3536
▁신을	-3537
▁실상	-3538
▁싫은	-3539
▁십계	-3540
▁십년	-3541
▁쓰고	-3542
▁아름	-3543
▁알리	-3544
▁억압	-3545
▁얽매	-3546
▁업을	-3547
▁여름	-3548
▁역량	-3549
▁예비	-3550
▁온갖	-3551
▁옹기	-3552
▁요구	-3553
▁위주	-3554
▁유람	-3555
▁이리	-3556
▁이야	-3557
▁익어	-3558
▁일상	-3559
▁일으	-3560
▁있던	-3561
▁자격	-3562
▁잠간	-3563
▁잡지	-3564
▁장만	-3565
▁재를	-3566
▁전개	-3567
▁점에	-3568
▁정당	-3569
▁정사	-3570
▁조종	-3571
▁좇아	-3572
▁죄가	-3573
▁죄송	-3574
▁주가	-3575
▁주견	-3576
▁주기	-3577
▁주었	-3578
▁주저	-3579
▁줄만	-3580
▁중히	-3581
▁지킬	-3582
▁진보	-3583
▁짐승	-3584
▁참고	-3585
▁창건	-3586
▁천록	-3587
▁총부	-3588
▁최초	-3589
▁출입	-3590
▁충실	-3591
▁친근	-3592
▁커진	-3593
▁파괴	-3594
▁팔만	-3595
▁표준	-3596
▁학설	-3597
▁학술	-3598
▁한편	-3599
▁헌공	-3600
▁헌신	-3601
▁헤아	-3602
▁현상	-3603
▁형식	-3604
▁혜복	-3605
▁화려	-3606
▁화합	-3607
▁활발	-3608
▁회복	-3609
▁후생	-3610
▁훨씬	-3611
▁힘써	-3612
그러한	-3613
동하여	-3614
마위에	-3615
만으로	-3616
사온데	-3617
시키기	-3618
식에서	-3619
었으며	-3620
우리가	-3621
이것이	-3622
인에게	-3623
인이라	-3624
자에게	-3625
천지에	-3626
하기는	-3627
하든지	-3628
하라는	-3629
함이라	-3630
행하는	-3631
▁41.	-3632
▁42.	-3633
▁가벼이	-3634
▁가시니	-3635
▁가치를	-3636
▁간다면	-3637
▁감사를	-3638
▁강령을	-3639
▁개인에	-3640
▁개인의	-3641
▁거름을	-3642
▁걱정이	-3643
▁것이다	-3644
▁견성만	-3645
▁결국은	-3646
▁고락의	-3647
▁고통이	-3648
▁공중을	-3649
▁과거에	-3650
▁교당에	-3651
▁교당을	-3652
▁교도의	-3653
▁교육을	-3654
▁구하지	-3655
▁그다지	-3656
▁그러면	-3657
▁그런데	-3658
▁그렇게	-3659
▁기회를	-3660
▁깨달아	-3661
▁나가는	-3662
▁나누어	-3663
▁나라는	-3664
▁낙원을	-3665
▁내리는	-3666
▁내정정	-3667
▁넘치는	-3668
▁다행히	-3669
▁대의를	-3670
▁독실한	-3671
▁돌리자	-3672
▁되는가	-3673
▁되든지	-3674
▁된지라	-3675
▁됨이요	-3676
▁뒤에야	-3677
▁드러내	-3678
▁들이지	-3679
▁때부터	-3680
▁뛰어난	-3681
▁마시고	-3682
▁마음도	-3683
▁마음병	-3684
▁만드는	-3685
▁만물을	-3686
▁말씀을	-3687
▁망념이	-3688
▁명예가	-3689
▁모시고	-3690
▁모시는	-3691
▁모으면	-3692
▁목적을	-3693
▁몸으로	-3694
▁무리와	-3695
▁무서운	-3696
▁문명은	-3697
▁미루어	-3698
▁바르지	-3699
▁박람회	-3700
▁받아야	-3701
▁발심한	-3702
▁밝히고	-3703
▁방편을	-3704
▁방편이	-3705
▁배우고	-3706
▁배은을	-3707
▁번수를	-3708
▁법률과	-3709
▁법설을	-3710
▁변동이	-3711
▁병이며	-3712
▁보은을	-3713
▁뵈오니	-3714
▁부유한	-3715
▁부처와	-3716
▁비로소	-3717
▁비치면	-3718
▁사물에	-3719
▁사생의	-3720
▁사실적	-3721
▁사심이	-3722
▁사회나	-3723
▁사회와	-3724
▁산중에	-3725
▁상생의	-3726
▁생겨나	-3727
▁생멸이	-3728
▁생사를	-3729
▁생사에	-3730
▁생사의	-3731
▁서원을	-3732
▁선악의	-3733
▁성공의	-3734
▁성공이	-3735
▁성질이	-3736
▁성품의	-3737
▁세간의	-3738
▁세력이	-3739
▁세존이	-3740
▁소식을	-3741
▁손해를	-3742
▁수레를	-3743
▁수양을	-3744
▁쉬우며	-3745
▁시간을	-3746
▁시일을	-3747
▁신문을	-3748
▁신성을	-3749
▁신용을	-3750
▁실력을	-3751
▁실지로	-3752
▁아니나	-3753
▁아무야	-3754
▁악도를	-3755
▁알기도	-3756
▁알으시	-3757
▁어긋나	-3758
▁어두워	-3759
▁어렵게	-3760
▁없애는	-3761
▁연구의	-3762
▁영산에	-3763
▁예수의	-3764
▁예회에	-3765
▁오로지	-3766
▁외에는	-3767
▁외정정	-3768
▁우주의	-3769
▁원인이	-3770
▁위태한	-3771
▁의견을	-3772
▁의심이	-3773
▁이대로	-3774
▁이로운	-3775
▁이루게	-3776
▁이루어	-3777
▁이제는	-3778
▁인도를	-3779
▁일시적	-3780
▁일이니	-3781
▁자료를	-3782
▁자리가	-3783
▁잘하면	-3784
▁잡초가	-3785
▁재산이	-3786
▁절대로	-3787
▁정하는	-3788
▁조목에	-3789
▁조목을	-3790
▁조심할	-3791
▁종교와	-3792
▁좌선의	-3793
▁죄복은	-3794
▁죄복의	-3795
▁죄업이	-3796
▁주어야	-3797
▁주체삼	-3798
▁줌이요	-3799
▁중생은	-3800
▁즐기는	-3801
▁지게만	-3802
▁지내는	-3803
▁지도에	-3804
▁지장이	-3805
▁지키고	-3806
▁지혜의	-3807
▁진리에	-3808
▁창립의	-3809
▁찾아서	-3810
▁천지에	-3811
▁초월한	-3812
▁춘풍이	-3813
▁타자녀	-3814
▁특별히	-3815
▁특신급	-3816
▁필요한	-3817
▁하기를	-3818
▁하나로	-3819
▁하늘과	-3820
▁하늘이	-3821
▁하시며	-3822
▁하여서	-3823
▁한다고	-3824
▁행동이	-3825
▁화하고	-3826
▁효과를	-3827
▁후에야	-3828
일지라도	-3829
할지라도	-3830
▁가르치며	-3831
▁가정에서	-3832
▁공부로서	-3833
▁공부인이	-3834
▁교화하는	-3835
▁나라에서	-3836
▁나타나게	-3837
▁누구든지	-3838
▁도인들은	-3839
▁되었는가	-3840
▁말씀이요	-3841
▁말씀하신	-3842
▁명심하여	-3843
▁못한다는	-3844
▁무자력한	-3845
▁물으시니	-3846
▁발심하여	-3847
▁배우고자	-3848
▁배우기를	-3849
▁법신불의	-3850
▁부끄러운	-3851
▁사람마다	-3852
▁삼대력을	-3853
▁생각하고	-3854
▁선원에서	-3855
▁수양력을	-3856
▁승급하여	-3857
▁실행하는	-3858
▁싶나이다	-3859
▁없으리요	-3860
▁오랫동안	-3861
▁운전하는	-3862
▁의지하고	-3863
▁이타로써	-3864
▁이해하지	-3865
▁일곱째는	-3866
▁자기에게	-3867
▁작용하는	-3868
▁주옵소서	-3869
▁주의심을	-3870
▁준비하는	-3871
▁지성으로	-3872
▁처음으로	-3873
▁초월하여	-3874
▁치료하는	-3875
▁하나님을	-3876
▁하지마는	-3877
▁할지언정	-3878
▁현상이라	-3879
하시는지라	-3880
▁당할지라도	-3881
▁대종사께서	-3882
▁부탁하노라	-3883
▁아니하고도	-3884
▁아니하는가	-3885
▁아니하시고	-3886
▁아니한지라	-3887
▁어찌하여야	-3888
▁이르시기를	-3889
▁회상에서는	-3890
▁어떠하오리까	-3891
▁값	-3892
▁검	-3893
▁낭	-3894
▁넣	-3895
▁띠	-3896
▁뭇	-3897
▁밑	-3898
▁뱀	-3899
▁솥	-3900
▁숙	-3901
▁싹	-3902
▁쓴	-3903
▁월	-3904
▁잎	-3905
▁젊	-3906
▁접	-3907
▁촌	-3908
▁춤	-3909
▁측	-3910
▁층	-3911
▁콩	-3912
▁탈	-3913
▁투	-3914
▁퍽	-3915
▁폭	-3916
▁훌	-3917
▁훼	-3918
三昧	-3919
之位	-3920
人道	-3921
佛像	-3922
佛地	-3923
修行	-3924
定期	-3925
定靜	-3926
常時	-3927
應用	-3928
正覺	-3929
無念	-3930
而不	-3931
要道	-3932
見性	-3933
訓練	-3934
話頭	-3935
返照	-3936
開闢	-3937
陰陽	-3938
雨露	-3939
靈肉	-3940
가서	-3941
각도	-3942
강급	-3943
강연	-3944
겁게	-3945
견성	-3946
고도	-3947
공한	-3948
관이	-3949
관할	-3950
광을	-3951
기의	-3952
남을	-3953
단히	-3954
대에	-3955
대의	-3956
대한	-3957
도로	-3958
동포	-3959
되니	-3960
등을	-3961
래로	-3962
래의	-3963
러워	-3964
령이	-3965
로가	-3966
로잡	-3967
롭고	-3968
루는	-3969
르게	-3970
리면	-3971
림을	-3972
마귀	-3973
마음	-3974
만히	-3975
망이	-3976
머니	-3977
명과	-3978
무릇	-3979
물러	-3980
밀히	-3981
배은	-3982
보은	-3983
보통	-3984
불을	-3985
산에	-3986
산의	-3987
서가	-3988
선은	-3989
세히	-3990
소성	-3991
시되	-3992
시킴	-3993
식에	-3994
신과	-3995
신은	-3996
업부	-3997
여서	-3998
오며	-3999
용한	-4000
우고	-4001
으려	-4002
일한	-4003
임을	-4004
임이	-4005
자기	-4006
장의	-4007
장한	-4008
저희	-4009
적이	-4010
정에	-4011
정할	-4012
조와	-4013
주고	-4014
지면	-4015
찌기	-4016
찍질	-4017
찮은	-4018
처가	-4019
천지	-4020
쳤다	-4021
출가	-4022
치며	-4023
치에	-4024
퇴전	-4025
편차	-4026
품이	-4027
하의	-4028
하자	-4029
해가	-4030
회화	-4031
▁각오	-4032
▁감정	-4033
▁감탄	-4034
▁감화	-4035
▁값도	-4036
▁개가	-4037
▁거기	-4038
▁걸림	-4039
▁걸음	-4040
▁견문	-4041
▁경영	-4042
▁경외	-4043
▁경치	-4044
▁계산	-4045
▁고를	-4046
▁고혈	-4047
▁곤란	-4048
▁과장	-4049
▁광명	-4050
▁교법	-4051
▁구경	-4052
▁구인	-4053
▁권모	-4054
▁권세	-4055
▁규모	-4056
▁그려	-4057
▁그름	-4058
▁근거	-4059
▁급한	-4060
▁급히	-4061
▁기르	-4062
▁기울	-4063
▁기질	-4064
▁기천	-4065
▁길고	-4066
▁길룡	-4067
▁끝이	-4068
▁나갈	-4069
▁나며	-4070
▁날을	-4071
▁남아	-4072
▁남편	-4073
▁낳은	-4074
▁내는	-4075
▁노는	-4076
▁노릇	-4077
▁농작	-4078
▁다녀	-4079
▁다닌	-4080
▁다름	-4081
▁달라	-4082
▁달려	-4083
▁담당	-4084
▁담박	-4085
▁답답	-4086
▁당시	-4087
▁대접	-4088
▁대질	-4089
▁대천	-4090
▁데는	-4091
▁도구	-4092
▁도는	-4093
▁도산	-4094
▁돌고	-4095
▁동물	-4096
▁될까	-4097
▁두렵	-4098
▁두면	-4099
▁두어	-4100
▁두었	-4101
▁든든	-4102
▁등의	-4103
▁때로	-4104
▁뜨는	-4105
▁막기	-4106
▁만세	-4107
▁만큼	-4108
▁말도	-4109
▁말에	-4110
▁머무	-4111
▁면할	-4112
▁멸도	-4113
▁몇몇	-4114
▁모른	-4115
▁모신	-4116
▁목표	-4117
▁몸은	-4118
▁무리	-4119
▁무정	-4120
▁문을	-4121
▁물어	-4122
▁미쳐	-4123
▁미타	-4124
▁바는	-4125
▁바루	-4126
▁발표	-4127
▁밟아	-4128
▁방심	-4129
▁방언	-4130
▁방향	-4131
▁버릴	-4132
▁법당	-4133
▁법문	-4134
▁법칙	-4135
▁벗어	-4136
▁변태	-4137
▁별로	-4138
▁보답	-4139
▁보조	-4140
▁보존	-4141
▁불어	-4142
▁불은	-4143
▁불지	-4144
▁불평	-4145
▁붙잡	-4146
▁빠져	-4147
▁뿐만	-4148
▁뿐이	-4149
▁사의	-4150
▁사정	-4151
▁산에	-4152
▁살지	-4153
▁삼건	-4154
▁상상	-4155
▁상생	-4156
▁상을	-4157
▁상쾌	-4158
▁새벽	-4159
▁생에	-4160
▁서약	-4161
▁서양	-4162
▁석두	-4163
▁선기	-4164
▁선량	-4165
▁세운	-4166
▁소개	-4167
▁소멸	-4168
▁손가	-4169
▁손상	-4170
▁솟아	-4171
▁수승	-4172
▁수신	-4173
▁수운	-4174
▁순경	-4175
▁순역	-4176
▁숭상	-4177
▁쉬우	-4178
▁시종	-4179
▁신기	-4180
▁신봉	-4181
▁실천	-4182
▁심통	-4183
▁씨가	-4184
▁아랫	-4185
▁아프	-4186
▁악은	-4187
▁알기	-4188
▁알뜰	-4189
▁알려	-4190
▁애를	-4191
▁애석	-4192
▁어제	-4193
▁없던	-4194
▁여덟	-4195
▁여여	-4196
▁역시	-4197
▁열리	-4198
▁영식	-4199
▁영영	-4200
▁예배	-4201
▁오른	-4202
▁오지	-4203
▁올챙	-4204
▁옳다	-4205
▁옳은	-4206
▁옳지	-4207
▁외도	-4208
▁요지	-4209
▁용서	-4210
▁우월	-4211
▁운영	-4212
▁원인	-4213
▁원칙	-4214
▁유감	-4215
▁유명	-4216
▁유지	-4217
▁육대	-4218
▁의견	-4219
▁이길	-4220
▁이런	-4221
▁이룬	-4222
▁이어	-4223
▁인공	-4224
▁일년	-4225
▁일부	-4226
▁일분	-4227
▁잃어	-4228
▁있기	-4229
▁자만	-4230
▁자부	-4231
▁장단	-4232
▁장에	-4233
▁재계	-4234
▁저는	-4235
▁저축	-4236
▁저희	-4237
▁전공	-4238
▁전쟁	-4239
▁전환	-4240
▁절을	-4241
▁점은	-4242
▁점을	-4243
▁접응	-4244
▁정식	-4245
▁정전	-4246
▁제재	-4247
▁조실	-4248
▁존경	-4249
▁존대	-4250
▁존숭	-4251
▁존엄	-4252
▁종법	-4253
▁좋으	-4254
▁죄로	-4255
▁죄벌	-4256
▁주게	-4257
▁주며	-4258
▁주색	-4259
▁주어	-4260
▁주워	-4261
▁중요	-4262
▁증명	-4263
▁지낸	-4264
▁지라	-4265
▁지체	-4266
▁짐을	-4267
▁집을	-4268
▁집이	-4269
▁집중	-4270
▁짓게	-4271
▁짧은	-4272
▁차등	-4273
▁차지	-4274
▁착한	-4275
▁찬란	-4276
▁찾을	-4277
▁찾지	-4278
▁채굴	-4279
▁천신	-4280
▁천업	-4281
▁천인	-4282
▁철이	-4283
▁첫째	-4284
▁청춘	-4285
▁촉진	-4286
▁추측	-4287
▁축생	-4288
▁치고	-4289
▁타고	-4290
▁탑을	-4291
▁통합	-4292
▁퇴굴	-4293
▁트집	-4294
▁편이	-4295
▁편착	-4296
▁편찬	-4297
▁평등	-4298
▁평소	-4299
▁평탄	-4300
▁표어	-4301
▁풀어	-4302
▁하근	-4303
▁하매	-4304
▁하신	-4305
▁하실	-4306
▁학교	-4307
▁학식	-4308
▁한탄	-4309
▁해로	-4310
▁행실	-4311
▁향상	-4312
▁헛된	-4313
▁현생	-4314
▁형편	-4315
▁혜를	-4316
▁혜시	-4317
▁호흡	-4318
▁화강	-4319
▁환경	-4320
▁효도	-4321
▁훌륭	-4322
▁흔히	-4323
鑑之位	-4324
가에서	-4325
간다면	-4326
국가가	-4327
국가에	-4328
기까지	-4329
년에는	-4330
느냐고	-4331
되므로	-4332
되어야	-4333
되지는	-4334
로서는	-4335
배은을	-4336
사에만	-4337
사하고	-4338
삽더니	-4339
성하고	-4340
세상에	-4341
스럽지	-4342
승이라	-4343
심하지	-4344
았으나	-4345
앞으로	-4346
어지지	-4347
에게도	-4348
에게만	-4349
연하여	-4350
우리의	-4351
으려는	-4352
으로만	-4353
으리라	-4354
음으로	-4355
일수록	-4356
자들이	-4357
정으로	-4358
정하는	-4359
중하여	-4360
하더니	-4361
하심에	-4362
하자면	-4363
함에는	-4364
해져서	-4365
해지고	-4366
효과를	-4367
▁43.	-4368
▁44.	-4369
▁45.	-4370
▁가난한	-4371
▁가라앉	-4372
▁가만히	-4373
▁가정과	-4374
▁가지도	-4375
▁가지와	-4376
▁가치가	-4377
▁간격을	-4378
▁감응을	-4379
▁강령은	-4380
▁강자의	-4381
▁갖추어	-4382
▁건지는	-4383
▁것인데	-4384
▁경전은	-4385
▁계문을	-4386
▁계발을	-4387
▁고락에	-4388
▁고생이	-4389
▁고치지	-4390
▁고통을	-4391
▁곡식을	-4392
▁곳에는	-4393
▁공변된	-4394
▁공부로	-4395
▁공부법	-4396
▁공원을	-4397
▁공익심	-4398
▁과보가	-4399
▁과보를	-4400
▁과정을	-4401
▁관청에	-4402
▁광선이	-4403
▁교단을	-4404
▁교법이	-4405
▁교중의	-4406
▁교화의	-4407
▁교화할	-4408
▁구렁에	-4409
▁국가를	-4410
▁국가와	-4411
▁국한된	-4412
▁권리와	-4413
▁권세를	-4414
▁그것만	-4415
▁그런고	-4416
▁그릇이	-4417
▁그치고	-4418
▁극락을	-4419
▁근기는	-4420
▁근기를	-4421
▁근래에	-4422
▁근본은	-4423
▁근심이	-4424
▁기관에	-4425
▁기어이	-4426
▁기회가	-4427
▁긴요한	-4428
▁길이라	-4429
▁깨끗이	-4430
▁깨치는	-4431
▁끌리어	-4432
▁나라를	-4433
▁내생의	-4434
▁넉넉한	-4435
▁녹아서	-4436
▁농부가	-4437
▁농사를	-4438
▁능하지	-4439
▁다르지	-4440
▁다음에	-4441
▁단전에	-4442
▁달라서	-4443
▁대각을	-4444
▁대의에	-4445
▁대하는	-4446
▁도덕이	-4447
▁도리를	-4448
▁도성이	-4449
▁도인은	-4450
▁동포가	-4451
▁동포의	-4452
▁되기를	-4453
▁되도록	-4454
▁되어야	-4455
▁될는지	-4456
▁두렷한	-4457
▁들으시	-4458
▁등으로	-4459
▁등한시	-4460
▁때까지	-4461
▁때에나	-4462
▁떳떳한	-4463
▁뜻대로	-4464
▁마군을	-4465
▁마음만	-4466
▁만법을	-4467
▁말로써	-4468
▁말씀은	-4469
▁말이나	-4470
▁말하고	-4471
▁망념을	-4472
▁매사에	-4473
▁머물러	-4474
▁명예는	-4475
▁모범적	-4476
▁못한다	-4477
▁무수한	-4478
▁무시선	-4479
▁무심히	-4480
▁무정한	-4481
▁문명의	-4482
▁물건은	-4483
▁믿음이	-4484
▁바로서	-4485
▁바르고	-4486
▁밖에도	-4487
▁반가이	-4488
▁반대로	-4489
▁반면에	-4490
▁받기는	-4491
▁받기를	-4492
▁밝아질	-4493
▁밝히셨	-4494
▁방법이	-4495
▁배은의	-4496
▁범상한	-4497
▁범하지	-4498
▁법계에	-4499
▁법이요	-4500
▁베풀어	-4501
▁변하는	-4502
▁보기도	-4503
▁보기를	-4504
▁보살의	-4505
▁보아도	-4506
▁보응을	-4507
▁본위로	-4508
▁본의가	-4509
▁부러워	-4510
▁부모를	-4511
▁부지중	-4512
▁부처의	-4513
▁불공할	-4514
▁불리는	-4515
▁불법을	-4516
▁불법의	-4517
▁불법이	-4518
▁불상이	-4519
▁불쌍히	-4520
▁불퇴전	-4521
▁비난을	-4522
▁비루가	-4523
▁빠지게	-4524
▁뿌리가	-4525
▁사람만	-4526
▁사람에	-4527
▁사로잡	-4528
▁사물을	-4529
▁사생이	-4530
▁사업은	-4531
▁사회의	-4532
▁살림을	-4533
▁살피고	-4534
▁삼대력	-4535
▁삼아서	-4536
▁삼학의	-4537
▁생기지	-4538
▁생령을	-4539
▁생사가	-4540
▁생사는	-4541
▁생전에	-4542
▁서울에	-4543
▁서원과	-4544
▁선도에	-4545
▁선으로	-4546
▁선지식	-4547
▁성공될	-4548
▁성리를	-4549
▁성불을	-4550
▁성성한	-4551
▁성인의	-4552
▁속이고	-4553
▁수기를	-4554
▁수도에	-4555
▁수생의	-4556
▁수양과	-4557
▁숭배를	-4558
▁습관에	-4559
▁승려가	-4560
▁시간과	-4561
▁시간이	-4562
▁시대의	-4563
▁시키는	-4564
▁신앙과	-4565
▁실지를	-4566
▁심신의	-4567
▁심신이	-4568
▁심전을	-4569
▁쌓이고	-4570
▁아기를	-4571
▁아나니	-4572
▁아니고	-4573
▁아니며	-4574
▁앉아서	-4575
▁알리어	-4576
▁알음알	-4577
▁앞에서	-4578
▁야단을	-4579
▁어그러	-4580
▁어머니	-4581
▁얻기가	-4582
▁얻도록	-4583
▁얻어야	-4584
▁업보가	-4585
▁없어야	-4586
▁여의고	-4587
▁열반을	-4588
▁영혼이	-4589
▁오늘에	-4590
▁오늘의	-4591
▁오롯이	-4592
▁오르면	-4593
▁요도는	-4594
▁요도를	-4595
▁요도와	-4596
▁요도인	-4597
▁원동력	-4598
▁원망을	-4599
▁위하사	-4600
▁유무와	-4601
▁유전할	-4602
▁육도와	-4603
▁육도의	-4604
▁육신병	-4605
▁육신은	-4606
▁응용에	-4607
▁응하여	-4608
▁의식을	-4609
▁의하여	-4610
▁이기는	-4611
▁이르고	-4612
▁이소성	-4613
▁이치도	-4614
▁이해의	-4615
▁익히고	-4616
▁인간이	-4617
▁인류가	-4618
▁인심이	-4619
▁일념을	-4620
▁일생에	-4621
▁일심에	-4622
▁일심이	-4623
▁일으키	-4624
▁일찌기	-4625
▁일체가	-4626
▁일하는	-4627
▁있다고	-4628
▁있어도	-4629
▁자기도	-4630
▁자녀의	-4631
▁자력을	-4632
▁자리며	-4633
▁자성을	-4634
▁자세히	-4635
▁자신도	-4636
▁자신을	-4637
▁자유로	-4638
▁자취를	-4639
▁잘못이	-4640
▁잘하고	-4641
▁잘하여	-4642
▁전에는	-4643
▁전체가	-4644
▁전하여	-4645
▁절하고	-4646
▁정사를	-4647
▁정성에	-4648
▁정신과	-4649
▁정의가	-4650
▁정의의	-4651
▁제도할	-4652
▁제성의	-4653
▁제자를	-4654
▁조사가	-4655
▁조용히	-4656
▁죄복도	-4657
▁주의를	-4658
▁중간에	-4659
▁중도를	-4660
▁중요한	-4661
▁즉시로	-4662
▁지견과	-4663
▁지견을	-4664
▁지금의	-4665
▁지내지	-4666
▁지도할	-4667
▁지키는	-4668
▁진리의	-4669
▁진실로	-4670
▁진행할	-4671
▁질서가	-4672
▁집에서	-4673
▁짓기를	-4674
▁차이가	-4675
▁참선을	-4676
▁채찍질	-4677
▁챙겨서	-4678
▁챙기고	-4679
▁처리건	-4680
▁처리한	-4681
▁처지를	-4682
▁천상락	-4683
▁천조의	-4684
▁천지를	-4685
▁천지와	-4686
▁천하를	-4687
▁철저히	-4688
▁청풍이	-4689
▁청하여	-4690
▁출세간	-4691
▁취사를	-4692
▁취사의	-4693
▁취하고	-4694
▁치료에	-4695
▁탐착을	-4696
▁편벽된	-4697
▁피은이	-4698
▁하늘에	-4699
▁하늘을	-4700
▁하늘의	-4701
▁하려는	-4702
▁하였고	-4703
▁하찮은	-4704
▁한가한	-4705
▁한이요	-4706
▁할지니	-4707
▁해롭게	-4708
▁해탈을	-4709
▁행하지	-4710
▁향상을	-4711
▁허물이	-4712
▁현상을	-4713
▁현재의	-4714
▁혜복을	-4715
▁환경을	-4716
▁환자가	-4717
▁활동할	-4718
▁후로는	-4719
▁훈련법	-4720
▁흥하게	-4721
▁희사위	-4722
▁힘쓰면	-4723
공부하는	-4724
과거에는	-4725
그러므로	-4726
서가모니	-4727
어찌하여	-4728
으셨으며	-4729
중생들은	-4730
하시므로	-4731
하였는가	-4732
하였는데	-4733
하지마는	-4734
함이니라	-4735
▁가지고는	-4736
▁가지고도	-4737
▁감탄하여	-4738
▁거짓되고	-4739
▁것이라고	-4740
▁경외심을	-4741
▁공경하고	-4742
▁공부하여	-4743
▁과거에는	-4744
▁과목이요	-4745
▁괴로움을	-4746
▁그것으로	-4747
▁길이니라	-4748
▁깊어져서	-4749
▁노력하라	-4750
▁대상으로	-4751
▁대조하게	-4752
▁도가에서	-4753
▁도인이라	-4754
▁돌아오고	-4755
▁돌아오면	-4756
▁되겠는가	-4757
▁되는지라	-4758
▁되려니와	-4759
▁되었으면	-4760
▁드러나게	-4761
▁떨어지는	-4762
▁떨어지지	-4763
▁많으므로	-4764
▁모르거나	-4765
▁모르는데	-4766
▁목적하는	-4767
▁몸으로써	-4768
▁못하다가	-4769
▁못하리니	-4770
▁못하오니	-4771
▁물론이요	-4772
▁미워하는	-4773
▁미워하지	-4774
▁박람회를	-4775
▁버리지는	-4776
▁병진하는	-4777
▁부처님은	-4778
▁사람들로	-4779
▁사람이니	-4780
▁사랑하는	-4781
▁사방에서	-4782
▁사업이나	-4783
▁사이라도	-4784
▁사이에도	-4785
▁상대하여	-4786
▁생각하지	-4787
▁생겨나는	-4788
▁서로서로	-4789
▁선생이라	-4790
▁성불하는	-4791
▁성현들은	-4792
▁세계에서	-4793
▁싫어하고	-4794
▁아니하려	-4795
▁아니한다	-4796
▁아홉째는	-4797
▁알았으나	-4798
▁어긋남이	-4799
▁없건마는	-4800
▁없었는가	-4801
▁여덟째는	-4802
▁연고니라	-4803
▁염불이나	-4804
▁온전하고	-4805
▁원만하고	-4806
▁원망하는	-4807
▁위에다가	-4808
▁의심하지	-4809
▁인도하여	-4810
▁일어내어	-4811
▁있었는가	-4812
▁있지마는	-4813
▁적당하게	-4814
▁정사에서	-4815
▁조건으로	-4816
▁조심하지	-4817
▁좋아하고	-4818
▁주의하라	-4819
▁주장하는	-4820
▁즐겨하고	-4821
▁차별이요	-4822
▁초월하고	-4823
▁필경에는	-4824
▁하나이까	-4825
▁하였더니	-4826
▁하였으며	-4827
▁회상에서	-4828
법강항마위	-4829
어지나니라	-4830
▁계속한다면	-4831
▁기재시키는	-4832
▁노력하여야	-4833
▁못하였는가	-4834
▁못하였으나	-4835
▁법강항마위	-4836
▁법마상전급	-4837
▁불과하나니	-4838
▁사람에게만	-4839
▁사람이라고	-4840
▁아니하여야	-4841
▁일반적으로	-4842
▁잃어버리고	-4843
▁있어지나니	-4844
▁있을지라도	-4845
▁전무출신의	-4846
▁하시나이까	-4847
▁하였건마는	-4848
▁한편에서는	-4849
▁현실적으로	-4850
▁힘쓸지어다	-4851
▁아니하시니라	-4852
▁아니하오리까	-4853
▁어떠하나이까	-4854
)]	-4855
▁갔	-4856
▁갱	-4857
▁격	-4858
▁굴	-4859
▁꼭	-4860
▁꽃	-4861
▁낱	-4862
▁낼	-4863
▁뉘	-4864
▁덜	-4865
▁덮	-4866
▁똥	-4867
▁뜬	-4868
▁며	-4869
▁묶	-4870
▁벽	-4871
▁봄	-4872
▁빨	-4873
▁뻗	-4874
▁썩	-4875
▁암	-4876
▁잦	-4877
▁틈	-4878
▁횡	-4879
三學	-4880
三界	-4881
世界	-4882
丹田	-4883
事事	-4884
修養	-4885
偈頌	-4886
公事	-4887
六根	-4888
六途	-4889
動靜	-4890
千峰	-4891
四生	-4892
坐禪	-4893
報恩	-4894
大圓	-4895
大覺	-4896
天道	-4897
心法	-4898
性理	-4899
敎義	-4900
日記	-4901
時禪	-4902
會上	-4903
正道	-4904
注意	-4905
涅槃	-4906
無碍	-4907
疑頭	-4908
相克	-4909
相勝	-4910
石頭	-4911
空寂	-4912
而化	-4913
自力	-4914
自在	-4915
自然	-4916
處處	-4917
言語	-4918
誓願	-4919
金剛	-4920
雙全	-4921
養性	-4922
가게	-4923
가의	-4924
가지	-4925
개가	-4926
것을	-4927
게가	-4928
곡을	-4929
곳에	-4930
과의	-4931
교육	-4932
권을	-4933
그저	-4934
극이	-4935
금을	-4936
급의	-4937
급한	-4938
기나	-4939
기어	-4940
꾸어	-4941
뀌는	-4942
나게	-4943
나무	-4944
낱이	-4945
내를	-4946
년기	-4947
년에	-4948
년을	-4949
념과	-4950
다니	-4951
단의	-4952
당을	-4953
대와	-4954
대중	-4955
독히	-4956
돋아	-4957
되게	-4958
되며	-4959
됨을	-4960
듣고	-4961
들어	-4962
들인	-4963
들지	-4964
듯이	-4965
때로	-4966
라리	-4967
라야	-4968
래를	-4969
럽게	-4970
력은	-4971
령한	-4972
례로	-4973
로나	-4974
로도	-4975
로에	-4976
르는	-4977
마침	-4978
만의	-4979
만일	-4980
많은	-4981
목을	-4982
목이	-4983
무지	-4984
미한	-4985
밀을	-4986
박한	-4987
받을	-4988
발을	-4989
방에	-4990
별한	-4991
보면	-4992
보지	-4993
복이	-4994
부나	-4995
분의	-4996
불공	-4997
불상	-4998
비는	-4999
쁘게	-5000
쁘고	-5001
사요	-5002
성과	-5003
성리	-5004
세는	-5005
셨다	-5006
소도	-5007
수라	-5008
수의	-5009
수히	-5010
숙한	-5011
스러	-5012
습을	-5013
시킨	-5014
시킬	-5015
아지	-5016
아질	-5017
안을	-5018
암에	-5019
액을	-5020
어가	-5021
어떤	-5022
어졌	-5023
에나	-5024
열반	-5025
영혼	-5026
오는	-5027
오매	-5028
옥이	-5029
올지	-5030
왕이	-5031
용을	-5032
울한	-5033
워서	-5034
원에	-5035
의두	-5036
이게	-5037
이다	-5038
이화	-5039
인들	-5040
자고	-5041
자라	-5042
저히	-5043
전한	-5044
절히	-5045
정녀	-5046
제히	-5047
종의	-5048
좌선	-5049
주에	-5050
주지	-5051
지기	-5052
지며	-5053
진히	-5054
짐을	-5055
짚신	-5056
쪼록	-5057
찰나	-5058
참한	-5059
창한	-5060
채를	-5061
처의	-5062
천도	-5063
천봉	-5064
천한	-5065
체라	-5066
추고	-5067
추는	-5068
치기	-5069
치라	-5070
탁을	-5071
통은	-5072
하겠	-5073
하러	-5074
하에	-5075
하온	-5076
하옵	-5077
하와	-5078
하처	-5079
학자	-5080
한들	-5081
한이	-5082
행의	-5083
행한	-5084
호의	-5085
활한	-5086
히지	-5087
힘이	-5088
(19	-5089
▁가끔	-5090
▁가나	-5091
▁가면	-5092
▁가졌	-5093
▁각색	-5094
▁각파	-5095
▁감상	-5096
▁감소	-5097
▁감수	-5098
▁강을	-5099
▁거절	-5100
▁거칠	-5101
▁건강	-5102
▁걷혀	-5103
▁걸린	-5104
▁걸릴	-5105
▁게으	-5106
▁경륜	-5107
▁계획	-5108
▁고쳐	-5109
▁곳과	-5110
▁공급	-5111
▁공사	-5112
▁공심	-5113
▁공은	-5114
▁공헌	-5115
▁과도	-5116
▁관변	-5117
▁교가	-5118
▁구일	-5119
▁군색	-5120
▁권리	-5121
▁귀의	-5122
▁귀히	-5123
▁그도	-5124
▁근동	-5125
▁근래	-5126
▁근실	-5127
▁글을	-5128
▁금전	-5129
▁기간	-5130
▁기계	-5131
▁기록	-5132
▁기뻐	-5133
▁기차	-5134
▁길들	-5135
▁길로	-5136
▁길은	-5137
▁길흉	-5138
▁깊고	-5139
▁깨친	-5140
▁꿈꾸	-5141
▁끌릴	-5142
▁낙도	-5143
▁낙망	-5144
▁난행	-5145
▁날에	-5146
▁내고	-5147
▁너는	-5148
▁노동	-5149
▁노래	-5150
▁노송	-5151
▁놀라	-5152
▁높고	-5153
▁눈과	-5154
▁눈이	-5155
▁뉘우	-5156
▁닦을	-5157
▁단속	-5158
▁달마	-5159
▁달성	-5160
▁달은	-5161
▁담화	-5162
▁당대	-5163
▁대법	-5164
▁대운	-5165
▁대저	-5166
▁대지	-5167
▁도성	-5168
▁도요	-5169
▁독서	-5170
▁독한	-5171
▁돈오	-5172
▁돌이	-5173
▁동리	-5174
▁동학	-5175
▁되겠	-5176
▁되나	-5177
▁되니	-5178
▁둘러	-5179
▁뒷날	-5180
▁들게	-5181
▁때문	-5182
▁마는	-5183
▁만났	-5184
▁만든	-5185
▁만법	-5186
▁만엽	-5187
▁말세	-5188
▁망녕	-5189
▁맞는	-5190
▁맡겨	-5191
▁매년	-5192
▁먹는	-5193
▁며칠	-5194
▁명랑	-5195
▁모름	-5196
▁모인	-5197
▁몰아	-5198
▁몸의	-5199
▁묘방	-5200
▁묘유	-5201
▁무간	-5202
▁무극	-5203
▁무난	-5204
▁무너	-5205
▁무료	-5206
▁묵상	-5207
▁문답	-5208
▁문에	-5209
▁문의	-5210
▁묻어	-5211
▁미신	-5212
▁미치	-5213
▁미한	-5214
▁민족	-5215
▁믿어	-5216
▁믿음	-5217
▁바도	-5218
▁바퀴	-5219
▁박고	-5220
▁받기	-5221
▁밝고	-5222
▁밝힌	-5223
▁밟게	-5224
▁밟는	-5225
▁방금	-5226
▁방종	-5227
▁방탕	-5228
▁번씩	-5229
▁벌을	-5230
▁범과	-5231
▁법사	-5232
▁베푸	-5233
▁변동	-5234
▁변론	-5235
▁변함	-5236
▁병법	-5237
▁보낸	-5238
▁보던	-5239
▁보람	-5240
▁보전	-5241
▁보험	-5242
▁복락	-5243
▁복종	-5244
▁본사	-5245
▁봉안	-5246
▁뵈온	-5247
▁부촉	-5248
▁분간	-5249
▁분한	-5250
▁분항	-5251
▁불구	-5252
▁불사	-5253
▁불신	-5254
▁불편	-5255
▁불화	-5256
▁비가	-5257
▁비결	-5258
▁비교	-5259
▁비난	-5260
▁비는	-5261
▁비웃	-5262
▁빠짐	-5263
▁뿌리	-5264
▁사대	-5265
▁사량	-5266
▁사상	-5267
▁사서	-5268
▁사양	-5269
▁사요	-5270
▁사제	-5271
▁산돼	-5272
▁산은	-5273
▁산의	-5274
▁살며	-5275
▁살생	-5276
▁삼강	-5277
▁삼라	-5278
▁상봉	-5279
▁상종	-5280
▁상황	-5281
▁색색	-5282
▁생명	-5283
▁생생	-5284
▁생전	-5285
▁서가	-5286
▁서북	-5287
▁서서	-5288
▁선과	-5289
▁선사	-5290
▁선은	-5291
▁선의	-5292
▁선이	-5293
▁선전	-5294
▁선행	-5295
▁선후	-5296
▁설치	-5297
▁설한	-5298
▁성안	-5299
▁세도	-5300
▁소는	-5301
▁소승	-5302
▁소의	-5303
▁쇠를	-5304
▁수고	-5305
▁수는	-5306
▁수라	-5307
▁수십	-5308
▁수천	-5309
▁술이	-5310
▁숨은	-5311
▁시켜	-5312
▁시탕	-5313
▁시행	-5314
▁식구	-5315
▁식당	-5316
▁식을	-5317
▁식이	-5318
▁신이	-5319
▁신흥	-5320
▁실은	-5321
▁실적	-5322
▁심인	-5323
▁심지	-5324
▁싸인	-5325
▁싹이	-5326
▁쌓을	-5327
▁쓸데	-5328
▁씨를	-5329
▁아끼	-5330
▁아만	-5331
▁악의	-5332
▁안의	-5333
▁앉아	-5334
▁알겠	-5335
▁압박	-5336
▁양심	-5337
▁어서	-5338
▁어지	-5339
▁어진	-5340
▁얻었	-5341
▁엄부	-5342
▁업은	-5343
▁업이	-5344
▁역력	-5345
▁연락	-5346
▁열린	-5347
▁열릴	-5348
▁염치	-5349
▁영구	-5350
▁영근	-5351
▁영도	-5352
▁영을	-5353
▁영이	-5354
▁영접	-5355
▁오게	-5356
▁오득	-5357
▁오욕	-5358
▁옳게	-5359
▁옳고	-5360
▁옳을	-5361
▁외에	-5362
▁외학	-5363
▁용납	-5364
▁원적	-5365
▁위력	-5366
▁위험	-5367
▁유상	-5368
▁유와	-5369
▁유혹	-5370
▁융통	-5371
▁음부	-5372
▁음양	-5373
▁의논	-5374
▁의복	-5375
▁의세	-5376
▁이의	-5377
▁인가	-5378
▁인내	-5379
▁인상	-5380
▁인심	-5381
▁인의	-5382
▁일꾼	-5383
▁일생	-5384
▁일성	-5385
▁일찍	-5386
▁입혔	-5387
▁있은	-5388
▁잊고	-5389
▁잊지	-5390
▁자고	-5391
▁자모	-5392
▁자본	-5393
▁자존	-5394
▁자포	-5395
▁잘된	-5396
▁잠시	-5397
▁잡념	-5398
▁잡았	-5399
▁장려	-5400
▁장마	-5401
▁장양	-5402
▁저도	-5403
▁적벽	-5404
▁적절	-5405
▁점진	-5406
▁점차	-5407
▁정과	-5408
▁정남	-5409
▁정업	-5410
▁정토	-5411
▁정한	-5412
▁제조	-5413
▁제출	-5414
▁조선	-5415
▁존모	-5416
▁존속	-5417
▁좁은	-5418
▁종류	-5419
▁종이	-5420
▁좋고	-5421
▁죄도	-5422
▁주해	-5423
▁중지	-5424
▁중한	-5425
▁증산	-5426
▁지남	-5427
▁지자	-5428
▁지정	-5429
▁지켜	-5430
▁진공	-5431
▁진대	-5432
▁진열	-5433
▁진화	-5434
▁차려	-5435
▁차를	-5436
▁착수	-5437
▁착이	-5438
▁창조	-5439
▁찾게	-5440
▁채포	-5441
▁책망	-5442
▁챙겨	-5443
▁처사	-5444
▁천리	-5445
▁천주	-5446
▁철석	-5447
▁청풍	-5448
▁초목	-5449
▁초범	-5450
▁초조	-5451
▁출석	-5452
▁출역	-5453
▁출품	-5454
▁출현	-5455
▁친애	-5456
▁친척	-5457
▁침노	-5458
▁침이	-5459
▁크다	-5460
▁타일	-5461
▁탈선	-5462
▁탐심	-5463
▁탐욕	-5464
▁태연	-5465
▁투철	-5466
▁파멸	-5467
▁판이	-5468
▁편만	-5469
▁편을	-5470
▁편협	-5471
▁평생	-5472
▁평안	-5473
▁폐단	-5474
▁포함	-5475
▁표창	-5476
▁풍부	-5477
▁풍속	-5478
▁하사	-5479
▁학습	-5480
▁한한	-5481
▁합한	-5482
▁해야	-5483
▁행사	-5484
▁행적	-5485
▁허송	-5486
▁허실	-5487
▁혈심	-5488
▁형형	-5489
▁혜두	-5490
▁화를	-5491
▁화복	-5492
▁화재	-5493
▁회화	-5494
▁훼방	-5495
▁흉을	-5496
▁힘에	-5497
▁힘은	-5498
無時禪	-5499
계에서	-5500
관에는	-5501
그렇게	-5502
근래에	-5503
는가를	-5504
되리라	-5505
리라는	-5506
리시는	-5507
리하여	-5508
마음이	-5509
묵하여	-5510
물질의	-5511
벼락을	-5512
속하게	-5513
스러운	-5514
스럽게	-5515
시므로	-5516
아야만	-5517
아지고	-5518
어떻게	-5519
어진다	-5520
었나니	-5521
에게는	-5522
우리는	-5523
으로도	-5524
으시고	-5525
으오나	-5526
인지라	-5527
일진대	-5528
정하여	-5529
질하는	-5530
참으로	-5531
출가위	-5532
파하고	-5533
하고자	-5534
하다고	-5535
하다는	-5536
하더라	-5537
하려고	-5538
하루는	-5539
하시되	-5540
하시어	-5541
하심을	-5542
하여질	-5543
함이니	-5544
(194	-5545
▁46.	-5546
▁47.	-5547
▁가까와	-5548
▁가나니	-5549
▁가다가	-5550
▁가르쳤	-5551
▁가르침	-5552
▁가리키	-5553
▁가마귀	-5554
▁가벼워	-5555
▁가시사	-5556
▁가을에	-5557
▁가져서	-5558
▁가지게	-5559
▁가지는	-5560
▁가지지	-5561
▁각성이	-5562
▁각자가	-5563
▁간격이	-5564
▁간석지	-5565
▁갈수록	-5566
▁감상을	-5567
▁강연히	-5568
▁강자로	-5569
▁개인과	-5570
▁개인이	-5571
▁거래가	-5572
▁거래와	-5573
▁건설된	-5574
▁걸리고	-5575
▁겁래에	-5576
▁것이냐	-5577
▁견성한	-5578
▁결정을	-5579
▁결정한	-5580
▁경계가	-5581
▁경우가	-5582
▁경우와	-5583
▁경지를	-5584
▁경편차	-5585
▁계문에	-5586
▁계시며	-5587
▁고락과	-5588
▁고생을	-5589
▁고역을	-5590
▁고집을	-5591
▁고행을	-5592
▁고혈마	-5593
▁곤란을	-5594
▁공덕과	-5595
▁공덕도	-5596
▁공덕에	-5597
▁공덕의	-5598
▁공도에	-5599
▁공력을	-5600
▁공부나	-5601
▁공부요	-5602
▁공부할	-5603
▁공사를	-5604
▁공양을	-5605
▁공연한	-5606
▁공이요	-5607
▁공중의	-5608
▁과목은	-5609
▁과실을	-5610
▁관계는	-5611
▁광경을	-5612
▁괴롭게	-5613
▁교리를	-5614
▁교법을	-5615
▁교육에	-5616
▁교환할	-5617
▁구경에	-5618
▁구름이	-5619
▁국가가	-5620
▁국한이	-5621
▁귀중한	-5622
▁귀천이	-5623
▁귀하의	-5624
▁그대도	-5625
▁그들을	-5626
▁그런가	-5627
▁그에게	-5628
▁극진히	-5629
▁근기에	-5630
▁금생에	-5631
▁급이요	-5632
▁기념할	-5633
▁기러기	-5634
▁기술을	-5635
▁기술이	-5636
▁길러서	-5637
▁길룡리	-5638
▁깨닫는	-5639
▁깨치게	-5640
▁깨치면	-5641
▁꺼리어	-5642
▁꾸준한	-5643
▁꾸짖어	-5644
▁끊임이	-5645
▁나라와	-5646
▁나라의	-5647
▁나서서	-5648
▁나오면	-5649
▁나타낸	-5650
▁나팔이	-5651
▁낙원의	-5652
▁남이나	-5653
▁남천이	-5654
▁낱낱이	-5655
▁내리게	-5656
▁내지도	-5657
▁노력이	-5658
▁노력한	-5659
▁노력할	-5660
▁노소와	-5661
▁노승이	-5662
▁농사에	-5663
▁놓았다	-5664
▁눈물을	-5665
▁능력을	-5666
▁다니는	-5667
▁다르고	-5668
▁다생에	-5669
▁다스려	-5670
▁단련이	-5671
▁단련한	-5672
▁단전주	-5673
▁답답한	-5674
▁당시에	-5675
▁당시의	-5676
▁당하고	-5677
▁당하기	-5678
▁대개는	-5679
▁대도가	-5680
▁대도는	-5681
▁대사를	-5682
▁대원이	-5683
▁대중과	-5684
▁대하라	-5685
▁더하게	-5686
▁더하여	-5687
▁덕이라	-5688
▁데에만	-5689
▁데에서	-5690
▁도덕에	-5691
▁도덕은	-5692
▁도량을	-5693
▁도량이	-5694
▁도력이	-5695
▁도무지	-5696
▁도인도	-5697
▁도인을	-5698
▁도저히	-5699
▁도중에	-5700
▁돌리고	-5701
▁돌아갈	-5702
▁동하는	-5703
▁되었다	-5704
▁두렵지	-5705
▁드러난	-5706
▁드러날	-5707
▁들으니	-5708
▁들이는	-5709
▁듯하나	-5710
▁듯하니	-5711
▁따로이	-5712
▁따르는	-5713
▁때때로	-5714
▁때마침	-5715
▁때이나	-5716
▁떠나는	-5717
▁떨어져	-5718
▁떨어질	-5719
▁막힘이	-5720
▁만나면	-5721
▁만나서	-5722
▁만들기	-5723
▁만들며	-5724
▁만물은	-5725
▁만족한	-5726
▁많아서	-5727
▁말아서	-5728
▁말아야	-5729
▁말이니	-5730
▁말자는	-5731
▁말하는	-5732
▁맞추어	-5733
▁머무르	-5734
▁먹이는	-5735
▁명상이	-5736
▁명함을	-5737
▁모르나	-5738
▁모양은	-5739
▁목적이	-5740
▁못하나	-5741
▁무게가	-5742
▁무념할	-5743
▁무루의	-5744
▁무수히	-5745
▁무식한	-5746
▁무용한	-5747
▁묻기를	-5748
▁물질에	-5749
▁물질이	-5750
▁물질적	-5751
▁물품도	-5752
▁미래를	-5753
▁미래의	-5754
▁미움을	-5755
▁미워할	-5756
▁바뀌는	-5757
▁바라고	-5758
▁바루고	-5759
▁바이라	-5760
▁바치는	-5761
▁받기가	-5762
▁받들고	-5763
▁받으며	-5764
▁발심을	-5765
▁발심이	-5766
▁발원을	-5767
▁발전을	-5768
▁방면에	-5769
▁방해가	-5770
▁버리면	-5771
▁번뇌를	-5772
▁범부는	-5773
▁범부와	-5774
▁범하고	-5775
▁법계가	-5776
▁법률에	-5777
▁법사의	-5778
▁변태와	-5779
▁변하며	-5780
▁별다른	-5781
▁병자가	-5782
▁보감을	-5783
▁보기로	-5784
▁보다가	-5785
▁보시를	-5786
▁보이는	-5787
▁보호를	-5788
▁본말과	-5789
▁본분을	-5790
▁본사로	-5791
▁본의는	-5792
▁뵈오면	-5793
▁부귀와	-5794
▁부분도	-5795
▁부족한	-5796
▁부처를	-5797
▁분들이	-5798
▁분명히	-5799
▁불교를	-5800
▁불교의	-5801
▁불법에	-5802
▁불조의	-5803
▁비밀을	-5804
▁비치고	-5805
▁비치는	-5806
▁빼앗기	-5807
▁사가로	-5808
▁사나운	-5809
▁사랑을	-5810
▁사실에	-5811
▁사심을	-5812
▁사업과	-5813
▁사업이	-5814
▁사유를	-5815
▁사항은	-5816
▁산란한	-5817
▁산업부	-5818
▁살림이	-5819
▁살므로	-5820
▁살생을	-5821
▁살피지	-5822
▁삼계가	-5823
▁삼계의	-5824
▁삼기도	-5825
▁삼나니	-5826
▁삼세의	-5827
▁삼으라	-5828
▁상하게	-5829
▁색신을	-5830
▁생각한	-5831
▁생사라	-5832
▁생활과	-5833
▁생활은	-5834
▁선생님	-5835
▁선생은	-5836
▁선생이	-5837
▁선악간	-5838
▁선업을	-5839
▁선원은	-5840
▁설법도	-5841
▁설법을	-5842
▁설하여	-5843
▁섭섭한	-5844
▁성과를	-5845
▁성현의	-5846
▁세계적	-5847
▁세우자	-5848
▁세워서	-5849
▁세월을	-5850
▁소용이	-5851
▁소지가	-5852
▁속에서	-5853
▁손가락	-5854
▁송경을	-5855
▁수레가	-5856
▁수행도	-5857
▁수행에	-5858
▁수행을	-5859
▁순리로	-5860
▁순전히	-5861
▁숭배는	-5862
▁숭배의	-5863
▁승려와	-5864
▁시기를	-5865
▁시끄러	-5866
▁시대와	-5867
▁시비는	-5868
▁시일에	-5869
▁시험에	-5870
▁식이며	-5871
▁신기한	-5872
▁신성이	-5873
▁신앙이	-5874
▁신이요	-5875
▁신자의	-5876
▁신통을	-5877
▁실패를	-5878
▁실행할	-5879
▁심지가	-5880
▁십계문	-5881
▁쌓아야	-5882
▁쓰므로	-5883
▁아님이	-5884
▁아래에	-5885
▁아름다	-5886
▁아이를	-5887
▁아침에	-5888
▁안락한	-5889
▁않나니	-5890
▁알뜰한	-5891
▁알으신	-5892
▁알자는	-5893
▁애착과	-5894
▁약자는	-5895
▁약자를	-5896
▁양심에	-5897
▁어긋난	-5898
▁어둡고	-5899
▁어디서	-5900
▁어디에	-5901
▁어른이	-5902
▁어린이	-5903
▁언어도	-5904
▁얻기를	-5905
▁얻었다	-5906
▁엄중히	-5907
▁없거나	-5908
▁없애고	-5909
▁없으니	-5910
▁없으시	-5911
▁없으신	-5912
▁없을지	-5913
▁여실히	-5914
▁여전히	-5915
▁여하를	-5916
▁연하여	-5917
▁열리게	-5918
▁열리는	-5919
▁열반이	-5920
▁염불을	-5921
▁영식이	-5922
▁영화를	-5923
▁옛날에	-5924
▁오르고	-5925
▁온전히	-5926
▁올리면	-5927
▁올챙이	-5928
▁완철이	-5929
▁왕왕이	-5930
▁욕심은	-5931
▁원래에	-5932
▁원만히	-5933
▁원수를	-5934
▁원이요	-5935
▁원인은	-5936
▁원하나	-5937
▁위력과	-5938
▁유념할	-5939
▁유명한	-5940
▁유무식	-5941
▁유무에	-5942
▁육신과	-5943
▁윤회를	-5944
▁은밀한	-5945
▁응용할	-5946
▁의뢰를	-5947
▁의복을	-5948
▁이기지	-5949
▁이롭게	-5950
▁이르러	-5951
▁이르면	-5952
▁이름은	-5953
▁이름을	-5954
▁이름이	-5955
▁이상한	-5956
▁이유를	-5957
▁이타로	-5958
▁인격도	-5959
▁인공을	-5960
▁인연에	-5961
▁인품을	-5962
▁일각도	-5963
▁일기는	-5964
▁일기법	-5965
▁일념의	-5966
▁일반의	-5967
▁일성이	-5968
▁일원과	-5969
▁일원을	-5970
▁일월에	-5971
▁일이면	-5972
▁일제히	-5973
▁있느냐	-5974
▁있도록	-5975
▁있든지	-5976
▁자녀로	-5977
▁자라나	-5978
▁자손이	-5979
▁자연한	-5980
▁자연화	-5981
▁자유가	-5982
▁작용의	-5983
▁잘되고	-5984
▁잘못은	-5985
▁잘못한	-5986
▁잡념이	-5987
▁재미를	-5988
▁재앙이	-5989
▁재철이	-5990
▁저에게	-5991
▁전도를	-5992
▁전도에	-5993
▁전생에	-5994
▁전하는	-5995
▁접응할	-5996
▁정각을	-5997
▁정결한	-5998
▁정력을	-5999
▁정법에	-6000
▁정법을	-6001
▁정법의	-6002
▁정부나	-6003
▁정사로	-6004
▁정성과	-6005
▁정의에	-6006
▁정이며	-6007
▁제도와	-6008
▁제자만	-6009
▁제초를	-6010
▁조건이	-6011
▁조금만	-6012
▁조목과	-6013
▁조물주	-6014
▁종교는	-6015
▁종교를	-6016
▁좋아만	-6017
▁좋으나	-6018
▁좋을까	-6019
▁죄고에	-6020
▁죄고의	-6021
▁죄복과	-6022
▁죄복이	-6023
▁죄악을	-6024
▁주견을	-6025
▁주문을	-6026
▁주소서	-6027
▁주시는	-6028
▁주시니	-6029
▁주시며	-6030
▁주어서	-6031
▁주장할	-6032
▁죽으면	-6033
▁준비할	-6034
▁중근의	-6035
▁중추의	-6036
▁즐거운	-6037
▁증거는	-6038
▁지도를	-6039
▁지방에	-6040
▁지식과	-6041
▁지옥에	-6042
▁지위가	-6043
▁지출을	-6044
▁지행을	-6045
▁지혜와	-6046
▁직업은	-6047
▁진강급	-6048
▁질서를	-6049
▁차등이	-6050
▁차라리	-6051
▁착심에	-6052
▁착심이	-6053
▁참되고	-6054
▁창생을	-6055
▁처하여	-6056
▁철저한	-6057
▁체받게	-6058
▁초학자	-6059
▁최후의	-6060
▁출가한	-6061
▁취미를	-6062
▁취사는	-6063
▁취하지	-6064
▁치료는	-6065
▁태도로	-6066
▁태양이	-6067
▁트집이	-6068
▁틀림이	-6069
▁편리한	-6070
▁평생에	-6071
▁평탄한	-6072
▁평화를	-6073
▁폐단을	-6074
▁폐물이	-6075
▁포수가	-6076
▁표준이	-6077
▁피하고	-6078
▁피하여	-6079
▁필요가	-6080
▁하거나	-6081
▁하려면	-6082
▁하므로	-6083
▁하셨다	-6084
▁하시는	-6085
▁한결같	-6086
▁합력이	-6087
▁항마위	-6088
▁해독을	-6089
▁해독이	-6090
▁해로운	-6091
▁행하라	-6092
▁향하여	-6093
▁허망한	-6094
▁헛되이	-6095
▁형상을	-6096
▁혜광을	-6097
▁혜광이	-6098
▁혜복의	-6099
▁혜택을	-6100
▁호주의	-6101
▁호흡을	-6102
▁화두와	-6103
▁화하여	-6104
▁활동을	-6105
▁회상에	-6106
▁회상은	-6107
▁후생에	-6108
▁훌륭한	-6109
▁흐르지	-6110
▁흔연히	-6111
▁힘쓰라	-6112
事事佛供	-6113
無爲而化	-6114
處處佛像	-6115
陰陽相勝	-6116
靈肉雙全	-6117
김으로써	-6118
년기에는	-6119
력으로도	-6120
리지마는	-6121
부처님의	-6122
사오리까	-6123
선생님의	-6124
수도인이	-6125
예로부터	-6126
을지라도	-6127
음이니라	-6128
인이라도	-6129
일원상을	-6130
전무출신	-6131
하기로만	-6132
하면서도	-6133
하시다가	-6134
하여지는	-6135
하였더니	-6136
하였으니	-6137
할지언정	-6138
▁가나이다	-6139
▁가라앉고	-6140
▁가르쳐서	-6141
▁가르치지	-6142
▁가르침을	-6143
▁가면서도	-6144
▁가져다가	-6145
▁가지라도	-6146
▁가진다면	-6147
▁감사하고	-6148
▁감사하는	-6149
▁개인에게	-6150
▁개척하여	-6151
▁거름하는	-6152
▁결함됨이	-6153
▁경계하고	-6154
▁경영하는	-6155
▁경전으로	-6156
▁경전이라	-6157
▁계발하는	-6158
▁계속하는	-6159
▁계시다가	-6160
▁공도자가	-6161
▁공부법이	-6162
▁공부인은	-6163
▁공사에만	-6164
▁공익심이	-6165
▁과거에도	-6166
▁과목으로	-6167
▁괴로움이	-6168
▁교당에서	-6169
▁교당으로	-6170
▁구분하는	-6171
▁그르침이	-6172
▁그리하면	-6173
▁그리하여	-6174
▁근원하여	-6175
▁길들이는	-6176
▁깨끗하지	-6177
▁깨달음이	-6178
▁나아가면	-6179
▁나타내는	-6180
▁남용하여	-6181
▁내리시며	-6182
▁다르나니	-6183
▁단련하는	-6184
▁단원들이	-6185
▁당하든지	-6186
▁당하여도	-6187
▁대조하고	-6188
▁대하거나	-6189
▁도와주고	-6190
▁돌아오게	-6191
▁동남풍의	-6192
▁동작하는	-6193
▁되었는데	-6194
▁드러나고	-6195
▁드러나는	-6196
▁만들고자	-6197
▁만엽으로	-6198
▁모르는가	-6199
▁모른다면	-6200
▁못하거늘	-6201
▁못하면서	-6202
▁무시하고	-6203
▁무엇인가	-6204
▁무위이화	-6205
▁무자력할	-6206
▁묻자오매	-6207
▁물건이나	-6208
▁물었더니	-6209
▁바느질을	-6210
▁박멸하려	-6211
▁발견하지	-6212
▁밝아져서	-6213
▁방법이니	-6214
▁방지하고	-6215
▁법률에게	-6216
▁법률에서	-6217
▁법신불을	-6218
▁병진하여	-6219
▁보나니라	-6220
▁보아다가	-6221
▁보조하는	-6222
▁복잡하고	-6223
▁본분이라	-6224
▁부족하면	-6225
▁부처니라	-6226
▁부합시켜	-6227
▁불고하고	-6228
▁불러들이	-6229
▁불법으로	-6230
▁불상에게	-6231
▁불합리한	-6232
▁비롯하여	-6233
▁사람같이	-6234
▁사람들도	-6235
▁사람보다	-6236
▁사랑하고	-6237
▁사용하지	-6238
▁사회에서	-6239
▁살면서도	-6240
▁상상하지	-6241
▁선량하여	-6242
▁선지식의	-6243
▁설법하실	-6244
▁성공하는	-6245
▁세상이라	-6246
▁소유하는	-6247
▁수도하는	-6248
▁수양력이	-6249
▁수양이라	-6250
▁수행하는	-6251
▁수행하여	-6252
▁순환하는	-6253
▁숭배하는	-6254
▁숭배함을	-6255
▁쉬우리라	-6256
▁스승이나	-6257
▁시간에는	-6258
▁시작하여	-6259
▁신앙처를	-6260
▁신자들이	-6261
▁실행하여	-6262
▁실효과를	-6263
▁아니한가	-6264
▁아니함이	-6265
▁아무쪼록	-6266
▁아이에게	-6267
▁안심하고	-6268
▁않사오니	-6269
▁알겠는가	-6270
▁알면서도	-6271
▁알아듣고	-6272
▁알아지는	-6273
▁어렵나니	-6274
▁억압하고	-6275
▁얻으리요	-6276
▁없나이다	-6277
▁없사오니	-6278
▁없어서는	-6279
▁없어지지	-6280
▁없지마는	-6281
▁연고이니	-6282
▁연구력을	-6283
▁연마하고	-6284
▁영광에서	-6285
▁영산에서	-6286
▁예회에서	-6287
▁오나니라	-6288
▁유람하고	-6289
▁응감지위	-6290
▁응용하는	-6291
▁의식이나	-6292
▁의심나는	-6293
▁이르기를	-6294
▁이르시되	-6295
▁이상에는	-6296
▁이용하고	-6297
▁인도하려	-6298
▁일기법을	-6299
▁일념으로	-6300
▁일어나서	-6301
▁일이거든	-6302
▁있거니와	-6303
▁있건마는	-6304
▁있사온데	-6305
▁있었다면	-6306
▁자신이나	-6307
▁전력하라	-6308
▁정당하지	-6309
▁제도하기	-6310
▁제자들의	-6311
▁조사하여	-6312
▁조심하여	-6313
▁존엄하신	-6314
▁좋아하며	-6315
▁주의하여	-6316
▁주인이요	-6317
▁주저하지	-6318
▁준비하여	-6319
▁중생들은	-6320
▁지내다가	-6321
▁지도인의	-6322
▁지도자가	-6323
▁창립하는	-6324
▁처지에서	-6325
▁천지에게	-6326
▁초월하는	-6327
▁출현하여	-6328
▁충분하지	-6329
▁치료하게	-6330
▁치성하여	-6331
▁친척이나	-6332
▁타락하여	-6333
▁탁태되는	-6334
▁통합하여	-6335
▁판단하여	-6336
▁편안하고	-6337
▁표본으로	-6338
▁하감지위	-6339
▁하겠다고	-6340
▁하셨으나	-6341
▁하였는가	-6342
▁한가롭고	-6343
▁한결같이	-6344
▁한다든지	-6345
▁항마위에	-6346
▁해결하여	-6347
▁화합하게	-6348
▁활발하게	-6349
▁회상이라	-6350
▁훈련법은	-6351
▁흔들리는	-6352
▁흔들리지	-6353
▁흩어지는	-6354
하시나니라	-6355
▁가운데에도	-6356
▁개선하기로	-6357
▁공부인으로	-6358
▁그러하오나	-6359
▁나오나니라	-6360
▁나타나나니	-6361
▁돌아오시어	-6362
▁되었나니라	-6363
▁되었다든지	-6364
▁되었으므로	-6365
▁두려워하는	-6366
▁뜻이오니까	-6367
▁못하나이다	-6368
▁못하였으며	-6369
▁무엇이든지	-6370
▁방법이니라	-6371
▁부처님으로	-6372
▁분분하오니	-6373
▁사람사람이	-6374
▁사람이라면	-6375
▁사실적으로	-6376
▁사용하여야	-6377
▁생각하는가	-6378
▁생각한다면	-6379
▁아니오니까	-6380
▁안정시키고	-6381
▁않겠나이까	-6382
▁알으셨으며	-6383
▁알음알이를	-6384
▁양성하자는	-6385
▁없었나니라	-6386
▁연습하기를	-6387
▁올리는지라	-6388
▁이르기까지	-6389
▁잊어버리고	-6390
▁점진적으로	-6391
▁조심하여야	-6392
▁좋아하나니	-6393
▁주체삼아서	-6394
▁진행시키는	-6395
▁하시는지라	-6396
▁하였나이다	-6397
▁화하나니라	-6398
▁그러하나이까	-6399
▁그러하오니까	-6400
▁단련하여서는	-6401
▁대종사께서는	-6402
▁아니하나니라	-6403
▁아니하였나니	-6404
▁아니하였으나	-6405
▁원동력이니라	-6406
▁채찍질하여야	-6407
▁허다하나니라	-6408
(?	-6409
10	-6410
11	-6411
12	-6412
13	-6413
14	-6414
15	-6415
3)	-6416
?)	-6417
▁(	-6418
▁7	-6419
▁明	-6420
▁굉	-6421
▁껍	-6422
▁꾀	-6423
▁꿩	-6424
▁끄	-6425
▁끓	-6426
▁났	-6427
▁넷	-6428
▁늦	-6429
▁닭	-6430
▁덥	-6431
▁돕	-6432
▁돼	-6433
▁딸	-6434
▁땀	-6435
▁뜯	-6436
▁몽	-6437
▁밀	-6438
▁삭	-6439
▁샐	-6440
▁섞	-6441
▁섬	-6442
▁셈	-6443
▁숲	-6444
▁쉴	-6445
▁쌀	-6446
▁앎	-6447
▁엎	-6448
▁엷	-6449
▁옆	-6450
▁옥	-6451
▁움	-6452
▁웅	-6453
▁읊	-6454
▁즈	-6455
▁짖	-6456
▁쳐	-6457
▁켜	-6458
▁클	-6459
▁큼	-6460
▁탕	-6461
▁털	-6462
▁티	-6463
▁퍼	-6464
▁헒	-6465
▁흰	-6466
一切	-6467
一如	-6468
三大	-6469
三寶	-6470
下心	-6471
不及	-6472
世道	-6473
事理	-6474
事項	-6475
以小	-6476
住壞	-6477
何處	-6478
佛恩	-6479
佛祖	-6480
例會	-6481
修身	-6482
倫氣	-6483
先進	-6484
光旋	-6485
入定	-6486
公物	-6487
公衆	-6488
公道	-6489
其利	-6490
其功	-6491
其義	-6492
其道	-6493
具足	-6494
出家	-6495
化身	-6496
十方	-6497
受用	-6498
吳昌	-6499
▁찢	-6500
▁팥	-6501
▁협	-6502
▁흡	-6503
呼風	-6504
喚雨	-6505
嚴敎	-6506
四大	-6507
四恩	-6508
四條	-6509
四相	-6510
回身	-6511
因緣	-6512
圓融	-6513
地獄	-6514
塵世	-6515
外學	-6516
外知	-6517
大小	-6518
大悲	-6519
大慈	-6520
大衆	-6521
大運	-6522
天下	-6523
天人	-6524
天業	-6525
天權	-6526
天理	-6527
天眞	-6528
天眼	-6529
天祿	-6530
太極	-6531
如如	-6532
如意	-6533
孔子	-6534
學人	-6535
安樂	-6536
定業	-6537
寂寂	-6538
實相	-6539
山渡	-6540
工夫	-6541
布施	-6542
干潟	-6543
幾千	-6544
心地	-6545
心眼	-6546
念佛	-6547
思量	-6548
性行	-6549
情誼	-6550
惺惺	-6551
愚者	-6552
成大	-6553
敎團	-6554
日月	-6555
旬旬	-6556
昇火	-6557
昭昭	-6558
會話	-6559
有情	-6560
有無	-6561
朝鮮	-6562
本師	-6563
李東	-6564
李載	-6565
東局	-6566
正傳	-6567
正心	-6568
正法	-6569
歸一	-6570
決定	-6571
法位	-6572
法語	-6573
法身	-6574
淸風	-6575
滅度	-6576
濟生	-6577
無漏	-6578
無無	-6579
無記	-6580
無量	-6581
獻貢	-6582
生於	-6583
生活	-6584
生焉	-6585
生相	-6586
看經	-6587
眞僞	-6588
眞如	-6589
着心	-6590
硏究	-6591
禪宗	-6592
禪定	-6593
私利	-6594
秘訣	-6595
空中	-6596
第一	-6597
精神	-6598
精舍	-6599
絶頂	-6600
背恩	-6601
自主	-6602
自利	-6603
自家	-6604
自性	-6605
萬法	-6606
蓬萊	-6607
薦度	-6608
血心	-6609
衣食	-6610
要法	-6611
解脫	-6612
退轉	-6613
逆理	-6614
道場	-6615
道家	-6616
醫世	-6617
開敎	-6618
降魔	-6619
陰助	-6620
陰府	-6621
霜雪	-6622
靈山	-6623
靈知	-6624
靈識	-6625
非非	-6626
風雲	-6627
齊家	-6628
각회	-6629
강경	-6630
개를	-6631
개월	-6632
개의	-6633
거니	-6634
겁고	-6635
결이	-6636
경도	-6637
경의	-6638
경인	-6639
경할	-6640
고가	-6641
고로	-6642
공중	-6643
관의	-6644
광겁	-6645
교는	-6646
교당	-6647
교와	-6648
교인	-6649
구나	-6650
국을	-6651
국의	-6652
궁을	-6653
귀일	-6654
그런	-6655
근래	-6656
금도	-6657
기려	-6658
기만	-6659
긴한	-6660
김이	-6661
까운	-6662
끼를	-6663
낌이	-6664
날이	-6665
남녀	-6666
남의	-6667
너희	-6668
놓고	-6669
단한	-6670
답을	-6671
당의	-6672
대력	-6673
대비	-6674
대할	-6675
더러	-6676
덕이	-6677
던가	-6678
덩어	-6679
도덕	-6680
돌아	-6681
동양	-6682
동학	-6683
동할	-6684
될까	-6685
됨에	-6686
득한	-6687
때에	-6688
라면	-6689
락의	-6690
래어	-6691
래와	-6692
량의	-6693
량한	-6694
러라	-6695
러러	-6696
럽고	-6697
렀다	-6698
려도	-6699
력도	-6700
례를	-6701
롭지	-6702
료도	-6703
룡산	-6704
리만	-6705
립된	-6706
말로	-6707
망한	-6708
명의	-6709
무념	-6710
무슨	-6711
무엇	-6712
문의	-6713
물쇠	-6714
물의	-6715
미가	-6716
미암	-6717
미타	-6718
민의	-6719
바퀴	-6720
받는	-6721
방금	-6722
방의	-6723
배를	-6724
백을	-6725
범부	-6726
법규	-6727
법에	-6728
변을	-6729
변이	-6730
별히	-6731
보나	-6732
보로	-6733
보를	-6734
보았	-6735
보이	-6736
보인	-6737
보화	-6738
복할	-6739
부부	-6740
불각	-6741
불법	-6742
불은	-6743
비한	-6744
사귀	-6745
사도	-6746
사은	-6747
산은	-6748
산이	-6749
삼세	-6750
삼조	-6751
색이	-6752
생과	-6753
생어	-6754
서도	-6755
석에	-6756
석을	-6757
설을	-6758
셨고	-6759
소천	-6760
솔의	-6761
송옥	-6762
쇠의	-6763
수로	-6764
수만	-6765
수성	-6766
수양	-6767
수와	-6768
쉬는	-6769
승과	-6770
시기	-6771
시라	-6772
시와	-6773
시요	-6774
식과	-6775
식할	-6776
신로	-6777
신여	-6778
악이	-6779
았고	-6780
애가	-6781
애에	-6782
야만	-6783
약이	-6784
어든	-6785
언할	-6786
업은	-6787
었던	-6788
여러	-6789
역에	-6790
연과	-6791
연의	-6792
연이	-6793
연중	-6794
옛날	-6795
오게	-6796
옵는	-6797
왕의	-6798
외가	-6799
용맹	-6800
움은	-6801
워할	-6802
원도	-6803
위는	-6804
위와	-6805
위의	-6806
유가	-6807
유로	-6808
이꾼	-6809
이성	-6810
이에	-6811
이여	-6812
이와	-6813
이제	-6814
인간	-6815
인지	-6816
임할	-6817
자니	-6818
자요	-6819
자인	-6820
작은	-6821
저도	-6822
저의	-6823
적인	-6824
절정	-6825
정각	-6826
정과	-6827
정기	-6828
정전	-6829
정처	-6830
제로	-6831
제일	-6832
제자	-6833
제할	-6834
조가	-6835
조사	-6836
조차	-6837
좋은	-6838
죄를	-6839
주나	-6840
주도	-6841
중의	-6842
중이	-6843
증을	-6844
지물	-6845
지출	-6846
진다	-6847
진리	-6848
진한	-6849
질이	-6850
차가	-6851
책을	-6852
처와	-6853
처음	-6854
천진	-6855
천하	-6856
철은	-6857
총부	-6858
추에	-6859
치려	-6860
침과	-6861
태여	-6862
택을	-6863
터워	-6864
토에	-6865
파들	-6866
판을	-6867
편의	-6868
평을	-6869
포에	-6870
표어	-6871
하를	-6872
하심	-6873
한한	-6874
해진	-6875
혀서	-6876
혁신	-6877
형제	-6878
형한	-6879
화가	-6880
화선	-6881
화의	-6882
효가	-6883
후를	-6884
훈을	-6885
히어	-6886
▁가니	-6887
▁가려	-6888
▁가볍	-6889
▁가섭	-6890
▁가슴	-6891
▁가외	-6892
▁가짐	-6893
▁간이	-6894
▁감당	-6895
▁감복	-6896
▁감을	-6897
▁강과	-6898
▁같을	-6899
▁26	-6900
▁갚는	-6901
▁개명	-6902
▁개의	-6903
▁거년	-6904
▁거룩	-6905
▁검은	-6906
▁결심	-6907
▁결제	-6908
▁경지	-6909
▁경책	-6910
▁경향	-6911
▁고기	-6912
▁고는	-6913
▁고르	-6914
▁고물	-6915
▁고요	-6916
▁곡출	-6917
▁공금	-6918
▁공물	-6919
▁공장	-6920
▁과를	-6921
▁과불	-6922
▁과실	-6923
▁과히	-6924
▁관찰	-6925
▁관통	-6926
▁괴롭	-6927
▁교는	-6928
▁교리	-6929
▁교운	-6930
▁구공	-6931
▁구름	-6932
▁구비	-6933
▁구세	-6934
▁구슬	-6935
▁구원	-6936
▁구전	-6937
▁구정	-6938
▁굳이	-6939
▁규는	-6940
▁그때	-6941
▁그림	-6942
▁그뿐	-6943
▁그저	-6944
▁근검	-6945
▁근엄	-6946
▁근처	-6947
▁글에	-6948
▁금년	-6949
▁금수	-6950
▁금이	-6951
▁기쁨	-6952
▁기억	-6953
▁기위	-6954
▁기특	-6955
▁기혈	-6956
▁길게	-6957
▁길도	-6958
▁끊고	-6959
▁끊지	-6960
▁끝내	-6961
▁끝마	-6962
▁끝을	-6963
▁나로	-6964
▁나선	-6965
▁나은	-6966
▁나중	-6967
▁나태	-6968
▁낙원	-6969
▁난리	-6970
▁날카	-6971
▁남도	-6972
▁내생	-6973
▁내어	-6974
▁내일	-6975
▁너도	-6976
▁넘치	-6977
▁넣어	-6978
▁노예	-6979
▁논평	-6980
▁논할	-6981
▁놀지	-6982
▁누진	-6983
▁늙고	-6984
▁능한	-6985
▁닦지	-6986
▁단촉	-6987
▁달사	-6988
▁당연	-6989
▁대거	-6990
▁대기	-6991
▁대략	-6992
▁대면	-6993
▁대어	-6994
▁대요	-6995
▁대치	-6996
▁대항	-6997
▁대호	-6998
▁더위	-6999
▁감동	-7000
▁감이	-7001
▁감천	-7002
▁거둘	-7003
▁거슬	-7004
▁계승	-7005
▁끝에	-7006
▁놓는	-7007
▁능란	-7008
▁답이	-7009
▁더한	-7010
▁데서	-7011
▁도만	-7012
▁도솔	-7013
▁도수	-7014
▁도원	-7015
▁도척	-7016
▁도탄	-7017
▁도화	-7018
▁돌로	-7019
▁동거	-7020
▁동국	-7021
▁동기	-7022
▁동문	-7023
▁동민	-7024
▁되매	-7025
▁되시	-7026
▁될꼬	-7027
▁두라	-7028
▁두신	-7029
▁두호	-7030
▁들로	-7031
▁등은	-7032
▁등잔	-7033
▁따른	-7034
▁땅을	-7035
▁때만	-7036
▁떼를	-7037
▁뜨면	-7038
▁마디	-7039
▁마련	-7040
▁마시	-7041
▁막는	-7042
▁만년	-7043
▁만능	-7044
▁만상	-7045
▁많지	-7046
▁말게	-7047
▁말단	-7048
▁말만	-7049
▁말해	-7050
▁맑고	-7051
▁맞이	-7052
▁매고	-7053
▁맺게	-7054
▁맺지	-7055
▁먹이	-7056
▁명리	-7057
▁명산	-7058
▁모래	-7059
▁모순	-7060
▁모으	-7061
▁모을	-7062
▁모진	-7063
▁모태	-7064
▁모함	-7065
▁몸만	-7066
▁무가	-7067
▁무군	-7068
▁무궁	-7069
▁무기	-7070
▁무는	-7071
▁무등	-7072
▁무례	-7073
▁무를	-7074
▁무부	-7075
▁무산	-7076
▁무애	-7077
▁무처	-7078
▁묵연	-7079
▁문이	-7080
▁물과	-7081
▁물었	-7082
▁물에	-7083
▁미칠	-7084
▁바깥	-7085
▁바꾸	-7086
▁바쁜	-7087
▁바요	-7088
▁바위	-7089
▁바친	-7090
▁반성	-7091
▁발명	-7092
▁밤을	-7093
▁방식	-7094
▁방에	-7095
▁방황	-7096
▁배가	-7097
▁배를	-7098
▁배웠	-7099
▁개교	-7100
▁개시	-7101
▁관람	-7102
▁관헌	-7103
▁깨어	-7104
▁깨칠	-7105
▁노소	-7106
▁노승	-7107
▁노인	-7108
▁단순	-7109
▁명부	-7110
▁반갑	-7111
▁반목	-7112
▁반복	-7113
▁번도	-7114
▁번만	-7115
▁번민	-7116
▁번에	-7117
▁번잡	-7118
▁범연	-7119
▁범한	-7120
▁법력	-7121
▁법박	-7122
▁벗을	-7123
▁벽조	-7124
▁변천	-7125
▁병에	-7126
▁병원	-7127
▁병환	-7128
▁보관	-7129
▁보나	-7130
▁보러	-7131
▁보며	-7132
▁보여	-7133
▁보주	-7134
▁복록	-7135
▁복은	-7136
▁복전	-7137
▁본가	-7138
▁본연	-7139
▁봄이	-7140
▁봉공	-7141
▁봉사	-7142
▁부근	-7143
▁부려	-7144
▁부리	-7145
▁부수	-7146
▁부안	-7147
▁부패	-7148
▁부호	-7149
▁분개	-7150
▁분과	-7151
▁분급	-7152
▁분을	-7153
▁분의	-7154
▁분쟁	-7155
▁불경	-7156
▁불도	-7157
▁불변	-7158
▁불생	-7159
▁불안	-7160
▁붓고	-7161
▁비명	-7162
▁비용	-7163
▁비쳐	-7164
▁비판	-7165
▁비할	-7166
▁비행	-7167
▁빚이	-7168
▁빠지	-7169
▁빨아	-7170
▁사귀	-7171
▁사마	-7172
▁사모	-7173
▁사원	-7174
▁사조	-7175
▁사참	-7176
▁사천	-7177
▁산이	-7178
▁살려	-7179
▁살이	-7180
▁삼명	-7181
▁삼켜	-7182
▁상쇄	-7183
▁상승	-7184
▁상은	-7185
▁상이	-7186
▁상좌	-7187
▁상통	-7188
▁새겨	-7189
▁생겼	-7190
▁생과	-7191
▁생긴	-7192
▁생육	-7193
▁생을	-7194
▁생이	-7195
▁생존	-7196
▁서늘	-7197
▁서야	-7198
▁서지	-7199
▁간경	-7200
▁간다	-7201
▁간절	-7202
▁넷은	-7203
▁드는	-7204
▁드문	-7205
▁등에	-7206
▁맞게	-7207
▁매어	-7208
▁버린	-7209
▁범을	-7210
▁산책	-7211
▁서투	-7212
▁선가	-7213
▁선법	-7214
▁선에	-7215
▁선종	-7216
▁선택	-7217
▁설혹	-7218
▁성심	-7219
▁성적	-7220
▁성한	-7221
▁성할	-7222
▁성행	-7223
▁세웠	-7224
▁소득	-7225
▁소요	-7226
▁소인	-7227
▁소천	-7228
▁소홀	-7229
▁속이	-7230
▁속인	-7231
▁속임	-7232
▁수만	-7233
▁수백	-7234
▁수선	-7235
▁수습	-7236
▁수와	-7237
▁수자	-7238
▁수족	-7239
▁수호	-7240
▁순리	-7241
▁순회	-7242
▁숨겨	-7243
▁스물	-7244
▁시끄	-7245
▁시사	-7246
▁시절	-7247
▁신년	-7248
▁신념	-7249
▁실시	-7250
▁실업	-7251
▁심교	-7252
▁심문	-7253
▁심법	-7254
▁심성	-7255
▁심안	-7256
▁심어	-7257
▁심은	-7258
▁쌓이	-7259
▁써도	-7260
▁쓰게	-7261
▁쓰나	-7262
▁쓰라	-7263
▁씨는	-7264
▁아껴	-7265
▁아상	-7266
▁악용	-7267
▁안녕	-7268
▁안일	-7269
▁안주	-7270
▁앉았	-7271
▁앉은	-7272
▁알되	-7273
▁알라	-7274
▁앎이	-7275
▁암담	-7276
▁앞두	-7277
▁앞서	-7278
▁애욕	-7279
▁애호	-7280
▁약재	-7281
▁양계	-7282
▁어둔	-7283
▁어둠	-7284
▁어렸	-7285
▁어루	-7286
▁어미	-7287
▁엄동	-7288
▁엄책	-7289
▁여가	-7290
▁여겨	-7291
▁여섯	-7292
▁여일	-7293
▁역사	-7294
▁연도	-7295
▁열쇠	-7296
▁염라	-7297
▁영과	-7298
▁영단	-7299
▁걸려	-7300
▁귀가	-7301
▁금을	-7302
▁금지	-7303
▁급속	-7304
▁낙에	-7305
▁낙은	-7306
▁년에	-7307
▁달구	-7308
▁달린	-7309
▁달을	-7310
▁달이	-7311
▁둘째	-7312
▁막심	-7313
▁몰랐	-7314
▁새끼	-7315
▁송암	-7316
▁쉬고	-7317
▁약이	-7318
▁약한	-7319
▁양이	-7320
▁영은	-7321
▁영지	-7322
▁영통	-7323
▁영화	-7324
▁옆에	-7325
▁오거	-7326
▁오라	-7327
▁오를	-7328
▁오름	-7329
▁올려	-7330
▁옷이	-7331
▁옹호	-7332
▁외게	-7333
▁외고	-7334
▁외국	-7335
▁외인	-7336
▁외지	-7337
▁요령	-7338
▁요약	-7339
▁용맹	-7340
▁우로	-7341
▁우습	-7342
▁우애	-7343
▁운행	-7344
▁울타	-7345
▁움이	-7346
▁원기	-7347
▁원리	-7348
▁원수	-7349
▁원융	-7350
▁원이	-7351
▁원진	-7352
▁월명	-7353
▁위는	-7354
▁위덕	-7355
▁위반	-7356
▁위생	-7357
▁위신	-7358
▁위요	-7359
▁위인	-7360
▁유교	-7361
▁유로	-7362
▁유를	-7363
▁유용	-7364
▁유의	-7365
▁유정	-7366
▁육년	-7367
▁육안	-7368
▁육조	-7369
▁육체	-7370
▁육통	-7371
▁윤기	-7372
▁은산	-7373
▁은현	-7374
▁응당	-7375
▁의사	-7376
▁의술	-7377
▁이도	-7378
▁이럴	-7379
▁이뤄	-7380
▁이백	-7381
▁이산	-7382
▁이왕	-7383
▁이욕	-7384
▁이참	-7385
▁익산	-7386
▁인륜	-7387
▁인색	-7388
▁인생	-7389
▁인정	-7390
▁일개	-7391
▁일관	-7392
▁일귀	-7393
▁일단	-7394
▁일동	-7395
▁일미	-7396
▁일일	-7397
▁일조	-7398
▁일지	-7399
▁견지	-7400
▁광선	-7401
▁너를	-7402
▁누릴	-7403
▁돈공	-7404
▁목숨	-7405
▁벌어	-7406
▁승강	-7407
▁쌓는	-7408
▁억만	-7409
▁역리	-7410
▁운이	-7411
▁일차	-7412
▁일천	-7413
▁일컬	-7414
▁읽을	-7415
▁입고	-7416
▁입는	-7417
▁입신	-7418
▁입어	-7419
▁입에	-7420
▁입힌	-7421
▁잎은	-7422
▁자가	-7423
▁자동	-7424
▁자랑	-7425
▁자립	-7426
▁자심	-7427
▁잘든	-7428
▁잘한	-7429
▁잠잘	-7430
▁잡은	-7431
▁잡을	-7432
▁장경	-7433
▁장벽	-7434
▁장을	-7435
▁재능	-7436
▁재와	-7437
▁재철	-7438
▁재촉	-7439
▁저와	-7440
▁적극	-7441
▁적을	-7442
▁적조	-7443
▁전권	-7444
▁전날	-7445
▁전능	-7446
▁전도	-7447
▁전법	-7448
▁전심	-7449
▁전의	-7450
▁전지	-7451
▁전통	-7452
▁젊은	-7453
▁점의	-7454
▁정금	-7455
▁정정	-7456
▁제공	-7457
▁제목	-7458
▁제외	-7459
▁제초	-7460
▁조복	-7461
▁조석	-7462
▁조성	-7463
▁조판	-7464
▁좋다	-7465
▁죄는	-7466
▁죄요	-7467
▁죄의	-7468
▁주니	-7469
▁주를	-7470
▁주실	-7471
▁주유	-7472
▁주재	-7473
▁주종	-7474
▁죽게	-7475
▁죽고	-7476
▁죽기	-7477
▁준칙	-7478
▁줄어	-7479
▁중앙	-7480
▁중음	-7481
▁중의	-7482
▁지경	-7483
▁지냈	-7484
▁지니	-7485
▁지량	-7486
▁지리	-7487
▁지붕	-7488
▁진세	-7489
▁진심	-7490
▁진여	-7491
▁진위	-7492
▁진작	-7493
▁진체	-7494
▁집도	-7495
▁집의	-7496
▁집주	-7497
▁집집	-7498
▁짓기	-7499
▁뜯어	-7500
▁망라	-7501
▁망할	-7502
▁박식	-7503
▁박해	-7504
▁봉양	-7505
▁송광	-7506
▁송아	-7507
▁용을	-7508
▁음이	-7509
▁음조	-7510
▁잃게	-7511
▁잃은	-7512
▁절대	-7513
▁차마	-7514
▁착된	-7515
▁착오	-7516
▁찬탄	-7517
▁찰나	-7518
▁참선	-7519
▁참아	-7520
▁참조	-7521
▁찾고	-7522
▁찾는	-7523
▁챙기	-7524
▁처결	-7525
▁처소	-7526
▁처처	-7527
▁천권	-7528
▁천명	-7529
▁천의	-7530
▁철벽	-7531
▁철환	-7532
▁청산	-7533
▁체가	-7534
▁체를	-7535
▁체성	-7536
▁최상	-7537
▁추진	-7538
▁출신	-7539
▁출중	-7540
▁충돌	-7541
▁취미	-7542
▁취할	-7543
▁치는	-7544
▁치며	-7545
▁친우	-7546
▁친절	-7547
▁칠불	-7548
▁칼을	-7549
▁커서	-7550
▁크신	-7551
▁타는	-7552
▁타이	-7553
▁태워	-7554
▁태중	-7555
▁털끝	-7556
▁토지	-7557
▁퇴전	-7558
▁특성	-7559
▁파서	-7560
▁팔조	-7561
▁패가	-7562
▁펴서	-7563
▁편은	-7564
▁편의	-7565
▁평론	-7566
▁평야	-7567
▁평을	-7568
▁폐물	-7569
▁하심	-7570
▁하와	-7571
▁학명	-7572
▁학인	-7573
▁한문	-7574
▁한시	-7575
▁함과	-7576
▁함을	-7577
▁함지	-7578
▁합치	-7579
▁항시	-7580
▁해당	-7581
▁해득	-7582
▁해의	-7583
▁행과	-7584
▁허덕	-7585
▁허령	-7586
▁허식	-7587
▁허영	-7588
▁험한	-7589
▁헤매	-7590
▁현세	-7591
▁협력	-7592
▁호의	-7593
▁호풍	-7594
▁화근	-7595
▁화락	-7596
▁화목	-7597
▁화상	-7598
▁화신	-7599
▁갖다	-7600
▁꾸미	-7601
▁끝날	-7602
▁늘어	-7603
▁손을	-7604
▁솥을	-7605
▁숙명	-7606
▁쌓인	-7607
▁잊어	-7608
▁잠깐	-7609
▁표현	-7610
▁풀무	-7611
▁호령	-7612
▁환우	-7613
▁횡행	-7614
▁후나	-7615
▁훈시	-7616
▁흘러	-7617
▁흠모	-7618
▁흠앙	-7619
▁흩어	-7620
▁힘쓴	-7621
丹田住	-7622
住壞空	-7623
修養力	-7624
公衆事	-7625
出家位	-7626
吳昌建	-7627
回身路	-7628
實相寺	-7629
李載喆	-7630
謀其利	-7631
金幾千	-7632
阿修羅	-7633
것이라	-7634
것이며	-7635
것이요	-7636
견성을	-7637
공부의	-7638
궁가에	-7639
귀하는	-7640
그대들	-7641
글리고	-7642
기로만	-7643
기에서	-7644
까지는	-7645
너희가	-7646
는데에	-7647
다가도	-7648
대에는	-7649
동하는	-7650
되기가	-7651
되기를	-7652
되나니	-7653
되노라	-7654
되리니	-7655
되어서	-7656
될수록	-7657
들이나	-7658
라고도	-7659
려거든	-7660
려고만	-7661
령이라	-7662
리나니	-7663
리시고	-7664
리하게	-7665
립하고	-7666
망하고	-7667
물이요	-7668
물질로	-7669
미륵불	-7670
미하여	-7671
바퀴에	-7672
박하여	-7673
밭이나	-7674
범상한	-7675
법률의	-7676
보거나	-7677
본래에	-7678
부처님	-7679
불교는	-7680
불보살	-7681
뿐이요	-7682
삼대력	-7683
서라도	-7684
세계를	-7685
세상의	-7686
셨으며	-7687
소리가	-7688
스승이	-7689
시더니	-7690
시리요	-7691
실하여	-7692
아니라	-7693
야말로	-7694
어다가	-7695
어서서	-7696
어지면	-7697
었노라	-7698
었는데	-7699
▁넘기	-7700
▁독신	-7701
▁묻히	-7702
▁쇠가	-7703
▁임원	-7704
▁즉시	-7705
▁짐짓	-7706
▁추모	-7707
▁펴신	-7708
▁풀을	-7709
▁흔한	-7710
갈수록	-7711
성이면	-7712
었다가	-7713
영혼이	-7714
오늘은	-7715
온하여	-7716
올라서	-7717
옵기로	-7718
옵는데	-7719
왔으니	-7720
용하는	-7721
우주의	-7722
원이나	-7723
으니라	-7724
으면서	-7725
이거늘	-7726
이러한	-7727
이로다	-7728
이어늘	-7729
인들이	-7730
일이나	-7731
자기가	-7732
자녀를	-7733
자들은	-7734
전하여	-7735
정간에	-7736
주의로	-7737
중생의	-7738
진다는	-7739
층으로	-7740
풍으로	-7741
하리니	-7742
하시나	-7743
하심이	-7744
하여서	-7745
하였던	-7746
하온데	-7747
하옵고	-7748
한다는	-7749
해지며	-7750
해하여	-7751
▁48.	-7752
▁49.	-7753
▁50.	-7754
▁51.	-7755
▁52.	-7756
▁53.	-7757
▁54.	-7758
▁55.	-7759
▁56.	-7760
▁57.	-7761
▁58.	-7762
▁59.	-7763
▁가까이	-7764
▁가는데	-7765
▁가든지	-7766
▁가르친	-7767
▁가리지	-7768
▁가정은	-7769
▁가정의	-7770
▁가져다	-7771
▁가지라	-7772
▁가지를	-7773
▁각성을	-7774
▁간다고	-7775
▁간단한	-7776
▁감각된	-7777
▁감응이	-7778
▁강령과	-7779
▁강산과	-7780
▁강자는	-7781
▁강자를	-7782
▁강자와	-7783
▁강하고	-7784
▁같도다	-7785
▁같으니	-7786
▁같으며	-7787
▁같으면	-7788
▁거름은	-7789
▁거름이	-7790
▁거짓이	-7791
▁건네지	-7792
▁걸림이	-7793
▁걸어가	-7794
▁걸인이	-7795
▁것같이	-7796
▁것인즉	-7797
▁게송을	-7798
▁견성을	-7799
▁궁곡	-7800
▁낳고	-7801
▁녹듯	-7802
▁뜨지	-7803
▁맡아	-7804
▁밟지	-7805
▁밭에	-7806
▁붙는	-7807
▁엄교	-7808
▁윤활	-7809
▁익힌	-7810
▁찬성	-7811
▁채우	-7812
▁총알	-7813
▁춘추	-7814
▁풀지	-7815
▁확신	-7816
昇火降	-7817
▁간수를	-7818
▁감화를	-7819
▁것만을	-7820
▁것인지	-7821
▁견성의	-7822
▁견지로	-7823
▁결과가	-7824
▁결과는	-7825
▁결과를	-7826
▁결함이	-7827
▁겸하여	-7828
▁경계는	-7829
▁경계와	-7830
▁경력을	-7831
▁경로를	-7832
▁경전과	-7833
▁경전도	-7834
▁경지에	-7835
▁경하게	-7836
▁경험이	-7837
▁계단을	-7838
▁계문은	-7839
▁계발의	-7840
▁계속되	-7841
▁계획과	-7842
▁고개를	-7843
▁고기가	-7844
▁고난이	-7845
▁고락은	-7846
▁고르게	-7847
▁고요한	-7848
▁고통과	-7849
▁고하를	-7850
▁곡식이	-7851
▁곤충의	-7852
▁공경과	-7853
▁공기를	-7854
▁공도의	-7855
▁공력이	-7856
▁공부도	-7857
▁공원에	-7858
▁공적에	-7859
▁공중사	-7860
▁과도한	-7861
▁과목이	-7862
▁과보나	-7863
▁과자를	-7864
▁관념을	-7865
▁관변의	-7866
▁광활한	-7867
▁괴로와	-7868
▁교단의	-7869
▁교당이	-7870
▁교도가	-7871
▁교문을	-7872
▁교육이	-7873
▁교의를	-7874
▁교중에	-7875
▁교회와	-7876
▁구인을	-7877
▁구하게	-7878
▁구하기	-7879
▁구하며	-7880
▁국가는	-7881
▁군인이	-7882
▁권능을	-7883
▁권능이	-7884
▁권위를	-7885
▁권하면	-7886
▁권하지	-7887
▁귀하가	-7888
▁규모가	-7889
▁규에게	-7890
▁규칙을	-7891
▁그것에	-7892
▁그동안	-7893
▁그들도	-7894
▁그들은	-7895
▁그러지	-7896
▁그러할	-7897
▁그름이	-7898
▁그만큼	-7899
▁겁을	-7900
▁골육	-7901
▁느낀	-7902
▁됨을	-7903
▁뛰어	-7904
▁슬픔	-7905
▁왕래	-7906
공부가	-7907
도가의	-7908
세계에	-7909
이것은	-7910
종교와	-7911
직이지	-7912
▁감동이	-7913
▁갖추게	-7914
▁같사와	-7915
▁개선될	-7916
▁거짓된	-7917
▁계문이	-7918
▁계율과	-7919
▁고장이	-7920
▁고치게	-7921
▁고해가	-7922
▁권장이	-7923
▁극락에	-7924
▁극하면	-7925
▁근기도	-7926
▁근본에	-7927
▁근본적	-7928
▁근심과	-7929
▁근원이	-7930
▁글들을	-7931
▁글이요	-7932
▁금수도	-7933
▁금하지	-7934
▁기간을	-7935
▁기관과	-7936
▁기다렸	-7937
▁기쁘고	-7938
▁기사의	-7939
▁기술은	-7940
▁기술의	-7941
▁기운도	-7942
▁기운만	-7943
▁기질의	-7944
▁길들여	-7945
▁길로만	-7946
▁길이니	-7947
▁깊으신	-7948
▁깨닫게	-7949
▁깨닫고	-7950
▁깨쳤다	-7951
▁깨치고	-7952
▁깨치지	-7953
▁꾸중을	-7954
▁꾸짖고	-7955
▁꿈꾸는	-7956
▁끊어서	-7957
▁끊어졌	-7958
▁나가면	-7959
▁나가야	-7960
▁나무에	-7961
▁나무와	-7962
▁나오는	-7963
▁나이가	-7964
▁나타날	-7965
▁나타냄	-7966
▁낙으로	-7967
▁난리는	-7968
▁난리라	-7969
▁난리로	-7970
▁난세를	-7971
▁날마다	-7972
▁날에는	-7973
▁남녀를	-7974
▁남자와	-7975
▁남천을	-7976
▁내리면	-7977
▁내리지	-7978
▁내세에	-7979
▁내용을	-7980
▁너그러	-7981
▁넉넉할	-7982
▁넓히는	-7983
▁넘으면	-7984
▁노력은	-7985
▁노소를	-7986
▁녹아지	-7987
▁농부의	-7988
▁놓고도	-7989
▁놓아도	-7990
▁놓으면	-7991
▁놓으셨	-7992
▁누리는	-7993
▁느끼고	-7994
▁느끼지	-7995
▁능력도	-7996
▁다르며	-7997
▁다리가	-7998
▁다생을	-7999
▁겨를	-8000
▁빛이	-8001
▁야위	-8002
▁얽힌	-8003
▁옮겨	-8004
▁옮기	-8005
▁측량	-8006
▁키워	-8007
▁황홀	-8008
▁흉한	-8009
법률은	-8010
법률이	-8011
부모는	-8012
▁가벼운	-8013
▁가산을	-8014
▁간단히	-8015
▁교리의	-8016
▁교법의	-8017
▁구속과	-8018
▁구속을	-8019
▁그치게	-8020
▁기도는	-8021
▁기회에	-8022
▁깨닫지	-8023
▁깨침이	-8024
▁누리게	-8025
▁다생의	-8026
▁다스릴	-8027
▁다하면	-8028
▁닦고자	-8029
▁닦아서	-8030
▁닦자는	-8031
▁단단히	-8032
▁단체나	-8033
▁단체를	-8034
▁당국에	-8035
▁당국의	-8036
▁당인의	-8037
▁당초의	-8038
▁당하게	-8039
▁대개가	-8040
▁대답을	-8041
▁대덕을	-8042
▁대도에	-8043
▁대비의	-8044
▁대의는	-8045
▁대중은	-8046
▁대지를	-8047
▁대체를	-8048
▁덕으로	-8049
▁데까지	-8050
▁데에나	-8051
▁도난을	-8052
▁도력에	-8053
▁도로써	-8054
▁도문을	-8055
▁도심이	-8056
▁도에는	-8057
▁도통을	-8058
▁돈공한	-8059
▁돈수를	-8060
▁돈으로	-8061
▁돌리는	-8062
▁돌아간	-8063
▁돌아갔	-8064
▁돌아다	-8065
▁돌아서	-8066
▁돌아와	-8067
▁동리에	-8068
▁동안의	-8069
▁동작에	-8070
▁동작이	-8071
▁동지와	-8072
▁동포와	-8073
▁동하면	-8074
▁되기로	-8075
▁되리니	-8076
▁되리요	-8077
▁되어주	-8078
▁되어질	-8079
▁되었고	-8080
▁되오면	-8081
▁되자는	-8082
▁된다고	-8083
▁될지니	-8084
▁될지라	-8085
▁두터워	-8086
▁듣느냐	-8087
▁들기가	-8088
▁들어갈	-8089
▁들어야	-8090
▁들이라	-8091
▁들추어	-8092
▁등급의	-8093
▁등불을	-8094
▁때든지	-8095
▁때문이	-8096
▁떠나게	-8097
▁떨어졌	-8098
▁떨어진	-8099
▁압제	-8100
▁칼로	-8101
▁탑만	-8102
▁홀로	-8103
중생은	-8104
▁거울이	-8105
▁겨울에	-8106
▁고난과	-8107
▁곡식도	-8108
▁관념과	-8109
▁구별이	-8110
▁귀절을	-8111
▁귀절이	-8112
▁귀천을	-8113
▁그럴듯	-8114
▁기구를	-8115
▁깨침을	-8116
▁끼치지	-8117
▁나팔을	-8118
▁당초에	-8119
▁동리나	-8120
▁뜨겁게	-8121
▁뜻으로	-8122
▁뜻하고	-8123
▁마을에	-8124
▁마쳤다	-8125
▁마치고	-8126
▁마치면	-8127
▁막지는	-8128
▁만고가	-8129
▁만고에	-8130
▁만고와	-8131
▁만나는	-8132
▁만나매	-8133
▁만물도	-8134
▁만법이	-8135
▁만사가	-8136
▁만상을	-8137
▁만유가	-8138
▁만유를	-8139
▁만족을	-8140
▁많다는	-8141
▁많으니	-8142
▁말라는	-8143
▁말로만	-8144
▁말미암	-8145
▁말세가	-8146
▁말씀과	-8147
▁말씀도	-8148
▁말씀의	-8149
▁말에는	-8150
▁말이요	-8151
▁말인가	-8152
▁맑히고	-8153
▁망녕된	-8154
▁망상이	-8155
▁망하게	-8156
▁맡겨도	-8157
▁맡기고	-8158
▁매사를	-8159
▁매하지	-8160
▁맹세한	-8161
▁머리가	-8162
▁머리를	-8163
▁먹기를	-8164
▁먹으며	-8165
▁면하기	-8166
▁면하려	-8167
▁명예와	-8168
▁모르던	-8169
▁모범이	-8170
▁모양을	-8171
▁목적한	-8172
▁목표에	-8173
▁못할까	-8174
▁못함과	-8175
▁묘방이	-8176
▁무상의	-8177
▁무형한	-8178
▁문명한	-8179
▁문제를	-8180
▁물리어	-8181
▁물질과	-8182
▁미소를	-8183
▁미천한	-8184
▁믿는가	-8185
▁밑에서	-8186
▁바느질	-8187
▁바다에	-8188
▁바다의	-8189
▁바람을	-8190
▁바쁘게	-8191
▁바에는	-8192
▁바치며	-8193
▁바탕을	-8194
▁박해를	-8195
▁반가운	-8196
▁받기도	-8197
▁받아갈	-8198
▁받아서	-8199
▁묶인	-8200
李旬旬	-8201
正其義	-8202
而不計	-8203
言語道	-8204
訓練法	-8205
더이다	-8206
▁갱생을	-8207
▁것임을	-8208
▁견문과	-8209
▁광명은	-8210
▁그름은	-8211
▁그름을	-8212
▁그치라	-8213
▁근거가	-8214
▁기미가	-8215
▁기약이	-8216
▁낭비는	-8217
▁노릇을	-8218
▁다닌다	-8219
▁다투게	-8220
▁대권을	-8221
▁대단히	-8222
▁드물고	-8223
▁막히게	-8224
▁먹으려	-8225
▁문제로	-8226
▁받으실	-8227
▁발견한	-8228
▁발하는	-8229
▁밝으면	-8230
▁밝음을	-8231
▁밝음이	-8232
▁밝히는	-8233
▁밤에는	-8234
▁방법에	-8235
▁방식도	-8236
▁방식이	-8237
▁방심이	-8238
▁방으로	-8239
▁방편은	-8240
▁방향을	-8241
▁밭에는	-8242
▁배우며	-8243
▁배우지	-8244
▁배워서	-8245
▁배워야	-8246
▁버려야	-8247
▁버림을	-8248
▁번뇌가	-8249
▁번뇌와	-8250
▁벌레가	-8251
▁벌이는	-8252
▁벌자니	-8253
▁범연한	-8254
▁범위에	-8255
▁범하게	-8256
▁법강항	-8257
▁법당에	-8258
▁법대로	-8259
▁법도를	-8260
▁법률은	-8261
▁법률의	-8262
▁법률이	-8263
▁법사는	-8264
▁법위가	-8265
▁법이며	-8266
▁법칙은	-8267
▁벗어난	-8268
▁벗어날	-8269
▁베푸는	-8270
▁베풀었	-8271
▁벼락을	-8272
▁변경할	-8273
▁변화가	-8274
▁변화를	-8275
▁병고가	-8276
▁병들고	-8277
▁보감이	-8278
▁보고할	-8279
▁보내는	-8280
▁보람이	-8281
▁보시는	-8282
▁보시의	-8283
▁보았고	-8284
▁보응이	-8285
▁복잡한	-8286
▁본래에	-8287
▁본래의	-8288
▁본성을	-8289
▁본원을	-8290
▁본위의	-8291
▁부귀가	-8292
▁부귀를	-8293
▁부르고	-8294
▁부리고	-8295
▁부리어	-8296
▁부분을	-8297
▁부원이	-8298
▁부정이	-8299
▁끓는	-8300
▁덥고	-8301
▁엷은	-8302
▁티끌	-8303
▁헒을	-8304
三大力	-8305
入定處	-8306
山渡水	-8307
干潟地	-8308
思量心	-8309
金光旋	-8310
降魔位	-8311
스러울	-8312
이러라	-8313
▁明其道	-8314
▁가꾸어	-8315
▁각별히	-8316
▁경박한	-8317
▁공들인	-8318
▁굽히지	-8319
▁꿩이나	-8320
▁나날이	-8321
▁능이성	-8322
▁대금도	-8323
▁더구나	-8324
▁덕송옥	-8325
▁돌보지	-8326
▁동방에	-8327
▁땀으로	-8328
▁마르는	-8329
▁몰이꾼	-8330
▁묘유의	-8331
▁무한한	-8332
▁문하에	-8333
▁미미한	-8334
▁미숙한	-8335
▁부채를	-8336
▁부처로	-8337
▁부처인	-8338
▁북돋아	-8339
▁분들은	-8340
▁분명한	-8341
▁분별에	-8342
▁분야가	-8343
▁분항에	-8344
▁불가의	-8345
▁불공은	-8346
▁불만을	-8347
▁불멸의	-8348
▁불멸한	-8349
▁불문에	-8350
▁불법은	-8351
▁불의는	-8352
▁불의를	-8353
▁불의에	-8354
▁불의와	-8355
▁불평과	-8356
▁불평이	-8357
▁불행은	-8358
▁붓으로	-8359
▁비롯이	-8360
▁비참한	-8361
▁비평을	-8362
▁비하여	-8363
▁뿌리는	-8364
▁뿌리를	-8365
▁사가를	-8366
▁사고로	-8367
▁사념을	-8368
▁사는데	-8369
▁사도와	-8370
▁사랑이	-8371
▁사랑할	-8372
▁사량심	-8373
▁사리에	-8374
▁사무에	-8375
▁사방에	-8376
▁사상을	-8377
▁사시화	-8378
▁사실을	-8379
▁사실이	-8380
▁사업가	-8381
▁사욕이	-8382
▁사이가	-8383
▁사자나	-8384
▁사정이	-8385
▁사제의	-8386
▁사지를	-8387
▁사치를	-8388
▁사항과	-8389
▁사항에	-8390
▁사항의	-8391
▁산이나	-8392
▁살다가	-8393
▁살리는	-8394
▁살림과	-8395
▁살펴야	-8396
▁살피나	-8397
▁살피는	-8398
▁살피어	-8399
▁강제로	-8400
▁공효가	-8401
▁구태여	-8402
▁국토에	-8403
▁방책을	-8404
▁삼개월	-8405
▁삼매를	-8406
▁삼매화	-8407
▁삼지는	-8408
▁상벌은	-8409
▁상시로	-8410
▁상식이	-8411
▁상하기	-8412
▁상하는	-8413
▁상하여	-8414
▁상황과	-8415
▁새로이	-8416
▁생각도	-8417
▁생겨날	-8418
▁생기게	-8419
▁생활로	-8420
▁서북풍	-8421
▁서양에	-8422
▁서에서	-8423
▁서원에	-8424
▁선도는	-8425
▁선도로	-8426
▁선도와	-8427
▁선사는	-8428
▁선생을	-8429
▁선승이	-8430
▁선전도	-8431
▁선행을	-8432
▁설하는	-8433
▁설한에	-8434
▁성공할	-8435
▁성리는	-8436
▁성리의	-8437
▁성불도	-8438
▁성불의	-8439
▁성불할	-8440
▁성의를	-8441
▁성인과	-8442
▁성질과	-8443
▁성질에	-8444
▁성질은	-8445
▁성질을	-8446
▁성취할	-8447
▁성품은	-8448
▁성품인	-8449
▁세력을	-8450
▁세밀히	-8451
▁세상과	-8452
▁세상도	-8453
▁세속을	-8454
▁세우는	-8455
▁세우지	-8456
▁세월만	-8457
▁세월에	-8458
▁세탁을	-8459
▁소견을	-8460
▁소경은	-8461
▁소경이	-8462
▁소경인	-8463
▁소득이	-8464
▁소리는	-8465
▁소리를	-8466
▁소설을	-8467
▁소에게	-8468
▁소원을	-8469
▁소유가	-8470
▁소유요	-8471
▁소유인	-8472
▁속이지	-8473
▁속임이	-8474
▁손실이	-8475
▁손으로	-8476
▁송경도	-8477
▁쇠함을	-8478
▁수기가	-8479
▁수단을	-8480
▁수도와	-8481
▁수레의	-8482
▁수신이	-8483
▁수양력	-8484
▁수양에	-8485
▁수양은	-8486
▁수용할	-8487
▁수입과	-8488
▁수입이	-8489
▁수지를	-8490
▁수천만	-8491
▁수행이	-8492
▁수확도	-8493
▁수확을	-8494
▁순경을	-8495
▁순순이	-8496
▁순순히	-8497
▁순연한	-8498
▁순일한	-8499
▁순진한	-8500
▁술수로	-8501
▁스승은	-8502
▁습관을	-8503
▁승려는	-8504
▁시기가	-8505
▁시방을	-8506
▁시봉만	-8507
▁시비가	-8508
▁시비의	-8509
▁시설을	-8510
▁시설이	-8511
▁시일의	-8512
▁시종이	-8513
▁시키면	-8514
▁시험이	-8515
▁신성과	-8516
▁신자가	-8517
▁신자는	-8518
▁신자로	-8519
▁신자를	-8520
▁신자에	-8521
▁신통이	-8522
▁실다운	-8523
▁실상사	-8524
▁실수를	-8525
▁실지에	-8526
▁실행도	-8527
▁실행에	-8528
▁실행의	-8529
▁심경은	-8530
▁심고를	-8531
▁심력을	-8532
▁심성의	-8533
▁심성이	-8534
▁심지는	-8535
▁심지에	-8536
▁심하여	-8537
▁십이년	-8538
▁싸움을	-8539
▁쌓아서	-8540
▁아끼지	-8541
▁아닌데	-8542
▁아님을	-8543
▁아득한	-8544
▁아래를	-8545
▁아래와	-8546
▁아수라	-8547
▁아이의	-8548
▁아프게	-8549
▁악기가	-8550
▁악도는	-8551
▁악도의	-8552
▁악습을	-8553
▁악으로	-8554
▁안개가	-8555
▁안락을	-8556
▁안심을	-8557
▁안에서	-8558
▁안일을	-8559
▁않기로	-8560
▁않는가	-8561
▁않는다	-8562
▁않으며	-8563
▁않으시	-8564
▁알거나	-8565
▁알거든	-8566
▁알리기	-8567
▁알리는	-8568
▁알리신	-8569
▁알므로	-8570
▁압박을	-8571
▁애석히	-8572
▁애욕을	-8573
▁양심만	-8574
▁어기고	-8575
▁어두웠	-8576
▁어려우	-8577
▁어른은	-8578
▁어른을	-8579
▁어리고	-8580
▁얻고자	-8581
▁얻으라	-8582
▁얻자는	-8583
▁얼굴에	-8584
▁얼마를	-8585
▁얼음을	-8586
▁업보에	-8587
▁업어서	-8588
▁없거늘	-8589
▁없기를	-8590
▁없는가	-8591
▁없는데	-8592
▁없다는	-8593
▁없어도	-8594
▁없었고	-8595
▁없으되	-8596
▁없이는	-8597
▁없지도	-8598
▁여가에	-8599
▁여기며	-8600
▁여기서	-8601
▁여부를	-8602
▁여자가	-8603
▁여자는	-8604
▁여자와	-8605
▁역경을	-8606
▁역량을	-8607
▁역리로	-8608
▁연관이	-8609
▁연구는	-8610
▁연구력	-8611
▁열리고	-8612
▁열리어	-8613
▁열리지	-8614
▁열반에	-8615
▁열반의	-8616
▁열째는	-8617
▁염불은	-8618
▁염불이	-8619
▁영겁을	-8620
▁영구히	-8621
▁영상을	-8622
▁영신이	-8623
▁영육을	-8624
▁영지가	-8625
▁영지의	-8626
▁영향을	-8627
▁영혼은	-8628
▁영혼을	-8629
▁예산을	-8630
▁예식에	-8631
▁예회를	-8632
▁오늘은	-8633
▁오래된	-8634
▁오래지	-8635
▁오르지	-8636
▁오시는	-8637
▁올라가	-8638
▁올리며	-8639
▁옮기지	-8640
▁옳도다	-8641
▁와서는	-8642
▁완연히	-8643
▁외경의	-8644
▁외경이	-8645
▁요긴한	-8646
▁요도가	-8647
▁요도에	-8648
▁요령을	-8649
▁요소가	-8650
▁요행한	-8651
▁욕심의	-8652
▁용화회	-8653
▁우대를	-8654
▁우러러	-8655
▁우리도	-8656
▁우주에	-8657
▁운전해	-8658
▁웅장한	-8659
▁원료를	-8660
▁원리는	-8661
▁원망할	-8662
▁원수가	-8663
▁원천이	-8664
▁위대한	-8665
▁위함을	-8666
▁위함이	-8667
▁윗사람	-8668
▁유가의	-8669
▁유무념	-8670
▁유익한	-8671
▁육근이	-8672
▁윤회에	-8673
▁은연중	-8674
▁은의로	-8675
▁음광이	-8676
▁음울한	-8677
▁응하고	-8678
▁응하는	-8679
▁의뢰할	-8680
▁의사가	-8681
▁의세의	-8682
▁의심도	-8683
▁의심을	-8684
▁의지를	-8685
▁이같이	-8686
▁이루신	-8687
▁이르는	-8688
▁이름과	-8689
▁이만한	-8690
▁이보다	-8691
▁이용할	-8692
▁이익은	-8693
▁이해와	-8694
▁인간에	-8695
▁인과를	-8696
▁인과에	-8697
▁인도상	-8698
▁인류의	-8699
▁인물은	-8700
▁인생이	-8701
▁인심은	-8702
▁인심의	-8703
▁인의화	-8704
▁인지의	-8705
▁일까지	-8706
▁일동이	-8707
▁일반이	-8708
▁일신을	-8709
▁일어내	-8710
▁일에나	-8711
▁일에도	-8712
▁일에만	-8713
▁일이며	-8714
▁일전에	-8715
▁일체의	-8716
▁일행이	-8717
▁일호의	-8718
▁임시로	-8719
▁입으로	-8720
▁입정처	-8721
▁있거나	-8722
▁있거늘	-8723
▁있더라	-8724
▁있듯이	-8725
▁있사와	-8726
▁있어진	-8727
▁잎사귀	-8728
▁자격을	-8729
▁자기와	-8730
▁자녀와	-8731
▁자라난	-8732
▁자력양	-8733
▁자력이	-8734
▁자리요	-8735
▁자물쇠	-8736
▁자본을	-8737
▁자세를	-8738
▁자손도	-8739
▁자신할	-8740
▁자유에	-8741
▁자지로	-8742
▁자지를	-8743
▁자취가	-8744
▁자타가	-8745
▁잘되는	-8746
▁잘못된	-8747
▁잡기로	-8748
▁잡념을	-8749
▁잡아서	-8750
▁장단이	-8751
▁장래가	-8752
▁장마에	-8753
▁장수가	-8754
▁장수는	-8755
▁장애가	-8756
▁재래와	-8757
▁재래의	-8758
▁재물을	-8759
▁재미로	-8760
▁재산은	-8761
▁재앙을	-8762
▁재주는	-8763
▁재주만	-8764
▁저것을	-8765
▁저들은	-8766
▁저렇게	-8767
▁저번에	-8768
▁적당할	-8769
▁적멸의	-8770
▁적멸이	-8771
▁적으며	-8772
▁적절한	-8773
▁적지않	-8774
▁전곡을	-8775
▁전공도	-8776
▁전력을	-8777
▁전보다	-8778
▁전세의	-8779
▁전일의	-8780
▁전체를	-8781
▁전하게	-8782
▁절약과	-8783
▁절약을	-8784
▁정규가	-8785
▁정규는	-8786
▁정규의	-8787
▁정법이	-8788
▁정성껏	-8789
▁정성한	-8790
▁정업을	-8791
▁정의는	-8792
▁정진할	-8793
▁정치가	-8794
▁정치는	-8795
▁정치도	-8796
▁정치의	-8797
▁정하여	-8798
▁정한다	-8799
▁제거할	-8800
▁제대로	-8801
▁제도나	-8802
▁제도는	-8803
▁제일대	-8804
▁제자로	-8805
▁조건을	-8806
▁조급한	-8807
▁조목이	-8808
▁조선이	-8809
▁조실에	-8810
▁조용한	-8811
▁조직이	-8812
▁조화가	-8813
▁조화는	-8814
▁존대를	-8815
▁존모를	-8816
▁존재를	-8817
▁종교가	-8818
▁종교나	-8819
▁종교라	-8820
▁종교에	-8821
▁종류도	-8822
▁종법사	-8823
▁종자의	-8824
▁좋아질	-8825
▁좌선은	-8826
▁좌선이	-8827
▁좌우의	-8828
▁죄고가	-8829
▁죄과를	-8830
▁죄벌이	-8831
▁죄복에	-8832
▁죄업의	-8833
▁주관할	-8834
▁주기가	-8835
▁주기도	-8836
▁주나니	-8837
▁주야로	-8838
▁주위에	-8839
▁주인은	-8840
▁주인을	-8841
▁주장을	-8842
▁주착도	-8843
▁주착이	-8844
▁주처와	-8845
▁주체는	-8846
▁주체를	-8847
▁주택을	-8848
▁주한즉	-8849
▁죽어갈	-8850
▁죽어도	-8851
▁준다는	-8852
▁준비가	-8853
▁줄기와	-8854
▁줄여서	-8855
▁중근기	-8856
▁중도에	-8857
▁중생과	-8858
▁중에는	-8859
▁중천에	-8860
▁중하게	-8861
▁중하매	-8862
▁즈음에	-8863
▁즐거워	-8864
▁즐겁게	-8865
▁즐기나	-8866
▁증거라	-8867
▁증거를	-8868
▁증거의	-8869
▁증세는	-8870
▁지각이	-8871
▁지견도	-8872
▁지견에	-8873
▁지견이	-8874
▁지경을	-8875
▁지나간	-8876
▁지내고	-8877
▁지내도	-8878
▁지내며	-8879
▁지내면	-8880
▁지내보	-8881
▁지도인	-8882
▁지목이	-8883
▁지방의	-8884
▁지위나	-8885
▁지위에	-8886
▁지으라	-8887
▁지출이	-8888
▁지켜서	-8889
▁지키며	-8890
▁지행이	-8891
▁지혜에	-8892
▁직업도	-8893
▁직업에	-8894
▁직업의	-8895
▁진급이	-8896
▁진보가	-8897
▁진성을	-8898
▁진열된	-8899
▁진정한	-8900
▁짐승을	-8901
▁집안을	-8902
▁집안의	-8903
▁짓기는	-8904
▁차례로	-8905
▁차례에	-8906
▁차리지	-8907
▁차서를	-8908
▁차이는	-8909
▁참회라	-8910
▁참회를	-8911
▁창립한	-8912
▁창생의	-8913
▁찾아온	-8914
▁책임만	-8915
▁책임은	-8916
▁챙기는	-8917
▁챙기지	-8918
▁처리와	-8919
▁처소를	-8920
▁처소와	-8921
▁처자가	-8922
▁처지가	-8923
▁천대를	-8924
▁천리를	-8925
▁천상에	-8926
▁천선의	-8927
▁천의를	-8928
▁천주를	-8929
▁천지로	-8930
▁천추에	-8931
▁청춘이	-8932
▁체받아	-8933
▁초월의	-8934
▁총부를	-8935
▁최령한	-8936
▁최초의	-8937
▁출가를	-8938
▁춤추는	-8939
▁충고를	-8940
▁충분한	-8941
▁취함이	-8942
▁치료가	-8943
▁치료의	-8944
▁치료할	-8945
▁치료해	-8946
▁친절한	-8947
▁칠보화	-8948
▁커나는	-8949
▁커지고	-8950
▁콩으로	-8951
▁키우는	-8952
▁타력을	-8953
▁타력의	-8954
▁타인의	-8955
▁탐심이	-8956
▁탐착이	-8957
▁태극이	-8958
▁태도를	-8959
▁태어나	-8960
▁터이니	-8961
▁터인즉	-8962
▁토끼를	-8963
▁토대를	-8964
▁통하며	-8965
▁특성을	-8966
▁특수한	-8967
▁파당을	-8968
▁판국에	-8969
▁판국이	-8970
▁팔아서	-8971
▁편안할	-8972
▁편협한	-8973
▁평생을	-8974
▁폐백을	-8975
▁표본을	-8976
▁표어를	-8977
▁풍부한	-8978
▁피차가	-8979
▁피하려	-8980
▁필경은	-8981
▁하나님	-8982
▁하늘은	-8983
▁하니라	-8984
▁하더니	-8985
▁하도록	-8986
▁하든지	-8987
▁하라는	-8988
▁하루의	-8989
▁하리니	-8990
▁하솔의	-8991
▁하시나	-8992
▁하시어	-8993
▁하자면	-8994
▁학술과	-8995
▁학식이	-8996
▁한다는	-8997
▁한없는	-8998
▁해결을	-8999
▁해석이	-9000
▁해제를	-9001
▁해제식	-9002
▁행동도	-9003
▁행사가	-9004
▁행사에	-9005
▁행적은	-9006
▁행한즉	-9007
▁행함에	-9008
▁향락에	-9009
▁향상의	-9010
▁허공과	-9011
▁허공에	-9012
▁허다한	-9013
▁허실과	-9014
▁헌공도	-9015
▁헤아릴	-9016
▁현생에	-9017
▁현실로	-9018
▁현재에	-9019
▁형상도	-9020
▁형세를	-9021
▁형식은	-9022
▁형체가	-9023
▁형편을	-9024
▁형편이	-9025
▁혜택이	-9026
▁호리도	-9027
▁호주가	-9028
▁화기가	-9029
▁화기를	-9030
▁화려한	-9031
▁화로에	-9032
▁화상은	-9033
▁화하는	-9034
▁확실히	-9035
▁확연히	-9036
▁환경에	-9037
▁환자를	-9038
▁활용할	-9039
▁효자의	-9040
▁후세에	-9041
▁후에도	-9042
▁후일의	-9043
▁후진을	-9044
▁흐르는	-9045
▁흥망이	-9046
▁흩어진	-9047
▁희망과	-9048
▁희망이	-9049
▁힘으로	-9050
下鑑之位	-9051
以小成大	-9052
動靜一如	-9053
呼風喚雨	-9054
大圓正覺	-9055
大小有無	-9056
應用無念	-9057
應鑑之位	-9058
成住壞空	-9059
水昇火降	-9060
注意事項	-9061
濟生醫世	-9062
移山渡水	-9063
空寂靈知	-9064
萬法歸一	-9065
蓬萊精舍	-9066
覺回身路	-9067
風雲雨露	-9068
각회신로	-9069
근심하지	-9070
까지라도	-9071
님께서는	-9072
되나니라	-9073
되는지라	-9074
들로서는	-9075
리겠는가	-9076
불각간에	-9077
상으로나	-9078
상으로도	-9079
시킴이요	-9080
어찌하면	-9081
었나니라	-9082
여래위에	-9083
으시다가	-9084
으시더니	-9085
으오리까	-9086
이라든지	-9087
일원상과	-9088
일원상의	-9089
자로서는	-9090
제자로서	-9091
하건마는	-9092
하다가도	-9093
하더라도	-9094
하시거나	-9095
하시더니	-9096
하여다가	-9097
하여야만	-9098
하여져서	-9099
하여지고	-9100
하였다가	-9101
하였다고	-9102
하였다면	-9103
하옵니다	-9104
▁가난이요	-9105
▁가는지라	-9106
▁가득하여	-9107
▁가르치기	-9108
▁가마귀와	-9109
▁가운데도	-9110
▁가정끼리	-9111
▁가정이나	-9112
▁가져오고	-9113
▁가져오는	-9114
▁가진지라	-9115
▁가질지니	-9116
▁각각이라	-9117
▁각성하여	-9118
▁각오하여	-9119
▁간단하고	-9120
▁간사하고	-9121
▁간석지를	-9122
▁감동하여	-9123
▁감복하여	-9124
▁감소되고	-9125
▁감응되는	-9126
▁감천으로	-9127
▁강급기에	-9128
▁갖추어서	-9129
▁같사오니	-9130
▁같은지라	-9131
▁개과하여	-9132
▁개선되면	-9133
▁개인끼리	-9134
▁개인이나	-9135
▁거래간에	-9136
▁걱정되는	-9137
▁걱정이요	-9138
▁것으로만	-9139
▁것이라는	-9140
▁것이라면	-9141
▁것이온데	-9142
▁것이옵고	-9143
▁견고하여	-9144
▁견문하여	-9145
▁견성하는	-9146
▁견지에서	-9147
▁경계하는	-9148
▁계교하지	-9149
▁계속되는	-9150
▁고락으로	-9151
▁고치기도	-9152
▁고치기에	-9153
▁고해에서	-9154
▁곳에서만	-9155
▁공경심을	-9156
▁공덕이라	-9157
▁공부니라	-9158
▁공부에도	-9159
▁공부에만	-9160
▁공부인과	-9161
▁공부하게	-9162
▁공부하면	-9163
▁공익심을	-9164
▁공자께서	-9165
▁과장하여	-9166
▁광명하게	-9167
▁교무에게	-9168
▁교환하며	-9169
▁구렁으로	-9170
▁구별하여	-9171
▁구분해서	-9172
▁구슬같이	-9173
▁구애되어	-9174
▁구애되지	-9175
▁구제선이	-9176
▁구족하고	-9177
▁구하든지	-9178
▁국가끼리	-9179
▁군색함이	-9180
▁궁글리고	-9181
▁그것이니	-9182
▁그것이요	-9183
▁그들에게	-9184
▁그르치게	-9185
▁그르치기	-9186
▁근본되는	-9187
▁근본이라	-9188
▁근본이요	-9189
▁근처에서	-9190
▁금강산은	-9191
▁금강산을	-9192
▁금강산의	-9193
▁금강산이	-9194
▁기다리는	-9195
▁기다리라	-9196
▁기도하여	-9197
▁기약하고	-9198
▁기재하는	-9199
▁기재하되	-9200
▁까닭이니	-9201
▁까닭이라	-9202
▁깨끗하게	-9203
▁나가기가	-9204
▁나간다면	-9205
▁나나니라	-9206
▁나아가는	-9207
▁나오시어	-9208
▁나중에는	-9209
▁나타남을	-9210
▁나타내지	-9211
▁낙망하지	-9212
▁날카로운	-9213
▁남용하는	-9214
▁남편에게	-9215
▁내리시는	-9216
▁내세에는	-9217
▁내세우고	-9218
▁내왕하는	-9219
▁내왕하며	-9220
▁내정정은	-9221
▁내정정의	-9222
▁너희들이	-9223
▁노력하게	-9224
▁노력하고	-9225
▁농작물과	-9226
▁누구에게	-9227
▁다니다가	-9228
▁다하였다	-9229
▁달리하여	-9230
▁담박하고	-9231
▁담화하는	-9232
▁당연함이	-9233
▁당초부터	-9234
▁당하나니	-9235
▁대답하지	-9236
▁대도니라	-9237
▁대신하여	-9238
▁대자대비	-9239
▁대자연의	-9240
▁대조하는	-9241
▁대중으로	-9242
▁대질리면	-9243
▁대하여는	-9244
▁데로부터	-9245
▁도는지라	-9246
▁도모하지	-9247
▁도인들을	-9248
▁돌아오사	-9249
▁돌파하고	-9250
▁동물들은	-9251
▁동민들이	-9252
▁동지들이	-9253
▁동하여도	-9254
▁되겠느냐	-9255
▁되기까지	-9256
▁되나이다	-9257
▁되었든지	-9258
▁된다든지	-9259
▁됨으로써	-9260
▁됨이니라	-9261
▁두려움을	-9262
▁두렷하고	-9263
▁두었다가	-9264
▁드러나서	-9265
▁드러남을	-9266
▁드러내고	-9267
▁드러내어	-9268
▁든든하고	-9269
▁듣는다면	-9270
▁들어가는	-9271
▁들어가서	-9272
▁들어보라	-9273
▁들었으니	-9274
▁듯하니라	-9275
▁듯하오니	-9276
▁따름이라	-9277
▁때라든지	-9278
▁마나니라	-9279
▁마땅하게	-9280
▁마음까지	-9281
▁마음이며	-9282
▁마치셨다	-9283
▁만들기로	-9284
▁만족하고	-9285
▁만족하지	-9286
▁많사오니	-9287
▁말년에는	-9288
▁말미암아	-9289
▁말이니라	-9290
▁말한다면	-9291
▁망라하여	-9292
▁맞이하여	-9293
▁매하여질	-9294
▁멀어지고	-9295
▁명심하라	-9296
▁모르므로	-9297
▁모르지도	-9298
▁모름지기	-9299
▁몰라주는	-9300
▁못하고는	-9301
▁못하니라	-9302
▁못하였고	-9303
▁못하였을	-9304
▁못할지니	-9305
▁못할지라	-9306
▁못함이요	-9307
▁무념으로	-9308
▁무념하여	-9309
▁무념하지	-9310
▁무례함에	-9311
▁무시광겁	-9312
▁무심으로	-9313
▁무엇인지	-9314
▁무정지물	-9315
▁문명에만	-9316
▁물어보라	-9317
▁미륵불이	-9318
▁바로잡고	-9319
▁바로잡을	-9320
▁바탕하여	-9321
▁박람회는	-9322
▁받으리라	-9323
▁발견하고	-9324
▁발견하는	-9325
▁발달됨에	-9326
▁발휘하지	-9327
▁방편으로	-9328
▁방해하는	-9329
▁방황하는	-9330
▁배웠는가	-9331
▁버리시고	-9332
▁범위에서	-9333
▁범하고도	-9334
▁법이니라	-9335
▁변론함을	-9336
▁변천되는	-9337
▁변하기도	-9338
▁변화하고	-9339
▁병진하게	-9340
▁보내기도	-9341
▁보았노니	-9342
▁보응되는	-9343
▁보이시며	-9344
▁보이지도	-9345
▁보통이나	-9346
▁본원이며	-9347
▁본원이요	-9348
▁볼지어다	-9349
▁뵈옵거늘	-9350
▁부끄러울	-9351
▁부끄러워	-9352
▁부끄러이	-9353
▁부득이한	-9354
▁부모라도	-9355
▁부모로서	-9356
▁부자유한	-9357
▁부족함이	-9358
▁부지중에	-9359
▁부처님께	-9360
▁분개하여	-9361
▁분급하여	-9362
▁분명하지	-9363
▁분별성과	-9364
▁분석하여	-9365
▁불가에서	-9366
▁불공이나	-9367
▁불구자와	-9368
▁불변하는	-9369
▁불보살은	-9370
▁불보살을	-9371
▁불보살의	-9372
▁불보살이	-9373
▁불제자가	-9374
▁비방하는	-9375
▁빼앗아서	-9376
▁뿐이니라	-9377
▁사나와서	-9378
▁사라지고	-9379
▁사람과는	-9380
▁사람다운	-9381
▁사람이면	-9382
▁사람이야	-9383
▁사랑이면	-9384
▁사랑하여	-9385
▁사로잡혀	-9386
▁사로잡힌	-9387
▁사실이니	-9388
▁사실적인	-9389
▁사업자가	-9390
▁사용하면	-9391
▁사용하여	-9392
▁사회끼리	-9393
▁살림하는	-9394
▁삼나니라	-9395
▁상근기는	-9396
▁상대자가	-9397
▁상대처가	-9398
▁상대편의	-9399
▁상종되어	-9400
▁색색으로	-9401
▁생각나는	-9402
▁생각되어	-9403
▁생각하되	-9404
▁생각하면	-9405
▁생기나니	-9406
▁생활이며	-9407
▁서늘하고	-9408
▁서울에서	-9409
▁서원으로	-9410
▁석두암에	-9411
▁선생으로	-9412
▁선악간에	-9413
▁선원에는	-9414
▁성인들은	-9415
▁성자들이	-9416
▁성현들도	-9417
▁세상에도	-9418
▁세상으로	-9419
▁소개소가	-9420
▁소멸되는	-9421
▁송아지가	-9422
▁쇠약하여	-9423
▁수도인은	-9424
▁수양이요	-9425
▁수양하기	-9426
▁수양하여	-9427
▁수용품을	-9428
▁수용하나	-9429
▁수용하는	-9430
▁수행으로	-9431
▁수행하면	-9432
▁순응하는	-9433
▁습관으로	-9434
▁시끄러운	-9435
▁시끄럽게	-9436
▁시대에는	-9437
▁시작하신	-9438
▁신성으로	-9439
▁신심이라	-9440
▁신앙하는	-9441
▁실행하지	-9442
▁싫어하나	-9443
▁싫어하며	-9444
▁쓰시기를	-9445
▁아나니라	-9446
▁아니고는	-9447
▁아니로다	-9448
▁아니하게	-9449
▁아니하되	-9450
▁아니한즉	-9451
▁아니함을	-9452
▁아랫사람	-9453
▁아무라도	-9454
▁아무렇게	-9455
▁아이들이	-9456
▁안으로는	-9457
▁앉아야만	-9458
▁않겠는가	-9459
▁않는다고	-9460
▁않는다는	-9461
▁알았으니	-9462
▁알으시며	-9463
▁알지마는	-9464
▁암담하게	-9465
▁앞두시고	-9466
▁앞으로도	-9467
▁양성하는	-9468
▁양성하라	-9469
▁양성하여	-9470
▁어그러진	-9471
▁어긋나지	-9472
▁어머니의	-9473
▁어서어서	-9474
▁어지러운	-9475
▁언제든지	-9476
▁얻었으나	-9477
▁얼마이며	-9478
▁얽매이면	-9479
▁없나이까	-9480
▁없어진다	-9481
▁없었나니	-9482
▁없었다면	-9483
▁없으시고	-9484
▁여래위에	-9485
▁여러가지	-9486
▁여하에도	-9487
▁연마하는	-9488
▁열반하매	-9489
▁열반하신	-9490
▁염불하는	-9491
▁영혼으로	-9492
▁예배하고	-9493
▁예수께서	-9494
▁오는지라	-9495
▁오득하여	-9496
▁오래되고	-9497
▁오롯하게	-9498
▁완연하여	-9499
▁완전하나	-9500
▁왔나니라	-9501
▁왔사오니	-9502
▁왔지마는	-9503
▁왕궁가에	-9504
▁외면으로	-9505
▁외정정은	-9506
▁요구하게	-9507
▁요구하는	-9508
▁요란하지	-9509
▁요란함이	-9510
▁용서하지	-9511
▁운전하여	-9512
▁운행하는	-9513
▁움직이지	-9514
▁원망하지	-9515
▁위주하여	-9516
▁윗사람이	-9517
▁유념하지	-9518
▁의논하고	-9519
▁의사에게	-9520
▁의지하는	-9521
▁이로움이	-9522
▁이루시고	-9523
▁이르게도	-9524
▁이르나니	-9525
▁이소성대	-9526
▁이승이라	-9527
▁이야기를	-9528
▁이용하게	-9529
▁이용하면	-9530
▁이치까지	-9531
▁이치로써	-9532
▁이해하기	-9533
▁익어가는	-9534
▁인가하지	-9535
▁인내력이	-9536
▁인도하면	-9537
▁인상되어	-9538
▁일귀하처	-9539
▁일심으로	-9540
▁일어내는	-9541
▁일어서서	-9542
▁일원상은	-9543
▁일이리요	-9544
▁일찍부터	-9545
▁입교하여	-9546
▁입선하는	-9547
▁입선하여	-9548
▁입으로만	-9549
▁있사오나	-9550
▁있었거든	-9551
▁있었나니	-9552
▁있었으나	-9553
▁있으시니	-9554
▁자녀들을	-9555
▁자지하여	-9556
▁잘못하면	-9557
▁잠시라도	-9558
▁장려하여	-9559
▁재산이나	-9560
▁저승이라	-9561
▁적은지라	-9562
▁전력하여	-9563
▁전문하는	-9564
▁전일하여	-9565
▁전적으로	-9566
▁정규에게	-9567
▁정당하게	-9568
▁정성으로	-9569
▁정신에는	-9570
▁정진하여	-9571
▁정하여도	-9572
▁제거하는	-9573
▁제도하게	-9574
▁제자로서	-9575
▁제재하지	-9576
▁제정하여	-9577
▁제출하여	-9578
▁조물주는	-9579
▁조물주라	-9580
▁조상으로	-9581
▁존대하고	-9582
▁종법사의	-9583
▁좋아지는	-9584
▁좋아하나	-9585
▁좋아하는	-9586
▁좋으니라	-9587
▁좌선에만	-9588
▁좌선이라	-9589
▁좌선하는	-9590
▁죄업으로	-9591
▁주나니라	-9592
▁주는지라	-9593
▁주시기를	-9594
▁주시니라	-9595
▁주심이요	-9596
▁주었더니	-9597
▁주의심이	-9598
▁주인공이	-9599
▁주인에게	-9600
▁주장하게	-9601
▁주장하여	-9602
▁주재하는	-9603
▁주지마는	-9604
▁주체삼아	-9605
▁중생들의	-9606
▁중생들이	-9607
▁즐겨하여	-9608
▁증득하여	-9609
▁지금까지	-9610
▁지나치게	-9611
▁지도로써	-9612
▁지도하는	-9613
▁지배하고	-9614
▁지배하는	-9615
▁지성이면	-9616
▁지었으나	-9617
▁지키면서	-9618
▁직접으로	-9619
▁진급기에	-9620
▁진대지가	-9621
▁진행하는	-9622
▁집주하되	-9623
▁집착하는	-9624
▁차별심이	-9625
▁차지하지	-9626
▁찬란하게	-9627
▁참회하고	-9628
▁창립주가	-9629
▁찾아와서	-9630
▁처결하여	-9631
▁처리건과	-9632
▁처리건을	-9633
▁처리하는	-9634
▁처리하지	-9635
▁천도재를	-9636
▁천도하는	-9637
▁천지같은	-9638
▁천지에는	-9639
▁천지에서	-9640
▁철저하여	-9641
▁청년들이	-9642
▁청정하여	-9643
▁초년에는	-9644
▁촉진하여	-9645
▁축생이나	-9646
▁출가하여	-9647
▁출석하사	-9648
▁출세하여	-9649
▁출입하여	-9650
▁충실하지	-9651
▁취사력을	-9652
▁취사력이	-9653
▁친애하는	-9654
▁침묵하여	-9655
▁커진다는	-9656
▁크나니라	-9657
▁타락하게	-9658
▁탈선되는	-9659
▁털끝만한	-9660
▁통달하신	-9661
▁통달하여	-9662
▁통일하는	-9663
▁퇴굴심이	-9664
▁투철하게	-9665
▁파괴자는	-9666
▁판단하는	-9667
▁편벽되이	-9668
▁편으로는	-9669
▁편이하여	-9670
▁평등하게	-9671
▁평소부터	-9672
▁평정하는	-9673
▁포함되어	-9674
▁필요하나	-9675
▁하겠느냐	-9676
▁하겠으나	-9677
▁하근기로	-9678
▁하나라도	-9679
▁하나이나	-9680
▁하늘에는	-9681
▁하셨나니	-9682
▁하시다가	-9683
▁하시더니	-9684
▁하였는데	-9685
▁하였으되	-9686
▁학교에서	-9687
▁학설에는	-9688
▁한결같지	-9689
▁한량없는	-9690
▁한량없이	-9691
▁한참동안	-9692
▁함으로써	-9693
▁함이어늘	-9694
▁항복받을	-9695
▁해결하는	-9696
▁행하고자	-9697
▁행하면서	-9698
▁행한다면	-9699
▁행할수록	-9700
▁허공계에	-9701
▁허무하다	-9702
▁허물에도	-9703
▁헌신하여	-9704
▁헤아리지	-9705
▁혜시하는	-9706
▁호령하여	-9707
▁혼자라도	-9708
▁화려하고	-9709
▁화합하여	-9710
▁확장하고	-9711
▁환경으로	-9712
▁효도하고	-9713
▁후부터는	-9714
▁후진들이	-9715
▁후진에게	-9716
▁훈련법과	-9717
▁훈련법의	-9718
▁흔들거나	-9719
▁흔들려서	-9720
▁흠모하여	-9721
▁힘으로는	-9722
正其義而不	-9723
而不計其功	-9724
면이어니와	-9725
불보살들은	-9726
하겠나이까	-9727
하였건마는	-9728
하였나이까	-9729
하였사오니	-9730
(1943)	-9731
▁가르쳤는가	-9732
▁가르치기도	-9733
▁가리키시며	-9734
▁가시밭이나	-9735
▁가시었더니	-9736
▁가짐으로써	-9737
▁개선하여야	-9738
▁거느리시는	-9739
▁것이오니까	-9740
▁것이지마는	-9741
▁경전이로다	-9742
▁계속되어야	-9743
▁계속하니라	-9744
▁고백하여야	-9745
▁고통스러울	-9746
▁고하였더니	-9747
▁곳이오니까	-9748
▁공부한다면	-9749
▁공양하시고	-9750
▁과목이니라	-9751
▁교환하기를	-9752
▁그대들로서	-9753
▁그대들이여	-9754
▁그러하거늘	-9755
▁그러하거든	-9756
▁극락이니라	-9757
▁긴요하다고	-9758
▁깨칠지언정	-9759
▁나타나기는	-9760
▁노력하시고	-9761
▁다니나니라	-9762
▁단련시키기	-9763
▁당하여서는	-9764
▁당하였으나	-9765
▁대면하기가	-9766
▁대체적으로	-9767
▁도가에서는	-9768
▁도모한다면	-9769
▁돌아오기도	-9770
▁되었는지라	-9771
▁되었음이요	-9772
▁드러나리라	-9773
▁들어가서는	-9774
▁들으시다가	-9775
▁듯하나이다	-9776
▁때문이니라	-9777
▁말씀이니라	-9778
▁모르는지라	-9779
▁못하였다고	-9780
▁못하지마는	-9781
▁못한다든지	-9782
▁미워하거늘	-9783
▁믿음으로써	-9784
▁밝히셨나니	-9785
▁배우느냐고	-9786
▁법마상전을	-9787
▁뵈옵는지라	-9788
▁부분적으로	-9789
▁부족하다면	-9790
▁부처님께서	-9791
▁부처님에게	-9792
▁부처님이나	-9793
▁비유한다면	-9794
▁비치건마는	-9795
▁사람들로서	-9796
▁사람이든지	-9797
▁삼학으로써	-9798
▁생각하기를	-9799
▁생김으로써	-9800
▁성인이시라	-9801
▁솟아올라서	-9802
▁수도인들이	-9803
▁수레바퀴에	-9804
▁순응하여야	-9805
▁숭배하노라	-9806
▁숭배하자는	-9807
▁습관되기가	-9808
▁시작하여야	-9809
▁신자들에게	-9810
▁실행하여야	-9811
▁아니하거나	-9812
▁아니하도록	-9813
▁아랫사람이	-9814
▁알으시는가	-9815
▁알으신다는	-9816
▁압제하려는	-9817
▁어두워지는	-9818
▁어려울지라	-9819
▁어렵나이다	-9820
▁어리석다고	-9821
▁어리석음이	-9822
▁업어서라도	-9823
▁없어지나니	-9824
▁없었지마는	-9825
▁없으면서도	-9826
▁없으시나니	-9827
▁연고이니라	-9828
▁위력으로써	-9829
▁위함이니라	-9830
▁이루어지는	-9831
▁이르는지라	-9832
▁이상이라야	-9833
▁이소성대의	-9834
▁이용물이요	-9835
▁이제부터는	-9836
▁이행한다면	-9837
▁일컬으오나	-9838
▁있을지언정	-9839
▁잊어버리며	-9840
▁자동적으로	-9841
▁자리지마는	-9842
▁자립적으로	-9843
▁전하였으나	-9844
▁정성스럽게	-9845
▁정하였나니	-9846
▁제도하거나	-9847
▁제도하시는	-9848
▁제자되기를	-9849
▁제자에게는	-9850
▁조심함이요	-9851
▁좌선하기를	-9852
▁주었건마는	-9853
▁주의하여야	-9854
▁주장하므로	-9855
▁중생이라도	-9856
▁중요하나니	-9857
▁지도인에게	-9858
▁찬탄하기를	-9859
▁처리하리라	-9860
▁처지에서는	-9861
▁취사하기를	-9862
▁치료하기로	-9863
▁타락하지도	-9864
▁탐착하므로	-9865
▁필요하다면	-9866
▁하겠나이까	-9867
▁하셨사오니	-9868
▁하시었나니	-9869
▁하시었으나	-9870
▁하였삽더니	-9871
▁하였지마는	-9872
▁해제식에서	-9873
▁향상될수록	-9874
▁허락하시며	-9875
▁확신하노라	-9876
그러하나니라	-9877
▁가벼워진다는	-9878
▁구경하였는가	-9879
▁그것만으로는	-9880
▁기재시킴이요	-9881
▁돌아오나니라	-9882
▁멀어지나니라	-9883
▁못하였음이요	-9884
▁무엇으로든지	-9885
▁방법으로든지	-9886
▁법강항마위에	-9887
▁보존하나니라	-9888
▁사람들에게는	-9889
▁사람에게라도	-9890
▁생존하시거나	-9891
▁아니하겠는가	-9892
▁아니하였다면	-9893
▁어떠하겠는가	-9894
▁어떠하오니까	-9895
▁이러하나니라	-9896
▁있어진다든지	-9897
▁전무출신인가	-9898
▁정하였나니라	-9899
▁통달하시므로	-9900
▁훈시하시기를	-9901
▁아니하였으므로	-9902
正其義而不謀其利	-9903
법강항마위부터는	-9904
▁明其道而不計其功	-9905
16	-9906
17	-9907
▁空	-9908
▁꿀	-9909
▁을	-9910
▁쳤	-9911
一眞	-9912
三輪	-9913
上時	-9914
不善	-9915
世月	-9916
世柔	-9917
世間	-9918
中央	-9919
九曲	-9920
事半	-9921
事竝	-9922
五雲	-9923
人倫	-9924
人權	-9925
佛事	-9926
供養	-9927
修德	-9928
倚作	-9929
光靈	-9930
兜率	-9931
入門	-9932
出役	-9933
分義	-9934
利他	-9935
前身	-9936
劉巾	-9937
動華	-9938
務出	-9939
參禪	-9940
反本	-9941
吉龍	-9942
名衣	-9943
吳松	-9944
和氣	-9945
哀樂	-9946
商受	-9947
善根	-9948
善用	-9949
喜捨	-9950
嘉言	-9951
國祿	-9952
士農	-9953
夏雲	-9954
大宗	-9955
大旨	-9956
大機	-9957
大鎬	-9958
天職	-9959
如痴	-9960
始曠	-9961
姦淫	-9962
威德	-9963
嫡庶	-9964
孝悌	-9965
學家	-9966
宋道	-9967
宗泰	-9968
宗順	-9969
官邊	-9970
宿緣	-9971
富豪	-9972
尊者	-9973
小能	-9974
展望	-9975
巨額	-9976
年前	-9977
幽明	-9978
往時	-9979
心交	-9980
心力	-9981
心敎	-9982
心是	-9983
心秀	-9984
心通	-9985
心靈	-9986
忘危	-9987
忠烈	-9988
忠臣	-9989
急地	-9990
怨瞋	-9991
恩義	-9992
悔文	-9993
惡意	-9994
意繞	-9995
意識	-9996
慧兩	-9997
成龍	-9998
我相	-9999
保長	-10000
印可	-10001
地永	-10002
奸巧	-10003
常欲	-10004
府使	-10005
戒定	-10006
收萬	-10007
敎宗	-10008
明六	-10009
明德	-10010
書三	-10011
最初	-10012
未然	-10013
未發	-10014
東方	-10015
根機	-10016
欲速	-10017
正奎	-10018
武公	-10019
武王	-10020
歸正	-10021
歸海	-10022
法例	-10023
法名	-10024
漏盡	-10025
瀾苦	-10026
無明	-10027
無父	-10028
無等	-10029
無阿	-10030
父子	-10031
牟尼	-10032
班常	-10033
甑山	-10034
生業	-10035
田參	-10036
病脈	-10037
盡大	-10038
眼藏	-10039
睡魔	-10040
知覺	-10041
社交	-10042
福樂	-10043
禪僧	-10044
秋法	-10045
穩健	-10046
空往	-10047
空論	-10048
等級	-10049
綱領	-10050
義華	-10051
老子	-10052
聖經	-10053
肇判	-10054
脫立	-10055
臨於	-10056
與受	-10057
色情	-10058
苦戰	-10059
草漸	-10060
菜圃	-10061
處尋	-10062
行列	-10063
親愛	-10064
註解	-10065
調査	-10066
講師	-10067
謹嚴	-10068
識心	-10069
貪慾	-10070
趙甲	-10071
迷開	-10072
造傳	-10073
過失	-10074
邪術	-10075
酒草	-10076
釋迦	-10077
金大	-10078
鐵壁	-10079
鑑定	-10080
開明	-10081
隨機	-10082
難行	-10083
雨鳴	-10084
須彌	-10085
頓悟	-10086
頓空	-10087
頭尾	-10088
風雨	-10089
飮光	-10090
養鷄	-10091
高原	-10092
魔軍	-10093
魚變	-10094
鼎山	-10095
龍山	-10096
가시	-10097
각자	-10098
강령	-10099
九分	-10100
嗔痴	-10101
安島	-10102
平順	-10103
從此	-10104
心告	-10105
慧門	-10106
應變	-10107
日常	-10108
春立	-10109
特行	-10110
用性	-10111
益山	-10112
福田	-10113
虛靈	-10114
가도	-10115
거에	-10116
거울	-10117
걸려	-10118
것과	-10119
것도	-10120
게할	-10121
경전	-10122
과도	-10123
구의	-10124
구해	-10125
귀교	-10126
귀를	-10127
그럴	-10128
근자	-10129
금만	-10130
금이	-10131
기념	-10132
기술	-10133
기척	-10134
김을	-10135
까는	-10136
꾸러	-10137
끝만	-10138
끼와	-10139
낮은	-10140
냥의	-10141
너른	-10142
너의	-10143
네는	-10144
녀의	-10145
노의	-10146
농을	-10147
뇌급	-10148
뇌의	-10149
누가	-10150
누고	-10151
능히	-10152
님은	-10153
다시	-10154
달아	-10155
당신	-10156
대각	-10157
대시	-10158
데에	-10159
도식	-10160
동과	-10161
두가	-10162
두에	-10163
들매	-10164
들에	-10165
들일	-10166
등의	-10167
디가	-10168
또한	-10169
랑을	-10170
래가	-10171
량에	-10172
려로	-10173
론과	-10174
론이	-10175
료만	-10176
림어	-10177
림에	-10178
립청	-10179
마경	-10180
만세	-10181
말을	-10182
말이	-10183
망을	-10184
매일	-10185
맥이	-10186
먹고	-10187
모범	-10188
모의	-10189
목에	-10190
목여	-10191
목할	-10192
몸은	-10193
못을	-10194
못자	-10195
무궁	-10196
무한	-10197
문은	-10198
미산	-10199
主見	-10200
圖形	-10201
安時	-10202
張寂	-10203
慧頭	-10204
有相	-10205
火宅	-10206
繼之	-10207
鐵道	-10208
高露	-10209
魚肉	-10210
길을	-10211
나를	-10212
나쁜	-10213
날을	-10214
너무	-10215
당초	-10216
대개	-10217
된다	-10218
모진	-10219
바가	-10220
받지	-10221
발한	-10222
방만	-10223
버림	-10224
보는	-10225
본이	-10226
부가	-10227
부와	-10228
분은	-10229
분을	-10230
불서	-10231
불에	-10232
비로	-10233
비록	-10234
사이	-10235
사조	-10236
사흘	-10237
산수	-10238
삼아	-10239
상극	-10240
상덕	-10241
상도	-10242
선과	-10243
선악	-10244
설에	-10245
설이	-10246
성만	-10247
성품	-10248
소리	-10249
속권	-10250
수교	-10251
수량	-10252
쉽게	-10253
승급	-10254
시간	-10255
시매	-10256
시면	-10257
식물	-10258
쓰고	-10259
씩을	-10260
씩의	-10261
아도	-10262
아침	-10263
악한	-10264
안간	-10265
안에	-10266
안이	-10267
앓게	-10268
았을	-10269
약한	-10270
양의	-10271
업에	-10272
었을	-10273
여의	-10274
오기	-10275
오라	-10276
오직	-10277
요론	-10278
우주	-10279
움과	-10280
원래	-10281
원한	-10282
육근	-10283
육일	-10284
율종	-10285
음의	-10286
응용	-10287
의의	-10288
이까	-10289
이리	-10290
이미	-10291
이번	-10292
인봉	-10293
일경	-10294
일광	-10295
일까	-10296
일체	-10297
일토	-10298
있게	-10299
▁.	-10300
▁뜰	-10301
二門	-10302
內善	-10303
公席	-10304
兵法	-10305
尙思	-10306
數量	-10307
正脈	-10308
無情	-10309
眞言	-10310
禪法	-10311
노소	-10312
면한	-10313
명도	-10314
불경	-10315
삼명	-10316
아직	-10317
여자	-10318
예를	-10319
온지	-10320
우로	-10321
을리	-10322
자연	-10323
자오	-10324
작업	-10325
장부	-10326
장생	-10327
저를	-10328
적적	-10329
전문	-10330
전을	-10331
전의	-10332
절에	-10333
절이	-10334
정신	-10335
조각	-10336
조전	-10337
조행	-10338
졸이	-10339
종문	-10340
줄을	-10341
즉심	-10342
지어	-10343
지와	-10344
지은	-10345
지중	-10346
진묵	-10347
진인	-10348
진화	-10349
질의	-10350
차와	-10351
창도	-10352
창천	-10353
척이	-10354
척척	-10355
천안	-10356
천의	-10357
철도	-10358
청전	-10359
체에	-10360
쳐야	-10361
초점	-10362
춘립	-10363
춘풍	-10364
충신	-10365
취될	-10366
취사	-10367
칠까	-10368
크게	-10369
타심	-10370
탄할	-10371
터가	-10372
터는	-10373
통에	-10374
팔산	-10375
포와	-10376
하요	-10377
한가	-10378
한데	-10379
할꼬	-10380
합의	-10381
해법	-10382
행할	-10383
혐극	-10384
형사	-10385
화기	-10386
화상	-10387
효를	-10388
후계	-10389
후에	-10390
▁工夫	-10391
▁가꾸	-10392
▁가린	-10393
▁가문	-10394
▁가위	-10395
▁각양	-10396
▁갈림	-10397
▁감도	-10398
▁감시	-10399
1)	-10400
以成	-10401
口傳	-10402
命脈	-10403
城隍	-10404
大功	-10405
實性	-10406
彌勒	-10407
曺頌	-10408
歲拜	-10409
禪中	-10410
長短	-10411
頓修	-10412
개자	-10413
그만	-10414
금은	-10415
금한	-10416
놓아	-10417
대는	-10418
도는	-10419
때가	-10420
로는	-10421
만물	-10422
밖에	-10423
받은	-10424
벌을	-10425
봉소	-10426
불이	-10427
선승	-10428
심야	-10429
인화	-10430
일일	-10431
장차	-10432
증산	-10433
지영	-10434
지혜	-10435
추려	-10436
회에	-10437
▁갑이	-10438
▁경찰	-10439
▁경편	-10440
▁고금	-10441
▁고명	-10442
▁공배	-10443
▁공원	-10444
▁공한	-10445
▁과공	-10446
▁과중	-10447
▁관습	-10448
▁교에	-10449
▁교제	-10450
▁구송	-10451
▁구천	-10452
▁궁궁	-10453
▁궁벽	-10454
▁귀해	-10455
▁근로	-10456
▁길할	-10457
▁끊음	-10458
▁끌지	-10459
▁끝도	-10460
▁나던	-10461
▁나래	-10462
▁낭유	-10463
▁내린	-10464
▁내버	-10465
▁네나	-10466
▁년을	-10467
▁놀다	-10468
▁높아	-10469
▁높이	-10470
▁놓게	-10471
▁누웠	-10472
▁늙은	-10473
▁능대	-10474
▁능사	-10475
▁다정	-10476
▁단을	-10477
▁달랐	-10478
▁달음	-10479
▁달한	-10480
▁당을	-10481
▁당인	-10482
▁대건	-10483
▁대문	-10484
▁대수	-10485
▁대응	-10486
▁덕만	-10487
▁데만	-10488
▁도리	-10489
▁독선	-10490
▁돈과	-10491
▁돌렸	-10492
▁동선	-10493
▁돼지	-10494
▁두는	-10495
▁들과	-10496
▁들안	-10497
▁등위	-10498
▁때요	-10499
可思	-10500
家眷	-10501
風蘿	-10502
계의	-10503
고와	-10504
그릇	-10505
기차	-10506
내지	-10507
무를	-10508
문과	-10509
부지	-10510
사자	-10511
색을	-10512
생전	-10513
서만	-10514
수에	-10515
승을	-10516
심고	-10517
위로	-10518
일기	-10519
자에	-10520
축도	-10521
치한	-10522
흥을	-10523
▁계법	-10524
▁글로	-10525
▁떼어	-10526
▁똥을	-10527
▁뜻만	-10528
▁리가	-10529
▁마른	-10530
▁만날	-10531
▁만론	-10532
▁만사	-10533
▁만을	-10534
▁만통	-10535
▁많게	-10536
▁많아	-10537
▁매던	-10538
▁매인	-10539
▁명상	-10540
▁모욕	-10541
▁목욕	-10542
▁몰려	-10543
▁무무	-10544
▁물결	-10545
▁미물	-10546
▁미옥	-10547
▁박물	-10548
▁반본	-10549
▁반수	-10550
▁발각	-10551
▁발제	-10552
▁방비	-10553
▁백승	-10554
▁뱀과	-10555
▁뱀의	-10556
▁변절	-10557
▁변해	-10558
▁보를	-10559
▁보물	-10560
▁부산	-10561
▁부와	-10562
▁부하	-10563
▁북에	-10564
▁불친	-10565
▁붙이	-10566
▁비각	-10567
▁비관	-10568
▁빈병	-10569
▁빠르	-10570
▁사기	-10571
▁사다	-10572
▁사선	-10573
▁사소	-10574
▁사욕	-10575
▁사지	-10576
▁살면	-10577
▁삼륜	-10578
▁삼왕	-10579
▁상관	-10580
▁상실	-10581
▁상주	-10582
▁상징	-10583
▁상화	-10584
▁서방	-10585
▁서쪽	-10586
▁선발	-10587
▁선성	-10588
▁설교	-10589
▁설령	-10590
▁성습	-10591
▁세고	-10592
▁세는	-10593
▁소로	-10594
▁소중	-10595
▁속세	-10596
▁손수	-10597
▁송구	-10598
▁수림	-10599
中庸	-10600
之中	-10601
佛家	-10602
對治	-10603
年度	-10604
感想	-10605
扶安	-10606
淵源	-10607
生老	-10608
要旨	-10609
경처	-10610
끼로	-10611
나라	-10612
동을	-10613
름을	-10614
막한	-10615
법신	-10616
병자	-10617
보시	-10618
사한	-10619
성경	-10620
정사	-10621
▁나셨	-10622
▁만백	-10623
▁불빛	-10624
▁붙였	-10625
▁사면	-10626
▁산과	-10627
▁수에	-10628
▁수일	-10629
▁순숙	-10630
▁술법	-10631
▁시에	-10632
▁시창	-10633
▁신경	-10634
▁신뢰	-10635
▁신음	-10636
▁실이	-10637
▁심단	-10638
▁심상	-10639
▁십명	-10640
▁십분	-10641
▁십인	-10642
▁쌓기	-10643
▁쓰러	-10644
▁쓰실	-10645
▁악전	-10646
▁안될	-10647
▁안목	-10648
▁안이	-10649
▁앞이	-10650
▁애매	-10651
▁양로	-10652
▁양육	-10653
▁어거	-10654
▁어업	-10655
▁억울	-10656
▁언을	-10657
▁엄격	-10658
▁엎질	-10659
▁여식	-10660
▁역설	-10661
▁연필	-10662
▁열고	-10663
▁열한	-10664
▁염송	-10665
▁영멸	-10666
▁영명	-10667
▁영생	-10668
▁예시	-10669
▁오며	-10670
▁오월	-10671
▁오죽	-10672
▁완강	-10673
▁완쾌	-10674
▁왕위	-10675
▁외불	-10676
▁요량	-10677
▁요절	-10678
▁우라	-10679
▁우를	-10680
▁우스	-10681
▁운심	-10682
▁운외	-10683
▁운을	-10684
▁원력	-10685
▁원업	-10686
▁위안	-10687
▁유독	-10688
▁유세	-10689
▁유순	-10690
▁유야	-10691
▁유족	-10692
▁유행	-10693
▁유희	-10694
▁육진	-10695
▁응연	-10696
▁응하	-10697
▁의미	-10698
▁의탁	-10699
仙家	-10700
佛門	-10701
剛强	-10702
國明	-10703
宋碧	-10704
宗門	-10705
工匠	-10706
心戒	-10707
旣然	-10708
是禍	-10709
無關	-10710
血魔	-10711
계로	-10712
골을	-10713
도와	-10714
몸과	-10715
법도	-10716
변산	-10717
사리	-10718
삼보	-10719
선한	-10720
염불	-10721
오신	-10722
임의	-10723
장히	-10724
절과	-10725
조로	-10726
지을	-10727
지친	-10728
치로	-10729
허를	-10730
화방	-10731
▁대완	-10732
▁머슴	-10733
▁사몽	-10734
▁색신	-10735
▁생산	-10736
▁외웠	-10737
▁용렬	-10738
▁이구	-10739
▁이면	-10740
▁이분	-10741
▁이적	-10742
▁이하	-10743
▁인품	-10744
▁인형	-10745
▁일진	-10746
▁일행	-10747
▁입과	-10748
▁입법	-10749
▁입원	-10750
▁있겠	-10751
▁자대	-10752
▁자빠	-10753
▁자족	-10754
▁잠긴	-10755
▁잠이	-10756
▁잡되	-10757
▁장년	-10758
▁장수	-10759
▁저질	-10760
▁적자	-10761
▁적합	-10762
▁전감	-10763
▁전반	-10764
▁전부	-10765
▁정확	-10766
▁제게	-10767
▁제법	-10768
▁제충	-10769
▁제칠	-10770
▁조소	-10771
▁조숙	-10772
▁존망	-10773
▁존자	-10774
▁종사	-10775
▁주라	-10776
▁주식	-10777
▁주한	-10778
▁준공	-10779
▁중단	-10780
▁중안	-10781
▁지가	-10782
▁지녀	-10783
▁지묵	-10784
▁지불	-10785
▁지으	-10786
▁진다	-10787
▁짚신	-10788
▁착에	-10789
▁찬양	-10790
▁채소	-10791
▁천직	-10792
▁천통	-10793
▁청련	-10794
▁쳐서	-10795
▁초개	-10796
▁최령	-10797
▁추운	-10798
▁추하	-10799
二帝	-10800
修仁	-10801
個靈	-10802
八萬	-10803
威儀	-10804
子女	-10805
岫山	-10806
弓乙	-10807
徒食	-10808
憎愛	-10809
時時	-10810
符經	-10811
長養	-10812
降身	-10813
공청	-10814
구를	-10815
그로	-10816
금강	-10817
나와	-10818
대고	-10819
령인	-10820
만방	-10821
말만	-10822
세우	-10823
셨던	-10824
송을	-10825
시가	-10826
악은	-10827
일내	-10828
줌이	-10829
창립	-10830
천상	-10831
판기	-10832
▁가매	-10833
▁공명	-10834
▁꽃과	-10835
▁명지	-10836
▁서너	-10837
▁어질	-10838
▁주송	-10839
▁출생	-10840
▁춤을	-10841
▁충만	-10842
▁친족	-10843
▁침해	-10844
▁켜며	-10845
▁타파	-10846
▁타해	-10847
▁태아	-10848
▁태우	-10849
▁통례	-10850
▁통해	-10851
▁파니	-10852
▁파순	-10853
▁판을	-10854
▁팔월	-10855
▁포수	-10856
▁포용	-10857
▁풍운	-10858
▁필시	-10859
▁하던	-10860
▁하도	-10861
▁학기	-10862
▁합산	-10863
▁해칠	-10864
▁허한	-10865
▁험산	-10866
▁형각	-10867
▁혜광	-10868
▁혜명	-10869
▁호대	-10870
▁호장	-10871
▁회계	-10872
▁훈계	-10873
▁힘과	-10874
上要法	-10875
世柔爲	-10876
九岫山	-10877
事無碍	-10878
亦非非	-10879
人名衣	-10880
他子女	-10881
以成有	-10882
佛法是	-10883
保長生	-10884
修仁華	-10885
兜率天	-10886
八萬藏	-10887
千峰月	-10888
千峰踏	-10889
南無阿	-10890
天開闢	-10891
山絶頂	-10892
己下心	-10893
府使者	-10894
弓乙乙	-10895
後繼之	-10896
怒哀樂	-10897
恩生於	-10898
敎義編	-10899
公金	-10900
博覽	-10901
盖自	-10902
辨疑	-10903
렸다	-10904
망도	-10905
멸도	-10906
모로	-10907
목사	-10908
셨을	-10909
속인	-10910
잠을	-10911
정의	-10912
주와	-10913
프게	-10914
하듯	-10915
화경	-10916
화발	-10917
▁가을	-10918
▁관조	-10919
▁광령	-10920
▁구수	-10921
▁대명	-10922
▁대전	-10923
▁동서	-10924
▁동에	-10925
▁밑은	-10926
▁범도	-10927
▁붓을	-10928
▁세태	-10929
▁유산	-10930
▁장엄	-10931
▁적확	-10932
▁행교	-10933
▁현직	-10934
博覽會	-10935
春秋法	-10936
曺頌廣	-10937
月上時	-10938
欲速心	-10939
正覺正	-10940
波瀾苦	-10941
活造傳	-10942
無無亦	-10943
無量劫	-10944
獻貢金	-10945
現世界	-10946
田參參	-10947
石頭家	-10948
石頭庵	-10949
細雨鳴	-10950
脫立亡	-10951
臨於先	-10952
萬國明	-10953
衣食住	-10954
言語名	-10955
轉迷開	-10956
辨疑品	-10957
道學家	-10958
金正覺	-10959
陰符經	-10960
鷄龍山	-10961
가니라	-10962
각자의	-10963
강급의	-10964
강산은	-10965
개함이	-10966
거리는	-10967
거하지	-10968
건으로	-10969
것만을	-10970
겠도다	-10971
계하고	-10972
공자는	-10973
과보는	-10974
구함을	-10975
군에게	-10976
굴리지	-10977
궁함과	-10978
그러나	-10979
그럽고	-10980
나들고	-10981
난으로	-10982
남공중	-10983
남에게	-10984
념하신	-10985
대양의	-10986
덩어리	-10987
동으로	-10988
돼지의	-10989
되었고	-10990
듣기를	-10991
들로는	-10992
떠나는	-10993
떻든지	-10994
란하여	-10995
랐으니	-10996
량에만	-10997
려주는	-10998
려하지	-10999
宿明	-11000
度日	-11001
時華	-11002
書傳	-11003
男兒	-11004
精金	-11005
誠品	-11006
貪心	-11007
造者	-11008
국문	-11009
렵에	-11010
류의	-11011
선지	-11012
세존	-11013
실에	-11014
은과	-11015
을의	-11016
잡지	-11017
정법	-11018
파도	-11019
회나	-11020
▁냉해	-11021
▁명확	-11022
▁부유	-11023
▁불에	-11024
▁쉬울	-11025
▁오가	-11026
▁위중	-11027
▁이무	-11028
▁일경	-11029
▁장관	-11030
▁전혐	-11031
▁향락	-11032
信誠品	-11033
創造者	-11034
四時華	-11035
天眞波	-11036
好男兒	-11037
聊度日	-11038
되오나	-11039
령하고	-11040
류에게	-11041
리려는	-11042
림이라	-11043
림하여	-11044
마르게	-11045
맛동안	-11046
망량의	-11047
묘하여	-11048
민들을	-11049
밀하나	-11050
밀히는	-11051
반되는	-11052
백하여	-11053
버지를	-11054
범하지	-11055
법귀일	-11056
복으로	-11057
봉소나	-11058
불상을	-11059
비되는	-11060
비시켜	-11061
비하던	-11062
비하여	-11063
사상에	-11064
사업을	-11065
사이니	-11066
사조는	-11067
사하며	-11068
사하면	-11069
사흘의	-11070
산업부	-11071
삼세각	-11072
삼으면	-11073
색하여	-11074
석이나	-11075
선하여	-11076
성하는	-11077
세우명	-11078
셨나니	-11079
수천봉	-11080
순이라	-11081
시다가	-11082
식하여	-11083
신하는	-11084
실행의	-11085
심하여	-11086
아까는	-11087
았으니	-11088
앙화를	-11089
양에나	-11090
어디가	-11091
없다는	-11092
었거나	-11093
었다면	-11094
열되어	-11095
열반경	-11096
열반이	-11097
열하여	-11098
예수교	-11099
▁쟁	-11100
上德	-11101
元天	-11102
女峰	-11103
病根	-11104
石立	-11105
가와	-11106
간다	-11107
국명	-11108
급히	-11109
나갈	-11110
난한	-11111
다음	-11112
두면	-11113
두어	-11114
릇이	-11115
만큼	-11116
말에	-11117
병에	-11118
속은	-11119
위가	-11120
유심	-11121
조나	-11122
칭을	-11123
키는	-11124
피를	-11125
▁겪은	-11126
▁고침	-11127
▁무도	-11128
▁실심	-11129
▁업에	-11130
▁연원	-11131
▁이라	-11132
▁이요	-11133
▁쟁투	-11134
▁천층	-11135
▁철을	-11136
元天降	-11137
務出身	-11138
坐禪法	-11139
玉女峰	-11140
石立聽	-11141
렁이와	-11142
온다는	-11143
온하다	-11144
완전한	-11145
욕심은	-11146
용맹이	-11147
원에게	-11148
위에나	-11149
위에만	-11150
유심조	-11151
음알이	-11152
이로운	-11153
일토록	-11154
임금은	-11155
자라도	-11156
자리를	-11157
자선의	-11158
자하여	-11159
장하니	-11160
재산을	-11161
쟁하는	-11162
절한것	-11163
좌선만	-11164
좌선은	-11165
주리라	-11166
주의한	-11167
주인봉	-11168
중생을	-11169
지금도	-11170
지라면	-11171
지리니	-11172
지영보	-11173
지출과	-11174
찍히고	-11175
착심이	-11176
찰나로	-11177
창천중	-11178
택하며	-11179
통하는	-11180
팔조는	-11181
하고는	-11182
한들이	-11183
해천진	-11184
허하고	-11185
험하지	-11186
혼하는	-11187
회하고	-11188
후무한	-11189
희망이	-11190
히어서	-11191
▁60.	-11192
▁61.	-11193
▁가난인	-11194
▁가면서	-11195
▁가져가	-11196
▁가지기	-11197
▁가지니	-11198
▁가지면	-11199
一時	-11200
不輕	-11201
來覺	-11202
善行	-11203
心印	-11204
附囑	-11205
震華	-11206
람회	-11207
성현	-11208
씨가	-11209
이웃	-11210
자지	-11211
취를	-11212
침에	-11213
학의	-11214
▁계룡	-11215
▁내정	-11216
▁사술	-11217
▁써니	-11218
▁열었	-11219
▁윤택	-11220
▁인재	-11221
▁일대	-11222
▁읽게	-11223
▁지났	-11224
一時花	-11225
來覺道	-11226
像自然	-11227
常不輕	-11228
附囑品	-11229
날에는	-11230
득하는	-11231
람회는	-11232
성현은	-11233
이어서	-11234
지르고	-11235
▁가치는	-11236
▁각자도	-11237
▁각처의	-11238
▁간섭과	-11239
▁간이식	-11240
▁감나무	-11241
▁강기를	-11242
▁갖추고	-11243
▁개에게	-11244
▁개인을	-11245
▁거개가	-11246
▁거개의	-11247
▁거처에	-11248
▁거쳐서	-11249
▁건네게	-11250
▁건물을	-11251
▁건설을	-11252
▁건설의	-11253
▁건축을	-11254
▁건축할	-11255
▁것들도	-11256
▁것이기	-11257
▁게송의	-11258
▁게으른	-11259
▁견성은	-11260
▁결혼도	-11261
▁경례를	-11262
▁경향을	-11263
▁계문도	-11264
▁계통에	-11265
▁고기를	-11266
▁고락도	-11267
▁고르신	-11268
▁고르지	-11269
▁곡조로	-11270
▁곡출이	-11271
▁골절이	-11272
▁공급이	-11273
▁공만을	-11274
▁공포에	-11275
▁공헌한	-11276
▁과불급	-11277
▁과학이	-11278
▁관계와	-11279
▁광선을	-11280
▁괴롭고	-11281
▁교도와	-11282
▁교리가	-11283
▁교육도	-11284
▁교의가	-11285
▁교의편	-11286
▁교종의	-11287
▁교회에	-11288
▁구별도	-11289
▁구분된	-11290
▁구분을	-11291
▁구수산	-11292
▁구인은	-11293
▁구하러	-11294
▁구하면	-11295
▁굽히는	-11296
▁궁벽한	-11297
▁권세에	-11298
▁귀하고	-11299
不偏	-11300
乘禪	-11301
事物	-11302
冠婚	-11303
己未	-11304
生死	-11305
病者	-11306
苦行	-11307
董仲	-11308
超凡	-11309
輕便	-11310
가다	-11311
가면	-11312
구인	-11313
재가	-11314
조건	-11315
종할	-11316
집을	-11317
착을	-11318
천산	-11319
청풍	-11320
치법	-11321
켰고	-11322
흐로	-11323
▁갑도	-11324
▁겁에	-11325
▁견물	-11326
▁등불	-11327
▁신중	-11328
▁연속	-11329
▁저자	-11330
▁정결	-11331
▁팥이	-11332
▁평복	-11333
不偏不	-11334
先病者	-11335
冠婚喪	-11336
大乘禪	-11337
己未年	-11338
生死門	-11339
硏究會	-11340
董仲舒	-11341
난로가	-11342
낮으로	-11343
디기는	-11344
법신불	-11345
야흐로	-11346
에까지	-11347
청풍월	-11348
탐착을	-11349
투천산	-11350
패하고	-11351
▁견문에	-11352
▁귀하요	-11353
▁그때의	-11354
▁근동에	-11355
▁근본한	-11356
▁근원은	-11357
▁기구도	-11358
▁기념의	-11359
▁기도도	-11360
▁기록할	-11361
▁기르고	-11362
▁기름이	-11363
▁기식이	-11364
▁기차나	-11365
▁기한이	-11366
▁기회와	-11367
▁긴요할	-11368
▁길들일	-11369
▁길어난	-11370
▁길흉에	-11371
▁까닭을	-11372
▁꺼버림	-11373
▁꽃다운	-11374
▁끌리게	-11375
▁끌리고	-11376
▁끝이니	-11377
▁나간다	-11378
▁나기도	-11379
▁나나니	-11380
▁나더니	-11381
▁나리라	-11382
▁나무를	-11383
▁나무의	-11384
▁나쁘게	-11385
▁나오고	-11386
▁나타났	-11387
▁낙에도	-11388
▁난다는	-11389
▁난리를	-11390
▁난리에	-11391
▁난리와	-11392
▁낮에는	-11393
▁내도록	-11394
▁내려온	-11395
▁내리려	-11396
▁내심에	-11397
▁내역도	-11398
▁넓어서	-11399
五欲	-11400
因果	-11401
外道	-11402
日日	-11403
波旬	-11404
獨露	-11405
理懺	-11406
發言	-11407
知而	-11408
私家	-11409
肉之	-11410
自矜	-11411
공사	-11412
교가	-11413
구경	-11414
금년	-11415
기실	-11416
니까	-11417
니는	-11418
닭이	-11419
대자	-11420
대저	-11421
덕도	-11422
로이	-11423
맛을	-11424
신한	-11425
아갈	-11426
우자	-11427
중과	-11428
측한	-11429
피는	-11430
해질	-11431
▁도중	-11432
▁맛을	-11433
▁무아	-11434
▁자긍	-11435
▁천연	-11436
▁터져	-11437
▁혐극	-11438
▁화피	-11439
▁훼담	-11440
右知而	-11441
因果品	-11442
始曠劫	-11443
常獨露	-11444
肉之親	-11445
담하며	-11446
만물포	-11447
복되는	-11448
상에서	-11449
실하니	-11450
옵니까	-11451
잠자고	-11452
화하되	-11453
▁경중과	-11454
▁교법도	-11455
▁교화로	-11456
▁난측한	-11457
▁넓으며	-11458
▁노동의	-11459
▁노소가	-11460
▁노송이	-11461
▁농작물	-11462
▁높다는	-11463
▁놓기로	-11464
▁놓았고	-11465
▁놓치고	-11466
▁늘어서	-11467
▁늦추고	-11468
▁다같이	-11469
▁다니게	-11470
▁다생이	-11471
▁다음은	-11472
▁다행한	-11473
▁단독히	-11474
▁단원에	-11475
▁달하게	-11476
▁답례를	-11477
▁당면한	-11478
▁당장의	-11479
▁대강은	-11480
▁대답하	-11481
▁대사가	-11482
▁대상이	-11483
▁대승선	-11484
▁대신에	-11485
▁대의가	-11486
▁대조할	-11487
▁대조해	-11488
▁대하되	-11489
▁대하시	-11490
▁더럽고	-11491
▁더위를	-11492
▁더하고	-11493
▁덕화를	-11494
▁도구를	-11495
▁도인의	-11496
▁독선의	-11497
▁돌리니	-11498
▁돌아올	-11499
利在	-11500
啓發	-11501
天痴	-11502
物我	-11503
禮監	-11504
維摩	-11505
至極	-11506
要論	-11507
跡主	-11508
醫王	-11509
각한	-11510
감을	-11511
란습	-11512
문학	-11513
본위	-11514
비가	-11515
선종	-11516
심대	-11517
의품	-11518
전급	-11519
조선	-11520
주세	-11521
중용	-11522
질에	-11523
▁공정	-11524
▁그른	-11525
▁도신	-11526
▁땅과	-11527
▁말변	-11528
▁말의	-11529
▁비범	-11530
▁아뢰	-11531
▁안빈	-11532
▁알자	-11533
▁오매	-11534
▁외부	-11535
▁제호	-11536
利在弓	-11537
無跡主	-11538
維摩經	-11539
가게를	-11540
동방만	-11541
란습화	-11542
무엇이	-11543
문학계	-11544
아져서	-11545
정심대	-11546
▁강급이	-11547
▁갱조선	-11548
▁고해의	-11549
▁교인을	-11550
▁기념을	-11551
▁기초가	-11552
▁껍질에	-11553
▁도심을	-11554
▁도탄이	-11555
▁동안만	-11556
▁동정간	-11557
▁동정을	-11558
▁동학의	-11559
▁되어볼	-11560
▁되지는	-11561
▁두뇌의	-11562
▁두었삽	-11563
▁둔하고	-11564
▁둘째로	-11565
▁드리면	-11566
▁듣는다	-11567
▁들더니	-11568
▁들어오	-11569
▁들었다	-11570
▁들에서	-11571
▁들으나	-11572
▁들으며	-11573
▁들이게	-11574
▁들이어	-11575
▁들인지	-11576
▁등위를	-11577
▁따르던	-11578
▁땅에서	-11579
▁때문에	-11580
▁뛰어다	-11581
▁뜻밖에	-11582
▁마당의	-11583
▁마리가	-11584
▁막으라	-11585
▁만나기	-11586
▁만리의	-11587
▁만전을	-11588
▁많으면	-11589
▁많으신	-11590
▁말려도	-11591
▁말리어	-11592
▁말이라	-11593
▁말이면	-11594
▁맑으며	-11595
▁망상은	-11596
▁맞추고	-11597
▁맞추는	-11598
▁머리나	-11599
信仰	-11600
凝然	-11601
功倍	-11602
影幀	-11603
慧命	-11604
戒律	-11605
戶張	-11606
法器	-11607
津液	-11608
癸未	-11609
示品	-11610
광의	-11611
무에	-11612
선절	-11613
영광	-11614
영육	-11615
영을	-11616
육년	-11617
일월	-11618
전생	-11619
지나	-11620
▁나일	-11621
▁돈도	-11622
▁불면	-11623
▁새우	-11624
▁서문	-11625
▁소모	-11626
▁안타	-11627
▁육식	-11628
▁입기	-11629
▁하자	-11630
▁혼인	-11631
實示品	-11632
影幀閣	-11633
是禍基	-11634
朴戶張	-11635
權大鎬	-11636
金三昧	-11637
가래를	-11638
롭게도	-11639
명의복	-11640
어지며	-11641
음광의	-11642
일하지	-11643
조사와	-11644
창하여	-11645
▁가볍다	-11646
▁개이고	-11647
▁국민의	-11648
▁기침이	-11649
▁나쁘고	-11650
▁독서만	-11651
▁먹거나	-11652
▁먹어도	-11653
▁먹여서	-11654
▁먹으면	-11655
▁먹줄을	-11656
▁멀리서	-11657
▁멀리할	-11658
▁멀어질	-11659
▁명확한	-11660
▁모두가	-11661
▁모름에	-11662
▁모범을	-11663
▁모시기	-11664
▁모욕을	-11665
▁목장의	-11666
▁목적만	-11667
▁몸이니	-11668
▁못할뿐	-11669
▁못함에	-11670
▁못함이	-11671
▁묘지나	-11672
▁묘하게	-11673
▁무극과	-11674
▁무렵에	-11675
▁무리한	-11676
▁무별한	-11677
▁무상은	-11678
▁무엇과	-11679
▁무처선	-11680
▁문답이	-11681
▁문서를	-11682
▁문에서	-11683
▁물건만	-11684
▁물건의	-11685
▁물품이	-11686
▁미래에	-11687
▁미비한	-11688
▁미치지	-11689
▁민심이	-11690
▁믿기도	-11691
▁밀려서	-11692
▁바라다	-11693
▁바람은	-11694
▁바보인	-11695
▁바와는	-11696
▁바인즉	-11697
▁받게도	-11698
▁받는다	-11699
不動	-11700
人生	-11701
圓寂	-11702
宋萬	-11703
屈心	-11704
心田	-11705
發萬	-11706
經典	-11707
者本	-11708
공래	-11709
나기	-11710
실이	-11711
차려	-11712
친척	-11713
코를	-11714
할뿐	-11715
▁고목	-11716
▁곤궁	-11717
▁공교	-11718
▁별립	-11719
▁붙기	-11720
▁뻗어	-11721
▁사육	-11722
▁실달	-11723
▁오던	-11724
▁음식	-11725
▁중책	-11726
▁짧고	-11727
▁코를	-11728
▁한꺼	-11729
▁한층	-11730
不動心	-11731
圓寂無	-11732
宋萬京	-11733
尺數量	-11734
山第一	-11735
智者本	-11736
發萬歲	-11737
薦度齋	-11738
退屈心	-11739
고하는	-11740
그것이	-11741
성이며	-11742
시킴에	-11743
연으로	-11744
왕공래	-11745
초점장	-11746
▁거액을	-11747
▁결실이	-11748
▁근기가	-11749
▁다니되	-11750
▁대기사	-11751
▁대상을	-11752
▁뒤에도	-11753
▁무조건	-11754
▁받다가	-11755
▁받드는	-11756
▁발달된	-11757
▁발달에	-11758
▁발라서	-11759
▁발명이	-11760
▁발원과	-11761
▁발전의	-11762
▁밝아짐	-11763
▁밝혀서	-11764
▁밟기에	-11765
▁밤이나	-11766
▁방법의	-11767
▁방탕한	-11768
▁배우러	-11769
▁배척할	-11770
▁백년의	-11771
▁번민과	-11772
▁번이나	-11773
▁번잡한	-11774
▁벌이고	-11775
▁범한다	-11776
▁법계와	-11777
▁법력에	-11778
▁법만이	-11779
▁법문에	-11780
▁법박에	-11781
▁법위를	-11782
▁법이나	-11783
▁법통과	-11784
▁법통은	-11785
▁법통이	-11786
▁법회를	-11787
▁변의품	-11788
▁변화로	-11789
▁병들어	-11790
▁병들지	-11791
▁보고를	-11792
▁보내게	-11793
▁보내면	-11794
▁보내신	-11795
▁보내지	-11796
▁보살펴	-11797
▁보시면	-11798
▁보여서	-11799
一歸	-11800
事懺	-11801
創立	-11802
十二	-11803
圓機	-11804
李共	-11805
法强	-11806
法聖	-11807
石現	-11808
自慢	-11809
국토	-11810
기미	-11811
답게	-11812
를까	-11813
이냐	-11814
인데	-11815
증도	-11816
▁논죄	-11817
▁농력	-11818
▁대업	-11819
▁막을	-11820
▁무명	-11821
▁무법	-11822
▁물도	-11823
▁살도	-11824
▁숨을	-11825
▁읽어	-11826
▁제봉	-11827
▁줌이	-11828
▁화택	-11829
李共珠	-11830
梭圓機	-11831
理無碍	-11832
行四條	-11833
鄭石現	-11834
국토가	-11835
기미년	-11836
세증도	-11837
순시킬	-11838
치나니	-11839
▁간단이	-11840
▁갈래가	-11841
▁거두어	-11842
▁걸고도	-11843
▁걸리지	-11844
▁귀신이	-11845
▁극락이	-11846
▁기천의	-11847
▁대건물	-11848
▁만분의	-11849
▁말기를	-11850
▁맡기려	-11851
▁못되는	-11852
▁바람의	-11853
▁바인데	-11854
▁밝아서	-11855
▁범위와	-11856
▁보나니	-11857
▁보은미	-11858
▁보지는	-11859
▁보통에	-11860
▁보험에	-11861
▁복덕을	-11862
▁복록의	-11863
▁복음을	-11864
▁복음이	-11865
▁본가를	-11866
▁본분이	-11867
▁본원이	-11868
▁봉변을	-11869
▁봉양을	-11870
▁부르는	-11871
▁부르면	-11872
▁부모은	-11873
▁부부와	-11874
▁부수기	-11875
▁부인을	-11876
▁부임할	-11877
▁부자된	-11878
▁부처는	-11879
▁부촉할	-11880
▁분량의	-11881
▁분망한	-11882
▁분쟁을	-11883
▁불공만	-11884
▁불과할	-11885
▁불교로	-11886
▁불빛이	-11887
▁불안을	-11888
▁불지에	-11889
▁불효를	-11890
▁붙이면	-11891
▁비기실	-11892
▁비난도	-11893
▁비밀히	-11894
▁비유할	-11895
▁비추어	-11896
▁비판과	-11897
▁빈병인	-11898
▁빈천한	-11899
二天	-11900
像法	-11901
德治	-11902
掌中	-11903
敎運	-11904
永信	-11905
經講	-11906
邊山	-11907
길로	-11908
되매	-11909
료가	-11910
벽에	-11911
부호	-11912
상독	-11913
심법	-11914
연은	-11915
일산	-11916
전심	-11917
키가	-11918
▁공석	-11919
▁괴겁	-11920
▁다닐	-11921
▁백행	-11922
▁연각	-11923
▁임시	-11924
▁자각	-11925
▁해오	-11926
政德治	-11927
金永信	-11928
雨露恩	-11929
黃二天	-11930
그러진	-11931
리거나	-11932
상독로	-11933
즉심시	-11934
추어서	-11935
편되매	-11936
▁강연은	-11937
▁같은가	-11938
▁계한이	-11939
▁귀절에	-11940
▁기운에	-11941
▁도리는	-11942
▁도문의	-11943
▁망상과	-11944
▁모아서	-11945
▁밖에는	-11946
▁발견되	-11947
▁불친이	-11948
▁비방도	-11949
▁빠르게	-11950
▁빠진다	-11951
▁뻗어나	-11952
▁뿌리에	-11953
▁사기도	-11954
▁사람인	-11955
▁사무를	-11956
▁사물이	-11957
▁사사로	-11958
▁사생을	-11959
▁사시가	-11960
▁사원이	-11961
▁사제는	-11962
▁사죄를	-11963
▁사회로	-11964
▁사후를	-11965
▁산악을	-11966
▁살아도	-11967
▁삼보로	-11968
▁삼산의	-11969
▁삼세를	-11970
▁삼십이	-11971
▁삼천이	-11972
▁상근에	-11973
▁상하가	-11974
▁상하와	-11975
▁새끼도	-11976
▁색상을	-11977
▁색색의	-11978
▁생기기	-11979
▁생의도	-11980
▁생활해	-11981
▁서천에	-11982
▁석두암	-11983
▁석립청	-11984
▁섞이지	-11985
▁선도를	-11986
▁선이라	-11987
▁선중에	-11988
▁선진과	-11989
▁선하나	-11990
▁선하여	-11991
▁설법과	-11992
▁성냥을	-11993
▁성리품	-11994
▁성불제	-11995
▁성의는	-11996
▁성의요	-11997
▁성현을	-11998
▁세계는	-11999
歌詞	-12000
步步	-12001
治平	-12002
無事	-12003
窮谷	-12004
갑에	-12005
규를	-12006
내기	-12007
냐고	-12008
뇌가	-12009
등급	-12010
명에	-12011
범을	-12012
법위	-12013
우지	-12014
울려	-12015
적한	-12016
항할	-12017
▁남산	-12018
▁노혼	-12019
▁등급	-12020
▁때도	-12021
▁법어	-12022
▁빨리	-12023
▁실례	-12024
▁완고	-12025
▁의혹	-12026
▁정심	-12027
▁주민	-12028
▁진액	-12029
▁통할	-12030
山窮谷	-12031
齊治平	-12032
거하여	-12033
대중을	-12034
명리를	-12035
여명에	-12036
최상의	-12037
▁갑이라	-12038
▁견고히	-12039
▁고뇌가	-12040
▁공양의	-12041
▁권세도	-12042
▁깨치어	-12043
▁대천에	-12044
▁덩어리	-12045
▁들이면	-12046
▁등급을	-12047
▁문갑에	-12048
▁바다를	-12049
▁발원한	-12050
▁법규를	-12051
▁법도와	-12052
▁뿐이며	-12053
▁생계를	-12054
▁세속의	-12055
▁세우면	-12056
▁세월이	-12057
▁셈이라	-12058
▁소유할	-12059
▁소창도	-12060
▁손님을	-12061
▁쇠하며	-12062
▁수고는	-12063
▁수라도	-12064
▁수라장	-12065
▁수레는	-12066
▁수명을	-12067
▁수미산	-12068
▁수인화	-12069
▁수정할	-12070
▁수행한	-12071
▁수화가	-12072
▁수효를	-12073
▁순응할	-12074
▁순종할	-12075
▁술법만	-12076
▁술수가	-12077
▁숨겨둘	-12078
▁숭배될	-12079
▁쉬어서	-12080
▁시국에	-12081
▁시드는	-12082
▁시방에	-12083
▁시비나	-12084
▁시비와	-12085
▁시주나	-12086
▁시키지	-12087
▁시행될	-12088
▁신념만	-12089
▁신념을	-12090
▁신망도	-12091
▁신명이	-12092
▁신문이	-12093
▁실상은	-12094
▁실시할	-12095
▁실어다	-12096
▁실패나	-12097
▁실패의	-12098
▁실패할	-12099
三件	-12100
儒家	-12101
公心	-12102
十人	-12103
善知	-12104
盤坐	-12105
相戰	-12106
般若	-12107
苦樂	-12108
萬方	-12109
靖亂	-12110
魔障	-12111
겁지	-12112
굴의	-12113
기게	-12114
김영	-12115
도깨	-12116
도마	-12117
살을	-12118
살이	-12119
쇠가	-12120
순이	-12121
왔다	-12122
지난	-12123
▁국내	-12124
▁넘어	-12125
▁단심	-12126
▁돈다	-12127
▁만인	-12128
▁보매	-12129
▁보보	-12130
▁복혜	-12131
▁부치	-12132
▁성문	-12133
▁염정	-12134
▁인솔	-12135
▁자칭	-12136
▁피와	-12137
十人一	-12138
及萬方	-12139
善知識	-12140
心是佛	-12141
相戰級	-12142
般若智	-12143
가시게	-12144
김영신	-12145
도깨비	-12146
란하게	-12147
망하여	-12148
망하지	-12149
불굴의	-12150
족만을	-12151
▁가지되	-12152
▁공기가	-12153
▁굉장한	-12154
▁구공한	-12155
▁기쁨을	-12156
▁노동을	-12157
▁몸살을	-12158
▁보물과	-12159
▁부모에	-12160
▁부자라	-12161
▁불공한	-12162
▁불효가	-12163
▁생활도	-12164
▁서서히	-12165
▁신통과	-12166
▁싫기가	-12167
▁싫어만	-12168
▁심경이	-12169
▁심고는	-12170
▁심성을	-12171
▁심정을	-12172
▁심하였	-12173
▁심하지	-12174
▁십년의	-12175
▁십분의	-12176
▁싸우는	-12177
▁쌓으라	-12178
▁쌓이면	-12179
▁쌓이지	-12180
▁쓰나니	-12181
▁쓰노니	-12182
▁쓰라는	-12183
▁아기의	-12184
▁아무도	-12185
▁아이는	-12186
▁아이와	-12187
▁아프고	-12188
▁악심은	-12189
▁악의로	-12190
▁악이며	-12191
▁악인을	-12192
▁악행을	-12193
▁안다면	-12194
▁안분을	-12195
▁안일만	-12196
▁안정이	-12197
▁앉으면	-12198
▁앉히고	-12199
一山	-12200
中陰	-12201
之者	-12202
地理	-12203
大義	-12204
果園	-12205
生佛	-12206
綱紀	-12207
非利	-12208
과에	-12209
리기	-12210
방을	-12211
심도	-12212
염은	-12213
유상	-12214
음양	-12215
이도	-12216
찰단	-12217
하도	-12218
▁6)	-12219
▁각득	-12220
▁갖춘	-12221
▁버섯	-12222
▁베고	-12223
▁사진	-12224
▁어김	-12225
▁완치	-12226
▁종파	-12227
▁터서	-12228
之者常	-12229
利生焉	-12230
是非利	-12231
그들은	-12232
내리면	-12233
럽히는	-12234
별하고	-12235
불서에	-12236
삼인이	-12237
음양조	-12238
통하여	-12239
편에서	-12240
▁농사로	-12241
▁더하실	-12242
▁되시사	-12243
▁미루지	-12244
▁버섯이	-12245
▁변천도	-12246
▁보아야	-12247
▁본말을	-12248
▁생심도	-12249
▁성호를	-12250
▁솔이여	-12251
▁수염은	-12252
▁시찰단	-12253
▁시해법	-12254
▁실적의	-12255
▁알기가	-12256
▁알아볼	-12257
▁암닭이	-12258
▁압박은	-12259
▁약방에	-12260
▁약재와	-12261
▁양심상	-12262
▁양옥이	-12263
▁어기어	-12264
▁어느곳	-12265
▁어둠을	-12266
▁어디가	-12267
▁어디를	-12268
▁어렵지	-12269
▁어질지	-12270
▁억만의	-12271
▁언어의	-12272
▁얻기에	-12273
▁얻는것	-12274
▁얻었고	-12275
▁얼음이	-12276
▁업보도	-12277
▁업장을	-12278
▁없애려	-12279
▁없어진	-12280
▁없었다	-12281
▁없었을	-12282
▁여래의	-12283
▁여의주	-12284
▁여자를	-12285
▁여지가	-12286
▁역량도	-12287
▁역순이	-12288
▁연고며	-12289
▁연고일	-12290
▁연구가	-12291
▁연구에	-12292
▁연약한	-12293
▁연조나	-12294
▁열리려	-12295
▁염불종	-12296
▁염소를	-12297
▁영근을	-12298
▁영상과	-12299
世聖	-12300
佛仙	-12301
入聖	-12302
大明	-12303
子午	-12304
感覺	-12305
操行	-12306
末邊	-12307
東學	-12308
永天	-12309
生育	-12310
造山	-12311
銀山	-12312
건한	-12313
곡로	-12314
구기	-12315
담과	-12316
목의	-12317
약과	-12318
장단	-12319
재래	-12320
전주	-12321
주며	-12322
진급	-12323
훈품	-12324
▁금사	-12325
▁나뿐	-12326
▁높여	-12327
▁데와	-12328
▁마왕	-12329
▁법만	-12330
▁병행	-12331
▁불선	-12332
▁승락	-12333
▁융창	-12334
▁정에	-12335
▁콩을	-12336
▁홀린	-12337
世聖者	-12338
儒佛仙	-12339
善不善	-12340
子午調	-12341
日月一	-12342
永天永	-12343
게송을	-12344
구곡로	-12345
돋구기	-12346
동하지	-12347
소하여	-12348
하셨다	-12349
▁가리어	-12350
▁경건한	-12351
▁규약과	-12352
▁금사망	-12353
▁대략을	-12354
▁돋구기	-12355
▁먹은즉	-12356
▁목표를	-12357
▁무기를	-12358
▁묵히어	-12359
▁부부의	-12360
▁비행기	-12361
▁알리요	-12362
▁연구라	-12363
▁영생의	-12364
▁영식은	-12365
▁예법도	-12366
▁예법은	-12367
▁예법을	-12368
▁예수교	-12369
▁예회도	-12370
▁옛말에	-12371
▁오나니	-12372
▁오늘이	-12373
▁오롯한	-12374
▁오르신	-12375
▁오름과	-12376
▁오심은	-12377
▁오욕을	-12378
▁올라야	-12379
▁옮겨다	-12380
▁옹호를	-12381
▁왔으며	-12382
▁외인도	-12383
▁외지의	-12384
▁요망한	-12385
▁요법을	-12386
▁요소를	-12387
▁요훈품	-12388
▁욕심에	-12389
▁용납성	-12390
▁용렬한	-12391
▁용심법	-12392
▁용처가	-12393
▁용처에	-12394
▁우대할	-12395
▁우리에	-12396
▁우자는	-12397
▁운명과	-12398
▁운외가	-12399
作福	-12400
嚴父	-12401
四要	-12402
執着	-12403
婚禮	-12404
木餘	-12405
陀佛	-12406
靈光	-12407
靈門	-12408
계미	-12409
광전	-12410
나물	-12411
력의	-12412
분간	-12413
시켰	-12414
처세	-12415
청춘	-12416
취할	-12417
태극	-12418
험한	-12419
화로	-12420
▁겪어	-12421
▁논을	-12422
▁동등	-12423
▁벌만	-12424
▁색의	-12425
▁쌀을	-12426
▁영업	-12427
▁육만	-12428
▁직춘	-12429
▁행가	-12430
彌陀佛	-12431
心交間	-12432
보시를	-12433
옵더니	-12434
청춘은	-12435
▁고난을	-12436
▁교리나	-12437
▁교운도	-12438
▁나무도	-12439
▁당분간	-12440
▁도력의	-12441
▁도취할	-12442
▁뜨기는	-12443
▁막지도	-12444
▁머리와	-12445
▁무너진	-12446
▁방향의	-12447
▁배우게	-12448
▁버릇이	-12449
▁병고는	-12450
▁복락과	-12451
▁뵈옵는	-12452
▁사도를	-12453
▁습관과	-12454
▁심수의	-12455
▁심어서	-12456
▁쌍전의	-12457
▁아이라	-12458
▁업신여	-12459
▁연구해	-12460
▁외화로	-12461
▁울타리	-12462
▁웃기도	-12463
▁원심을	-12464
▁원인과	-12465
▁원칙에	-12466
▁월천을	-12467
▁위니라	-12468
▁위반이	-12469
▁위신이	-12470
▁위태할	-12471
▁위험한	-12472
▁유산자	-12473
▁유숙한	-12474
▁유익될	-12475
▁유익을	-12476
▁육체의	-12477
▁융성할	-12478
▁융통을	-12479
▁은덕을	-12480
▁은밀히	-12481
▁은혜는	-12482
▁은혜로	-12483
▁음부경	-12484
▁음식과	-12485
▁음악을	-12486
▁음악이	-12487
▁음양상	-12488
▁응대할	-12489
▁응하려	-12490
▁의논이	-12491
▁의문이	-12492
▁의사의	-12493
▁의세를	-12494
▁이곳에	-12495
▁이로써	-12496
▁이루고	-12497
▁이루기	-12498
▁이루셨	-12499
主世	-12500
修道	-12501
光田	-12502
八山	-12503
和尙	-12504
器局	-12505
國文	-12506
日警	-12507
朴大	-12508
李仁	-12509
歲覺	-12510
湖南	-12511
物胞	-12512
産業	-12513
看話	-12514
眞人	-12515
胎兒	-12516
課程	-12517
貞女	-12518
透天	-12519
震黙	-12520
견할	-12521
급에	-12522
께옵	-12523
동천	-12524
면면	-12525
배요	-12526
비행	-12527
석현	-12528
영천	-12529
유도	-12530
저런	-12531
정산	-12532
촌에	-12533
태아	-12534
투로	-12535
▁병아	-12536
▁사유	-12537
▁앞세	-12538
▁읽기	-12539
▁자는	-12540
▁한양	-12541
三歲覺	-12542
朴大完	-12543
物胞胎	-12544
産業部	-12545
看話禪	-12546
께옵서	-12547
닫히고	-12548
달하라	-12549
상하여	-12550
영천영	-12551
오르는	-12552
제성의	-12553
퇴하여	-12554
화선은	-12555
▁계급에	-12556
▁고투로	-12557
▁금옥이	-12558
▁나서면	-12559
▁닫히고	-12560
▁무념의	-12561
▁보배요	-12562
▁사요와	-12563
▁소견과	-12564
▁아느냐	-12565
▁악연이	-12566
▁얻으려	-12567
▁여유도	-12568
▁연마는	-12569
▁우월한	-12570
▁원적의	-12571
▁이르기	-12572
▁이르심	-12573
▁이면서	-12574
▁이유가	-12575
▁이유는	-12576
▁이춘풍	-12577
▁인격에	-12578
▁인도는	-12579
▁인도할	-12580
▁인사의	-12581
▁인상을	-12582
▁인생은	-12583
▁인의의	-12584
▁인정할	-12585
▁인함이	-12586
▁일념은	-12587
▁일들을	-12588
▁일부만	-12589
▁일부의	-12590
▁일심만	-12591
▁일심의	-12592
▁일원화	-12593
▁일월과	-12594
▁일정을	-12595
▁일하지	-12596
▁잃었던	-12597
▁임무에	-12598
▁임시의	-12599
▁崇	-12600
▁敎	-12601
一生	-12602
塗炭	-12603
嫌隙	-12604
心也	-12605
情愛	-12606
掛月	-12607
監院	-12608
親疎	-12609
達磨	-12610
객과	-12611
관사	-12612
담이	-12613
라낼	-12614
린다	-12615
약의	-12616
워낙	-12617
작가	-12618
춤이	-12619
킴에	-12620
▁崇拜	-12621
▁敎育	-12622
▁객과	-12623
▁계미	-12624
▁계합	-12625
▁꽃을	-12626
▁끼쳐	-12627
▁내선	-12628
▁미소	-12629
▁법령	-12630
▁불목	-12631
▁약할	-12632
▁옹졸	-12633
▁워낙	-12634
▁종순	-12635
▁천국	-12636
▁탐한	-12637
近親疎	-12638
약으로	-12639
의작가	-12640
형되고	-12641
▁갈라낼	-12642
▁갖춤이	-12643
▁규모와	-12644
▁느낌이	-12645
▁들여야	-12646
▁만나지	-12647
▁무관사	-12648
▁믿음에	-12649
▁발하지	-12650
▁본심을	-12651
▁솔성에	-12652
▁신앙에	-12653
▁앉으며	-12654
▁올린다	-12655
▁외라는	-12656
▁원리에	-12657
▁음해가	-12658
▁이르렀	-12659
▁일심을	-12660
▁임신한	-12661
▁입거나	-12662
▁입으며	-12663
▁있거니	-12664
▁있도다	-12665
▁있으라	-12666
▁있으매	-12667
▁있지도	-12668
▁자들이	-12669
▁자리도	-12670
▁자모의	-12671
▁자부를	-12672
▁자부의	-12673
▁자비한	-12674
▁자상한	-12675
▁자손만	-12676
▁자손을	-12677
▁자주력	-12678
▁자타와	-12679
▁작용이	-12680
▁작용한	-12681
▁작음을	-12682
▁잠간도	-12683
▁잠들어	-12684
▁잡념만	-12685
▁잡으려	-12686
▁잡음을	-12687
▁장래를	-12688
▁장래의	-12689
▁장마로	-12690
▁장양될	-12691
▁장자의	-12692
▁장해가	-12693
▁재물에	-12694
▁재식을	-12695
▁재주가	-12696
▁재주나	-12697
▁재주로	-12698
▁재화를	-12699
乾坤	-12700
大劫	-12701
季法	-12702
崔道	-12703
戒文	-12704
格外	-12705
溪合	-12706
無窮	-12707
血印	-12708
高名	-12709
齋戒	-12710
너지	-12711
단코	-12712
렸던	-12713
로와	-12714
삽던	-12715
성은	-12716
습이	-12717
시던	-12718
실성	-12719
초는	-12720
▁남수	-12721
▁대단	-12722
▁동화	-12723
▁면의	-12724
▁무별	-12725
▁백여	-12726
▁빛을	-12727
▁섞여	-12728
▁원선	-12729
▁위함	-12730
▁주물	-12731
▁지조	-12732
一大劫	-12733
崔道華	-12734
指血印	-12735
正心待	-12736
無窮花	-12737
과거의	-12738
다니실	-12739
사자나	-12740
삽던바	-12741
시키며	-12742
약자의	-12743
종사가	-12744
치다가	-12745
▁건너지	-12746
▁견실성	-12747
▁결단코	-12748
▁경로와	-12749
▁고되어	-12750
▁넉넉지	-12751
▁대비로	-12752
▁미생전	-12753
▁삼아야	-12754
▁시켜서	-12755
▁심인을	-12756
▁업보는	-12757
▁염불도	-12758
▁오더니	-12759
▁옹호와	-12760
▁음성은	-12761
▁읽도록	-12762
▁입교는	-12763
▁잡초는	-12764
▁저항할	-12765
▁적멸로	-12766
▁적벽은	-12767
▁적으니	-12768
▁적합할	-12769
▁전기와	-12770
▁전문가	-12771
▁전생과	-12772
▁전설에	-12773
▁전세계	-12774
▁전신의	-12775
▁전쟁도	-12776
▁전쟁의	-12777
▁전주에	-12778
▁전통과	-12779
▁전하지	-12780
▁절약만	-12781
▁절차와	-12782
▁절후를	-12783
▁점이란	-12784
▁정도만	-12785
▁정력도	-12786
▁정례로	-12787
▁정산은	-12788
▁정성은	-12789
▁정절과	-12790
▁정치나	-12791
▁정하게	-12792
▁제목을	-12793
▁제일이	-12794
▁제자된	-12795
▁제자와	-12796
▁제정한	-12797
▁제중의	-12798
▁제출한	-12799
乘雲	-12800
九尾	-12801
俱空	-12802
公七	-12803
公名	-12804
古樂	-12805
在家	-12806
壞劫	-12807
敎主	-12808
敎則	-12809
敎務	-12810
敎旨	-12811
敎理	-12812
過恭	-12813
구한	-12814
미호	-12815
서와	-12816
우상	-12817
자선	-12818
표가	-12819
해는	-12820
훈이	-12821
▁가할	-12822
▁고원	-12823
▁골몰	-12824
▁까라	-12825
▁맡겼	-12826
▁보름	-12827
▁수시	-12828
▁유유	-12829
▁자질	-12830
▁젖은	-12831
▁지지	-12832
▁풀이	-12833
乘雲仙	-12834
九尾狐	-12835
天大衆	-12836
恩報恩	-12837
敎理圖	-12838
그마치	-12839
당하는	-12840
도가에	-12841
렀으나	-12842
어나고	-12843
우상설	-12844
▁결정선	-12845
▁교서와	-12846
▁교훈이	-12847
▁구구한	-12848
▁구미호	-12849
▁기도의	-12850
▁대소와	-12851
▁도리가	-12852
▁등한한	-12853
▁발휘할	-12854
▁범하는	-12855
▁본의요	-12856
▁사표가	-12857
▁손해는	-12858
▁수신의	-12859
▁않을뿐	-12860
▁일념과	-12861
▁일부에	-12862
▁자성에	-12863
▁자연중	-12864
▁조건에	-12865
▁조리고	-12866
▁조만의	-12867
▁조성할	-12868
▁조소가	-12869
▁조소를	-12870
▁조정에	-12871
▁조종인	-12872
▁조직된	-12873
▁조항에	-12874
▁조화라	-12875
▁존절히	-12876
▁졸연히	-12877
▁종에만	-12878
▁종지로	-12879
▁좋게도	-12880
▁좋으니	-12881
▁좋으며	-12882
▁좌선도	-12883
▁좌선만	-12884
▁좌우간	-12885
▁죄벌을	-12886
▁죄에서	-12887
▁주견이	-12888
▁주시되	-12889
▁주유할	-12890
▁주종을	-12891
▁주해와	-12892
▁준비해	-12893
▁줄어질	-12894
▁줄이나	-12895
▁중대한	-12896
▁중음에	-12897
▁중죄를	-12898
▁중추가	-12899
九天	-12900
九鼎	-12901
事必	-12902
口禍	-12903
口誦	-12904
圓滿	-12905
天意	-12906
宋奎	-12907
成波	-12908
極樂	-12909
權道	-12910
舊業	-12911
赤壁	-12912
납도	-12913
들만	-12914
면이	-12915
여운	-12916
율로	-12917
제야	-12918
졸과	-12919
증이	-12920
차히	-12921
천과	-12922
치어	-12923
▁거만	-12924
▁납도	-12925
▁모였	-12926
▁밝을	-12927
▁사월	-12928
▁셋이	-12929
▁온유	-12930
▁음란	-12931
▁이후	-12932
天地鳴	-12933
宋赤壁	-12934
水成波	-12935
風蘿月	-12936
교인과	-12937
들만은	-12938
태증이	-12939
해서만	-12940
▁광채를	-12941
▁구차히	-12942
▁군졸과	-12943
▁귀여운	-12944
▁귀천과	-12945
▁규율로	-12946
▁그제야	-12947
▁그치어	-12948
▁대세가	-12949
▁면목을	-12950
▁무왕의	-12951
▁바이나	-12952
▁반성을	-12953
▁방도를	-12954
▁부수고	-12955
▁사회도	-12956
▁식사를	-12957
▁실행만	-12958
▁어른과	-12959
▁영정과	-12960
▁외면이	-12961
▁원심과	-12962
▁월성의	-12963
▁일없이	-12964
▁일월은	-12965
▁준다면	-12966
▁중하지	-12967
▁즉시에	-12968
▁즐겁지	-12969
▁증거도	-12970
▁증거로	-12971
▁지각을	-12972
▁지금에	-12973
▁지니지	-12974
▁지방은	-12975
▁지방을	-12976
▁지배를	-12977
▁지붕을	-12978
▁지역을	-12979
▁지옥이	-12980
▁지위는	-12981
▁지자와	-12982
▁지출은	-12983
▁지키되	-12984
▁지키라	-12985
▁직장에	-12986
▁직춘추	-12987
▁진동할	-12988
▁진여성	-12989
▁진행해	-12990
▁질소를	-12991
▁짐승일	-12992
▁집안에	-12993
▁집안이	-12994
▁집이요	-12995
▁짓고도	-12996
▁짧음을	-12997
▁차등에	-12998
▁차례씩	-12999
▁꼬	-13000
其穴	-13001
其身	-13002
天命	-13003
妙有	-13004
後心	-13005
心作	-13006
日光	-13007
母恩	-13008
氣息	-13009
氣質	-13010
獨善	-13011
祈禱	-13012
精進	-13013
自心	-13014
至公	-13015
起善	-13016
酒色	-13017
飢寒	-13018
강신	-13019
거히	-13020
괴한	-13021
년도	-13022
능과	-13023
료와	-13024
만에	-13025
번이	-13026
본금	-13027
오운	-13028
초인	-13029
▁각도	-13030
▁귀는	-13031
▁다물	-13032
▁돌면	-13033
▁멸할	-13034
▁비근	-13035
▁사료	-13036
▁세철	-13037
▁일거	-13038
▁현하	-13039
前心作	-13040
射日光	-13041
念佛宗	-13042
父母恩	-13043
至公無	-13044
酒色浪	-13045
강신요	-13046
고하게	-13047
아상을	-13048
▁가산에	-13049
▁급거히	-13050
▁급료와	-13051
▁기괴한	-13052
▁기능과	-13053
▁기본금	-13054
▁기초인	-13055
▁꼬리를	-13056
▁달만에	-13057
▁당년도	-13058
▁도처에	-13059
▁두번이	-13060
▁바탕에	-13061
▁발하면	-13062
▁보조를	-13063
▁본체를	-13064
▁비근한	-13065
▁사료로	-13066
▁슬퍼할	-13067
▁실상을	-13068
▁안이며	-13069
▁역량은	-13070
▁염소가	-13071
▁잡아갈	-13072
▁죽었고	-13073
▁차별할	-13074
▁차생에	-13075
▁차자나	-13076
▁착실한	-13077
▁착하여	-13078
▁참회도	-13079
▁참회문	-13080
▁창립에	-13081
▁창조자	-13082
▁책망을	-13083
▁책임에	-13084
▁처량한	-13085
▁처사가	-13086
▁처소도	-13087
▁처자로	-13088
▁처자를	-13089
▁처자와	-13090
▁처하되	-13091
▁천도도	-13092
▁천도할	-13093
▁천록이	-13094
▁천리의	-13095
▁천역을	-13096
▁천지방	-13097
▁천지일	-13098
▁천지회	-13099
▁꿋	-13100
內心	-13101
具南	-13102
南天	-13103
南華	-13104
懶怠	-13105
樂園	-13106
男女	-13107
色身	-13108
裡里	-13109
要目	-13110
꿋한	-13111
념인	-13112
뉘어	-13113
무아	-13114
시여	-13115
오한	-13116
적들	-13117
표한	-13118
▁가사	-13119
▁등극	-13120
▁맑게	-13121
▁매진	-13122
▁사교	-13123
▁석반	-13124
▁승을	-13125
▁실제	-13126
▁없기	-13127
▁의아	-13128
▁진경	-13129
▁편할	-13130
人道品	-13131
具南守	-13132
南華經	-13133
金南天	-13134
가정과	-13135
단으로	-13136
전하고	-13137
▁고백한	-13138
▁교도로	-13139
▁기도만	-13140
▁기혈이	-13141
▁꿋꿋한	-13142
▁나뉘어	-13143
▁낙오한	-13144
▁내지는	-13145
▁때려서	-13146
▁망념인	-13147
▁무군이	-13148
▁서적들	-13149
▁시시로	-13150
▁실상된	-13151
▁약이라	-13152
▁여기사	-13153
▁유표한	-13154
▁익히어	-13155
▁재가와	-13156
▁죄복간	-13157
▁진리도	-13158
▁착수한	-13159
▁청정의	-13160
▁청하면	-13161
▁체면에	-13162
▁체받은	-13163
▁체하고	-13164
▁체하여	-13165
▁초목도	-13166
▁총알에	-13167
▁추측할	-13168
▁출가와	-13169
▁출가의	-13170
▁출세의	-13171
▁출역이	-13172
▁출자로	-13173
▁출품이	-13174
▁춤추고	-13175
▁취사력	-13176
▁취하는	-13177
▁치료법	-13178
▁치소를	-13179
▁치심에	-13180
▁치하도	-13181
▁친견할	-13182
▁친목할	-13183
▁친족에	-13184
▁칠불의	-13185
▁칭찬과	-13186
▁커져서	-13187
▁크도다	-13188
▁크리라	-13189
▁크므로	-13190
▁키워서	-13191
▁타이르	-13192
▁탁태된	-13193
▁탄식도	-13194
▁탄식할	-13195
▁탐욕과	-13196
▁탐착과	-13197
▁탐하여	-13198
▁태산을	-13199
▁낸	-13200
尊崇	-13201
老少	-13202
老昏	-13203
聖位	-13204
能事	-13205
農曆	-13206
野苑	-13207
나들	-13208
담한	-13209
록한	-13210
습고	-13211
야원	-13212
운선	-13213
장은	-13214
져야	-13215
체며	-13216
태를	-13217
▁꺼려	-13218
▁돈수	-13219
▁들의	-13220
▁막혀	-13221
▁삼악	-13222
▁서고	-13223
▁석벽	-13224
▁세다	-13225
▁쌓고	-13226
▁업의	-13227
▁이전	-13228
▁일방	-13229
▁일언	-13230
▁측은	-13231
▁트고	-13232
害生於	-13233
率性之	-13234
나들던	-13235
운선자	-13236
천도에	-13237
▁겨울은	-13238
▁경로도	-13239
▁계시지	-13240
▁교회도	-13241
▁깨우쳐	-13242
▁낙도가	-13243
▁냉수만	-13244
▁녹록한	-13245
▁녹야원	-13246
▁누그러	-13247
▁다습고	-13248
▁단장은	-13249
▁담담한	-13250
▁당연히	-13251
▁더하다	-13252
▁등지고	-13253
▁뛰어나	-13254
▁문체며	-13255
▁박식이	-13256
▁병진의	-13257
▁살자는	-13258
▁상태를	-13259
▁석벽의	-13260
▁악하나	-13261
▁엿보지	-13262
▁오해를	-13263
▁인과도	-13264
▁인정상	-13265
▁주의는	-13266
▁주장이	-13267
▁태연히	-13268
▁태자의	-13269
▁통일될	-13270
▁통일이	-13271
▁퇴굴심	-13272
▁특성이	-13273
▁틀리지	-13274
▁파란이	-13275
▁팔기도	-13276
▁편만할	-13277
▁편의한	-13278
▁편지를	-13279
▁편착심	-13280
▁편찬된	-13281
▁평생의	-13282
▁평시에	-13283
▁평안할	-13284
▁평야는	-13285
▁평화와	-13286
▁폐단이	-13287
▁폐인이	-13288
▁폐풍이	-13289
▁폐해가	-13290
▁포수의	-13291
▁폭풍이	-13292
▁표적이	-13293
▁표준을	-13294
▁표하는	-13295
▁풍기를	-13296
▁풍속은	-13297
▁피은된	-13298
▁필요로	-13299
!]	-13300
.(	-13301
上大	-13302
元帥	-13303
大全	-13304
大忌	-13305
大果	-13306
大業	-13307
大海	-13308
山水	-13309
德頌	-13310
悉達	-13311
日之	-13312
梁道	-13313
法義	-13314
盜拓	-13315
眞個	-13316
眞空	-13317
自由	-13318
道源	-13319
道通	-13320
로의	-13321
종경	-13322
▁받던	-13323
▁사바	-13324
▁선현	-13325
▁수생	-13326
▁아귀	-13327
▁해보	-13328
上大道	-13329
不自由	-13330
大忌事	-13331
德頌玉	-13332
梁道信	-13333
都元帥	-13334
쉬었다	-13335
았으며	-13336
자녀의	-13337
▁가지며	-13338
▁겁래를	-13339
▁그르며	-13340
▁답례로	-13341
▁답하라	-13342
▁대종경	-13343
▁등이요	-13344
▁무무역	-13345
▁빼앗긴	-13346
▁성공되	-13347
▁수입을	-13348
▁신성품	-13349
▁얻음이	-13350
▁얼굴과	-13351
▁유혹에	-13352
▁의리나	-13353
▁인조의	-13354
▁정각이	-13355
▁지지도	-13356
▁천품이	-13357
▁태우는	-13358
▁피로의	-13359
▁하기가	-13360
▁하기도	-13361
▁하나나	-13362
▁하나며	-13363
▁하나의	-13364
▁하나이	-13365
▁하나인	-13366
▁하라고	-13367
▁하신데	-13368
▁하에서	-13369
▁하우자	-13370
▁학업을	-13371
▁학자가	-13372
▁한사회	-13373
▁한적한	-13374
▁한탄이	-13375
▁합리는	-13376
▁합치된	-13377
▁항마의	-13378
▁항속은	-13379
▁항이라	-13380
▁항이요	-13381
▁해결의	-13382
▁해한즉	-13383
▁행동에	-13384
▁행사를	-13385
▁행실과	-13386
▁행실이	-13387
▁행적과	-13388
▁행정의	-13389
▁행함이	-13390
▁향락과	-13391
▁향상이	-13392
▁허락하	-13393
▁허물은	-13394
▁허사가	-13395
▁허사로	-13396
▁허위와	-13397
▁헌공을	-13398
▁현세계	-13399
人品	-13400
出嫁	-13401
動機	-13402
去後	-13403
同胞	-13404
同門	-13405
唯我	-13406
夏桀	-13407
存續	-13408
悟得	-13409
昊春	-13410
獨尊	-13411
百行	-13412
知量	-13413
篤工	-13414
諸法	-13415
通級	-13416
魔術	-13417
객의	-13418
거우	-13419
남과	-13420
두는	-13421
보낼	-13422
상불	-13423
어와	-13424
일여	-13425
중서	-13426
▁끼칠	-13427
▁도막	-13428
▁없사	-13429
▁역대	-13430
同胞恩	-13431
普通級	-13432
李昊春	-13433
淨諸法	-13434
過去後	-13435
거우매	-13436
날까지	-13437
느라고	-13438
사하는	-13439
▁가르며	-13440
▁결제를	-13441
▁구공이	-13442
▁낮으나	-13443
▁다녀갈	-13444
▁도덕과	-13445
▁동중서	-13446
▁되기도	-13447
▁들으신	-13448
▁등상불	-13449
▁만남과	-13450
▁문제에	-13451
▁방임할	-13452
▁생각은	-13453
▁섬기는	-13454
▁숙어와	-13455
▁슬프게	-13456
▁신문에	-13457
▁실패는	-13458
▁옳으나	-13459
▁의지가	-13460
▁이행도	-13461
▁있노라	-13462
▁조실로	-13463
▁주객의	-13464
▁지내게	-13465
▁지키던	-13466
▁진인은	-13467
▁철도를	-13468
▁충성을	-13469
▁파괴자	-13470
▁행사이	-13471
▁현재를	-13472
▁형언할	-13473
▁혜두를	-13474
▁혜안이	-13475
▁호리라	-13476
▁호수는	-13477
▁호흡도	-13478
▁혹독히	-13479
▁화재를	-13480
▁화함을	-13481
▁확장될	-13482
▁확장을	-13483
▁환약이	-13484
▁환영을	-13485
▁활발한	-13486
▁활용은	-13487
▁회상과	-13488
▁회의가	-13489
▁횡액을	-13490
▁효과의	-13491
▁효력이	-13492
▁후원을	-13493
▁후인의	-13494
▁흉년을	-13495
▁흠앙하	-13496
▁흥취를	-13497
▁힘쓰던	-13498
世柔爲貴	-13499
主從	-13500
來後	-13501
和方	-13502
善導	-13503
忘德	-13504
李萬	-13505
江世	-13506
萬世	-13507
萬壑	-13508
萬能	-13509
萬里	-13510
虛實	-13511
귀도	-13512
긴들	-13513
답래	-13514
대될	-13515
리장	-13516
만지	-13517
명덕	-13518
명할	-13519
서편	-13520
속무	-13521
아라	-13522
▁걷는	-13523
▁못자	-13524
▁벌도	-13525
▁법례	-13526
▁부질	-13527
▁분은	-13528
▁사통	-13529
▁위엄	-13530
▁정통	-13531
▁지닐	-13532
▁치기	-13533
▁치성	-13534
一圓化	-13535
和方暢	-13536
李萬甲	-13537
萬里長	-13538
陰陽調	-13539
답래후	-13540
리장강	-13541
성리를	-13542
성인은	-13543
속무적	-13544
속하며	-13545
았는가	-13546
으시면	-13547
전하면	-13548
▁가졌다	-13549
▁말귀도	-13550
▁말아라	-13551
▁맡긴들	-13552
▁명명덕	-13553
▁보내어	-13554
▁심체라	-13555
▁심하게	-13556
▁약하게	-13557
▁양명할	-13558
▁열쇠는	-13559
▁염치가	-13560
▁요지가	-13561
▁유감이	-13562
▁주인된	-13563
▁참회의	-13564
▁총서편	-13565
▁추대될	-13566
▁표본의	-13567
事半功倍	-13568
事必歸正	-13569
事理硏究	-13570
八萬藏經	-13571
其穴五雲	-13572
冥府使者	-13573
十方三界	-13574
圓寂無別	-13575
大利生焉	-13576
大功生焉	-13577
安樂世界	-13578
害生於恩	-13579
尺尺數量	-13580
屈己下心	-13581
常時應用	-13582
後天開闢	-13583
忠烈孝悌	-13584
急地尙思	-13585
收萬木餘	-13586
救世聖者	-13587
李東震華	-13588
松風蘿月	-13589
步步一切	-13590
江世意繞	-13591
江山第一	-13592
率性之道	-13593
率性要論	-13594
發萬歲春	-13595
白指血印	-13596
精神修養	-13597
絶頂天眞	-13598
背恩忘德	-13599
人逢	-13600
命之	-13601
壽者	-13602
壽覺	-13603
捨捐	-13604
文弱	-13605
李完	-13606
李正	-13607
淸靜	-13608
無俗	-13609
無君	-13610
無常	-13611
無極	-13612
無法	-13613
無緣	-13614
無處	-13615
菩薩	-13616
被草	-13617
門庭	-13618
무무	-13619
묵히	-13620
서사	-13621
수각	-13622
야의	-13623
언중	-13624
웅의	-13625
터를	-13626
후가	-13627
▁매월	-13628
▁생길	-13629
▁실습	-13630
▁싸지	-13631
▁외어	-13632
▁임종	-13633
▁책을	-13634
▁추방	-13635
化被草	-13636
壽者相	-13637
李完喆	-13638
李正圓	-13639
無處禪	-13640
▁각파로	-13641
▁경륜이	-13642
▁교의품	-13643
▁꿈꾸듯	-13644
▁나래만	-13645
▁낙생활	-13646
▁능력과	-13647
▁대각전	-13648
▁도보로	-13649
▁동지를	-13650
▁묘터를	-13651
▁무언중	-13652
▁묵묵히	-13653
▁방위를	-13654
▁보수는	-13655
▁봉서사	-13656
▁불의만	-13657
▁사실과	-13658
▁사업할	-13659
▁사후가	-13660
▁산야의	-13661
▁알아내	-13662
▁자기는	-13663
▁자웅의	-13664
▁잘되어	-13665
▁주하는	-13666
▁천업을	-13667
▁행이라	-13668
▁혜복이	-13669
化被草木	-13670
命之長短	-13671
捨捐四條	-13672
淸靜無爲	-13673
無父無君	-13674
無量壽覺	-13675
臨於先絶	-13676
自利利他	-13677
行之者常	-13678
轉迷開悟	-13679
道源山水	-13680
釋迦牟尼	-13681
銀山鐵壁	-13682
長雨露恩	-13683
陰府公事	-13684
險山窮谷	-13685
頓悟頓修	-13686
각도무궁	-13687
견성하는	-13688
공중천지	-13689
궁을가를	-13690
급하나니	-13691
기념상을	-13692
기로부터	-13693
꾸러지는	-13694
낙하니라	-13695
내하기가	-13696
다운지라	-13697
당신들이	-13698
대각여래	-13699
丁良	-13700
中天	-13701
先人	-13702
博識	-13703
原始	-13704
反目	-13705
提河	-13706
放縱	-13707
放風	-13708
未生	-13709
本末	-13710
物質	-13711
防堰	-13712
靈丹	-13713
김에	-13714
덥게	-13715
략이	-13716
보매	-13717
야지	-13718
어에	-13719
우러	-13720
으러	-13721
으매	-13722
자히	-13723
줌에	-13724
터나	-13725
▁강행	-13726
▁기쁜	-13727
▁비몽	-13728
▁상법	-13729
▁생은	-13730
▁신속	-13731
▁온건	-13732
▁원상	-13733
▁정자	-13734
▁집은	-13735
▁친밀	-13736
丁良善	-13737
未生前	-13738
跋提河	-13739
가마귀	-13740
동하매	-13741
약하여	-13742
인으로	-13743
출가와	-13744
▁냉수의	-13745
▁막히는	-13746
▁미덥게	-13747
▁박해와	-13748
▁밖에서	-13749
▁반야지	-13750
▁밝으매	-13751
▁밟도록	-13752
▁방략이	-13753
▁방어에	-13754
▁방자히	-13755
▁백골을	-13756
▁버리라	-13757
▁사리가	-13758
▁섬김에	-13759
▁성인은	-13760
▁왕위도	-13761
▁원망이	-13762
▁이름만	-13763
▁잡으러	-13764
▁전답을	-13765
▁정도로	-13766
▁조사며	-13767
▁주우러	-13768
▁주하고	-13769
▁집터나	-13770
▁천업에	-13771
原始反本	-13772
放風空中	-13773
가마귀는	-13774
동양이나	-13775
되려니와	-13776
되었노라	-13777
되었다면	-13778
들께서는	-13779
란하거늘	-13780
로소이다	-13781
름이옵고	-13782
마상전급	-13783
마하면서	-13784
만물포태	-13785
매망량의	-13786
무엇으로	-13787
보았더니	-13788
보하나니	-13789
사람이나	-13790
사이에는	-13791
산까지도	-13792
산돼지의	-13793
상하거든	-13794
색하시고	-13795
설만으로	-13796
성하여질	-13797
세계에서	-13798
소하거나	-13799
中安	-13800
侍湯	-13801
圓相	-13802
寶珠	-13803
律恩	-13804
時事	-13805
法師	-13806
法界	-13807
法網	-13808
法縛	-13809
法號	-13810
法通	-13811
淨信	-13812
異人	-13813
病症	-13814
福祿	-13815
급된	-13816
다도	-13817
발이	-13818
버린	-13819
법어	-13820
호한	-13821
화나	-13822
▁금생	-13823
▁날의	-13824
▁대표	-13825
▁변할	-13826
▁순을	-13827
▁응한	-13828
▁전형	-13829
徐中安	-13830
法律恩	-13831
淨信行	-13832
감상을	-13833
급에서	-13834
기보다	-13835
부터를	-13836
자들의	-13837
증애에	-13838
할지니	-13839
히려는	-13840
▁경사가	-13841
▁고해로	-13842
▁급사를	-13843
▁기간도	-13844
▁길흉이	-13845
▁떠돌아	-13846
▁물들고	-13847
▁물음에	-13848
▁받으러	-13849
▁백발이	-13850
▁보급된	-13851
▁보다도	-13852
▁보화나	-13853
▁사가의	-13854
▁성이라	-13855
▁시국을	-13856
▁신중을	-13857
▁연구할	-13858
▁위치가	-13859
▁의지한	-13860
▁조행은	-13861
▁종류가	-13862
▁죄악은	-13863
▁줄어졌	-13864
▁호주는	-13865
▁확호한	-13866
一眞法界	-13867
如意寶珠	-13868
無始曠劫	-13869
無爲徒食	-13870
黃淨信行	-13871
속인들의	-13872
수신하는	-13873
수천봉월	-13874
시는지라	-13875
시었더니	-13876
시하시고	-13877
어다니는	-13878
어서도록	-13879
역하시며	-13880
영혼에는	-13881
오랫동안	-13882
왔으므로	-13883
우리들의	-13884
우리에게	-13885
원기일월	-13886
으로라도	-13887
음이라는	-13888
응하여도	-13889
인이온데	-13890
있으므로	-13891
장부니라	-13892
절불굴의	-13893
정녀들을	-13894
정하였던	-13895
졌으므로	-13896
조각으로	-13897
중으로만	-13898
즉심시불	-13899
▁혀	-13900
不信	-13901
佛經	-13902
分事	-13903
分野	-13904
副業	-13905
周遊	-13906
天耳	-13907
奉公	-13908
序品	-13909
敷衍	-13910
本懷	-13911
棲寺	-13912
無我	-13913
臨時	-13914
講演	-13915
靈根	-13916
군은	-13917
돋기	-13918
륜과	-13919
르사	-13920
오러	-13921
인줄	-13922
▁드린	-13923
▁솔선	-13924
▁엿볼	-13925
▁천에	-13926
▁천진	-13927
▁품고	-13928
▁풍진	-13929
本分事	-13930
감이니	-13931
글었다	-13932
손됨이	-13933
수하여	-13934
오륜과	-13935
지부를	-13936
▁갔다가	-13937
▁궁궁을	-13938
▁기색을	-13939
▁눈으로	-13940
▁도량과	-13941
▁되어도	-13942
▁명덕을	-13943
▁문명과	-13944
▁보답을	-13945
▁복으로	-13946
▁뵈오러	-13947
▁부군은	-13948
▁북돋기	-13949
▁분이라	-13950
▁서원문	-13951
▁수명도	-13952
▁심중의	-13953
▁의심과	-13954
▁이상과	-13955
▁있으되	-13956
▁좋고자	-13957
▁좌중이	-13958
▁천자인	-13959
▁치욕이	-13960
無我奉公	-13961
臨時不及	-13962
량하거늘	-13963
진리니라	-13964
찌그러진	-13965
천지에는	-13966
하나님은	-13967
하나하나	-13968
하느라고	-13969
하더이다	-13970
하셨나니	-13971
하셨으나	-13972
하신다면	-13973
하였도다	-13974
하였으되	-13975
협하거나	-13976
화발만세	-13977
화시키고	-13978
▁가게에서	-13979
▁가난이면	-13980
▁가르치되	-13981
▁가르치신	-13982
▁가시므로	-13983
▁가운데는	-13984
▁가정에만	-13985
▁가졌으나	-13986
▁가지라는	-13987
▁감각이나	-13988
▁감사하나	-13989
▁감사하지	-13990
▁감상하신	-13991
▁강자로서	-13992
▁갖추기에	-13993
▁같사오나	-13994
▁같으므로	-13995
▁개과하는	-13996
▁개벽하자	-13997
▁개척하실	-13998
▁거기에는	-13999
四維	-14000
四肉	-14001
堂來	-14002
工商	-14003
師友	-14004
心丹	-14005
我慢	-14006
換歲	-14007
死禪	-14008
殺盜	-14009
病人	-14010
碑閣	-14011
私事	-14012
私心	-14013
私情	-14014
私意	-14015
積功	-14016
邪心	-14017
邪見	-14018
隱顯	-14019
願華	-14020
곤을	-14021
로되	-14022
비비	-14023
비역	-14024
찌게	-14025
▁기암	-14026
▁나신	-14027
▁신의	-14028
▁잠기	-14029
▁출발	-14030
▁충무	-14031
▁헤어	-14032
我慢心	-14033
敎堂來	-14034
李願華	-14035
殺盜淫	-14036
貧病人	-14037
력하여	-14038
르나니	-14039
사람과	-14040
▁거동이	-14041
▁건설할	-14042
▁금해야	-14043
▁내시사	-14044
▁도가나	-14045
▁떠나실	-14046
▁못하겠	-14047
▁분석해	-14048
▁비비역	-14049
▁빈곤을	-14050
▁사귀는	-14051
▁살찌게	-14052
▁소실한	-14053
▁속이는	-14054
▁실적이	-14055
▁애욕이	-14056
▁예배를	-14057
▁위인이	-14058
▁이야기	-14059
▁저축조	-14060
▁지을까	-14061
▁출처를	-14062
▁충무공	-14063
▁침식을	-14064
▁팔조라	-14065
▁하셨고	-14066
▁희사한	-14067
士農工商	-14068
輕便鐵道	-14069
隱顯自在	-14070
불법연구	-14071
▁거기에서	-14072
▁거느리지	-14073
▁거느림에	-14074
▁걱정이나	-14075
▁걱정인즉	-14076
▁걱정하라	-14077
▁건네어서	-14078
▁건설하실	-14079
▁건전하고	-14080
▁것으로는	-14081
▁것이리요	-14082
▁것일진대	-14083
▁게으르고	-14084
▁견성이요	-14085
▁결과이니	-14086
▁결정하기	-14087
▁겸전하여	-14088
▁경계니라	-14089
▁경계하여	-14090
▁경편철도	-14091
▁계산하게	-14092
▁계산하나	-14093
▁계산하여	-14094
▁계속하게	-14095
▁계시던가	-14096
▁고상하여	-14097
▁고통받는	-14098
▁곳에서나	-14099
一行	-14100
三山	-14101
三敎	-14102
三王	-14103
先覺	-14104
先賢	-14105
喪葬	-14106
常道	-14107
心造	-14108
成人	-14109
成佛	-14110
成道	-14111
李雲	-14112
水聲	-14113
治法	-14114
法魔	-14115
無非	-14116
生捕	-14117
病死	-14118
相殺	-14119
相生	-14120
禪員	-14121
禪期	-14122
禪費	-14123
總序	-14124
聖人	-14125
聖將	-14126
聖顔	-14127
聲聞	-14128
맞은	-14129
▁구는	-14130
▁귀정	-14131
▁담을	-14132
▁돕고	-14133
▁무비	-14134
▁벌면	-14135
▁봉대	-14136
▁불급	-14137
▁영신	-14138
▁잠든	-14139
▁전정	-14140
▁조작	-14141
▁죄성	-14142
▁행복	-14143
先覺者	-14144
唯心造	-14145
李雲外	-14146
總序編	-14147
사요를	-14148
섭하는	-14149
이대로	-14150
종래를	-14151
후계지	-14152
▁가림이	-14153
▁걸어서	-14154
▁구한다	-14155
▁글자도	-14156
▁다함이	-14157
▁똥보다	-14158
▁백리의	-14159
▁복대로	-14160
▁빛이요	-14161
▁사다가	-14162
▁사리간	-14163
▁선연을	-14164
▁손실은	-14165
▁아름답	-14166
▁일상수	-14167
▁작업이	-14168
▁전권이	-14169
▁정토라	-14170
▁주체요	-14171
▁줄맞은	-14172
▁즐거이	-14173
▁짧나니	-14174
▁행복한	-14175
一行三昧	-14176
無非三昧	-14177
生老病死	-14178
見性成佛	-14179
되나이다	-14180
우리나라	-14181
작하거나	-14182
▁간섭하여	-14183
▁곳에서는	-14184
▁곳이든지	-14185
▁공교하고	-14186
▁공변되게	-14187
▁공부심은	-14188
▁공부심을	-14189
▁공부하되	-14190
▁공정하고	-14191
▁공중사에	-14192
▁공헌하는	-14193
▁과불급한	-14194
▁과중하면	-14195
▁과중하여	-14196
▁관계하고	-14197
▁관계하는	-14198
▁관찰하여	-14199
世喆	-14200
世尊	-14201
中根	-14202
壽福	-14203
天燒	-14204
如萬	-14205
宿命	-14206
小乘	-14207
性稟	-14208
斛舟	-14209
水火	-14210
水雲	-14211
聖呪	-14212
血竹	-14213
靈靈	-14214
順境	-14215
順數	-14216
頌德	-14217
담에	-14218
독과	-14219
랑의	-14220
숙명	-14221
영령	-14222
▁깨는	-14223
▁되실	-14224
▁바이	-14225
▁병근	-14226
▁사반	-14227
▁양양	-14228
▁예가	-14229
▁일백	-14230
▁정맥	-14231
▁취해	-14232
▁풀기	-14233
▁힘들	-14234
天燒地	-14235
朴世喆	-14236
水火風	-14237
身如萬	-14238
금강경	-14239
기천의	-14240
력이나	-14241
스랑의	-14242
신여만	-14243
심고의	-14244
양하게	-14245
연구의	-14246
일생을	-14247
▁경계의	-14248
▁고역에	-14249
▁동학을	-14250
▁망신의	-14251
▁미치게	-14252
▁법석에	-14253
▁법훈을	-14254
▁비치게	-14255
▁서문을	-14256
▁소독과	-14257
▁속담에	-14258
▁신력에	-14259
▁양양한	-14260
▁우마의	-14261
▁잡으면	-14262
▁조금씩	-14263
坐脫立亡	-14264
昭昭靈靈	-14265
燒天燒地	-14266
덕신여만	-14267
수양력을	-14268
▁건축하고	-14269
▁공경하며	-14270
▁공부하러	-14271
▁관통되는	-14272
▁광대하여	-14273
▁괴석이나	-14274
▁교단에서	-14275
▁교리표어	-14276
▁교법이나	-14277
▁교정하는	-14278
▁교화하여	-14279
▁구경처에	-14280
▁구경하는	-14281
▁구공이다	-14282
▁구하다가	-14283
▁구할수록	-14284
▁국한하여	-14285
▁궁구함을	-14286
▁권력이나	-14287
▁권면하고	-14288
▁권면하면	-14289
▁권세로도	-14290
▁권속이라	-14291
▁권장하는	-14292
▁권장하신	-14293
▁권장하지	-14294
▁귀해수성	-14295
▁그대에게	-14296
▁그러하는	-14297
▁그렇다면	-14298
▁그릇됨이	-14299
五車	-14300
僧俗	-14301
六識	-14302
天中	-14303
子景	-14304
實地	-14305
實心	-14306
寶華	-14307
尸解	-14308
心志	-14309
心性	-14310
心授	-14311
心體	-14312
忌心	-14313
曺專	-14314
用處	-14315
神通	-14316
罪害	-14317
詩書	-14318
順逆	-14319
쌍전	-14320
응감	-14321
하올	-14322
▁가부	-14323
▁기성	-14324
▁눈은	-14325
▁달게	-14326
▁무방	-14327
▁수마	-14328
▁약자	-14329
▁요달	-14330
▁화할	-14331
七寶華	-14332
尸解法	-14333
曺專權	-14334
猜忌心	-14335
蒼天中	-14336
무량한	-14337
불법은	-14338
사간에	-14339
장이라	-14340
하시사	-14341
▁가득히	-14342
▁가자면	-14343
▁고로석	-14344
▁과학은	-14345
▁구제에	-14346
▁나기를	-14347
▁닦으며	-14348
▁도학가	-14349
▁만인이	-14350
▁밝히라	-14351
▁부모된	-14352
▁심지의	-14353
▁얽매인	-14354
▁영정각	-14355
▁오르게	-14356
▁우주는	-14357
▁원대한	-14358
▁유무나	-14359
▁의심한	-14360
▁정산을	-14361
▁참회요	-14362
▁하나만	-14363
▁화두에	-14364
五車詩書	-14365
人倫綱紀	-14366
口傳心授	-14367
大慈大悲	-14368
子景處尋	-14369
實地佛供	-14370
林七寶華	-14371
▁극락이요	-14372
▁근본처를	-14373
▁근본하고	-14374
▁근본하였	-14375
▁금강산과	-14376
▁금년이라	-14377
▁금지하는	-14378
▁금지하라	-14379
▁금하시며	-14380
▁금하지는	-14381
▁기관수가	-14382
▁기념주의	-14383
▁기념하게	-14384
▁기억력이	-14385
▁기억하여	-14386
▁기운보다	-14387
▁기울이면	-14388
▁기재하며	-14389
▁기특하나	-14390
▁길들이려	-14391
▁까닭없이	-14392
▁깨끗하면	-14393
▁깨달았다	-14394
▁끊어지고	-14395
▁끊음이요	-14396
▁나가는데	-14397
▁나누어도	-14398
▁나누이게	-14399
力量	-14400
安心	-14401
役事	-14402
業因	-14403
業緣	-14404
永滅	-14405
眼耳	-14406
硏道	-14407
立命	-14408
緣覺	-14409
舌身	-14410
言敎	-14411
證得	-14412
逆數	-14413
류를	-14414
약에	-14415
와라	-14416
이사	-14417
입명	-14418
▁가련	-14419
▁가언	-14420
▁글자	-14421
▁꺼린	-14422
▁드리	-14423
▁비길	-14424
▁사견	-14425
▁세배	-14426
▁소지	-14427
▁쉽지	-14428
▁썩기	-14429
▁쥐를	-14430
▁추어	-14431
▁형체	-14432
舌身意	-14433
교육의	-14434
그들이	-14435
독하여	-14436
략으로	-14437
부모가	-14438
장하여	-14439
천도를	-14440
혹하게	-14441
화기화	-14442
▁가을이	-14443
▁돈이나	-14444
▁동지로	-14445
▁등지는	-14446
▁등한히	-14447
▁물어서	-14448
▁비하면	-14449
▁상관이	-14450
▁선비는	-14451
▁성신은	-14452
▁수명과	-14453
▁심리와	-14454
▁어류를	-14455
▁언약에	-14456
▁인과품	-14457
▁인의가	-14458
▁잃지말	-14459
▁절하는	-14460
▁죄송히	-14461
▁하였을	-14462
安心立命	-14463
常時日記	-14464
硏道心秀	-14465
해함이라	-14466
▁가련하지	-14467
▁간화선은	-14468
▁경계하셨	-14469
▁꾸준히만	-14470
▁나아가게	-14471
▁나아가라	-14472
▁나오셨다	-14473
▁나오시사	-14474
▁나일지니	-14475
▁나타나지	-14476
▁나타난다	-14477
▁낙이라도	-14478
▁남천으로	-14479
▁납도끼와	-14480
▁낭비되는	-14481
▁낮도깨비	-14482
▁낮아지고	-14483
▁내려고만	-14484
▁내리시고	-14485
▁내리시면	-14486
▁내면으로	-14487
▁내역이나	-14488
▁내왕한다	-14489
▁냉해지지	-14490
▁너그러운	-14491
▁넉넉하고	-14492
▁넘치심이	-14493
▁넣사오니	-14494
▁노래하고	-14495
▁노력하실	-14496
▁녹듯하여	-14497
▁농가에서	-14498
▁농작물이	-14499
令名	-14500
元善	-14501
元業	-14502
動力	-14503
吾家	-14504
圓熟	-14505
圓紀	-14506
外佛	-14507
完然	-14508
明庵	-14509
濟奉	-14510
災害	-14511
玉池	-14512
異蹟	-14513
羅國	-14514
蒼惶	-14515
要訓	-14516
豫示	-14517
靈通	-14518
韻曲	-14519
願力	-14520
龍華	-14521
녀봉	-14522
달의	-14523
렸고	-14524
속심	-14525
열한	-14526
잔인	-14527
흥부	-14528
▁깨면	-14529
▁막힐	-14530
▁만갑	-14531
▁명맥	-14532
▁무로	-14533
▁미연	-14534
▁미처	-14535
▁밝힐	-14536
▁손도	-14537
▁스무	-14538
▁잔인	-14539
▁틈을	-14540
下愚者	-14541
原動力	-14542
曺元善	-14543
月明庵	-14544
朴濟奉	-14545
蒼惶顚	-14546
要訓品	-14547
閻羅國	-14548
須彌山	-14549
공으로	-14550
시켜야	-14551
어버리	-14552
흥부전	-14553
▁걸라는	-14554
▁내역은	-14555
▁놓칠까	-14556
▁대학의	-14557
▁마졸이	-14558
▁말에게	-14559
▁모르니	-14560
▁무력을	-14561
▁물드는	-14562
▁물들지	-14563
▁방해될	-14564
▁사생아	-14565
▁야위어	-14566
▁어거할	-14567
▁역연히	-14568
▁오달의	-14569
▁옥녀봉	-14570
▁올렸고	-14571
▁욕속심	-14572
▁잔인한	-14573
▁재미도	-14574
▁젊었을	-14575
▁중하다	-14576
▁축원도	-14577
▁하열한	-14578
▁한지라	-14579
▁해주는	-14580
至公無私	-14581
蒼惶顚倒	-14582
龍華會上	-14583
▁건설하며	-14584
▁놓나니라	-14585
▁누진통은	-14586
▁눈가래를	-14587
▁다닌다고	-14588
▁다를것이	-14589
▁다스려질	-14590
▁다스리기	-14591
▁다음에야	-14592
▁다하여야	-14593
▁다하였고	-14594
▁다하지는	-14595
▁닦는다는	-14596
▁닦을진대	-14597
▁단원에게	-14598
▁단정하여	-14599
六塵	-14600
六條	-14601
律宗	-14602
恩人	-14603
恩惠	-14604
有産	-14605
流言	-14606
義理	-14607
肉眼	-14608
貞男	-14609
輪船	-14610
陰害	-14611
러야	-14612
렇듯	-14613
외의	-14614
을은	-14615
팔일	-14616
화신	-14617
▁가에	-14618
▁갈아	-14619
▁개회	-14620
▁나월	-14621
▁넘는	-14622
▁두가	-14623
▁맡은	-14624
▁복의	-14625
▁심산	-14626
▁짓던	-14627
▁펴고	-14628
▁폭로	-14629
有産者	-14630
념하고	-14631
시키지	-14632
오늘의	-14633
웠으나	-14634
잡히는	-14635
▁가짐을	-14636
▁거처할	-14637
▁결과의	-14638
▁공도요	-14639
▁구속에	-14640
▁물의를	-14641
▁변천이	-14642
▁보살은	-14643
▁본인의	-14644
▁불상의	-14645
▁사가는	-14646
▁생령과	-14647
▁심락을	-14648
▁야위었	-14649
▁업장이	-14650
▁요초가	-14651
▁욕까지	-14652
▁을을은	-14653
▁응화신	-14654
▁의외의	-14655
▁이렇듯	-14656
▁존경을	-14657
▁즐기게	-14658
▁착오가	-14659
▁총부에	-14660
▁취함을	-14661
▁탁하여	-14662
▁필요할	-14663
▁화강도	-14664
前心作惡	-14665
如如自然	-14666
앞으로는	-14667
▁강급으로	-14668
▁거울하고	-14669
▁뉘우치는	-14670
▁단체들이	-14671
▁달사들의	-14672
▁담화하게	-14673
▁당대에는	-14674
▁당하였다	-14675
▁대각여래	-14676
▁대우하는	-14677
▁대질하며	-14678
▁대하시면	-14679
▁대하여도	-14680
▁대항하지	-14681
▁대해천진	-14682
▁더디기는	-14683
▁더위잡지	-14684
▁덕인이라	-14685
▁덜었으며	-14686
▁데리시고	-14687
▁도구같이	-14688
▁도달하라	-14689
▁도리로써	-14690
▁도모하여	-14691
▁도성에게	-14692
▁도인들의	-14693
▁도인이니	-14694
▁독서에는	-14695
▁독실하니	-14696
▁돈망하고	-14697
▁돌려보낼	-14698
▁돌렸으며	-14699
一味	-14700
一境	-14701
一成	-14702
一族	-14703
一體	-14704
三位	-14705
人相	-14706
作業	-14707
入禪	-14708
取捨	-14709
子婦	-14710
子思	-14711
慈悲	-14712
慈母	-14713
春風	-14714
立法	-14715
自他	-14716
資質	-14717
迦葉	-14718
雜技	-14719
養成	-14720
강에	-14721
부만	-14722
삽고	-14723
쇄에	-14724
이조	-14725
일점	-14726
주려	-14727
▁강강	-14728
▁돌며	-14729
▁밤이	-14730
▁성룡	-14731
▁수기	-14732
▁울고	-14733
▁자급	-14734
▁잡는	-14735
李春風	-14736
第一好	-14737
鄭一成	-14738
상이나	-14739
행자는	-14740
▁가는지	-14741
▁감각이	-14742
▁갚기를	-14743
▁과학을	-14744
▁기특히	-14745
▁나가라	-14746
▁남녀가	-14747
▁다니시	-14748
▁많거늘	-14749
▁산간에	-14750
▁소승의	-14751
▁언어로	-14752
▁언어와	-14753
▁오래고	-14754
▁위력에	-14755
▁인부만	-14756
▁인쇄에	-14757
▁있삽고	-14758
▁존중히	-14759
▁지경은	-14760
▁직위에	-14761
▁진리로	-14762
▁해답을	-14763
▁회복할	-14764
▁훈련이	-14765
三位一體	-14766
作業取捨	-14767
自力養成	-14768
迦葉尊者	-14769
일점자오	-14770
있나니라	-14771
▁간이식당	-14772
▁강강함은	-14773
▁거칠어서	-14774
▁교화함이	-14775
▁깨우치는	-14776
▁년이라도	-14777
▁노력하며	-14778
▁돌아가는	-14779
▁돌아가서	-14780
▁돌아갔다	-14781
▁동남풍이	-14782
▁동등하게	-14783
▁동안에는	-14784
▁동정일여	-14785
▁동지까지	-14786
▁동지들을	-14787
▁동하나니	-14788
▁동한다면	-14789
▁되어가는	-14790
▁되지마는	-14791
▁될지라도	-14792
▁두었으니	-14793
▁두호하려	-14794
▁드나들던	-14795
▁드러나듯	-14796
▁드러나면	-14797
▁드러내는	-14798
▁드러내지	-14799
▁져	-14800
前嫌	-14801
前過	-14802
天造	-14803
定力	-14804
寂黙	-14805
早晩	-14806
柳虛	-14807
正典	-14808
正路	-14809
洽然	-14810
種族	-14811
絶食	-14812
葬禮	-14813
調熟	-14814
銓衡	-14815
齋費	-14816
꾼이	-14817
내의	-14818
망품	-14819
중할	-14820
풍을	-14821
합을	-14822
환에	-14823
▁내기	-14824
▁마신	-14825
▁맺고	-14826
▁본시	-14827
▁사년	-14828
▁상수	-14829
▁속여	-14830
▁일여	-14831
▁자살	-14832
▁큼이	-14833
柳虛一	-14834
金剛經	-14835
교화선	-14836
당하신	-14837
대중의	-14838
되기에	-14839
본다면	-14840
언마는	-14841
▁과목만	-14842
▁남방의	-14843
▁많도다	-14844
▁먼지의	-14845
▁무난히	-14846
▁믿지는	-14847
▁부모나	-14848
▁붕우의	-14849
▁생각만	-14850
▁생각에	-14851
▁생활시	-14852
▁악당의	-14853
▁애당초	-14854
▁약자로	-14855
▁염두에	-14856
▁잠자기	-14857
▁잡아야	-14858
▁장꾼이	-14859
▁장내의	-14860
▁장본이	-14861
▁전망품	-14862
▁존중할	-14863
▁준비로	-14864
▁증애에	-14865
▁찍히고	-14866
▁천대와	-14867
▁타락될	-14868
▁탄환에	-14869
▁파리가	-14870
▁폐풍을	-14871
▁표리가	-14872
▁허일이	-14873
월동방만	-14874
▁권한다면	-14875
▁돌아가게	-14876
▁든든하지	-14877
▁들어가고	-14878
▁들었나니	-14879
▁들었다가	-14880
▁들었으나	-14881
▁들이나니	-14882
▁들이리라	-14883
▁들이쉬는	-14884
▁따라서는	-14885
▁따라오기	-14886
▁때문이니	-14887
▁떠나지를	-14888
▁떨어지게	-14889
▁떨어지기	-14890
▁떨어지매	-14891
▁뜻이니라	-14892
▁마시기로	-14893
▁마신다는	-14894
▁마옵소서	-14895
▁마음락을	-14896
▁마음에는	-14897
▁마음에도	-14898
▁마음이나	-14899
下根	-14900
中下	-14901
中樞	-14902
刀山	-14903
周易	-14904
呪文	-14905
呪誦	-14906
地道	-14907
志操	-14908
眞理	-14909
眞體	-14910
瞋心	-14911
知行	-14912
知見	-14913
罪性	-14914
罪相	-14915
至善	-14916
進化	-14917
進降	-14918
重戒	-14919
重責	-14920
靑春	-14921
라기	-14922
법려	-14923
채의	-14924
초목	-14925
▁가되	-14926
▁갚게	-14927
▁눈에	-14928
▁못해	-14929
▁방아	-14930
▁소원	-14931
▁절과	-14932
李靑春	-14933
進降級	-14934
가지로	-14935
물물을	-14936
방이나	-14937
신다고	-14938
푸라기	-14939
활조전	-14940
▁건강을	-14941
▁견문을	-14942
▁고쳐서	-14943
▁그쳐야	-14944
▁느끼는	-14945
▁만대에	-14946
▁바퀴가	-14947
▁본위에	-14948
▁성인들	-14949
▁식이라	-14950
▁신이니	-14951
▁일관할	-14952
▁일로써	-14953
▁자유와	-14954
▁죄고로	-14955
▁준칙이	-14956
▁진채의	-14957
▁탐착에	-14958
▁표한들	-14959
▁허위에	-14960
刀山地獄	-14961
十二因緣	-14962
▁경편차뿐	-14963
▁계신다고	-14964
▁근실하게	-14965
▁기천에게	-14966
▁넉넉하게	-14967
▁도둑에게	-14968
▁따르시는	-14969
▁마음이란	-14970
▁마치시고	-14971
▁만나고자	-14972
▁만나기가	-14973
▁만났으며	-14974
▁만년이나	-14975
▁만들기도	-14976
▁만들지도	-14977
▁만법귀일	-14978
▁만상자연	-14979
▁만세멸도	-14980
▁많아지는	-14981
▁많으니라	-14982
▁말리시고	-14983
▁말세라도	-14984
▁말씀으로	-14985
▁말하는가	-14986
▁말하리라	-14987
▁말하리요	-14988
▁맞으시며	-14989
▁맞추어서	-14990
▁매어있게	-14991
▁매하여서	-14992
▁맹세하고	-14993
▁맺었으나	-14994
▁먹었으나	-14995
▁먹으려는	-14996
▁면하기가	-14997
▁명랑하여	-14998
▁명부사자	-14999
▁징	-15000
▁쪽	-15001
七七	-15002
七佛	-15003
他心	-15004
回運	-15005
天力	-15006
後進	-15007
心處	-15008
敎法	-15009
李忠	-15010
畜生	-15011
痴心	-15012
神足	-15013
總說	-15014
胎卵	-15015
蓮庵	-15016
轍環	-15017
采圃	-15018
體性	-15019
답고	-15020
득할	-15021
례한	-15022
신족	-15023
짐에	-15024
해도	-15025
향전	-15026
▁가림	-15027
▁귀함	-15028
▁능소	-15029
▁만학	-15030
▁무야	-15031
▁사우	-15032
▁삼통	-15033
▁어둘	-15034
▁재해	-15035
▁쪽을	-15036
▁추고	-15037
▁침을	-15038
▁통과	-15039
不二門	-15040
心處事	-15041
胎卵濕	-15042
靑蓮庵	-15043
고리를	-15044
제일호	-15045
한다고	-15046
▁경우로	-15047
▁능란히	-15048
▁답변이	-15049
▁되거늘	-15050
▁문자와	-15051
▁불만이	-15052
▁산에는	-15053
▁순하고	-15054
▁실지의	-15055
▁열으셨	-15056
▁잃기도	-15057
▁자금을	-15058
▁전라도	-15059
▁준행할	-15060
▁참답고	-15061
▁참례한	-15062
▁처해도	-15063
▁체득할	-15064
▁춘향전	-15065
▁커짐에	-15066
▁표창도	-15067
天地回運	-15068
李忠武公	-15069
胎卵濕化	-15070
轍環天下	-15071
運心處事	-15072
정하리라	-15073
창제일호	-15074
하려는가	-15075
하시도록	-15076
▁개선하고	-15077
▁경험하여	-15078
▁교단에도	-15079
▁교화하되	-15080
▁국내에서	-15081
▁국한됨을	-15082
▁귀함이며	-15083
▁만학천봉	-15084
▁많을수록	-15085
▁명산이라	-15086
▁명심하고	-15087
▁명예까지	-15088
▁모범하여	-15089
▁모여들어	-15090
▁모였다면	-15091
▁모함하는	-15092
▁못하거든	-15093
▁못하오나	-15094
▁묘방일까	-15095
▁무난하게	-15096
▁무너지는	-15097
▁무념이라	-15098
▁무량수각	-15099
▁휘	-15100
事當	-15101
信級	-15102
八條	-15103
咳嗽	-15104
壞者	-15105
形殼	-15106
形體	-15107
悖倫	-15108
慧福	-15109
漢詩	-15110
特性	-15111
現世	-15112
行敎	-15113
被恩	-15114
解悟	-15115
왔고	-15116
▁놓친	-15117
▁돈은	-15118
▁본회	-15119
▁사필	-15120
▁수복	-15121
▁의와	-15122
▁이룩	-15123
▁좋사	-15124
▁주와	-15125
▁휘날	-15126
▁흥왕	-15127
特信級	-15128
破壞者	-15129
臨事當	-15130
는가는	-15131
돈하사	-15132
으시되	-15133
응되는	-15134
▁걱정일	-15135
▁공급할	-15136
▁관리도	-15137
▁끝에만	-15138
▁당하였	-15139
▁되니라	-15140
▁만생을	-15141
▁머슴만	-15142
▁무법이	-15143
▁법연을	-15144
▁법할꼬	-15145
▁분석을	-15146
▁산에서	-15147
▁삼건을	-15148
▁세워야	-15149
▁어렵겠	-15150
▁여가를	-15151
▁원래를	-15152
▁이용의	-15153
▁좌선법	-15154
▁중인을	-15155
▁찰나에	-15156
▁초사를	-15157
▁태아의	-15158
▁팔방을	-15159
大覺如來	-15160
으시니라	-15161
▁가섭에게	-15162
▁각색으로	-15163
▁그로부터	-15164
▁무량하여	-15165
▁무리들이	-15166
▁무법이란	-15167
▁무산자는	-15168
▁무성하는	-15169
▁무속무적	-15170
▁무시선법	-15171
▁무시하며	-15172
▁무엇이며	-15173
▁묵념하신	-15174
▁묵연하되	-15175
▁문고리를	-15176
▁문란하여	-15177
▁묻는다면	-15178
▁묻자온데	-15179
▁물건으로	-15180
▁물러나와	-15181
▁물론이니	-15182
▁물론이며	-15183
▁미륵불은	-15184
▁미워하여	-15185
▁믿으오나	-15186
▁바느질만	-15187
▁바라리요	-15188
▁바루고자	-15189
▁바야흐로	-15190
▁바이리요	-15191
▁밖으로는	-15192
▁반복되는	-15193
▁반조하고	-15194
▁받건마는	-15195
▁받아들이	-15196
▁받았으나	-15197
▁발달되어	-15198
▁발달하여	-15199
回向	-15200
孝友	-15201
後身	-15202
患候	-15203
慧光	-15204
毁談	-15205
活用	-15206
狐疑	-15207
훈한	-15208
▁것보	-15209
▁그늘	-15210
▁그래	-15211
▁그친	-15212
▁대적	-15213
▁말기	-15214
▁말터	-15215
▁변산	-15216
▁사러	-15217
▁사망	-15218
▁사물	-15219
▁사연	-15220
▁사죄	-15221
▁사찰	-15222
▁삼는	-15223
▁이간	-15224
▁이곳	-15225
▁이번	-15226
▁이인	-15227
▁이조	-15228
▁이천	-15229
▁자선	-15230
▁하감	-15231
▁하걸	-15232
▁하운	-15233
理事竝	-15234
用心法	-15235
근기에	-15236
이제는	-15237
킴이요	-15238
태하며	-15239
▁고락이	-15240
▁곤란한	-15241
▁그물과	-15242
▁극도로	-15243
▁기구에	-15244
▁내외가	-15245
▁다정한	-15246
▁동물은	-15247
▁병이라	-15248
▁보관할	-15249
▁삼건의	-15250
▁삼계를	-15251
▁시조가	-15252
▁유지에	-15253
▁자력과	-15254
▁차례나	-15255
▁최초에	-15256
▁친근할	-15257
▁훈훈한	-15258
佛法活用	-15259
理事竝行	-15260
룡산이라	-15261
▁것보다는	-15262
▁공것이라	-15263
▁그늘에서	-15264
▁그래야만	-15265
▁낮이든지	-15266
▁대응하는	-15267
▁말터이니	-15268
▁못하거니	-15269
▁무식하여	-15270
▁발명가를	-15271
▁발명가와	-15272
▁밝아지는	-15273
▁밝아짐을	-15274
▁밝혀줌에	-15275
▁밝히기로	-15276
▁방지하는	-15277
▁방지하여	-15278
▁방해될까	-15279
▁방향로를	-15280
▁배은자가	-15281
▁배척하여	-15282
▁백승하며	-15283
▁버리든지	-15284
▁버린지라	-15285
▁벌레들을	-15286
▁범부들은	-15287
▁법률이라	-15288
▁법사들은	-15289
▁법위등급	-15290
▁법이어늘	-15291
▁벗어남이	-15292
▁베어다가	-15293
▁베풀기가	-15294
▁변동에서	-15295
▁변하여도	-15296
▁변하여질	-15297
▁병진되는	-15298
▁보고하여	-15299
▁가권	-15300
▁가로	-15301
▁가자	-15302
▁가치	-15303
▁가패	-15304
▁기를	-15305
▁네째	-15306
▁노자	-15307
▁단이	-15308
▁대과	-15309
▁대열	-15310
▁대와	-15311
▁삼지	-15312
▁아까	-15313
▁아나	-15314
▁아우	-15315
▁악해	-15316
▁연을	-15317
▁일족	-15318
▁작을	-15319
▁지선	-15320
▁진언	-15321
▁크지	-15322
고기를	-15323
곳으로	-15324
단하여	-15325
답하여	-15326
발하여	-15327
부하여	-15328
순하여	-15329
언하신	-15330
옥하여	-15331
우리에	-15332
진하여	-15333
취하여	-15334
험하고	-15335
▁가려워	-15336
▁걸려야	-15337
▁경지요	-15338
▁계교와	-15339
▁깨치었	-15340
▁당인들	-15341
▁대요는	-15342
▁무너질	-15343
▁버려서	-15344
▁변천을	-15345
▁보내고	-15346
▁불과한	-15347
▁업으로	-15348
▁없애면	-15349
▁염라국	-15350
▁우자를	-15351
▁이익될	-15352
▁일정에	-15353
▁잘한즉	-15354
▁지네는	-15355
▁지대에	-15356
▁창건이	-15357
▁취하게	-15358
▁함인가	-15359
운정심대	-15360
칭찬하는	-15361
▁구족하다	-15362
▁당인들에	-15363
▁대열에서	-15364
▁도덕이나	-15365
▁무리들의	-15366
▁물고기를	-15367
▁보관하여	-15368
▁보기에는	-15369
▁보나이까	-15370
▁보내시어	-15371
▁보답하지	-15372
▁보보일체	-15373
▁보아야만	-15374
▁보았는데	-15375
▁보았으며	-15376
▁보은하는	-15377
▁보은행을	-15378
▁보응으로	-15379
▁보이더라	-15380
▁보이리라	-15381
▁보이시기	-15382
▁보주니라	-15383
▁보호하고	-15384
▁보호하는	-15385
▁보호하라	-15386
▁보호하여	-15387
▁복이라도	-15388
▁본성이며	-15389
▁본위로만	-15390
▁본위하여	-15391
▁봉래산에	-15392
▁봉사하여	-15393
▁봉안하면	-15394
▁봉우리에	-15395
▁부동하신	-15396
▁부동함은	-15397
▁부르시사	-15398
▁부부간에	-15399
▁과원	-15400
▁궁촌	-15401
▁늦게	-15402
▁다못	-15403
▁되리	-15404
▁둘리	-15405
▁맞으	-15406
▁모로	-15407
▁삼보	-15408
▁왔다	-15409
▁유망	-15410
▁입만	-15411
▁자란	-15412
▁자사	-15413
▁자작	-15414
▁적묵	-15415
▁적서	-15416
崔內善	-15417
念佛法	-15418
같나니	-15419
곡으로	-15420
기나니	-15421
념으로	-15422
등으로	-15423
명하게	-15424
불하는	-15425
승으로	-15426
안으로	-15427
양으로	-15428
우로은	-15429
움으로	-15430
원에서	-15431
제하는	-15432
태하는	-15433
폐하는	-15434
▁감응의	-15435
▁경험도	-15436
▁공도라	-15437
▁과거나	-15438
▁교의의	-15439
▁군자요	-15440
▁그르고	-15441
▁놓아야	-15442
▁띠거늘	-15443
▁명리욕	-15444
▁사심만	-15445
▁성의와	-15446
▁수도나	-15447
▁시로써	-15448
▁신앙은	-15449
▁심상시	-15450
▁알고는	-15451
▁일월의	-15452
▁자나니	-15453
▁제거해	-15454
▁지은즉	-15455
식물들은	-15456
▁간명하게	-15457
▁계시는데	-15458
▁궁촌에도	-15459
▁깨우쳐서	-15460
▁내게서도	-15461
▁되리로다	-15462
▁둘리기도	-15463
▁마음이라	-15464
▁맞으리니	-15465
▁맡기나니	-15466
▁모로든지	-15467
▁모순되지	-15468
▁물건같이	-15469
▁배척받은	-15470
▁부정이라	-15471
▁부정이요	-15472
▁부주의로	-15473
▁부주의한	-15474
▁부질없는	-15475
▁부처이니	-15476
▁부합되지	-15477
▁분들에게	-15478
▁분명하게	-15479
▁분명하고	-15480
▁분명하여	-15481
▁분분하나	-15482
▁분석하며	-15483
▁분형되고	-15484
▁불공법은	-15485
▁불공이요	-15486
▁불과하게	-15487
▁불과하나	-15488
▁불목하는	-15489
▁불보살도	-15490
▁불사르사	-15491
▁불상에만	-15492
▁불순하여	-15493
▁불온하다	-15494
▁불완전한	-15495
▁불의어든	-15496
▁불의인줄	-15497
▁불합리는	-15498
▁불화하게	-15499
▁공기	-15500
▁공동	-15501
▁공론	-15502
▁공칠	-15503
▁공회	-15504
▁네게	-15505
▁뇌급	-15506
▁다해	-15507
▁마령	-15508
▁마를	-15509
▁마술	-15510
▁마장	-15511
▁마지	-15512
▁마쳤	-15513
▁마취	-15514
▁마하	-15515
▁산골	-15516
▁어변	-15517
▁어육	-15518
▁지기	-15519
▁지성	-15520
▁지었	-15521
▁지행	-15522
▁직통	-15523
격하고	-15524
결하고	-15525
공하고	-15526
방하고	-15527
비하고	-15528
섭하고	-15529
압하고	-15530
언하고	-15531
역하고	-15532
연하고	-15533
위하고	-15534
증하고	-15535
진하고	-15536
▁63.	-15537
▁간이한	-15538
▁계시고	-15539
▁권세가	-15540
▁다하고	-15541
▁다하는	-15542
▁되겠다	-15543
▁두렵게	-15544
▁마나니	-15545
▁보오면	-15546
▁사마를	-15547
▁안락의	-15548
▁예에는	-15549
▁원하며	-15550
▁잡철이	-15551
▁지기를	-15552
▁지리를	-15553
▁지식에	-15554
▁치우친	-15555
▁토질이	-15556
▁판단과	-15557
▁평화는	-15558
▁흔들며	-15559
冠婚喪祭	-15560
常時訓練	-15561
▁감격하고	-15562
▁고결하고	-15563
▁고집대로	-15564
▁공회당을	-15565
▁뇌급만방	-15566
▁다하여도	-15567
▁단련하고	-15568
▁배척하는	-15569
▁번역하고	-15570
▁보내거늘	-15571
▁보증하고	-15572
▁불화하여	-15573
▁붙잡히는	-15574
▁비교하여	-15575
▁비난이나	-15576
▁비롯이니	-15577
▁비명소리	-15578
▁비방하고	-15579
▁비열하여	-15580
▁비용으로	-15581
▁빈궁함과	-15582
▁빈민들을	-15583
▁빠져감을	-15584
▁빠지지도	-15585
▁빼앗기게	-15586
▁빼앗기니	-15587
▁뻗어나간	-15588
▁뿐아니라	-15589
▁뿐이리요	-15590
▁사는지라	-15591
▁사대강령	-15592
▁사람답게	-15593
▁사람만도	-15594
▁사랑에만	-15595
▁사랑하며	-15596
▁사량으로	-15597
▁사리연구	-15598
▁사마라도	-15599
▁구년	-15600
▁길과	-15601
▁나야	-15602
▁나올	-15603
▁나투	-15604
▁도통	-15605
▁모셨	-15606
▁모실	-15607
▁못된	-15608
▁못보	-15609
▁못에	-15610
▁바꿀	-15611
▁보따	-15612
▁보려	-15613
▁보실	-15614
▁보자	-15615
▁보패	-15616
▁삼갈	-15617
▁생불	-15618
▁생업	-15619
▁생포	-15620
▁세목	-15621
▁세울	-15622
▁세째	-15623
▁세탁	-15624
▁수긍	-15625
▁수록	-15626
▁수야	-15627
▁수월	-15628
▁수축	-15629
▁영문	-15630
▁오니	-15631
▁왕생	-15632
▁정란	-15633
▁정력	-15634
▁정로	-15635
▁정문	-15636
▁정애	-15637
▁정원	-15638
▁정을	-15639
▁정행	-15640
▁정히	-15641
▁제어	-15642
▁지날	-15643
▁지면	-15644
▁지시	-15645
▁지우	-15646
▁지킨	-15647
▁초가	-15648
▁한도	-15649
▁한정	-15650
▁후천	-15651
安島山	-15652
참다운	-15653
하라고	-15654
▁공부한	-15655
▁구김이	-15656
▁깨치사	-15657
▁남화경	-15658
▁두르고	-15659
▁모이어	-15660
▁무리도	-15661
▁세인의	-15662
▁소치라	-15663
▁수확할	-15664
▁전정을	-15665
▁짓기에	-15666
▁천만문	-15667
▁치가에	-15668
▁한하는	-15669
▁힘이니	-15670
▁나에게는	-15671
▁나올지니	-15672
▁남천에게	-15673
▁대도사요	-15674
▁대법사가	-15675
▁못보아서	-15676
▁보따리를	-15677
▁사몽간에	-15678
▁사사불공	-15679
▁사실다운	-15680
▁사실이나	-15681
▁사양하겠	-15682
▁사업들도	-15683
▁사업심이	-15684
▁사업이면	-15685
▁사업인가	-15686
▁사업하겠	-15687
▁사용하게	-15688
▁사원에는	-15689
▁사은이요	-15690
▁사항으로	-15691
▁산돼지를	-15692
▁산업부에	-15693
▁산업부원	-15694
▁산책하시	-15695
▁살려내는	-15696
▁살생하는	-15697
▁살생하지	-15698
▁살아나기	-15699
▁도사	-15700
▁도시	-15701
▁도일	-15702
▁도형	-15703
▁무력	-15704
▁무마	-15705
▁무소	-15706
▁무연	-15707
▁무왕	-15708
▁무착	-15709
▁법강	-15710
▁법기	-15711
▁법마	-15712
▁법망	-15713
▁법명	-15714
▁법성	-15715
▁부녀	-15716
▁부업	-15717
▁부연	-15718
▁부인	-15719
▁부재	-15720
▁부채	-15721
▁상한	-15722
▁선인	-15723
▁심리	-15724
▁융성	-15725
▁잡기	-15726
▁종족	-15727
▁주려	-15728
▁주에	-15729
▁주역	-15730
▁주요	-15731
▁주자	-15732
▁주초	-15733
▁타인	-15734
▁가슴앓	-15735
▁공부며	-15736
▁도나니	-15737
▁들이고	-15738
▁뜻에는	-15739
▁뜻이니	-15740
▁마음껏	-15741
▁멸하지	-15742
▁부하는	-15743
▁불교와	-15744
▁오심이	-15745
▁이명과	-15746
▁인하와	-15747
▁자녀된	-15748
▁조직과	-15749
▁종으로	-15750
▁주기를	-15751
▁주하시	-15752
▁주하여	-15753
▁청춘은	-15754
▁하오며	-15755
▁험난한	-15756
리더라도	-15757
어함이라	-15758
▁감당하지	-15759
▁곳이라고	-15760
▁나가올지	-15761
▁나온다면	-15762
▁대원정각	-15763
▁대종사에	-15764
▁대종사와	-15765
▁도량에서	-15766
▁도사령이	-15767
▁도시에는	-15768
▁먹는다면	-15769
▁무착행을	-15770
▁부녀들이	-15771
▁부재하사	-15772
▁부합되는	-15773
▁불고하던	-15774
▁살지마는	-15775
▁살피기로	-15776
▁살피라는	-15777
▁삼강령을	-15778
▁삼강령이	-15779
▁삼으려는	-15780
▁삼학과의	-15781
▁상대하는	-15782
▁상심하지	-15783
▁상종하되	-15784
▁상징으로	-15785
▁상쾌하고	-15786
▁상하기야	-15787
▁새벽에는	-15788
▁새우기도	-15789
▁색정으로	-15790
▁생각이나	-15791
▁생각임을	-15792
▁생각하나	-15793
▁생기기도	-15794
▁생일이나	-15795
▁생활에는	-15796
▁서북풍은	-15797
▁서약들을	-15798
▁서약하라	-15799
▁기국	-15800
▁닦고	-15801
▁만경	-15802
▁만류	-15803
▁만에	-15804
▁바란	-15805
▁바만	-15806
▁바치	-15807
▁바칠	-15808
▁법인	-15809
▁법호	-15810
▁안전	-15811
▁여수	-15812
▁입성	-15813
▁전미	-15814
▁천경	-15815
▁천념	-15816
▁천력	-15817
▁천마	-15818
▁천조	-15819
▁홀대	-15820
誓願文	-15821
가에게	-15822
경에는	-15823
너에게	-15824
문이라	-15825
성에는	-15826
하에는	-15827
▁가서는	-15828
▁겁내어	-15829
▁경중을	-15830
▁명성이	-15831
▁모으고	-15832
▁모친의	-15833
▁문호를	-15834
▁밝히어	-15835
▁선악과	-15836
▁양성할	-15837
▁어둡던	-15838
▁언어가	-15839
▁얼굴로	-15840
▁이에게	-15841
▁있을지	-15842
▁자비를	-15843
▁잡념도	-15844
▁정신만	-15845
▁제자나	-15846
▁준비를	-15847
▁줄기차	-15848
▁태산의	-15849
▁표함이	-15850
▁해치지	-15851
▁흐를까	-15852
決定善根	-15853
곡관에는	-15854
대종사의	-15855
리요마는	-15856
어지거든	-15857
없나니라	-15858
지나니라	-15859
▁개척하게	-15860
▁건설되는	-15861
▁동하에는	-15862
▁드러나며	-15863
▁면하려고	-15864
▁면회하고	-15865
▁미묘하여	-15866
▁바란다면	-15867
▁받았으며	-15868
▁밝아짐이	-15869
▁방해하며	-15870
▁버리기를	-15871
▁불성에는	-15872
▁사나니라	-15873
▁서에서와	-15874
▁서투르고	-15875
▁선공부가	-15876
▁선도자가	-15877
▁선도자로	-15878
▁선발하는	-15879
▁선성들이	-15880
▁선심으로	-15881
▁선지식을	-15882
▁선지자요	-15883
▁선행에도	-15884
▁설비하고	-15885
▁섭섭하게	-15886
▁섭섭하지	-15887
▁성가시게	-15888
▁성리등을	-15889
▁성불함을	-15890
▁성습되어	-15891
▁성인으로	-15892
▁성취하고	-15893
▁성취하는	-15894
▁성품이라	-15895
▁세계로도	-15896
▁세밀히는	-15897
▁세상에다	-15898
▁세우기로	-15899
▁개들	-15900
▁기선	-15901
▁기수	-15902
▁기식	-15903
▁기신	-15904
▁기연	-15905
▁기화	-15906
▁깊으	-15907
▁단은	-15908
▁매달	-15909
▁문정	-15910
▁불되	-15911
▁불문	-15912
▁불행	-15913
▁삼게	-15914
▁오면	-15915
▁우는	-15916
▁우자	-15917
▁우호	-15918
▁음해	-15919
▁인권	-15920
▁인천	-15921
▁인한	-15922
▁장이	-15923
▁적이	-15924
▁종태	-15925
▁찾기	-15926
▁천안	-15927
▁천치	-15928
▁천한	-15929
▁통관	-15930
全飮光	-15931
령이나	-15932
삼세의	-15933
시니라	-15934
었으면	-15935
지출을	-15936
▁가니라	-15937
▁공부니	-15938
▁공부상	-15939
▁교파들	-15940
▁교화한	-15941
▁들어왔	-15942
▁명사로	-15943
▁무법을	-15944
▁밭으로	-15945
▁부촉품	-15946
▁분수를	-15947
▁사이라	-15948
▁새벽의	-15949
▁없으실	-15950
▁영근에	-15951
▁일기도	-15952
▁일성에	-15953
▁자손은	-15954
▁천도품	-15955
▁치산의	-15956
▁커나서	-15957
▁키우고	-15958
자기하여	-15959
▁간절하던	-15960
▁공부에는	-15961
▁그것이라	-15962
▁나아가야	-15963
▁되었는지	-15964
▁매달리어	-15965
▁믿나이다	-15966
▁병이니라	-15967
▁불행하게	-15968
▁세워줌이	-15969
▁세탁소도	-15970
▁소견으로	-15971
▁소견이니	-15972
▁소모되는	-15973
▁소인이나	-15974
▁소종래를	-15975
▁속박하여	-15976
▁손가락과	-15977
▁손상할뿐	-15978
▁솔성지도	-15979
▁송구하여	-15980
▁쇠소리가	-15981
▁쇠퇴하여	-15982
▁수긍하지	-15983
▁수단으로	-15984
▁수도인에	-15985
▁수도하고	-15986
▁수도하여	-15987
▁수습하여	-15988
▁수신하는	-15989
▁수양력과	-15990
▁수양에만	-15991
▁수양하는	-15992
▁수용하며	-15993
▁수입으로	-15994
▁수입이나	-15995
▁수자상을	-15996
▁수행하지	-15997
▁수확하게	-15998
▁순경이면	-15999
▁교외	-16000
▁매우	-16001
▁선비	-16002
▁선승	-16003
▁선용	-16004
▁선중	-16005
▁선천	-16006
▁선할	-16007
▁엿과	-16008
▁죄상	-16009
▁풀리	-16010
▁흉할	-16011
간에서	-16012
리하지	-16013
소에서	-16014
앞에서	-16015
에서나	-16016
정당한	-16017
중에서	-16018
진자도	-16019
하에서	-16020
함에서	-16021
▁각지의	-16022
▁건네는	-16023
▁국경이	-16024
▁그대나	-16025
▁근심될	-16026
▁높아질	-16027
▁담배를	-16028
▁대하지	-16029
▁돌아온	-16030
▁동하려	-16031
▁받나니	-16032
▁부근에	-16033
▁사뢰니	-16034
▁사이로	-16035
▁생에서	-16036
▁선하고	-16037
▁성취될	-16038
▁세상만	-16039
▁슬겁고	-16040
▁실적도	-16041
▁열쇠를	-16042
▁이욕은	-16043
▁작용을	-16044
▁잡히는	-16045
▁크게도	-16046
▁태중에	-16047
▁하는지	-16048
▁화하지	-16049
一歸何處	-16050
日日時時	-16051
행으로써	-16052
▁감사하다	-16053
▁경위에만	-16054
▁골육지친	-16055
▁공부에서	-16056
▁공허하고	-16057
▁그러할까	-16058
▁나오시매	-16059
▁대중적이	-16060
▁들으라고	-16061
▁무궁하여	-16062
▁문하에서	-16063
▁민간에서	-16064
▁보름으로	-16065
▁비행장을	-16066
▁빼앗아갈	-16067
▁사업자인	-16068
▁산란하게	-16069
▁수도인의	-16070
▁순임금은	-16071
▁순환하게	-16072
▁순환하나	-16073
▁숭배처를	-16074
▁숭배하면	-16075
▁숭배해야	-16076
▁숭상하는	-16077
▁쉬어버리	-16078
▁승강되는	-16079
▁승려들의	-16080
▁승하시고	-16081
▁시간에도	-16082
▁시간이나	-16083
▁시기하는	-16084
▁시봉하는	-16085
▁시사일광	-16086
▁시설만이	-16087
▁시설이나	-16088
▁시작하는	-16089
▁시키기는	-16090
▁시행하는	-16091
▁식구들의	-16092
▁신념으로	-16093
▁신뢰하여	-16094
▁신봉함이	-16095
▁신속하게	-16096
▁신앙이며	-16097
▁신이오며	-16098
▁신인이라	-16099
19)	-16100
▁경강	-16101
▁경거	-16102
▁경관	-16103
▁경도	-16104
▁경솔	-16105
▁경에	-16106
▁교종	-16107
▁교주	-16108
▁교지	-16109
▁교칙	-16110
▁내라	-16111
▁내심	-16112
▁내와	-16113
▁내외	-16114
▁동녀	-16115
▁동령	-16116
▁동심	-16117
▁들기	-16118
▁성도	-16119
▁성위	-16120
▁성을	-16121
▁성장	-16122
▁성주	-16123
▁성토	-16124
▁성황	-16125
▁시들	-16126
▁시서	-16127
▁시시	-16128
▁원근	-16129
▁원년	-16130
▁원숙	-16131
▁원시	-16132
▁원에	-16133
▁원할	-16134
▁원화	-16135
▁위연	-16136
▁위의	-16137
▁잘해	-16138
▁잠재	-16139
▁조리	-16140
▁조만	-16141
▁조산	-16142
▁죄해	-16143
▁중인	-16144
▁체는	-16145
▁평순	-16146
出世間	-16147
내기도	-16148
▁권면만	-16149
▁꾸짖는	-16150
▁내나니	-16151
▁막는가	-16152
▁막아서	-16153
▁사상이	-16154
▁성공은	-16155
▁수확이	-16156
▁싫어도	-16157
▁심고의	-16158
▁옮기어	-16159
▁원기를	-16160
▁원하지	-16161
▁위에는	-16162
▁위에서	-16163
▁위하고	-16164
▁자식이	-16165
▁행실을	-16166
▁효부가	-16167
1919)	-16168
▁가르침에	-16169
▁경솔하게	-16170
▁교육하여	-16171
▁내나니라	-16172
▁되어가고	-16173
▁때에라도	-16174
▁먹겠는가	-16175
▁병아리가	-16176
▁사라지면	-16177
▁성토하며	-16178
▁실망하지	-16179
▁실생활을	-16180
▁실어다가	-16181
▁실적으로	-16182
▁실천으로	-16183
▁실행까지	-16184
▁실행하라	-16185
▁실행해서	-16186
▁싫어하게	-16187
▁싫어함을	-16188
▁심경에는	-16189
▁심고하는	-16190
▁심복으로	-16191
▁십계씩을	-16192
▁싶사오나	-16193
▁쌍수하여	-16194
▁쌍전시키	-16195
▁쌍전하고	-16196
▁쌓이기도	-16197
▁쓰러지면	-16198
▁아니므로	-16199
▁넣고	-16200
▁들려	-16201
▁들며	-16202
▁들였	-16203
▁매각	-16204
▁밟을	-16205
▁분심	-16206
▁서는	-16207
▁서른	-16208
▁서에	-16209
▁서전	-16210
▁서품	-16211
▁음적	-16212
▁잡게	-16213
▁중계	-16214
▁중도	-16215
▁중이	-16216
▁중천	-16217
▁행한	-16218
性理氣	-16219
린지라	-16220
쇠하면	-16221
연구를	-16222
움이요	-16223
장이요	-16224
호하게	-16225
▁경하면	-16226
▁난만한	-16227
▁노동도	-16228
▁대하면	-16229
▁동천에	-16230
▁말하게	-16231
▁망상을	-16232
▁목판을	-16233
▁불전에	-16234
▁선이요	-16235
▁선하면	-16236
▁성의나	-16237
▁세계일	-16238
▁수행상	-16239
▁심전의	-16240
▁여색이	-16241
▁예로써	-16242
▁예회날	-16243
▁장중에	-16244
▁전진을	-16245
▁조화와	-16246
▁존엄을	-16247
▁중이라	-16248
▁중하고	-16249
▁집중이	-16250
▁착수할	-16251
▁측량할	-16252
▁칼날을	-16253
▁타력은	-16254
▁해독될	-16255
▁헌공금	-16256
心性理氣	-16257
智者本位	-16258
朴四時華	-16259
▁간호하게	-16260
▁경편차를	-16261
▁과거보다	-16262
▁낙원으로	-16263
▁노쇠하면	-16264
▁다스리고	-16265
▁도덕이니	-16266
▁도심으로	-16267
▁동남풍은	-16268
▁들어보았	-16269
▁매각될까	-16270
▁무사하신	-16271
▁보시로써	-16272
▁봉안하여	-16273
▁사업장을	-16274
▁싸움이요	-16275
▁아니어서	-16276
▁아니었고	-16277
▁아니하던	-16278
▁아니하매	-16279
▁아니하사	-16280
▁아니하지	-16281
▁아만심에	-16282
▁아무것도	-16283
▁아버지를	-16284
▁악연으로	-16285
▁악해지는	-16286
▁악행자는	-16287
▁안락세계	-16288
▁안목으로	-16289
▁안심하라	-16290
▁안온하여	-16291
▁안정시킬	-16292
▁안주처를	-16293
▁안타까운	-16294
▁않으므로	-16295
▁않지마는	-16296
▁알거니와	-16297
▁알려지지	-16298
▁알아두면	-16299
▁24	-16300
▁고도	-16301
▁고마	-16302
▁고승	-16303
▁고악	-16304
▁고와	-16305
▁고전	-16306
▁고칠	-16307
▁고행	-16308
▁곧게	-16309
▁관념	-16310
▁구업	-16311
▁구화	-16312
▁따를	-16313
▁물소	-16314
▁물심	-16315
▁물아	-16316
▁물은	-16317
▁비단	-16318
▁비를	-16319
▁비의	-16320
▁신과	-16321
▁신문	-16322
▁신은	-16323
▁전과	-16324
▁전달	-16325
▁전담	-16326
▁전무	-16327
▁전신	-16328
▁전연	-16329
▁전주	-16330
▁전체	-16331
▁쳐다	-16332
▁초당	-16333
▁탁아	-16334
福慧兩	-16335
경편차	-16336
미타를	-16337
응하게	-16338
▁고에서	-16339
▁공양에	-16340
▁관청의	-16341
▁늙어서	-16342
▁단생에	-16343
▁드리며	-16344
▁뜻에서	-16345
▁많나니	-16346
▁본받지	-16347
▁부귀한	-16348
▁비하건	-16349
▁삭제할	-16350
▁살피며	-16351
▁성안에	-16352
▁신이라	-16353
▁어느날	-16354
▁없도다	-16355
▁우리로	-16356
▁원하게	-16357
▁이루었	-16358
▁주노라	-16359
▁책임져	-16360
▁처소에	-16361
▁하여간	-16362
福慧兩足	-16363
하시기도	-16364
해하려는	-16365
▁고마움을	-16366
▁고뿐이요	-16367
▁고승들과	-16368
▁궁행하는	-16369
▁기관이요	-16370
▁꾸짖든지	-16371
▁늙어서는	-16372
▁막히리라	-16373
▁많나니라	-16374
▁모양으로	-16375
▁무상으로	-16376
▁비하건데	-16377
▁쉽나니라	-16378
▁알아들을	-16379
▁알아야만	-16380
▁알아지고	-16381
▁알았거든	-16382
▁알았노라	-16383
▁알았다고	-16384
▁알았으며	-16385
▁알으시나	-16386
▁알으시는	-16387
▁알으신다	-16388
▁애당초에	-16389
▁애석하지	-16390
▁애착됨이	-16391
▁애착심이	-16392
▁야초점장	-16393
▁약해져서	-16394
▁양득하는	-16395
▁양로원을	-16396
▁양면으로	-16397
▁양성이요	-16398
▁양자라도	-16399
▁격외	-16400
▁길가	-16401
▁길한	-16402
▁먹여	-16403
▁방울	-16404
▁방풍	-16405
▁상과	-16406
▁상도	-16407
▁상만	-16408
▁실력	-16409
▁실속	-16410
▁실수	-16411
▁실에	-16412
▁실현	-16413
▁영가	-16414
▁영에	-16415
▁올릴	-16416
▁창극	-16417
객들이	-16418
공들이	-16419
기도록	-16420
산이나	-16421
순이나	-16422
저들이	-16423
탁이나	-16424
평이나	-16425
▁가리라	-16426
▁가지만	-16427
▁가지에	-16428
▁강림어	-16429
▁경륜을	-16430
▁교리도	-16431
▁내거나	-16432
▁내리라	-16433
▁달이게	-16434
▁대과를	-16435
▁더러운	-16436
▁때리고	-16437
▁말하나	-16438
▁바치려	-16439
▁발원도	-16440
▁배은이	-16441
▁보리라	-16442
▁불러서	-16443
▁뿐이나	-16444
▁삼가지	-16445
▁생각의	-16446
▁생각지	-16447
▁선택에	-16448
▁십자가	-16449
▁알리라	-16450
▁양해를	-16451
▁연도심	-16452
▁연마할	-16453
▁일들이	-16454
▁추구해	-16455
▁편리만	-16456
▁하루에	-16457
▁학교가	-16458
善政德治	-16459
들이므로	-16460
▁교육하기	-16461
▁목탁이나	-16462
▁못하는데	-16463
▁못하도록	-16464
▁못하지는	-16465
▁반성하기	-16466
▁방심이요	-16467
▁배산이나	-16468
▁법이리요	-16469
▁보았으나	-16470
▁불국토가	-16471
▁생각에는	-16472
▁생각에서	-16473
▁생각이라	-16474
▁생각이요	-16475
▁생각하시	-16476
▁생기도록	-16477
▁승객들이	-16478
▁시키노라	-16479
▁십자가에	-16480
▁악평이나	-16481
▁양적으로	-16482
▁어김없이	-16483
▁어두우며	-16484
▁어두운고	-16485
▁어두웠다	-16486
▁어떠하냐	-16487
▁어떠한가	-16488
▁어려서는	-16489
▁어렵노라	-16490
▁어루만지	-16491
▁어리석게	-16492
▁어린이가	-16493
▁어머니를	-16494
▁어제까지	-16495
▁어진이를	-16496
▁억압되었	-16497
▁억지로는	-16498
▁얻나니라	-16499
▁간음	-16500
▁갈리	-16501
▁남북	-16502
▁남에	-16503
▁남중	-16504
▁당장	-16505
▁데가	-16506
▁병용	-16507
▁삼경	-16508
▁삼교	-16509
▁삼되	-16510
▁삼방	-16511
▁삼산	-16512
▁삼삼	-16513
▁삼세	-16514
▁삼위	-16515
▁삼은	-16516
▁상에	-16517
▁상장	-16518
▁심행	-16519
▁의라	-16520
▁의리	-16521
▁의만	-16522
▁의왕	-16523
▁의학	-16524
▁저리	-16525
▁저버	-16526
▁저울	-16527
▁진묵	-16528
▁혹시	-16529
난다면	-16530
는다면	-16531
대성경	-16532
르다면	-16533
셨으나	-16534
인간적	-16535
입어서	-16536
하도다	-16537
▁공자의	-16538
▁교육할	-16539
▁꾸미는	-16540
▁끌려가	-16541
▁남들이	-16542
▁다섯째	-16543
▁달래어	-16544
▁당하지	-16545
▁되어서	-16546
▁두미를	-16547
▁때에만	-16548
▁띠시며	-16549
▁만지지	-16550
▁방법과	-16551
▁법흥을	-16552
▁비침과	-16553
▁삼으로	-16554
▁어찌될	-16555
▁옹기를	-16556
▁인간을	-16557
▁인재를	-16558
▁죄인은	-16559
▁진리라	-16560
▁창립할	-16561
▁크거나	-16562
▁화로가	-16563
春秋法呂	-16564
▁가득하매	-16565
▁갈리면서	-16566
▁걸리기도	-16567
▁남중리에	-16568
▁들었느냐	-16569
▁띠시더니	-16570
▁방탕하던	-16571
▁보살들이	-16572
▁삼은지가	-16573
▁설치하고	-16574
▁성품이며	-16575
▁심행처가	-16576
▁어찌하는	-16577
▁얻어지는	-16578
▁얼마씩의	-16579
▁얼맛동안	-16580
▁얽매이지	-16581
▁엄책하는	-16582
▁없는가를	-16583
▁없애기에	-16584
▁없애라고	-16585
▁없어야만	-16586
▁없어지면	-16587
▁없었으니	-16588
▁없으리니	-16589
▁없으시어	-16590
▁없을지나	-16591
▁없을지라	-16592
▁없이하여	-16593
▁여기나니	-16594
▁여의주를	-16595
▁여자들은	-16596
▁여쭙거늘	-16597
▁역력함을	-16598
▁연고이며	-16599
▁과정	-16600
▁달에	-16601
▁더운	-16602
▁두목	-16603
▁두미	-16604
▁미미	-16605
▁미발	-16606
▁미약	-16607
▁배나	-16608
▁소비	-16609
▁소생	-16610
▁소수	-16611
▁소와	-16612
▁소질	-16613
▁심계	-16614
▁심력	-16615
▁심령	-16616
▁심수	-16617
▁심을	-16618
▁심천	-16619
▁심체	-16620
▁심한	-16621
▁연지	-16622
▁욕을	-16623
▁용이	-16624
▁유공	-16625
▁행여	-16626
▁행해	-16627
▁후세	-16628
▁후신	-16629
▁후심	-16630
▁후의	-16631
▁후일	-16632
▁후한	-16633
▁희게	-16634
權動華	-16635
金大擧	-16636
민들의	-16637
▁건설한	-16638
▁견성에	-16639
▁과하게	-16640
▁구미를	-16641
▁두나니	-16642
▁두어서	-16643
▁만사에	-16644
▁붙잡는	-16645
▁시대는	-16646
▁시주도	-16647
▁심하면	-16648
▁알아줄	-16649
▁얻는다	-16650
▁영령한	-16651
▁의두는	-16652
▁있었을	-16653
▁전세에	-16654
▁정신적	-16655
▁정신행	-16656
▁정이니	-16657
▁제자는	-16658
▁제자도	-16659
▁주리게	-16660
▁탁태를	-16661
▁해생어	-16662
溪合千峰	-16663
도가에서	-16664
모범적인	-16665
▁가더라도	-16666
▁굳어져서	-16667
▁내리시니	-16668
▁노력하는	-16669
▁농민들의	-16670
▁무엇보다	-16671
▁미발지중	-16672
▁방탕하여	-16673
▁법칙이요	-16674
▁보내기를	-16675
▁서원서를	-16676
▁소생함과	-16677
▁소수인의	-16678
▁심천에도	-16679
▁애독하여	-16680
▁없사옵고	-16681
▁없었느냐	-16682
▁여여하여	-16683
▁연구하는	-16684
▁연구하되	-16685
▁연구해서	-16686
▁연령이나	-16687
▁연속되어	-16688
▁열반인의	-16689
▁열반하게	-16690
▁열한째는	-16691
▁염라국이	-16692
▁염려하지	-16693
▁염불이라	-16694
▁영으로서	-16695
▁영장이라	-16696
▁영험하지	-16697
▁영혼이요	-16698
▁예배하는	-16699
▁거교	-16700
▁거리	-16701
▁거부	-16702
▁거액	-16703
▁거친	-16704
▁계계	-16705
▁계단	-16706
▁계를	-16707
▁계며	-16708
▁돈의	-16709
▁돌본	-16710
▁본뜰	-16711
▁본즉	-16712
▁살기	-16713
▁살던	-16714
▁살된	-16715
▁살필	-16716
▁순수	-16717
▁연유	-16718
▁연재	-16719
▁연전	-16720
▁유도	-16721
▁유루	-16722
▁유성	-16723
▁유아	-16724
▁유언	-16725
▁유한	-16726
▁죄과	-16727
▁죄라	-16728
▁죄와	-16729
▁참석	-16730
▁참예	-16731
▁참이	-16732
▁참지	-16733
▁피서	-16734
▁해나	-16735
▁해변	-16736
▁해수	-16737
▁해준	-16738
▁흡연	-16739
報恩米	-16740
기이니	-16741
▁고물을	-16742
▁깨치려	-16743
▁노력하	-16744
▁들었을	-16745
▁발달을	-16746
▁베거나	-16747
▁부처라	-16748
▁비행을	-16749
▁사하기	-16750
▁살기를	-16751
▁생활만	-16752
▁성인을	-16753
▁순경될	-16754
▁않기를	-16755
▁억압과	-16756
▁여기기	-16757
▁유일한	-16758
▁유혹을	-16759
▁정해서	-16760
▁주야를	-16761
▁챙기어	-16762
▁하심과	-16763
▁해하고	-16764
▁해하지	-16765
▁행하던	-16766
人名衣服	-16767
在家工夫	-16768
심으로써	-16769
▁개척원을	-16770
▁거리낌이	-16771
▁능력으로	-16772
▁도인에게	-16773
▁망녕되고	-16774
▁불고하게	-16775
▁불어내기	-16776
▁비옥하여	-16777
▁서가여래	-16778
▁않나니라	-16779
▁없이하는	-16780
▁연유인가	-16781
▁예불하는	-16782
▁예사이니	-16783
▁예회에도	-16784
▁오늘날은	-16785
▁오래가지	-16786
▁오래되면	-16787
▁오래하여	-16788
▁오해하여	-16789
▁온전해야	-16790
▁올리거늘	-16791
▁올리오면	-16792
▁올챙이가	-16793
▁올챙이들	-16794
▁옮겨놓고	-16795
▁옹졸하고	-16796
▁완고하던	-16797
▁왔건마는	-16798
▁왔나이다	-16799
▁녹일	-16800
▁배에	-16801
▁배의	-16802
▁병도	-16803
▁병맥	-16804
▁병의	-16805
▁병인	-16806
▁병증	-16807
▁분만	-16808
▁분뿐	-16809
▁분주	-16810
▁분투	-16811
▁산을	-16812
▁안을	-16813
▁안장	-16814
▁익은	-16815
▁착심	-16816
▁처자	-16817
▁처한	-16818
▁포가	-16819
▁함에	-16820
▁항렬	-16821
▁허일	-16822
倚作家	-16823
膏血魔	-16824
교문을	-16825
물로써	-16826
박아서	-16827
회화는	-16828
▁강하게	-16829
▁거처와	-16830
▁근심할	-16831
▁나와야	-16832
▁대법을	-16833
▁대중도	-16834
▁대중만	-16835
▁대중에	-16836
▁돈독히	-16837
▁못하니	-16838
▁못하매	-16839
▁못하와	-16840
▁무리를	-16841
▁병으로	-16842
▁병이나	-16843
▁보리를	-16844
▁분으로	-16845
▁사뢰고	-16846
▁사회는	-16847
▁살림의	-16848
▁심판기	-16849
▁위라는	-16850
▁일생의	-16851
▁전부를	-16852
▁주판을	-16853
▁진대지	-16854
▁처사는	-16855
▁천지도	-16856
▁천지은	-16857
▁청풍의	-16858
▁촌수와	-16859
▁팔조와	-16860
▁퍼지면	-16861
▁하나에	-16862
▁학술로	-16863
▁허리를	-16864
수용하는	-16865
▁계속하며	-16866
▁농사법을	-16867
▁농사에는	-16868
▁달성하는	-16869
▁대중하여	-16870
▁떨어지면	-16871
▁미치나니	-16872
▁산물로써	-16873
▁신통으로	-16874
▁심판기라	-16875
▁왕림하여	-16876
▁외도들의	-16877
▁외웠으며	-16878
▁외인이라	-16879
▁외정정과	-16880
▁외정정의	-16881
▁요달하여	-16882
▁요란하게	-16883
▁요란함을	-16884
▁요령있는	-16885
▁요법이나	-16886
▁요약하면	-16887
▁요절하매	-16888
▁용서하며	-16889
▁우리들이	-16890
▁우애하는	-16891
▁우주에는	-16892
▁운영하지	-16893
▁운용하는	-16894
▁운용하되	-16895
▁운전사의	-16896
▁운전하되	-16897
▁운전하며	-16898
▁운행되지	-16899
▁감원	-16900
▁강기	-16901
▁강사	-16902
▁노복	-16903
▁능숙	-16904
▁뜻의	-16905
▁뜻인	-16906
▁발단	-16907
▁악살	-16908
▁악할	-16909
▁재비	-16910
▁재세	-16911
▁적공	-16912
▁적도	-16913
▁적연	-16914
▁차서	-16915
▁차와	-16916
▁차자	-16917
▁회향	-16918
明六通	-16919
근래의	-16920
길로써	-16921
사람도	-16922
승이니	-16923
쓸리지	-16924
압하려	-16925
았든지	-16926
이같이	-16927
▁갚는다	-16928
▁경지가	-16929
▁교이니	-16930
▁구성이	-16931
▁기질을	-16932
▁끼치는	-16933
▁논하면	-16934
▁다투어	-16935
▁도로의	-16936
▁도이니	-16937
▁도학과	-16938
▁들든지	-16939
▁때이니	-16940
▁만인의	-16941
▁말도록	-16942
▁문자를	-16943
▁바이니	-16944
▁받는가	-16945
▁발하게	-16946
▁병실에	-16947
▁보이니	-16948
▁불의한	-16949
▁사명을	-16950
▁선이니	-16951
▁소란한	-16952
▁악하고	-16953
▁악하면	-16954
▁악하여	-16955
▁온다고	-16956
▁윤회의	-16957
▁일곱째	-16958
▁재료만	-16959
▁적나니	-16960
▁전후에	-16961
▁차리라	-16962
▁천자가	-16963
▁해탈과	-16964
▁회복을	-16965
三明六通	-16966
賴及萬方	-16967
었나이다	-16968
▁감화하지	-16969
▁넓은지라	-16970
▁노복같이	-16971
▁말씀이니	-16972
▁발단되는	-16973
▁밝았든지	-16974
▁수선하여	-16975
▁슬퍼하실	-16976
▁아니함과	-16977
▁악살까지	-16978
▁연락하여	-16979
▁오래가고	-16980
▁울타리가	-16981
▁원동력이	-16982
▁원만하지	-16983
▁원만행을	-16984
▁원망이나	-16985
▁원망하며	-16986
▁원망하면	-16987
▁원칙이라	-16988
▁원하여도	-16989
▁원한들이	-16990
▁위로하는	-16991
▁위주하되	-16992
▁위중하매	-16993
▁위태하지	-16994
▁위태함을	-16995
▁유감되는	-16996
▁유념으로	-16997
▁유념하고	-16998
▁유라고도	-16999
▁강의	-17000
▁강적	-17001
▁강조	-17002
▁개구	-17003
▁개량	-17004
▁개령	-17005
▁개로	-17006
▁개를	-17007
▁개미	-17008
▁개오	-17009
▁개최	-17010
▁개혁	-17011
▁귀한	-17012
▁끌림	-17013
▁놓았	-17014
▁먹은	-17015
▁반만	-17016
▁반상	-17017
▁반좌	-17018
▁작복	-17019
▁작악	-17020
▁장과	-17021
▁장례	-17022
▁장중	-17023
▁장한	-17024
다가는	-17025
어지기	-17026
주다가	-17027
희심이	-17028
▁강이요	-17029
▁강하여	-17030
▁같거늘	-17031
▁과식을	-17032
▁교만이	-17033
▁내심이	-17034
▁놓으며	-17035
▁물것이	-17036
▁불시의	-17037
▁성체를	-17038
▁악심이	-17039
▁안심이	-17040
▁오다가	-17041
▁작으며	-17042
▁저것이	-17043
▁전부터	-17044
▁정진을	-17045
▁중심이	-17046
▁짓는데	-17047
▁형식만	-17048
세계까지	-17049
▁가지셨던	-17050
▁갈지언정	-17051
▁감동시킬	-17052
▁개구리가	-17053
▁과장하지	-17054
▁나누리요	-17055
▁났나이다	-17056
▁놓았다고	-17057
▁달하자는	-17058
▁동일하지	-17059
▁두다가는	-17060
▁말하여도	-17061
▁법설이나	-17062
▁법신불께	-17063
▁분이니라	-17064
▁사업이라	-17065
▁상반되는	-17066
▁실패하고	-17067
▁안심하지	-17068
▁운용하면	-17069
▁유리하지	-17070
▁유상으로	-17071
▁유순하면	-17072
▁유용하지	-17073
▁유의해야	-17074
▁유전하여	-17075
▁유지하여	-17076
▁유행되어	-17077
▁육신에서	-17078
▁융통하고	-17079
▁융통하여	-17080
▁음란하고	-17081
▁응용하기	-17082
▁의술까지	-17083
▁의아하게	-17084
▁이기주의	-17085
▁이날까지	-17086
▁이로움을	-17087
▁이루고자	-17088
▁이루려는	-17089
▁이루리요	-17090
▁이뤄내는	-17091
▁이뤄내지	-17092
▁이르렀다	-17093
▁이르심이	-17094
▁이른지라	-17095
▁이를혁신	-17096
▁이름이며	-17097
▁이름지을	-17098
▁이름하여	-17099
▁넓힐	-17100
▁노심	-17101
▁맞을	-17102
▁예감	-17103
▁예방	-17104
▁예산	-17105
▁예에	-17106
▁예의	-17107
▁편히	-17108
▁화가	-17109
▁화생	-17110
張寂照	-17111
更朝鮮	-17112
구하며	-17113
비하며	-17114
양하며	-17115
옵는바	-17116
울하며	-17117
▁가라는	-17118
▁가리는	-17119
▁각처를	-17120
▁갚다가	-17121
▁거기서	-17122
▁공의를	-17123
▁궁금한	-17124
▁기록을	-17125
▁나같이	-17126
▁노기를	-17127
▁능력의	-17128
▁다시는	-17129
▁대자와	-17130
▁동작할	-17131
▁동하며	-17132
▁되오니	-17133
▁두오니	-17134
▁뜨면서	-17135
▁만물에	-17136
▁말하며	-17137
▁몽사가	-17138
▁무리는	-17139
▁법도에	-17140
▁병들을	-17141
▁불어날	-17142
▁세계나	-17143
▁세계요	-17144
▁승급을	-17145
▁안심과	-17146
▁어떠할	-17147
▁어리는	-17148
▁일리는	-17149
▁장하며	-17150
▁제재할	-17151
▁주인될	-17152
▁진리는	-17153
▁진수가	-17154
▁총중에	-17155
▁편에게	-17156
▁편하고	-17157
▁화하며	-17158
▁회상인	-17159
▁후라도	-17160
▁후진의	-17161
色身如來	-17162
▁각득하여	-17163
▁겸비하며	-17164
▁되옵는바	-17165
▁머무르지	-17166
▁모시기로	-17167
▁물난로가	-17168
▁벗어나고	-17169
▁복이니라	-17170
▁빼앗기지	-17171
▁세계니라	-17172
▁시작하사	-17173
▁어떠하며	-17174
▁얼마동안	-17175
▁없이하며	-17176
▁예방하기	-17177
▁이별하고	-17178
▁이상으로	-17179
▁이십일일	-17180
▁이십팔일	-17181
▁이용되는	-17182
▁이용하되	-17183
▁이유에도	-17184
▁이치니라	-17185
▁이치어서	-17186
▁이치에는	-17187
▁이편에서	-17188
▁이해하는	-17189
▁이해하며	-17190
▁이해하여	-17191
▁이행하며	-17192
▁익어져서	-17193
▁익어지고	-17194
▁인간계를	-17195
▁인간과의	-17196
▁인간락도	-17197
▁인간락은	-17198
▁인격자가	-17199
▁곳곳	-17200
▁곳만	-17201
▁관대	-17202
▁관리	-17203
▁관망	-17204
▁권도	-17205
▁권에	-17206
▁권의	-17207
▁느껴	-17208
▁덕치	-17209
▁몸소	-17210
▁문약	-17211
▁문은	-17212
▁문자	-17213
▁밝다	-17214
▁밝지	-17215
▁번은	-17216
▁앞의	-17217
▁얼른	-17218
▁열람	-17219
▁열려	-17220
▁열면	-17221
▁입게	-17222
▁입망	-17223
▁입문	-17224
▁입이	-17225
▁입지	-17226
▁집과	-17227
佛地品	-17228
사람은	-17229
제도는	-17230
편지는	-17231
▁견지에	-17232
▁결과에	-17233
▁겸전한	-17234
▁경계도	-17235
▁곳이나	-17236
▁곳이라	-17237
▁공도를	-17238
▁관심이	-17239
▁관하는	-17240
▁국왕의	-17241
▁권하는	-17242
▁권하며	-17243
▁등에서	-17244
▁말하기	-17245
▁말하라	-17246
▁문에는	-17247
▁부자의	-17248
▁분들의	-17249
▁불편이	-17250
▁상벌이	-17251
▁상통할	-17252
▁설명도	-17253
▁소나무	-17254
▁수도를	-17255
▁수입의	-17256
▁아무는	-17257
▁아무런	-17258
▁여자의	-17259
▁위에나	-17260
▁음조와	-17261
▁입어서	-17262
▁있었던	-17263
▁잡으며	-17264
▁정연히	-17265
▁지정한	-17266
▁진위를	-17267
▁짧사와	-17268
▁찾으며	-17269
▁천자의	-17270
▁하였삽	-17271
▁현세는	-17272
▁화신을	-17273
▁회의의	-17274
하였더라	-17275
▁감상담이	-17276
▁골몰하여	-17277
▁곳곳마다	-17278
▁공부이며	-17279
▁구름같이	-17280
▁드시므로	-17281
▁등한하고	-17282
▁만족하기	-17283
▁망하게는	-17284
▁변동되는	-17285
▁부모들의	-17286
▁실지보다	-17287
▁얼마인가	-17288
▁위하여는	-17289
▁인도하기	-17290
▁인력으로	-17291
▁인물이니	-17292
▁인사하고	-17293
▁인사하며	-17294
▁인연하여	-17295
▁인재들이	-17296
▁인증하나	-17297
▁인증하면	-17298
▁인하거나	-17299
▁명령	-17300
▁명색	-17301
▁명의	-17302
▁명창	-17303
▁순과	-17304
▁순일	-17305
▁종시	-17306
▁종을	-17307
▁집어	-17308
▁효우	-17309
그대로	-17310
내가면	-17311
명리와	-17312
보이며	-17313
어지니	-17314
육조는	-17315
하기만	-17316
화상이	-17317
▁가심을	-17318
▁것과는	-17319
▁관심을	-17320
▁규모를	-17321
▁근심을	-17322
▁되지도	-17323
▁뛰어서	-17324
▁명이라	-17325
▁병원에	-17326
▁부산에	-17327
▁성금을	-17328
▁순서는	-17329
▁순연히	-17330
▁심교간	-17331
▁싶어서	-17332
▁알지도	-17333
▁인정에	-17334
▁있고자	-17335
▁제법이	-17336
▁조목은	-17337
▁주어도	-17338
▁주자는	-17339
▁주체가	-17340
▁진경을	-17341
▁집에는	-17342
▁집으로	-17343
▁천도재	-17344
▁표창이	-17345
▁형제의	-17346
▁혼란한	-17347
定期日記	-17348
되나이까	-17349
옵나이까	-17350
으리라고	-17351
치나이까	-17352
▁같나이다	-17353
▁궁굴리지	-17354
▁나나이다	-17355
▁되어지고	-17356
▁마음병을	-17357
▁말씀인가	-17358
▁멸도된다	-17359
▁무념만을	-17360
▁물품으로	-17361
▁받나이까	-17362
▁백년동안	-17363
▁사나이다	-17364
▁아나이다	-17365
▁아는지라	-17366
▁아니라는	-17367
▁아니라면	-17368
▁않았는가	-17369
▁알지니라	-17370
▁얽매이고	-17371
▁엎어지니	-17372
▁원망으로	-17373
▁유가에서	-17374
▁일관하라	-17375
▁일관하신	-17376
▁일기법의	-17377
▁일꾼들이	-17378
▁일러오라	-17379
▁일삼으면	-17380
▁일성이가	-17381
▁일어내고	-17382
▁일어내며	-17383
▁일월보다	-17384
▁일으켜서	-17385
▁일으키어	-17386
▁일이오나	-17387
▁일천강에	-17388
▁임박하여	-17389
▁임원에게	-17390
▁입교하고	-17391
▁입교하면	-17392
▁입었으나	-17393
▁입으려는	-17394
▁입으로나	-17395
▁입혔다는	-17396
▁입힌다면	-17397
▁있나이다	-17398
▁있다든지	-17399
▁간과	-17400
▁간교	-17401
▁간만	-17402
▁간의	-17403
▁국록	-17404
▁끌고	-17405
▁날은	-17406
▁넘지	-17407
▁밀린	-17408
▁요목	-17409
修行編	-17410
교인이	-17411
귀교의	-17412
단심을	-17413
인이며	-17414
▁감역을	-17415
▁고생의	-17416
▁교인이	-17417
▁그로써	-17418
▁그르쳐	-17419
▁기운의	-17420
▁나타낼	-17421
▁남자는	-17422
▁너무나	-17423
▁다녀간	-17424
▁돌리어	-17425
▁들어도	-17426
▁들어와	-17427
▁말단에	-17428
▁말리지	-17429
▁문구인	-17430
▁물건과	-17431
▁물건도	-17432
▁물으신	-17433
▁범부의	-17434
▁색으로	-17435
▁생계로	-17436
▁어리어	-17437
▁엄연히	-17438
▁염불에	-17439
▁오자는	-17440
▁원진을	-17441
▁조심을	-17442
▁중생도	-17443
▁중생상	-17444
▁지리한	-17445
▁지자는	-17446
▁차리어	-17447
▁침울한	-17448
▁크나니	-17449
▁폐농을	-17450
▁품기도	-17451
▁확신을	-17452
知恩報恩	-17453
사람에게	-17454
▁간과하라	-17455
▁관람하고	-17456
▁그것이나	-17457
▁노력하옵	-17458
▁농작물만	-17459
▁되었으나	-17460
▁되었으되	-17461
▁둔하온데	-17462
▁들어다가	-17463
▁들어오니	-17464
▁방식이라	-17465
▁선정으로	-17466
▁선진들의	-17467
▁수도에는	-17468
▁숭배하며	-17469
▁심인이며	-17470
▁용단심을	-17471
▁일으키는	-17472
▁있더라도	-17473
▁있사온지	-17474
▁있어서만	-17475
▁있어지고	-17476
▁있었도다	-17477
▁있었으며	-17478
▁잊었노라	-17479
▁잎사귀에	-17480
▁자각있는	-17481
▁자기들의	-17482
▁자기하여	-17483
▁자녀들은	-17484
▁자녀들이	-17485
▁자녀라도	-17486
▁자라나고	-17487
▁자라나며	-17488
▁자랑하며	-17489
▁자력신은	-17490
▁자력신의	-17491
▁자력양성	-17492
▁자물쇠를	-17493
▁자빠지고	-17494
▁자성불을	-17495
▁자손들은	-17496
▁자신하고	-17497
▁자신하는	-17498
▁자약하여	-17499
▁드려	-17500
▁드릴	-17501
▁드실	-17502
▁맺어	-17503
▁믿기	-17504
▁쓰되	-17505
▁쓰일	-17506
▁은의	-17507
▁은인	-17508
▁죽인	-17509
▁짓을	-17510
▁터로	-17511
▁통솔	-17512
▁통신	-17513
수품이	-17514
태자가	-17515
▁가기도	-17516
▁감시와	-17517
▁끝나는	-17518
▁내기도	-17519
▁도력을	-17520
▁두통을	-17521
▁드리는	-17522
▁들기도	-17523
▁만상이	-17524
▁범하며	-17525
▁범하여	-17526
▁불이문	-17527
▁사방이	-17528
▁사실은	-17529
▁사자가	-17530
▁살기도	-17531
▁생명이	-17532
▁수양만	-17533
▁수양할	-17534
▁시장에	-17535
▁안력을	-17536
▁오는데	-17537
▁원망에	-17538
▁원하던	-17539
▁의사를	-17540
▁의자가	-17541
▁이사를	-17542
▁인사를	-17543
▁일원은	-17544
▁일원이	-17545
▁입혀서	-17546
▁있기도	-17547
▁자리나	-17548
▁장자가	-17549
▁제도라	-17550
▁제도에	-17551
▁죽어서	-17552
▁죽으나	-17553
▁지도만	-17554
▁짐승이	-17555
▁짓자는	-17556
▁짓하는	-17557
▁처사를	-17558
▁통하는	-17559
▁행사는	-17560
▁현상에	-17561
▁후대의	-17562
萬世滅度	-17563
▁걱정되고	-17564
▁넘는데에	-17565
▁도덕으로	-17566
▁드나니라	-17567
▁따르는가	-17568
▁만들기에	-17569
▁많은지라	-17570
▁볼지라도	-17571
▁분해하여	-17572
▁수양하고	-17573
▁순숙되면	-17574
▁실행하며	-17575
▁어렵거늘	-17576
▁언어도단	-17577
▁연속하게	-17578
▁옳으리라	-17579
▁웃는지라	-17580
▁자유로이	-17581
▁자유하며	-17582
▁자유하여	-17583
▁자존심이	-17584
▁자행하여	-17585
▁작업이라	-17586
▁작업취사	-17587
▁작용함을	-17588
▁잘못되어	-17589
▁잘하자는	-17590
▁잠재우는	-17591
▁잡으려는	-17592
▁장난으로	-17593
▁장소에서	-17594
▁잦았으나	-17595
▁재계하는	-17596
▁재미있는	-17597
▁재산으로	-17598
▁재촉하는	-17599
▁몇이	-17600
▁산수	-17601
▁산하	-17602
▁잡고	-17603
▁청에	-17604
▁청탁	-17605
겠다는	-17606
기거나	-17607
린다는	-17608
물질을	-17609
셨다는	-17610
이더니	-17611
▁같다는	-17612
▁갚고자	-17613
▁개교의	-17614
▁결정될	-17615
▁경전의	-17616
▁경전인	-17617
▁계속한	-17618
▁고기에	-17619
▁고치는	-17620
▁길이며	-17621
▁나무가	-17622
▁달구고	-17623
▁데리고	-17624
▁되거나	-17625
▁되기에	-17626
▁두더니	-17627
▁따르지	-17628
▁마을의	-17629
▁마치는	-17630
▁많으시	-17631
▁매하고	-17632
▁매하면	-17633
▁몇이나	-17634
▁몰이가	-17635
▁보더니	-17636
▁본다는	-17637
▁부귀에	-17638
▁빛나게	-17639
▁산다면	-17640
▁상생을	-17641
▁상속권	-17642
▁시기에	-17643
▁시체가	-17644
▁안다는	-17645
▁알리고	-17646
▁온다는	-17647
▁욕망을	-17648
▁이름도	-17649
▁잃어서	-17650
▁있기에	-17651
▁작거나	-17652
▁잡다가	-17653
▁정성의	-17654
▁주거나	-17655
▁주의가	-17656
▁지금과	-17657
▁지켰고	-17658
▁차리고	-17659
▁하려든	-17660
▁화상을	-17661
▁희망을	-17662
을리하고	-17663
하였다는	-17664
▁경전이나	-17665
▁구한다는	-17666
▁그러한고	-17667
▁못하거나	-17668
▁못하다는	-17669
▁미래에는	-17670
▁삼악도를	-17671
▁상속권도	-17672
▁성인이요	-17673
▁숨기거나	-17674
▁연마하여	-17675
▁올라가서	-17676
▁원만하여	-17677
▁이름으로	-17678
▁이름이라	-17679
▁잘못하던	-17680
▁저곳으로	-17681
▁저자에서	-17682
▁저질러서	-17683
▁저희들은	-17684
▁적나니라	-17685
▁적응하게	-17686
▁적적하게	-17687
▁적확하다	-17688
▁전개해야	-17689
▁전곡으로	-17690
▁전일하지	-17691
▁전진력을	-17692
▁전진심을	-17693
▁전진하게	-17694
▁전진하여	-17695
▁전해지는	-17696
▁정각에게	-17697
▁정돈하사	-17698
▁정법으로	-17699
▁꺼릴	-17700
▁달과	-17701
▁달할	-17702
▁둘로	-17703
▁듣게	-17704
▁듣던	-17705
▁먹게	-17706
▁새는	-17707
▁새어	-17708
▁양반	-17709
▁양선	-17710
▁양족	-17711
▁추존	-17712
▁치심	-17713
▁치지	-17714
▁폐를	-17715
다고는	-17716
선생의	-17717
세상이	-17718
였다고	-17719
인생의	-17720
졌으니	-17721
지거늘	-17722
▁각성할	-17723
▁같다고	-17724
▁고에도	-17725
▁공심과	-17726
▁군자의	-17727
▁달성에	-17728
▁달에도	-17729
▁달하고	-17730
▁듣든지	-17731
▁맺으시	-17732
▁먹거늘	-17733
▁먹으나	-17734
▁바로써	-17735
▁반성이	-17736
▁방법도	-17737
▁범부가	-17738
▁본다고	-17739
▁비롯한	-17740
▁사십이	-17741
▁상대로	-17742
▁않다고	-17743
▁양심을	-17744
▁없고도	-17745
▁자비에	-17746
▁좋다고	-17747
▁죄대로	-17748
▁크거늘	-17749
▁허무와	-17750
▁현실의	-17751
대시하는	-17752
▁가정하여	-17753
▁국가에서	-17754
▁극락이라	-17755
▁낮으므로	-17756
▁덕이라는	-17757
▁도덕이라	-17758
▁도덕이요	-17759
▁되었다고	-17760
▁물었도다	-17761
▁받아주지	-17762
▁방법이요	-17763
▁분별하여	-17764
▁사업에도	-17765
▁생각대로	-17766
▁세계에도	-17767
▁소멸되어	-17768
▁소유한들	-17769
▁속였다고	-17770
▁신속하니	-17771
▁심인으로	-17772
▁육신이나	-17773
▁이루기를	-17774
▁이루리라	-17775
▁이루어지	-17776
▁있는대로	-17777
▁작업으로	-17778
▁정비시켜	-17779
▁정성스럽	-17780
▁정성이라	-17781
▁정신이라	-17782
▁정의어든	-17783
▁정이니라	-17784
▁정통하며	-17785
▁정하노라	-17786
▁정하였던	-17787
▁제거하라	-17788
▁제거하여	-17789
▁제거함이	-17790
▁제공하여	-17791
▁제도대로	-17792
▁제도하되	-17793
▁제도하러	-17794
▁제도하려	-17795
▁제도하며	-17796
▁제도하신	-17797
▁제도하여	-17798
▁제도하지	-17799
▁귀씩	-17800
▁귀에	-17801
▁귀일	-17802
▁금산	-17803
▁금은	-17804
▁금주	-17805
▁낙만	-17806
▁낙심	-17807
▁떼의	-17808
▁막고	-17809
▁막아	-17810
▁새와	-17811
▁새의	-17812
▁색정	-17813
▁외를	-17814
▁운곡	-17815
▁점심	-17816
▁좌절	-17817
▁좌탈	-17818
▁타서	-17819
▁태극	-17820
盡大地	-17821
생명을	-17822
▁가도록	-17823
▁귀하게	-17824
▁귀하는	-17825
▁규칙과	-17826
▁금하게	-17827
▁금하고	-17828
▁낙이라	-17829
▁날부터	-17830
▁다하라	-17831
▁되노라	-17832
▁막연히	-17833
▁무엇에	-17834
▁사회를	-17835
▁상전급	-17836
▁성품과	-17837
▁스승과	-17838
▁신문의	-17839
▁약자의	-17840
▁약하고	-17841
▁약하여	-17842
▁없노라	-17843
▁올리라	-17844
▁인식을	-17845
▁일부터	-17846
▁자성은	-17847
▁점에서	-17848
▁점이나	-17849
▁진취될	-17850
▁타시고	-17851
▁험하고	-17852
도록까지	-17853
산에게도	-17854
이용하는	-17855
▁개명되고	-17856
▁거만하다	-17857
▁공부하라	-17858
▁금산사에	-17859
▁되었노라	-17860
▁들어가야	-17861
▁들이므로	-17862
▁무라고도	-17863
▁무엇하며	-17864
▁밝혀주는	-17865
▁본다든지	-17866
▁사사하고	-17867
▁선진들을	-17868
▁세우시고	-17869
▁스승까지	-17870
▁유념이라	-17871
▁자신에도	-17872
▁제도하라	-17873
▁제어하지	-17874
▁제일대만	-17875
▁제자니라	-17876
▁제자들은	-17877
▁제자만이	-17878
▁제정하는	-17879
▁제조하는	-17880
▁제초하는	-17881
▁조물주가	-17882
▁조물주인	-17883
▁조사하기	-17884
▁조석으로	-17885
▁조용하지	-17886
▁조장하여	-17887
▁조종사가	-17888
▁조직하신	-17889
▁조판으로	-17890
▁조화되어	-17891
▁존경심과	-17892
▁존경하는	-17893
▁존대하며	-17894
▁종교계의	-17895
▁종교들의	-17896
▁종교들이	-17897
▁종사하여	-17898
▁좋겠는가	-17899
▁건곤	-17900
▁걷지	-17901
▁겨우	-17902
▁색이	-17903
▁십중	-17904
▁응변	-17905
▁응할	-17906
▁특행	-17907
▁가기로	-17908
▁개과를	-17909
▁근기로	-17910
▁나거든	-17911
▁높으신	-17912
▁대승의	-17913
▁바꾸지	-17914
▁바탕은	-17915
▁법력이	-17916
▁보거든	-17917
▁보기가	-17918
▁불과의	-17919
▁불시에	-17920
▁사이를	-17921
▁새도록	-17922
▁소리만	-17923
▁수행은	-17924
▁수행자	-17925
▁수행편	-17926
▁수행품	-17927
▁식이니	-17928
▁실지는	-17929
▁애착이	-17930
▁없거든	-17931
▁염불만	-17932
▁염불법	-17933
▁원기가	-17934
▁은혜도	-17935
▁은혜와	-17936
▁은혜의	-17937
▁잘못만	-17938
▁잘못할	-17939
▁저러한	-17940
▁전기가	-17941
▁전정에	-17942
▁제정할	-17943
▁짓기로	-17944
▁처지는	-17945
▁천록도	-17946
▁타력이	-17947
▁합리와	-17948
▁헤매는	-17949
▁화초를	-17950
▁활용해	-17951
공부인이	-17952
기는지라	-17953
님이시니	-17954
성으로써	-17955
움으로써	-17956
적으로만	-17957
▁가까운데	-17958
▁가지거든	-17959
▁공경하는	-17960
▁깨달아서	-17961
▁누구인들	-17962
▁되리라고	-17963
▁되리라는	-17964
▁되었거든	-17965
▁때까지는	-17966
▁성으로써	-17967
▁성적으로	-17968
▁소요하는	-17969
▁염불하고	-17970
▁옳으니라	-17971
▁은혜까지	-17972
▁이적으로	-17973
▁자대하여	-17974
▁자유하는	-17975
▁좋겠도다	-17976
▁좋사올지	-17977
▁좋아하지	-17978
▁좋은곳에	-17979
▁좌선으로	-17980
▁좌선하고	-17981
▁죄송하지	-17982
▁주문에만	-17983
▁주문이나	-17984
▁주색이나	-17985
▁주시거늘	-17986
▁주신다면	-17987
▁주어지는	-17988
▁주었는가	-17989
▁주었다고	-17990
▁주의하고	-17991
▁주인들이	-17992
▁주저하는	-17993
▁주착심을	-17994
▁죽나니라	-17995
▁죽순이나	-17996
▁죽은지라	-17997
▁준공되니	-17998
▁준다든지	-17999
▁광채	-18000
▁깊게	-18001
▁깊지	-18002
▁누른	-18003
▁속을	-18004
▁속일	-18005
▁역수	-18006
▁역을	-18007
▁창부	-18008
▁창황	-18009
▁초창	-18010
▁층암	-18011
▁피가	-18012
▁피도	-18013
▁피할	-18014
이인의	-18015
▁계속될	-18016
▁계속할	-18017
▁과보로	-18018
▁구인의	-18019
▁기르듯	-18020
▁들으면	-18021
▁만론은	-18022
▁만물과	-18023
▁무시로	-18024
▁바이며	-18025
▁받으면	-18026
▁변화에	-18027
▁본가는	-18028
▁시절의	-18029
▁쌓으면	-18030
▁아기는	-18031
▁애욕과	-18032
▁어기는	-18033
▁억제할	-18034
▁얻으면	-18035
▁역이라	-18036
▁완성을	-18037
▁외인의	-18038
▁욕하지	-18039
▁울안에	-18040
▁이르게	-18041
▁이르매	-18042
▁이르지	-18043
▁잡아다	-18044
▁주밀한	-18045
▁즐겨할	-18046
▁증거가	-18047
▁천인의	-18048
▁태조사	-18049
▁파멸의	-18050
▁평범을	-18051
▁표어란	-18052
▁피하지	-18053
▁함이며	-18054
▁해석에	-18055
이인의화	-18056
▁그대들로	-18057
▁기념상도	-18058
▁나겠는가	-18059
▁다투다가	-18060
▁대도에는	-18061
▁돌아오지	-18062
▁말하기는	-18063
▁무정물과	-18064
▁물질로나	-18065
▁물질이며	-18066
▁보시므로	-18067
▁보호법을	-18068
▁비웃거나	-18069
▁상실되는	-18070
▁신앙심을	-18071
▁신앙심이	-18072
▁신앙으로	-18073
▁알겠으나	-18074
▁양계에만	-18075
▁어려울꼬	-18076
▁연구력이	-18077
▁인연이라	-18078
▁자재하는	-18079
▁작은지라	-18080
▁준비하게	-18081
▁준비하고	-18082
▁줄기차게	-18083
▁줄어가고	-18084
▁중근기의	-18085
▁중근으로	-18086
▁중단하는	-18087
▁중도에만	-18088
▁중도행을	-18089
▁중생되는	-18090
▁중생들을	-18091
▁중생상을	-18092
▁중생심이	-18093
▁중생에게	-18094
▁중생으로	-18095
▁중생이나	-18096
▁중생이며	-18097
▁중생이요	-18098
▁중에서는	-18099
▁空來	-18100
▁걸식	-18101
▁걸지	-18102
▁꿈에	-18103
▁덕과	-18104
▁돈만	-18105
▁돈에	-18106
▁목을	-18107
▁승속	-18108
▁용은	-18109
▁착을	-18110
▁경중이	-18111
▁고금을	-18112
▁관계나	-18113
▁구함이	-18114
▁기색이	-18115
▁길만을	-18116
▁너에게	-18117
▁논평이	-18118
▁동지된	-18119
▁만상의	-18120
▁목욕도	-18121
▁배우려	-18122
▁보고와	-18123
▁보았다	-18124
▁부귀도	-18125
▁삿됨이	-18126
▁새벽에	-18127
▁세력은	-18128
▁수로써	-18129
▁수입된	-18130
▁쉬어지	-18131
▁승하고	-18132
▁신앙할	-18133
▁않는데	-18134
▁알뜰히	-18135
▁어려서	-18136
▁엄부의	-18137
▁연고로	-18138
▁연고인	-18139
▁이익도	-18140
▁이익에	-18141
▁인도로	-18142
▁인도에	-18143
▁인도의	-18144
▁인도품	-18145
▁인연의	-18146
▁자녀나	-18147
▁자녀는	-18148
▁자신은	-18149
▁잠자지	-18150
▁잡는데	-18151
▁주함이	-18152
▁착하고	-18153
▁착하지	-18154
▁촌에서	-18155
▁통함이	-18156
▁트이고	-18157
▁효력을	-18158
▁후대에	-18159
▁흐르고	-18160
無時禪法	-18161
사하나니	-18162
지고라도	-18163
▁공덕으로	-18164
▁관계인의	-18165
▁구하나니	-18166
▁그려내어	-18167
▁방해하고	-18168
▁배우기도	-18169
▁불사르고	-18170
▁손상하게	-18171
▁순실하여	-18172
▁순응하지	-18173
▁신앙이나	-18174
▁신앙하여	-18175
▁어려운데	-18176
▁없으시며	-18177
▁연고이요	-18178
▁정도이면	-18179
▁정진심을	-18180
▁중요하고	-18181
▁중음으로	-18182
▁중이라고	-18183
▁중지하라	-18184
▁중지하여	-18185
▁중하심을	-18186
▁즐거움이	-18187
▁즐겨하는	-18188
▁즐기기도	-18189
▁즐기려는	-18190
▁즐기므로	-18191
▁증득하게	-18192
▁증명하여	-18193
▁증명하지	-18194
▁증인으로	-18195
▁지극하면	-18196
▁지나는데	-18197
▁지나니라	-18198
▁지나면서	-18199
▁갚은	-18200
▁끊는	-18201
▁끊어	-18202
▁끊은	-18203
▁끊을	-18204
▁끊일	-18205
▁벌기	-18206
▁벌은	-18207
▁벌이	-18208
▁즐비	-18209
▁학년	-18210
▁혜며	-18211
▁혜문	-18212
涅槃經	-18213
가져서	-18214
저희가	-18215
▁공것을	-18216
▁교화가	-18217
▁교화에	-18218
▁권장할	-18219
▁나라인	-18220
▁대로는	-18221
▁동안이	-18222
▁마치를	-18223
▁마치신	-18224
▁몸인가	-18225
▁못함을	-18226
▁받아도	-18227
▁법명을	-18228
▁상도에	-18229
▁새끼는	-18230
▁소리와	-18231
▁순리와	-18232
▁숭배라	-18233
▁실상이	-18234
▁얻어질	-18235
▁업력을	-18236
▁여관의	-18237
▁역리와	-18238
▁예회의	-18239
▁유무라	-18240
▁인물만	-18241
▁자유는	-18242
▁자유의	-18243
▁자유할	-18244
▁장함을	-18245
▁종교도	-18246
▁종교들	-18247
▁준다고	-18248
▁지내던	-18249
▁책임의	-18250
▁철없이	-18251
▁체하며	-18252
▁태도에	-18253
▁통함을	-18254
▁편리와	-18255
▁폐단에	-18256
▁행함을	-18257
物胞胎成	-18258
▁거느려도	-18259
▁공부인가	-18260
▁공왕공래	-18261
▁교에서는	-18262
▁길에서는	-18263
▁나라들이	-18264
▁나라에도	-18265
▁나타내며	-18266
▁돌아다니	-18267
▁받아지는	-18268
▁밝히는데	-18269
▁방면에서	-18270
▁선원들의	-18271
▁성공하지	-18272
▁슬퍼하사	-18273
▁시행되는	-18274
▁쓰는지라	-18275
▁어린이를	-18276
▁오래이나	-18277
▁오래하면	-18278
▁유무식을	-18279
▁자유하고	-18280
▁자재하고	-18281
▁조는지라	-18282
▁종교로써	-18283
▁즐비하되	-18284
▁지날수록	-18285
▁지났으되	-18286
▁지내가면	-18287
▁지내기도	-18288
▁지내보고	-18289
▁지내보며	-18290
▁지냈나니	-18291
▁지도인이	-18292
▁지도하고	-18293
▁지도하나	-18294
▁지도하면	-18295
▁지도하여	-18296
▁지량으로	-18297
▁지방에서	-18298
▁지식만을	-18299
▁굴을	-18300
▁농은	-18301
▁듯한	-18302
▁땅도	-18303
▁땅뿐	-18304
▁떨고	-18305
▁송덕	-18306
▁송풍	-18307
▁십여	-18308
▁앓게	-18309
▁업신	-18310
▁업연	-18311
▁업인	-18312
▁완연	-18313
▁완철	-18314
▁증서	-18315
▁증애	-18316
▁친감	-18317
▁친한	-18318
▁친해	-18319
락과는	-18320
명하매	-18321
어니와	-18322
▁가사에	-18323
▁건립된	-18324
▁것들을	-18325
▁고하가	-18326
▁국가의	-18327
▁그르다	-18328
▁그보다	-18329
▁근기라	-18330
▁노력과	-18331
▁노력도	-18332
▁다음의	-18333
▁달이고	-18334
▁대사의	-18335
▁도척을	-18336
▁들자면	-18337
▁땅으로	-18338
▁땅이나	-18339
▁문명만	-18340
▁문명에	-18341
▁방편과	-18342
▁법률도	-18343
▁법하려	-18344
▁보은은	-18345
▁보자면	-18346
▁선사의	-18347
▁세간에	-18348
▁실내가	-18349
▁양계에	-18350
▁여겨야	-18351
▁예법의	-18352
▁외경에	-18353
▁우주와	-18354
▁이해에	-18355
▁이해할	-18356
▁인과가	-18357
▁장내가	-18358
▁좌선에	-18359
▁처음과	-18360
▁처음이	-18361
▁천문을	-18362
▁친하고	-18363
▁현지에	-18364
▁회사의	-18365
[...]
