<unk>	0
<s>	0
</s>	0
을	-3.40556
,	-3.46935
의	-3.84213
는	-4.07858
▁	-4.09318
를	-4.20912
이	-4.27808
은	-4.3269
)	-4.37377
(	-4.38802
가	-4.39985
▁그	-4.44349
.	-4.45766
한	-4.73162
에	-4.75445
도	-4.75496
▁[	-4.76318
.]	-4.76912
지	-5.09471
▁이	-5.09589
고	-5.1559
▁말씀하시기를	-5.16934
과	-5.33496
▁사람	-5.36662
히	-5.49656
로	-5.50366
와	-5.51599
라	-5.53659
하여	-5.55989
게	-5.56284
▁일	-5.63064
▁다	-5.66318
▁한	-5.66997
▁대종사	-5.70892
으로	-5.70893
▁사람이	-5.72103
대종사	-5.72216
든	-5.73708
▁모	-5.74205
서	-5.76939
하는	-5.80734
▁것이	-5.83851
할	-5.84953
기를	-5.88224
▁것이요	-5.92594
만	-5.92638
면	-6.00289
나	-6.0177
▁마음	-6.01832
▁수	-6.0225
▁것	-6.08766
하고	-6.14113
▁하는	-6.17892
큰	-6.21925
▁나	-6.23605
▁것이니	-6.25107
▁할	-6.25196
▁바	-6.29166
▁공부	-6.30664
▁없는	-6.31106
▁곧	-6.32545
▁잘	-6.34315
▁같이	-6.37896
니라	-6.3828
나니라	-6.38647
▁것이며	-6.44637
▁말	-6.44642
▁법	-6.46191
▁것은	-6.46466
다	-6.4759
▁있는	-6.48751
▁혹	-6.49725
어	-6.49765
▁때에	-6.50098
▁자기	-6.53079
며	-6.55882
▁어찌	-6.56976
▁그러므로	-6.58292
▁우리	-6.59001
▁저	-6.59934
▁세상	-6.61431
▁가지	-6.63472
▁또는	-6.63811
▁따라	-6.63813
▁더	-6.6426
▁오	-6.64329
▁제	-6.65466
▁하고	-6.65523
▁여쭙	-6.67629
저	-6.68096
리	-6.68209
▁있	-6.6824
▁하여	-6.68443
상	-6.68721
▁가운데	-6.68743
▁무	-6.70819
▁없이	-6.71128
▁될	-6.7141
▁또한	-6.71915
야	-6.74832
▁서로	-6.7921
▁하나	-6.79801
▁그대들	-6.7992
▁일이	-6.80803
이요	-6.80805
른	-6.81105
▁때에는	-6.82687
하지	-6.84554
▁도	-6.85609
▁줄	-6.87696
자	-6.89217
▁때	-6.90135
▁천지	-6.90613
요	-6.90731
▁제자	-6.91063
▁만일	-6.91819
이라	-6.92263
▁두	-6.93212
써	-6.93525
▁생활	-6.94082
▁항	-6.95334
▁주	-6.96055
▁여러	-6.96328
기	-6.96402
▁참	-6.9656
▁가	-6.96782
에서	-6.9716
▁정신	-6.973
▁데에	-6.98257
▁많	-6.98805
▁이치	-7.00775
하게	-7.01548
에게	-7.02256
사	-7.02509
▁또	-7.02646
▁먼	-7.03089
▁아니	-7.03196
▁비	-7.03296
▁남	-7.03491
▁하	-7.04984
▁사	-7.05133
▁보	-7.054
▁있나니	-7.06648
▁세상에	-7.08245
이나	-7.08342
▁되	-7.0956
대로	-7.09647
▁마음이	-7.09822
▁다시	-7.10792
라도	-7.12839
운	-7.13089
▁함	-7.13212
▁선	-7.13389
▁대	-7.15316
슨	-7.15952
▁없	-7.16394
된	-7.19335
▁위하여	-7.19917
▁보면	-7.20123
▁아는	-7.21829
내가	-7.22065
▁대중	-7.22913
▁정	-7.24972
▁아니하고	-7.25221
장	-7.2554
▁능	-7.25875
인	-7.26283
▁길	-7.27211
▁세계	-7.27418
여	-7.27523
직	-7.27594
▁부처님	-7.28039
▁못	-7.28115
▁있고	-7.28229
든지	-7.28685
▁있어서	-7.2875
▁것과	-7.28843
▁아니라	-7.29262
▁되는	-7.29492
▁공	-7.29502
▁하면	-7.29763
▁기운	-7.29763
▁사업	-7.30313
▁뜻	-7.30523
▁진리	-7.30986
▁되고	-7.31478
▁알지	-7.31532
▁하며	-7.31913
▁아무	-7.32201
▁되나니	-7.32351
▁그대	-7.32502
▁내	-7.33752
▁자연	-7.33788
▁어느	-7.34153
▁반	-7.35685
▁사뢰	-7.36577
하면	-7.37614
▁어떠한	-7.38555
▁생각	-7.38565
▁지	-7.38989
▁부모	-7.39257
▁그러나	-7.39577
▁몸	-7.39645
▁날	-7.40356
▁미	-7.40936
▁않	-7.42376
에는	-7.42376
이니라	-7.43549
신	-7.43754
니	-7.4564
▁알고	-7.45975
▁못하고	-7.46108
▁길이	-7.46358
▁못할	-7.4721
▁악	-7.47689
록	-7.48671
▁번	-7.48867
▁이것이	-7.49176
▁죄	-7.50659
▁많은	-7.50905
▁후	-7.50935
▁같은	-7.5113
▁사람들	-7.51236
▁만	-7.51805
▁들	-7.52143
▁사람에게	-7.52788
▁회상	-7.53128
욱	-7.53369
스	-7.54119
▁몇	-7.54587
나이까	-7.55144
▁각자	-7.55476
▁경계	-7.56106
까지	-7.56864
되	-7.56894
해	-7.57943
▁2.	-7.57979
▁동	-7.5823
▁받	-7.58875
▁좋은	-7.59191
▁1.	-7.59775
▁해	-7.60158
드시	-7.60343
하며	-7.61091
▁그것	-7.61272
▁지금	-7.61397
함	-7.61627
▁것이라	-7.61998
▁받는	-7.62352
▁상	-7.62918
▁일에	-7.6294
▁스	-7.63147
▁데	-7.63157
▁3.	-7.633
▁없고	-7.63413
心	-7.64091
▁전	-7.6455
나이다	-7.64743
▁살	-7.65184
▁그러한	-7.65368
▁제도	-7.65843
▁되어	-7.65852
▁주는	-7.66495
▁수도	-7.66745
던	-7.66893
▁알	-7.67416
▁원만	-7.67468
▁들어	-7.68891
▁중생	-7.68899
▁차	-7.69129
▁말고	-7.70072
아	-7.70419
다가	-7.7054
리요	-7.71135
▁놓	-7.71196
▁원	-7.71277
▁복	-7.7164
▁되리라	-7.72297
▁천만	-7.72367
▁도덕	-7.72545
▁은혜	-7.73971
▁조금	-7.7399
므로	-7.74418
▁인	-7.74992
▁각각	-7.75368
려	-7.75563
다면	-7.75602
▁세	-7.75734
진	-7.75815
▁대중에게	-7.76245
▁못한	-7.76494
▁말며	-7.76606
▁자리	-7.76928
시	-7.77002
그	-7.77017
사람이	-7.77272
들이	-7.77376
기도	-7.77846
대	-7.78169
▁크게	-7.78347
▁아	-7.78382
나니	-7.78505
▁입	-7.7943
되는	-7.80103
미	-7.80377
차	-7.80756
▁작은	-7.80779
▁끌리	-7.8118
▁힘	-7.81444
▁소	-7.81454
▁얻어	-7.81538
▁바로	-7.81556
실	-7.8181
▁후에	-7.82091
▁육신	-7.82574
法	-7.82609
▁고	-7.82722
▁만물	-7.83105
▁경전	-7.83257
▁말씀	-7.8329
▁중	-7.83352
▁우리는	-7.83448
▁과거	-7.83924
▁있을	-7.83967
▁말라	-7.84253
▁염불	-7.84345
▁실행	-7.84909
▁영원	-7.84928
▁얻	-7.84929
▁있으나	-7.85124
일	-7.8548
▁일원상	-7.85718
▁4.	-7.85868
심	-7.86189
▁할지라도	-7.86217
▁수행	-7.86219
▁자	-7.87656
▁물질	-7.87703
리라	-7.87862
▁위	-7.88171
▁온	-7.89024
내	-7.89329
▁못하는	-7.89458
▁어	-7.89531
▁관계	-7.89553
주	-7.89571
▁수양	-7.8959
▁사람들이	-7.8968
▁되지	-7.89833
▁생	-7.89861
어서	-7.90096
▁"	-7.90388
까	-7.90625
▁예	-7.90898
▁보고	-7.91169
들	-7.91596
▁하시고	-7.91813
▁이익	-7.9199
▁불	-7.92332
▁하라	-7.92477
▁생사	-7.92648
道	-7.9429
거든	-7.94598
▁말하기를	-7.94727
▁돌아오	-7.94793
▁잘못	-7.95387
▁막	-7.96459
▁연고	-7.96471
▁유	-7.96796
▁등	-7.96848
▁안	-7.96906
▁마치	-7.97329
▁마음에	-7.98266
▁매	-7.98657
▁천	-7.98807
▁점	-7.99367
수	-7.99426
▁자녀	-7.99528
▁시비	-7.99689
▁지혜	-7.99807
▁일체	-7.99844
▁삼	-7.99925
▁처음	-7.99995
▁산	-8.0054
▁깊	-8.00599
▁도리	-8.00838
▁인도	-8.01555
▁물	-8.01635
그대	-8.02144
금	-8.02597
▁않는	-8.02941
▁지도	-8.02968
▁먹	-8.03021
절	-8.03129
▁심	-8.03152
▁받아	-8.03732
▁나타나	-8.03805
▁말이	-8.0397
▁죽	-8.04451
도록	-8.04886
▁대로	-8.05092
▁신	-8.05624
▁정성	-8.05742
▁5.	-8.05791
적으로	-8.06048
▁사회	-8.06191
울	-8.06358
선	-8.0697
▁정당	-8.07129
▁있으	-8.0717
▁오래	-8.07518
소	-8.07539
▁가지고	-8.08052
▁있으며	-8.08301
연히	-8.08444
나는	-8.0858
될	-8.08882
▁앞으로	-8.08948
▁하지	-8.08955
▁우주	-8.09077
▁성	-8.09154
▁이제	-8.09595
▁보은	-8.09644
▁신앙	-8.10156
▁둘	-8.10222
▁문명	-8.10244
▁하나니	-8.10327
▁유무	-8.10328
大	-8.10769
▁것으로	-8.10844
▁동시에	-8.10986
▁아니하	-8.11242
▁자유	-8.11303
▁마침	-8.11342
▁어떻게	-8.11392
▁종교	-8.11447
▁것이나	-8.11673
▁스승	-8.117
▁없나니	-8.1199
▁곳	-8.12062
루	-8.12367
▁못하면	-8.12602
天	-8.13792
▁조목	-8.13997
▁부처	-8.13998
▁못하	-8.14084
하여야	-8.14086
공	-8.1427
하	-8.14566
당한	-8.14683
한다면	-8.15295
▁열	-8.15657
▁성공	-8.15736
▁근본	-8.16022
▁가정	-8.16156
"	-8.16298
부터	-8.16825
無	-8.16886
事	-8.1695
▁구	-8.17003
으면	-8.17048
▁본	-8.17067
▁받을	-8.17249
▁동안	-8.17407
▁쉬	-8.17832
▁하루	-8.17873
▁6.	-8.17977
▁모르는	-8.18669
▁사이에	-8.18771
▁행	-8.18941
으며	-8.19308
거나	-8.19599
▁교화	-8.19929
▁4	-8.20039
▁직접	-8.20327
▁설	-8.20385
▁죄복	-8.2039
▁눈	-8.20422
되어	-8.20576
지라	-8.20612
리어	-8.20822
▁받게	-8.21166
▁감	-8.21545
▁인과	-8.21649
▁병	-8.21785
식	-8.22073
거늘	-8.22083
▁보라	-8.22109
▁밝	-8.22384
▁책임	-8.2279
날	-8.22993
▁모르	-8.23393
▁선원	-8.23413
릴	-8.23524
대한	-8.23863
▁본래	-8.2398
양	-8.24011
▁인연	-8.24395
▁법이	-8.2442
▁자리에	-8.24538
문	-8.24815
▁개인	-8.25443
▁문	-8.25691
▁하늘	-8.25821
하리라	-8.26191
▁거기에	-8.26273
▁그것이	-8.26305
▁불공	-8.26343
▁새	-8.26364
▁행하	-8.26758
떤	-8.26972
칠	-8.27009
▁중에	-8.27062
▁뒤에	-8.27299
▁원래	-8.27336
▁직업	-8.27491
▁기	-8.27627
마	-8.2773
▁배우	-8.27749
▁얻게	-8.27767
▁없게	-8.28498
▁7.	-8.29227
▁앞	-8.29473
▁생각이	-8.29542
▁장	-8.29684
▁국가	-8.29834
노라	-8.2987
물	-8.30023
▁지내	-8.30116
▁고락	-8.3027
러	-8.30282
▁공덕	-8.30296
지마는	-8.30767
▁모두	-8.30791
▁아직	-8.30806
▁대개	-8.30883
▁하니	-8.30924
▁알아서	-8.30986
▁같나니라	-8.31027
▁있다	-8.31048
러한	-8.31059
▁와서	-8.31092
▁계	-8.3112
전	-8.31257
이니	-8.31263
▁인간	-8.31349
▁이해	-8.31485
▁못하게	-8.31514
▁강령	-8.31645
▁얻을	-8.32431
▁천도	-8.32432
▁가운데에	-8.32464
▁쓰	-8.32679
는지라	-8.32907
▁좌선	-8.33035
▁짓는	-8.3305
▁아니하여	-8.33385
오리까	-8.33543
▁각	-8.33676
▁일반	-8.33841
▁동포	-8.33955
▁정신이	-8.33973
▁분	-8.34271
▁마	-8.34365
▁삼학	-8.34382
▁말하자면	-8.34445
▁교육	-8.34505
▁이루	-8.34917
▁가는	-8.35011
▁영	-8.35148
▁과목	-8.3586
▁연구	-8.3615
▁어리석	-8.3623
▁없을	-8.36536
▁귀	-8.37367
보다	-8.37717
오니	-8.37887
▁이를	-8.37921
매	-8.37932
▁하게	-8.37969
▁재주	-8.38281
▁남에게	-8.38782
성	-8.38816
구하는	-8.38839
▁결과	-8.38871
▁소유	-8.39616
▁적	-8.39844
▁성품	-8.39933
같이	-8.40477
▁물건	-8.40505
져서	-8.40641
정	-8.4099
▁당할	-8.41483
점	-8.41699
▁공부에	-8.41824
지는	-8.41846
▁자신	-8.4216
질	-8.42213
▁결국	-8.42221
▁허공	-8.42226
▁특별	-8.42401
▁국한	-8.42406
▁8.	-8.42917
▁되며	-8.43093
그대들	-8.43118
▁요도	-8.4355
▁정도	-8.43659
함이	-8.4369
▁노력	-8.43715
▁부	-8.43754
▁땅	-8.43822
연	-8.44135
▁달	-8.44267
▁방	-8.45339
▁믿	-8.45383
▁배	-8.45578
▁강자	-8.45715
▁나라	-8.45879
건마는	-8.45899
▁말로	-8.4604
▁한다	-8.46139
▁누구	-8.46268
▁다만	-8.46274
▁주의	-8.46369
▁어려운	-8.46409
로다	-8.46515
▁그런즉	-8.46605
▁욕심	-8.46611
▁듣고	-8.46715
것은	-8.46872
명	-8.46881
▁아니할	-8.46903
수록	-8.46929
▁숭배	-8.46988
▁도움	-8.47006
▁교	-8.47045
▁알게	-8.47336
▁당하여	-8.47467
▁오늘	-8.4756
▁지은	-8.476
▁실지	-8.47631
▁취사	-8.4766
▁생각하여	-8.47842
▁돈	-8.47887
▁아니하면	-8.48003
▁선생	-8.48041
▁집	-8.48319
▁하시니	-8.48422
아서	-8.48586
▁시대	-8.48731
난	-8.48806
▁응용	-8.48897
화	-8.49426
▁병이	-8.49465
▁낙	-8.49656
▁생기	-8.49664
▁강	-8.4977
▁일이라	-8.49861
▁보아	-8.4992
▁알아	-8.50123
또	-8.50162
▁이름이니	-8.50189
▁지극	-8.50433
相	-8.50554
山	-8.50608
▁사람이라	-8.50608
▁마땅	-8.50611
▁못하나니	-8.50772
▁형상	-8.50783
▁대소	-8.5089
▁자주	-8.50891
부로	-8.50944
▁법률	-8.50957
▁알아야	-8.50968
▁공부인	-8.51033
▁생활에	-8.51226
▁아니요	-8.5125
▁자력	-8.51314
▁너	-8.51323
제	-8.51346
▁덕	-8.51396
▁권리	-8.51398
▁놓고	-8.5144
▁9.	-8.5148
▁제일	-8.51713
▁볼	-8.52206
▁무엇	-8.5224
간에	-8.5251
▁실	-8.52572
▁갈	-8.52853
▁곳에	-8.53493
▁명	-8.53622
▁일원	-8.53801
▁가진	-8.53812
▁방법	-8.54192
▁늘	-8.542
▁교리	-8.54283
▁그런	-8.54422
기로	-8.54481
▁불법	-8.54854
佛	-8.55096
널	-8.55153
▁명예	-8.55211
▁있으니	-8.55474
▁완전	-8.55482
▁낮	-8.55487
음	-8.55492
병	-8.55493
▁부처님께서	-8.55504
적	-8.55559
▁정의	-8.55643
▁세간	-8.55672
▁경	-8.55686
▁통하여	-8.55733
다운	-8.55871
▁나에게	-8.56174
▁그렇	-8.56182
지언정	-8.56307
비	-8.56462
▁조	-8.56553
▁소리	-8.56761
▁못하여	-8.56835
▁가르치는	-8.56873
▁벌	-8.57133
▁전에	-8.57654
▁화	-8.57703
▁제자들	-8.57949
▁자성	-8.58081
중	-8.58212
▁옳	-8.58249
▁서원	-8.58489
천	-8.58792
▁오는	-8.58854
▁천하	-8.5925
▁가르쳐	-8.59379
▁훈련	-8.59417
▁이것	-8.59482
▁당	-8.59664
법	-8.59675
▁열반	-8.59772
▁이상	-8.59777
이며	-8.59922
▁지어	-8.59977
▁10.	-8.60055
▁그러하면	-8.60152
친	-8.60153
▁법신불	-8.60275
▁여	-8.6054
▁창립	-8.60593
▁힘이	-8.60754
▁있어	-8.60799
▁짓	-8.60859
▁사리	-8.60979
▁심고	-8.61379
▁쉽	-8.6178
는데	-8.61935
▁물으시	-8.62355
그대들이	-8.62405
▁따라서	-8.62411
조	-8.62779
하신	-8.63359
▁대도	-8.63413
생	-8.63665
▁버리	-8.63975
▁편안	-8.64136
▁목적	-8.64647
▁벗어나	-8.64688
人	-8.64876
▁물품	-8.65063
▁따로	-8.65107
모	-8.65272
▁성불	-8.6533
▁죄업	-8.65349
▁불상	-8.65432
▁육도	-8.65557
▁권	-8.6568
▁버리고	-8.65752
▁하자	-8.65946
▁간	-8.66123
▁개	-8.66217
▁행할	-8.66407
▁별	-8.66499
하시고	-8.66638
우리	-8.66834
▁교당	-8.66942
▁의심	-8.67573
▁맞	-8.67606
▁양	-8.67778
▁아니니	-8.67991
▁근본이	-8.68186
▁얻는	-8.6878
▁근기	-8.68898
산	-8.69278
▁정성이	-8.69289
▁마음으로	-8.69325
▁작용	-8.69327
▁하리요	-8.69441
▁피	-8.6954
하였다	-8.69597
▁뿐	-8.69605
더니	-8.6961
어야	-8.69819
▁인생	-8.7
▁쓰는	-8.70008
▁없지	-8.70041
生	-8.70128
▁잡	-8.70138
一	-8.70168
行	-8.70171
禪	-8.70177
▁그들	-8.70303
갈	-8.70319
▁교회	-8.70353
▁돌	-8.70371
▁만유	-8.70687
하노라	-8.70828
▁보시	-8.70898
▁일러	-8.70901
▁원리	-8.71025
▁법계	-8.7108
김	-8.71117
치	-8.71198
▁여기	-8.71344
▁거	-8.71545
심이	-8.71611
▁밖에	-8.7176
▁약자	-8.71776
시며	-8.71883
▁어디	-8.71943
데	-8.72007
▁치료	-8.72102
▁발심	-8.72104
▁기관	-8.72364
▁둘째	-8.724
▁경계에	-8.72659
부	-8.73303
론하	-8.73339
행	-8.73528
▁일심	-8.73635
▁착	-8.74028
하되	-8.74041
▁지식	-8.74042
경	-8.74116
▁무념	-8.74144
▁본의	-8.74444
런	-8.74554
래	-8.74555
▁없다	-8.74836
▁외	-8.74849
▁재	-8.74908
▁하기	-8.75086
▁바르	-8.75252
세	-8.75257
▁우	-8.75327
▁아니하나니	-8.75372
▁주의할	-8.75518
▁견성	-8.75587
靈	-8.75728
家	-8.75734
▁원망	-8.75782
▁봉래	-8.75838
▁광명	-8.75858
▁시방	-8.75879
▁사항	-8.75879
▁같아서	-8.75888
▁들으시고	-8.75923
▁살피	-8.76081
▁일어나	-8.76204
품	-8.76231
년	-8.76322
▁자신이	-8.76333
▁글	-8.76397
▁드	-8.76462
▁생겨나	-8.76569
▁정법	-8.76693
하리요	-8.76982
▁보통	-8.7731
▁청정	-8.77397
▁되었	-8.77407
하기로	-8.77425
▁뜻이	-8.77463
▁돌아	-8.77584
▁들어가	-8.77731
▁배은	-8.77895
▁절	-8.78009
▁찾	-8.78144
▁노	-8.78146
▁무엇이	-8.78319
▁생각하는	-8.78388
겠는가	-8.78488
▁송	-8.78631
하여도	-8.78746
하나	-8.78782
▁되면	-8.78974
▁놀	-8.79296
▁당하	-8.79436
▁사업에	-8.79641
▁대하여	-8.79863
▁주고	-8.79952
▁주지	-8.80106
▁미워하	-8.80251
▁사용하	-8.80394
▁친	-8.807
▁기도	-8.80759
▁없으면	-8.80975
▁하여야	-8.81178
▁대종사께	-8.81389
린	-8.81531
▁바라	-8.81588
敎	-8.81601
世	-8.81616
▁연	-8.81616
萬	-8.81616
▁맑	-8.81671
▁밟	-8.81671
▁약	-8.81712
▁정규	-8.81715
▁보응	-8.81728
▁16.	-8.81741
▁15.	-8.81742
▁14.	-8.81742
▁13.	-8.81748
▁11.	-8.81749
▁12.	-8.81749
▁분별	-8.81751
▁나서	-8.81897
하나니	-8.81961
▁육근	-8.81982
▁세상이	-8.8201
▁쓸	-8.82017
▁장차	-8.82064
▁사심	-8.82088
▁방면으로	-8.82089
▁아니하며	-8.82453
▁도가	-8.82465
▁이름	-8.82561
▁사이	-8.82599
▁끝	-8.82656
▁되므로	-8.82791
▁시일	-8.82904
▁세계에	-8.83388
▁도량	-8.83459
▁만사	-8.8352
▁경우	-8.83716
▁교도	-8.84029
▁상시	-8.84076
▁위에	-8.84452
▁된	-8.84647
▁아니한	-8.84788
되고	-8.85461
오	-8.85559
▁발	-8.8608
▁이러	-8.8654
▁아이	-8.86563
▁극	-8.86623
하거나	-8.86758
▁공중	-8.86848
▁서	-8.87023
시고	-8.87408
▁팔	-8.87754
▁탐	-8.87813
位	-8.87815
公	-8.87821
三	-8.8786
李	-8.87862
恩	-8.87865
品	-8.87866
善	-8.87866
者	-8.87866
▁순	-8.87902
▁인격	-8.87965
▁지견	-8.8797
▁같나니	-8.87975
▁비하건	-8.8798
▁18.	-8.87984
▁19.	-8.87988
▁17.	-8.87993
▁어렵	-8.88026
▁행동	-8.88076
▁떠나	-8.88085
▁결함	-8.88127
우	-8.8828
▁그릇	-8.8829
▁첫째는	-8.88348
▁원인	-8.88375
▁잠	-8.8842
▁과보	-8.88426
▁신심이	-8.88617
▁참회	-8.88649
▁불교	-8.88697
▁사람으로서	-8.8872
▁새로	-8.88733
▁그대들에게	-8.88789
▁그만	-8.88793
▁변하	-8.88918
▁말하면	-8.8902
▁세우	-8.89197
▁안으로	-8.89522
▁의식	-8.89536
▁인심	-8.89774
▁놓아	-8.90024
▁심신	-8.90361
범	-8.90761
▁감사	-8.91021
▁신성	-8.91353
▁급	-8.9153
하기	-8.91816
▁찾아	-8.91837
▁체받아	-8.91929
▁그대들이	-8.91996
▁회상이	-8.92185
으므로	-8.92374
사람	-8.92667
▁이른	-8.93027
▁걸	-8.93049
▁속	-8.93101
▁사은	-8.93435
▁아닌	-8.93438
으리라	-8.93549
▁근원	-8.93863
▁사용	-8.93891
▁선악	-8.93892
▁보지	-8.94256
▁시간	-8.9427
正	-8.9441
性	-8.94451
定	-8.94531
갓	-8.94533
▁속에	-8.94534
▁굳	-8.94579
▁빚	-8.94579
▁옷	-8.94579
▁현재	-8.94623
▁심전	-8.94698
어다	-8.94822
▁드러나	-8.94885
▁다스리	-8.94901
▁없으나	-8.94951
▁없으며	-8.94963
▁아래	-8.94973
▁재산	-8.94973
▁순서	-8.95059
▁계문	-8.95106
▁사실로	-8.95117
▁밝히	-8.95131
▁있으므로	-8.95201
▁범부	-8.95261
▁사랑	-8.95397
▁불의	-8.95432
▁세째	-8.95465
▁편	-8.95559
▁체	-8.95636
▁종	-8.95654
애	-8.95665
단	-8.95724
▁제가	-8.95828
▁제도하	-8.96016
과거	-8.96092
지고	-8.96114
사회	-8.96132
▁이에	-8.96495
▁피은	-8.96697
동	-8.97153
로서	-8.97284
▁위력	-8.97662
▁얻기	-8.97784
▁무상	-8.97936
▁살아	-8.97954
▁병자	-8.98173
▁준비	-8.98577
▁아니하는	-8.98608
▁업	-8.9877
▁열리	-8.99047
▁금강산	-8.99176
▁합	-8.9969
▁진행	-8.99815
▁끌려	-8.99854
▁같	-8.99973
▁허물	-9.00153
▁듣는	-9.00764
▁취	-9.00922
방	-9.01282
월	-9.01335
▁공도	-9.016
四	-9.01637
經	-9.01675
지도	-9.01692
▁역	-9.01752
▁얼굴	-9.01757
▁실패	-9.0176
▁끊임	-9.01774
▁뿌리	-9.01784
▁여의	-9.01851
▁성질	-9.01889
▁가령	-9.01893
▁없으므로	-9.01919
▁집안	-9.01926
▁밖으로	-9.01929
▁일념	-9.01944
▁이름이요	-9.01982
옵	-9.02056
▁출가	-9.02086
▁범	-9.02112
▁크고	-9.02145
▁말하여	-9.02224
▁생령	-9.02254
▁내지	-9.02543
▁무리	-9.02596
▁옛	-9.02623
하였나니	-9.02658
▁무량	-9.02676
▁보시고	-9.02683
▁초월	-9.02845
▁적지	-9.02954
▁사생	-9.03317
▁준	-9.03419
▁좋아	-9.03463
라고	-9.03644
▁하시	-9.03678
▁미치	-9.03886
▁사람과	-9.03907
▁방법은	-9.03907
▁네	-9.04044
▁능력이	-9.04236
1	-9.04284
▁하는지라	-9.04309
무리	-9.04321
▁난	-9.04402
▁살림	-9.0444
하기를	-9.04474
동안	-9.04476
▁받고	-9.04501
▁중생이	-9.04735
▁안에	-9.05114
▁안다	-9.05119
농	-9.052
▁작업	-9.05349
처	-9.05403
▁일생	-9.0546
▁도인이	-9.05514
▁가정에	-9.05999
▁불보살	-9.06284
▁해석	-9.06636
▁하되	-9.06914
▁경우에	-9.06921
▁부귀	-9.06953
▁된다	-9.07043
지라도	-9.0725
▁오르	-9.07847
▁한다면	-9.07894
▁어린	-9.07924
▁노력하	-9.07954
기에	-9.07974
▁구하	-9.08006
▁정사에	-9.08062
▁거래	-9.08066
▁안정	-9.08427
라는	-9.08696
理	-9.0877
▁있으리	-9.08933
▁증거	-9.08991
▁좋	-9.09102
원	-9.09179
디	-9.09213
시기를	-9.09243
▁특	-9.09298
地	-9.09315
自	-9.09336
業	-9.09368
成	-9.09368
處	-9.09368
보	-9.0938
▁누	-9.09388
▁수레	-9.09443
▁충분	-9.09444
▁바탕	-9.09446
▁생멸	-9.09455
▁청년	-9.09458
▁언제	-9.09459
▁20.	-9.09464
▁사가	-9.09501
▁기회	-9.09549
▁거름	-9.09568
▁뵈옵고	-9.09605
▁받기	-9.09646
복	-9.09677
▁복락	-9.09687
▁얼마나	-9.09727
身	-9.09752
란	-9.09818
▁역사	-9.09829
▁없어서	-9.0995
▁부모에게	-9.10005
▁방법으로	-9.10031
▁착심	-9.10084
▁발전	-9.10129
▁남녀	-9.10189
).	-9.10306
▁제자에게	-9.10327
▁악도	-9.10349
▁공덕이	-9.10548
망	-9.10561
▁수양력	-9.10564
▁부지	-9.1061
▁2)	-9.10668
▁발견하여	-9.10802
▁무사	-9.10822
▁것이므로	-9.10861
▁쇠	-9.10869
▁정기	-9.1109
▁효과	-9.11097
들을	-9.11162
▁사회에	-9.11172
▁조사	-9.11232
혹	-9.11253
▁만나	-9.1145
째는	-9.11475
▁극락	-9.1153
▁통	-9.11559
위	-9.11616
느냐	-9.11701
▁갚	-9.11707
히려	-9.1174
타	-9.11896
▁성리	-9.11942
▁단련	-9.12153
▁1	-9.12354
▁않고	-9.12395
▁나무	-9.12431
2	-9.12722
개	-9.12971
▁성의	-9.1312
에도	-9.13166
간	-9.13392
▁깨치	-9.13714
▁신자	-9.13719
▁필요	-9.13788
▁진	-9.13892
▁건설	-9.14044
실로	-9.14183
▁전일	-9.14242
▁사물	-9.14384
▁그에	-9.14642
됨이	-9.14687
▁변화	-9.14968
▁용	-9.15123
▁해탈	-9.15148
▁다름	-9.15408
▁다하여	-9.15417
▁사실	-9.15419
▁철	-9.15492
▁것만	-9.15519
▁지경	-9.15657
▁농사	-9.15758
▁듣	-9.15807
께서	-9.15885
제가	-9.16012
▁인연이	-9.16042
자가	-9.16161
락	-9.16244
▁보기	-9.16424
▁없애	-9.1644
워	-9.16713
▁신심	-9.16776
▁당연	-9.16992
▁쌓	-9.17042
▁이르	-9.17182
▁관	-9.17371
▁얼마	-9.17487
▁수입	-9.17605
中	-9.17641
▁보내	-9.17664
▁그리	-9.17677
不	-9.17694
金	-9.17701
-	-9.17701
▁밥	-9.17701
信	-9.17701
華	-9.17701
낸	-9.17701
德	-9.17701
明	-9.17701
▁송광	-9.17772
▁계율	-9.17773
▁감응	-9.17775
▁필경	-9.17776
▁약간	-9.1779
▁배워	-9.17792
▁23.	-9.17799
▁21.	-9.178
▁22.	-9.17801
▁승려	-9.1782
가정	-9.17833
▁허무	-9.17833
▁자타	-9.17858
▁가까운	-9.17872
리니	-9.17996
▁못하므로	-9.18023
로부터	-9.18072
▁5	-9.18086
▁무궁	-9.18109
▁기술	-9.18148
▁상극	-9.18164
▁편리	-9.18309
▁아니하리라	-9.18309
▁자행	-9.1831
▁앞에	-9.18414
▁호	-9.18476
▁비치	-9.18614
▁방식을	-9.18622
▁할진대	-9.18649
▁양성	-9.18664
▁희	-9.1874
▁주인이	-9.18781
▁동지	-9.18995
▁법문	-9.19061
▁하더라도	-9.19169
▁네째	-9.19203
▁과	-9.19244
▁아닌가	-9.19262
▁입교	-9.19374
▁금	-9.1952
▁백	-9.19547
▁갖	-9.19576
▁성인	-9.19604
▁구족	-9.19732
▁싶	-9.19824
▁3	-9.2045
▁선도	-9.20476
▁높	-9.20685
태	-9.20739
▁주장	-9.20771
▁방편	-9.20821
▁얻은	-9.20884
▁물론	-9.20974
서는	-9.21011
▁단	-9.21091
7.	-9.21233
▁내리	-9.21371
▁영혼	-9.21375
송	-9.21539
▁복이	-9.21552
호	-9.21654
▁본다	-9.21675
3	-9.21684
연구	-9.21806
▁사람으로	-9.21828
국가	-9.21842
▁행하면	-9.21893
▁목	-9.21911
▁묵	-9.21927
▁승	-9.21988
▁차별	-9.22063
▁끌	-9.22197
정한	-9.22223
네	-9.22312
▁정신에	-9.2236
렇게	-9.2238
▁차별이	-9.2239
▁미래	-9.22505
▁십	-9.2274
창	-9.22812
▁잡아	-9.22879
지금	-9.22897
왕	-9.22977
▁죽어	-9.23269
▁의	-9.23317
▁능력	-9.23504
▁돈이	-9.23668
겠나이까	-9.23705
▁깨	-9.24013
무	-9.2424
▁다생	-9.24283
▁가난	-9.24284
▁일이나	-9.24371
▁대의	-9.24471
▁교단	-9.24519
기는	-9.24754
▁뜻인	-9.24859
▁버	-9.24961
중에	-9.25008
▁김	-9.25047
▁도인	-9.25072
▁시	-9.25194
▁예회	-9.25411
▁오르는	-9.25465
한즉	-9.2548
▁지키	-9.25685
교	-9.25787
▁현	-9.25886
▁선사	-9.26092
▁법도	-9.26472
▁애착	-9.26556
▁우연	-9.26649
▁흔	-9.26688
覺	-9.26742
혀	-9.26763
力	-9.26779
之	-9.26792
知	-9.26792
!	-9.26792
▁셋	-9.26792
▁챙기	-9.26792
쁜	-9.26792
私	-9.26792
▁삼계	-9.26832
▁타력	-9.26833
▁거짓	-9.26857
▁설명	-9.26858
▁상벌	-9.26861
▁의뢰	-9.26872
▁30.	-9.26873
▁25.	-9.26875
▁28.	-9.26876
▁29.	-9.26876
▁세워	-9.26915
▁24.	-9.26941
▁규	-9.26944
▁것이어늘	-9.26946
▁꾸짖	-9.26953
▁되었으니	-9.2696
▁넓	-9.26966
시키	-9.27011
▁욕심이	-9.2702
▁평소	-9.27027
▁올리	-9.2705
▁26.	-9.27053
▁감정	-9.27115
▁온전	-9.27122
할지라도	-9.27175
▁도와	-9.272
▁응	-9.27232
▁난리	-9.2727
령	-9.27299
▁단련하여	-9.27335
▁어른	-9.27382
▁생명	-9.27423
▁탁	-9.27603
▁씨	-9.2763
▁엄	-9.27663
안	-9.27715
▁형제	-9.27723
▁부부	-9.27756
▁기천	-9.27811
▁술	-9.27826
▁발원	-9.27862
▁것인가	-9.27915
▁하였	-9.28088
▁불보살들	-9.28189
례	-9.2822
▁공도자	-9.28304
▁혜	-9.28386
▁건	-9.28426
▁십계	-9.28435
참	-9.28508
▁무릇	-9.28613
▁2	-9.28674
▁우리에게	-9.28685
▁천상락	-9.28734
▁마음과	-9.2874
▁중에서	-9.28756
▁생각으로	-9.28896
끼	-9.29168
▁지위	-9.29272
여야	-9.29406
바	-9.29535
▁듯	-9.29554
▁얻고	-9.29606
▁있지	-9.29708
▁고해	-9.29786
▁걱정	-9.2999
▁정신으로	-9.29992
생의	-9.30084
▁위로	-9.30111
▁덕이	-9.30155
통	-9.3046
▁죄고	-9.30551
▁만들	-9.30584
으나	-9.30863
▁시간에	-9.30874
▁악도에	-9.31019
▁적당	-9.31033
▁하거늘	-9.3138
습	-9.31612
▁심지	-9.31689
▁함이니	-9.31898
하였으며	-9.32162
▁부정	-9.32174
해야	-9.32209
음이	-9.32268
국	-9.32325
▁되기	-9.32406
면서도	-9.32462
형	-9.32498
승	-9.32501
하시며	-9.32633
▁곳이	-9.32743
▁고통	-9.32801
▁향상	-9.33361
▁초	-9.33551
▁가치	-9.33741
목	-9.34053
▁자비	-9.34251
하면서	-9.34276
▁위하	-9.3436
▁철저	-9.346
▁원하는	-9.34788
▁때마	-9.34816
▁없었	-9.34994
▁대조하	-9.35021
▁어찌하여	-9.35082
▁도로	-9.35141
▁스승이	-9.35375
▁들이	-9.354
▁이로	-9.35453
▁있었	-9.35503
각	-9.35552
▁맺	-9.35746
하시	-9.35793
당	-9.35941
▁공부하	-9.36058
▁돌아가	-9.36125
▁괴로	-9.36306
▁내왕	-9.36436
▁잊	-9.366
인가	-9.3661
▁처	-9.36677
▁자손	-9.36681
▁끊어	-9.36698
▁뛰어	-9.36792
랜	-9.36792
邪	-9.36792
六	-9.36792
化	-9.36792
魔	-9.36792
▁깨닫	-9.36793
그러하오면	-9.36794
▁망념	-9.36795
▁힘쓸	-9.36799
▁솔성	-9.36807
▁윤회	-9.36811
▁업보	-9.36812
▁힘쓰	-9.36812
▁화두	-9.36814
▁계발	-9.36815
▁간단	-9.36819
▁끊	-9.3682
▁낙원	-9.36833
▁도학	-9.36868
▁연유	-9.36875
▁31.	-9.36877
▁권세	-9.36878
▁같으나	-9.36908
▁분수	-9.36927
▁나타내	-9.3693
▁심경	-9.36941
▁제불	-9.36975
▁범연	-9.37063
▁계속하면	-9.37105
▁안락	-9.37119
▁들으라	-9.37295
▁조건	-9.37306
▁못한다	-9.37322
▁탐착	-9.37327
▁어떠하	-9.37332
▁처지	-9.37341
다고	-9.37381
▁좋게	-9.37397
▁신통	-9.3755
▁남천	-9.37605
▁같다	-9.37659
▁양성하	-9.37667
되지	-9.3777
▁서가모니	-9.37789
▁일월	-9.37827
▁떠나지	-9.37834
▁이기	-9.37835
▁있는지라	-9.37837
▁회상에서	-9.37853
▁변하여	-9.37991
▁하였으니	-9.38005
▁같고	-9.38017
▁없어지	-9.38086
▁내역	-9.38097
▁도에	-9.38103
▁곳에서	-9.38179
▁유념	-9.38226
▁나가	-9.3829
없이	-9.38302
심으로	-9.38323
▁하오면	-9.3851
▁이용하	-9.38584
▁배우고	-9.38587
▁사이나	-9.38643
▁거래에	-9.38671
▁변함	-9.38762
용	-9.38822
▁선원에	-9.38929
▁앞에서	-9.39087
하려는	-9.39122
업	-9.39173
▁계시	-9.39387
▁구분	-9.39498
▁하다가	-9.39523
▁책임이	-9.3954
▁허다하나니	-9.39733
▁집에	-9.39789
▁정하고	-9.39796
움	-9.39953
▁버리지	-9.40092
▁나고	-9.4013
▁몸으로	-9.40197
▁수용	-9.40214
▁주문	-9.40261
▁이용	-9.40289
▁대할	-9.40388
▁크	-9.40406
▁화하	-9.40456
▁활동	-9.40467
분	-9.40475
▁풀	-9.40496
▁성취	-9.40725
▁집착	-9.40748
▁정치	-9.41106
▁다르	-9.41115
▁않을	-9.41152
)"	-9.41189
▁동하	-9.41305
▁타	-9.41392
▁드러	-9.41449
▁여자	-9.41549
력	-9.4168
하므로	-9.41752
▁수도인	-9.4177
▁상생	-9.41993
부모	-9.4202
▁좋을	-9.42069
▁요	-9.42136
회	-9.422
치고	-9.42473
해가	-9.42743
▁쉽나니	-9.42802
뿐	-9.42952
구	-9.42967
불	-9.42979
▁밭	-9.43244
듯	-9.43245
박	-9.43355
외	-9.43497
취사	-9.43532
▁수고	-9.43578
하시니	-9.43667
▁전무출신	-9.43692
현	-9.43721
▁넉넉	-9.43824
▁몸이	-9.43838
▁학	-9.43865
법은	-9.43922
▁사는	-9.44393
▁상대	-9.444
하매	-9.44646
▁나타	-9.44659
▁보호	-9.44823
▁뜨	-9.45385
일이	-9.45724
께	-9.45735
오면	-9.459
었으나	-9.45946
▁올	-9.46045
▁활용	-9.46367
하다	-9.46432
▁나아가	-9.46674
▁교의	-9.46707
▁언어	-9.46776
▁바라는	-9.47131
▁고치	-9.47141
▁주인	-9.47195
▁삼아	-9.47579
▁떨어지	-9.47635
圓	-9.47812
▁번거	-9.47839
眞	-9.47863
空	-9.47882
常	-9.47896
有	-9.47897
用	-9.479
會	-9.47903
慧	-9.47903
戒	-9.47903
根	-9.47903
▁아홉	-9.47903
學	-9.47903
宗	-9.47903
外	-9.47903
小	-9.47903
코	-9.47903
子	-9.47903
水	-9.47903
聖	-9.47903
門	-9.47903
▁단체	-9.4791
▁농부	-9.47916
▁33.	-9.47918
▁32.	-9.4792
▁얼음	-9.47926
▁인류	-9.47926
▁권면	-9.47927
▁의견	-9.47932
▁혜복	-9.47945
▁태양	-9.47949
▁세속	-9.4795
▁신용	-9.47982
▁세월	-9.47992
▁재미	-9.48001
▁꾸준히	-9.48021
▁실수	-9.48062
▁소소	-9.48109
▁알았다	-9.48127
▁제거하고	-9.48179
▁있겠는가	-9.48194
▁대각	-9.48215
▁여하에	-9.48266
▁신문	-9.48292
▁공익심	-9.48308
▁대조하여	-9.4831
▁주로하여	-9.48316
▁욕	-9.48316
▁잃지	-9.48349
▁무위	-9.48403
▁밤	-9.48407
▁다섯째	-9.48409
▁흉	-9.48432
하니	-9.48435
▁아니리요	-9.48467
▁박람회	-9.48472
▁있사	-9.48486
▁너무	-9.48488
처에	-9.48492
▁결정	-9.48607
▁올리고	-9.48615
▁평생	-9.48638
▁있는데	-9.48663
▁후일에	-9.48718
▁어렵고	-9.48816
▁주신	-9.48891
▁현실	-9.48922
▁삼대력	-9.49031
▁정각	-9.49092
▁없다고	-9.49132
▁연구하여	-9.49184
▁훈련법	-9.49184
었	-9.4919
▁있다면	-9.49223
▁궁	-9.49224
▁보니	-9.49259
▁대원	-9.49318
▁걸리	-9.49366
▁생활이	-9.49375
▁실행하고	-9.49388
론	-9.49473
▁짓고	-9.4974
▁되나	-9.49741
▁이유	-9.49786
종	-9.50191
▁믿음	-9.50317
▁웃으	-9.50392
었더니	-9.50435
▁근심	-9.5044
쳐	-9.50466
하실	-9.50578
▁종자	-9.50738
▁법설	-9.51
남	-9.51133
▁대종사께서	-9.51225
▁세력	-9.51257
▁하오니	-9.51289
▁하려	-9.51305
덕	-9.51389
▁쉬우	-9.51471
한다	-9.51575
▁습관이	-9.51682
▁일일	-9.51691
▁속이	-9.51977
▁바람	-9.52061
▁떨어져	-9.52091
▁교중	-9.52121
▁변	-9.52316
▁박	-9.52318
사가	-9.52434
▁공양	-9.52553
▁비유	-9.52587
르고	-9.52648
▁가정이	-9.5269
▁보이	-9.52938
▁둔	-9.53058
▁부분	-9.53164
▁주로	-9.53166
▁전력하	-9.53367
▁계속	-9.53397
▁인지	-9.53402
계	-9.53713
▁정사	-9.53803
▁광대	-9.53956
▁왕	-9.53994
길	-9.54008
▁시대에	-9.54253
인이	-9.54274
▁하는가	-9.54295
으니	-9.54338
2.	-9.54507
▁중인	-9.54533
하거늘	-9.54559
▁설법	-9.54784
1.	-9.54809
등	-9.54838
자녀	-9.54887
권	-9.54904
오래	-9.5505
▁공사	-9.55056
▁교법	-9.55092
온	-9.5528
▁두고	-9.55358
드	-9.55439
▁풍	-9.55487
불어	-9.55491
▁기관이	-9.55515
▁그러하	-9.55783
언	-9.55864
묘	-9.55879
▁좌우	-9.56097
▁후진	-9.56199
▁왔	-9.5639
▁알리	-9.56463
거	-9.56723
▁가져	-9.56819
▁타락	-9.56989
▁일로	-9.5701
▁읽	-9.57052
▁아니하나	-9.57124
▁사도	-9.5717
▁과거에	-9.58072
▁면하	-9.58404
림	-9.58415
▁낙이	-9.58509
관	-9.58574
▁가게	-9.58597
▁인증	-9.58651
▁사랑하	-9.58855
▁공정	-9.58991
▁평	-9.59002
▁다르나	-9.59041
▁안심	-9.59098
▁주기	-9.59099
성의	-9.59106
▁알기	-9.59132
▁환	-9.59248
▁한량	-9.59299
▁위태	-9.59466
▁기념	-9.59526
▁이루려	-9.59658
상시	-9.59694
▁떠	-9.59868
▁없으	-9.6013
修	-9.60378
義	-9.60386
利	-9.60389
▁논	-9.60393
▁삿	-9.60403
▁쥐	-9.60403
씩	-9.60403
光	-9.60403
實	-9.60403
本	-9.60403
體	-9.60403
識	-9.60403
▁억지로	-9.60405
▁최후	-9.60405
▁35.	-9.60408
▁34.	-9.60409
▁38.	-9.6041
▁영향	-9.6041
▁36.	-9.60412
▁어려우나	-9.60413
▁잡념	-9.6042
▁일어내	-9.60422
▁번뇌	-9.60423
▁조항	-9.60424
▁37.	-9.60425
▁곡조	-9.60425
▁동작	-9.60431
▁주견	-9.60432
▁무자력	-9.60437
▁곡식	-9.60438
▁혼자	-9.60442
▁해독	-9.60451
▁적멸	-9.6046
▁주체	-9.60469
▁요법	-9.60471
▁구속	-9.60479
▁멀리	-9.60486
▁성현들	-9.60489
▁조화	-9.60492
▁괴로움	-9.60497
▁시험	-9.60507
▁다니	-9.60541
▁가르	-9.60544
▁됨	-9.60612
▁당일	-9.60627
▁이타로	-9.60662
▁많으나	-9.60701
▁손	-9.60715
▁공부인에게	-9.6073
▁깨쳐	-9.60746
▁하노니	-9.60751
▁머리	-9.60819
▁스승에게	-9.60825
하오리까	-9.60842
▁도인들	-9.60857
▁광	-9.60877
발	-9.60933
▁성성	-9.60953
▁짓기	-9.60953
리지	-9.60958
▁써서	-9.60981
▁임	-9.60987
▁보살	-9.61067
▁없어지고	-9.61092
▁장래에	-9.61102
▁연구력	-9.61153
▁전문	-9.61203
▁같지	-9.61203
▁되었으며	-9.61244
▁공원	-9.61363
▁토	-9.61492
▁것이오니	-9.61506
▁지출	-9.61607
▁노소	-9.617
▁옛날	-9.61744
▁나면	-9.6178
▁사람들에게	-9.61793
▁못하며	-9.61797
▁받들어	-9.61818
▁경전이	-9.61848
▁실생활	-9.61933
면서	-9.62016
▁무엇으로	-9.62027
▁하였사오니	-9.62066
▁졸	-9.62161
▁험	-9.62184
▁태도	-9.62209
사의	-9.6235
▁예로부터	-9.6242
세계	-9.62453
세상	-9.62524
▁구인	-9.62541
▁예회에	-9.62551
▁적고	-9.62596
▁지옥	-9.62627
▁포	-9.62665
▁진경	-9.62823
아야	-9.62972
▁위함	-9.62979
▁원상	-9.63017
▁나라에	-9.63256
▁파	-9.63348
▁자상	-9.63365
이는	-9.63378
▁믿지	-9.63408
▁반성	-9.63427
념	-9.63497
▁함이	-9.63519
순	-9.63717
▁쌓이	-9.6372
하라	-9.63997
▁정진	-9.64026
▁즐기	-9.6419
▁독	-9.64236
▁것인	-9.64311
▁천하에	-9.64475
▁행하고	-9.64476
▁고생	-9.64488
▁처리하	-9.64636
인의	-9.64662
하시기를	-9.64741
▁언	-9.6487
▁하였으나	-9.64973
▁취하	-9.65046
▁표본	-9.65274
즉	-9.65372
▁갖추어	-9.65504
▁해결	-9.65601
었는가	-9.65656
▁활용하여	-9.65782
▁형	-9.65811
▁당하는	-9.65965
들에게	-9.66023
▁물건이	-9.66224
▁드러내	-9.66492
▁인물이	-9.66638
▁습관	-9.66818
더라도	-9.66975
▁만법	-9.66981
▁사실적	-9.6706
▁시키	-9.67113
▁이십	-9.67122
공부	-9.67138
▁만족	-9.67178
▁빠지	-9.67445
거니와	-9.67489
풍	-9.67554
▁닦는	-9.67558
▁한즉	-9.6758
▁지방	-9.67597
사오나	-9.67649
약	-9.67865
어떠한	-9.67967
▁가시	-9.68659
3.	-9.68724
추	-9.68798
일원상	-9.68815
▁사사	-9.68818
사오니	-9.68847
▁애	-9.69085
▁많을	-9.69087
▁귀하	-9.69114
▁분명	-9.69156
▁일이요	-9.69171
큼	-9.69258
영	-9.69258
어리석	-9.69354
백	-9.6937
▁구경	-9.69414
▁못하였	-9.69478
그러면	-9.69498
▁치료하	-9.69519
▁빠	-9.69579
숙	-9.69583
▁바람이	-9.69632
역	-9.69731
독	-9.69928
▁중생들	-9.69935
하였으나	-9.69971
▁편에	-9.70123
▁승급	-9.7045
▁생각하	-9.70561
▁영산에	-9.70619
]	-9.7067
▁나와	-9.70684
▁위한	-9.7074
▁부족	-9.7079
근	-9.70799
▁뜻에	-9.70835
▁되었나니	-9.70837
▁바에	-9.71025
▁묻	-9.72066
▁결	-9.72137
▁아니하시	-9.7226
▁흐르	-9.72355
▁출	-9.72379
▁말하	-9.72465
▁추	-9.72509
▁불조	-9.72705
었다	-9.73224
▁법사	-9.73366
어져서	-9.73456
▁전도	-9.73666
롭게	-9.73751
주의	-9.73765
▁작	-9.7377
▁얻으리	-9.73858
▁짧	-9.73916
▁장래	-9.73987
▁맡	-9.74167
▁평화	-9.7427
▁하셨	-9.74536
▁동남풍	-9.74543
▁국가에	-9.74555
▁없으리	-9.74558
▁공적	-9.74639
要	-9.74649
下	-9.74652
時	-9.74666
▁짐	-9.74672
▁싸	-9.74675
寂	-9.7468
日	-9.74681
養	-9.74681
靜	-9.74683
긴	-9.74684
風	-9.74688
話	-9.74688
▁적었음이	-9.74689
▁기틀	-9.74689
▁낳	-9.74689
▁오롯	-9.74689
▁챙겨	-9.74689
上	-9.74689
命	-9.74689
福	-9.74689
꼬	-9.74689
룰	-9.74689
文	-9.74689
通	-9.74689
降	-9.74689
害	-9.74689
權	-9.74689
物	-9.74689
眼	-9.74689
▁부득이	-9.74689
後	-9.74689
率性	-9.7469
▁어려울	-9.74692
▁혜광	-9.74692
▁느끼	-9.74693
▁간격	-9.74695
▁39.	-9.74697
▁건네	-9.74706
▁일기법	-9.74707
▁백년	-9.74722
▁하겠나이	-9.74726
▁전체	-9.7473
▁조용	-9.7474
▁자료	-9.74746
▁나누어	-9.74747
▁가벼	-9.74749
▁돌아와서	-9.74762
▁차례	-9.74768
▁허망하게	-9.74773
▁즉시	-9.748
▁구별	-9.74804
▁여섯째	-9.74811
▁돌려	-9.74822
▁한결같	-9.74825
▁구하므로	-9.74833
▁가져오	-9.74838
▁불러	-9.74848
▁학식	-9.74856
▁질서	-9.74915
▁가르침	-9.74923
▁광선	-9.74924
▁근기요	-9.74936
▁살펴서	-9.74987
▁살펴	-9.75019
▁넘치	-9.75021
▁가서	-9.75024
▁비난	-9.7503
▁삼천	-9.75062
▁취사하	-9.751
▁의지하여	-9.75212
▁구분하여	-9.75219
▁지각	-9.75235
▁잃고	-9.75268
▁꺼	-9.75269
▁양심	-9.75285
▁영광	-9.75346
▁영육	-9.75352
▁당초	-9.75354
▁망상	-9.75374
▁희망	-9.75414
▁가르치고	-9.75423
설	-9.75482
득	-9.75529
▁수확	-9.75534
▁영식	-9.75538
▁운전	-9.75549
▁원수	-9.75568
▁한참	-9.75576
▁매일	-9.75681
▁것보다	-9.75681
▁무수	-9.75735
▁나라에서	-9.75763
▁흔들리	-9.75788
▁계속하	-9.75808
▁주어	-9.75981
▁외에	-9.76067
▁없는지라	-9.76077
▁점이	-9.76181
▁의세	-9.76182
사와	-9.76285
▁모양	-9.76305
▁분석	-9.76362
담	-9.76387
▁성인이	-9.76466
▁믿을	-9.76574
▁처자	-9.76585
▁심성	-9.76809
▁의두	-9.76947
하였건마는	-9.76949
▁쌍전	-9.76954
▁주의심	-9.7705
립	-9.77098
▁좋아하	-9.77241
으리요	-9.7752
▁법위	-9.77636
▁가르치	-9.77688
▁공력	-9.77696
▁본사	-9.77809
▁반조	-9.77829
▁육신이	-9.77865
▁이치에	-9.78066
▁재가	-9.78225
▁밤에	-9.78278
▁이행	-9.78339
▁중에도	-9.78452
▁미루	-9.78754
▁동리	-9.78788
▁흥	-9.78916
▁인도하	-9.79004
▁청	-9.7912
지니	-9.79204
▁삼을	-9.79239
법으로	-9.79259
▁익어	-9.79374
▁행하여	-9.79404
▁만들기	-9.79449
상으로	-9.79524
▁가며	-9.79532
▁믿는	-9.79569
▁이르시	-9.79631
▁감각	-9.80391
▁밝아	-9.80477
▁성심	-9.80493
▁있다가	-9.80516
▁싫어하는	-9.80561
과거에는	-9.80671
▁침	-9.80709
▁즐겨	-9.80933
▁깨끗	-9.81152
▁이상이	-9.81202
▁사상	-9.81406
▁구하여	-9.81507
▁고로	-9.81772
▁모여	-9.81855
▁계속하여	-9.81867
▁나타난	-9.81951
▁미워	-9.82019
▁도성	-9.82141
있는	-9.82149
▁사리간	-9.82211
▁근본적	-9.82261
▁발달	-9.82384
▁진실	-9.82405
▁닦	-9.82496
▁공경	-9.8252
▁부르	-9.82549
임	-9.82552
▁의지	-9.82614
▁자리로	-9.82641
▁동안에	-9.8265
▁가르치기	-9.82722
같은	-9.82865
▁이루는	-9.82975
▁총부	-9.83138
하던	-9.83223
▁믿으	-9.83396
▁당한	-9.83575
▁수신	-9.83779
겠나이	-9.83803
▁만고	-9.83953
하도록	-9.83954
▁감사하	-9.84239
▁지식이	-9.84379
식을	-9.84383
▁즐겨하	-9.8445
어느	-9.84497
르게	-9.84544
시는	-9.84606
▁도력	-9.8475
▁대답	-9.84837
▁죽은	-9.84859
▁생전	-9.84866
▁조심	-9.84878
▁환경	-9.84976
▁위력이	-9.85021
▁나오	-9.85043
▁삼가	-9.85073
열	-9.8522
▁펴	-9.85308
육신	-9.85392
▁생의	-9.85419
▁써	-9.85428
강	-9.85461
▁남이	-9.85539
▁방해	-9.85673
4	-9.85676
▁적은	-9.85705
▁어디로	-9.85831
묵	-9.85987
오늘	-9.86085
견성	-9.86189
▁들여	-9.86199
▁교당에	-9.86436
▁시기	-9.86545
▁잃	-9.86681
▁밖	-9.86977
▁커	-9.87064
▁강령이	-9.87112
사에	-9.87224
▁죽기	-9.87226
▁바와	-9.87244
▁돌리	-9.87265
▁들으	-9.87364
어질	-9.87386
그마	-9.87413
▁환영	-9.87761
은즉	-9.8778
어지고	-9.87859
▁땅이	-9.87969
▁병이니	-9.88
상한	-9.88198
년에	-9.88331
▁초월하	-9.88746
▁숭배하	-9.88806
▁분들	-9.88965
오나	-9.8912
▁계속되	-9.89168
함으로	-9.89245
▁개인에	-9.893
삼	-9.89395
전에	-9.89417
▁불이	-9.89494
▁천지에	-9.8954
족	-9.89578
▁당시	-9.89749
노니	-9.898
▁법이니	-9.89833
▁동정	-9.90056
▁생겨	-9.90066
▁터	-9.90069
천지에	-9.90251
하려	-9.906
▁잊어버리	-9.90625
▁지성	-9.90678
▁개선	-9.90702
▁공익	-9.9074
▁일어나는	-9.90965
▁모시	-9.90984
▁싫	-9.90991
▁중근	-9.9104
▁밝혀	-9.91064
▁총	-9.91077
▁재산이	-9.91129
그렇게	-9.91249
찌	-9.91258
힌	-9.9127
▁부끄러	-9.91272
▁찬	-9.91316
開	-9.91337
▁첫	-9.91337
主	-9.91341
然	-9.91343
情	-9.91346
月	-9.91348
動	-9.91349
安	-9.91349
樂	-9.91349
頭	-9.9135
意	-9.91353
陰	-9.91354
랫	-9.91354
像	-9.91355
前	-9.91356
氣	-9.91356
立	-9.91356
낱	-9.91356
▁걷	-9.91356
▁겪	-9.91356
▁곤충	-9.91356
▁두렷	-9.91356
▁떳떳	-9.91356
▁일곱째	-9.91356
▁칼	-9.91356
▁탑	-9.91356
出	-9.91356
九	-9.91356
住	-9.91356
師	-9.91356
病	-9.91356
能	-9.91356
頌	-9.91356
名	-9.91356
春	-9.91356
順	-9.91356
照	-9.91356
朴	-9.91356
▁재앙	-9.91358
▁유익	-9.91358
▁40.	-9.91359
▁구렁	-9.91359
▁성냥	-9.9136
▁혜택	-9.91362
▁관청	-9.91362
一圓相	-9.91364
▁어두운	-9.91364
▁통달하	-9.9137
▁파란	-9.91372
▁폐단	-9.91375
▁절약	-9.91379
▁영겁	-9.91383
▁불멸	-9.91383
▁과학	-9.9139
▁걱정이	-9.91394
▁견문	-9.91399
▁계시더니	-9.91403
▁나팔	-9.91404
속	-9.91405
▁실력	-9.91406
▁포수	-9.91415
▁독실	-9.91419
▁중추	-9.91419
▁따름이요	-9.91423
▁자취	-9.91424
天地	-9.91427
▁순경	-9.91429
▁왔으나	-9.91429
▁손해	-9.9143
▁순순	-9.91463
▁돌리자	-9.9147
▁오늘날	-9.91487
▁교무	-9.91489
▁차이	-9.9153
▁구제	-9.91551
▁유전	-9.91571
▁걸림	-9.91582
▁조종	-9.91625
▁빌고	-9.91635
▁장수	-9.91642
▁있겠나이까	-9.91645
▁있사오니	-9.91647
▁보감	-9.91678
▁고난	-9.91687
▁자세	-9.91702
▁연습	-9.91726
▁잡초	-9.9174
▁대체로	-9.9174
▁소경	-9.91776
▁처지에	-9.91787
▁조각	-9.91851
▁동포에게	-9.9187
셨다	-9.91884
▁폐	-9.91888
▁그러한다면	-9.91889
자기	-9.91927
▁바로잡	-9.91928
▁부자	-9.91933
▁백천	-9.92
▁거처	-9.92017
▁여름	-9.92017
▁하였나니	-9.92066
▁옹기	-9.92068
▁의복	-9.92077
▁이웃	-9.92084
▁진급	-9.92115
▁게송	-9.92125
▁세존	-9.92128
▁춘풍	-9.92133
▁아침	-9.92144
▁보통급	-9.92145
▁내역과	-9.92176
▁공주	-9.92184
▁과정	-9.92209
▁참선	-9.92246
▁호주	-9.92281
▁조심하	-9.92296
▁잊어버리지	-9.92312
▁처사	-9.92342
▁긴요	-9.92357
▁있거든	-9.92373
진대	-9.92392
▁각성	-9.92431
▁벌여	-9.9248
▁음	-9.92532
▁천리	-9.9254
▁교환	-9.92559
▁일시적	-9.92614
▁못한다면	-9.92669
▁줌이	-9.92671
▁육신에	-9.92681
▁도가에서	-9.92722
▁귀천	-9.92722
▁다음	-9.92838
▁군	-9.92843
▁들이지	-9.92853
▁감상	-9.92904
▁알면	-9.92905
▁깨달아	-9.92963
▁너희	-9.9299
▁변동이	-9.92994
▁부유	-9.93019
▁허망	-9.93046
▁부지중	-9.93075
▁취사력	-9.93139
▁지으면	-9.93149
▁나타나서	-9.93154
▁말세	-9.93156
▁지행	-9.93218
▁요지	-9.93307
그런데	-9.93312
▁경지	-9.93324
▁못함	-9.93358
▁묻는	-9.93396
▁길들이	-9.9344
▁구할	-9.93467
▁뿐이요	-9.93513
▁쉽고	-9.93588
▁주야	-9.93598
▁도인이라	-9.93657
▁나와서	-9.93667
▁환자	-9.93775
▁법이라	-9.93946
▁행사	-9.94021
▁하는데	-9.94207
▁대조	-9.94226
▁기어	-9.94295
▁입으로	-9.94326
▁지도하	-9.94378
▁올리는	-9.94391
▁자지	-9.94482
▁위함이	-9.94527
▁막히	-9.94664
쓰지	-9.94677
▁명심하여	-9.94708
▁후로	-9.9475
▁까닭	-9.94763
▁주시	-9.94803
▁십이	-9.94848
함에	-9.9495
▁법강항마위	-9.94952
▁쓰고	-9.94975
로소	-9.95065
▁소식	-9.9516
▁사십	-9.95452
▁대신	-9.95461
▁겁	-9.95548
▁만상	-9.95616
▁멀	-9.95623
생에	-9.95637
▁영지	-9.95784
물이	-9.95793
▁지을	-9.95977
▁경험	-9.96003
았으나	-9.96053
▁다행	-9.96359
▁풀어	-9.96471
▁시작하	-9.96518
▁영산	-9.96519
▁담	-9.96528
▁자재	-9.9656
▁맞아	-9.96706
▁안심하	-9.96719
▁권장	-9.96834
▁삼십	-9.96906
▁하나님	-9.96976
▁모아	-9.97139
▁처소	-9.97204
▁의지하	-9.97248
▁내게	-9.97431
▁하겠는가	-9.97465
▁승급하여	-9.97468
▁매사	-9.97688
하겠는가	-9.97834
▁않는다	-9.97869
▁본원	-9.98098
진다	-9.98213
▁만들어	-9.98319
▁녹	-9.98354
▁없으시	-9.9846
▁지도인	-9.98464
▁운전하는	-9.98519
▁의무	-9.98523
▁창	-9.98551
▁이루어	-9.98758
려서	-9.98791
▁하늘에	-9.98882
▁서울	-9.99118
▁전진	-9.99171
▁무서	-9.99174
▁불공하	-9.99194
▁기한	-9.99397
시다가	-9.99568
▁바다	-9.99786
▁갑	-9.9989
▁활용하	-9.9991
▁불지	-9.99987
더라	-10.0006
▁고통이	-10.0028
▁병은	-10.0029
유	-10.0037
▁지장	-10.0043
▁입선	-10.0046
▁조직	-10.0053
▁방해하	-10.008
시니	-10.009
▁교화하는	-10.0114
이다	-10.0134
▁더러	-10.0136
려니와	-10.0137
▁제정	-10.016
▁법률에	-10.0171
▁배척	-10.0183
▁지자	-10.0191
▁공경하	-10.0191
지에	-10.0199
▁내리시	-10.0209
▁말할	-10.021
▁태	-10.0221
석	-10.0232
▁식이	-10.0238
력이	-10.0249
▁시설	-10.0275
킬	-10.0277
▁감화	-10.0281
▁지게	-10.0283
▁서울에	-10.0286
반	-10.0297
▁고집	-10.0301
▁회복	-10.0305
인이라	-10.0311
악	-10.0315
▁물으시니	-10.0328
▁말한	-10.033
▁본분	-10.0332
부처님	-10.0334
후	-10.0353
▁갖추	-10.0353
▁표	-10.0358
면이어니와	-10.0368
▁까닭이니	-10.0403
▁분이	-10.0405
됨	-10.0411
▁색	-10.0419
▁병진하	-10.0429
▁방편이	-10.0431
▁받으	-10.044
배	-10.0441
투	-10.0458
▁개과	-10.0461
▁사람이며	-10.0491
색	-10.0508
▁본받	-10.0508
그러한	-10.0515
겁	-10.0523
앞으로	-10.0524
답	-10.0526
▁수용하	-10.0533
중생	-10.0549
▁있는가	-10.0554
암	-10.0554
세상에	-10.0554
황	-10.0603
▁어렵나니	-10.0605
▁공부법이	-10.061
이면	-10.0613
귀	-10.0617
▁인물	-10.0619
▁선생이	-10.0621
흥	-10.0627
효	-10.0627
괴	-10.0638
파	-10.0647
물러	-10.0648
해서	-10.0651
갖	-10.0661
시에	-10.0661
훈	-10.0664
▁잃어	-10.0668
결	-10.0669
▁일시	-10.0675
▁입을	-10.0676
리는	-10.0693
▁비롯	-10.0724
중생들	-10.0726
▁땅에	-10.073
▁방법이	-10.073
▁시작	-10.0745
야만	-10.0749
쳐서	-10.0759
▁뵈	-10.0773
▁바치	-10.0775
스러	-10.0798
▁판단	-10.0801
하자	-10.0803
▁보이시	-10.0814
셨	-10.0829
▁흩어	-10.0831
▁아니고	-10.0836
▁오고	-10.0863
한다든지	-10.087
▁통일	-10.0871
리고	-10.0891
이것이	-10.0901
▁식	-10.0914
려는	-10.0918
▁분석하	-10.092
▁대사	-10.0928
▁절대	-10.0944
▁육	-10.0944
▁깨달	-10.0952
▁그쳐	-10.0982
원기	-10.0993
▁흔들	-10.1003
하려니와	-10.1011
▁사방에	-10.1021
시사	-10.103
▁만족하	-10.1036
▁의사	-10.1054
▁골라	-10.1056
▁나가는	-10.1056
남이	-10.1065
▁머	-10.1067
▁편안하	-10.1075
▁끝이	-10.1081
▁데로	-10.1081
▁하늘이	-10.109
▁조물주	-10.1092
변	-10.1092
▁편벽	-10.1097
료	-10.11
음에	-10.1103
▁행동이	-10.111
▁엿	-10.1119
▁헛	-10.1127
▁앉아	-10.113
▁염	-10.1131
量	-10.1132
륜	-10.1133
進	-10.1135
先	-10.1135
緣	-10.1135
言	-10.1135
長	-10.1136
和	-10.1136
運	-10.1136
▁틀	-10.1136
思	-10.1136
未	-10.1136
苦	-10.1136
龍	-10.1136
▁떼	-10.1136
▁바느질	-10.1136
▁불쌍	-10.1136
▁붕우	-10.1136
▁어두워지	-10.1136
▁젖	-10.1136
▁좁	-10.1136
機	-10.1136
歸	-10.1136
造	-10.1136
過	-10.1136
씬	-10.1136
좀	-10.1136
좇	-10.1136
킨	-10.1136
훨	-10.1136
▁간석지	-10.1136
▁불합리	-10.1136
▁헌공	-10.1136
▁홀	-10.1136
着	-10.1136
級	-10.1136
血	-10.1136
解	-10.1136
逆	-10.1136
▁곤란	-10.1136
傳	-10.1136
入	-10.1136
悟	-10.1136
我	-10.1136
旬	-10.1136
鑑	-10.1136
▁기러기	-10.1136
七	-10.1136
勝	-10.1136
宋	-10.1136
在	-10.1136
▁억압	-10.1136
南	-10.1136
雲	-10.1136
修羅	-10.1136
永	-10.1136
▁규칙	-10.1136
▁표준	-10.1136
▁최초	-10.1136
▁주체삼아	-10.1136
佛供	-10.1136
▁외정정	-10.1136
無爲	-10.1136
▁학술	-10.1136
▁창건	-10.1136
▁결혼	-10.1136
▁헤아	-10.1136
▁형체	-10.1136
▁대강	-10.1136
▁재철	-10.1136
스럽	-10.1136
▁역량	-10.1137
▁개벽	-10.1137
▁마군	-10.1137
▁판국	-10.1137
▁화합하	-10.1137
▁복잡	-10.1137
▁관념	-10.1137
▁권능	-10.1138
▁내정정	-10.1138
▁선지식	-10.1138
▁타자녀	-10.1138
▁학설	-10.1138
▁빈천	-10.1138
▁무시선	-10.1138
▁옮기	-10.1139
▁애욕	-10.1139
▁자격	-10.1139
▁어떠하오리까	-10.114
▁십년	-10.114
▁용화	-10.1141
▁불효	-10.1141
▁형식	-10.1141
▁잠간	-10.1141
▁송경	-10.1143
▁계교	-10.1143
▁본말	-10.1143
▁손실	-10.1143
▁색신	-10.1144
▁뵈오니	-10.1144
▁각종	-10.1144
▁진보	-10.1145
▁기구	-10.1145
▁죄악	-10.1146
▁현상이라	-10.1146
▁공변	-10.1146
▁개척	-10.1146
▁부끄러운	-10.1146
▁싶나이다	-10.1147
▁지켜	-10.1148
▁제초	-10.115
▁취미	-10.115
▁아니한지라	-10.115
▁된지라	-10.1151
▁영화	-10.1152
▁착수	-10.1152
▁귀절	-10.1154
▁문제	-10.1155
▁겁래	-10.1156
▁기질	-10.1157
▁정력	-10.1157
▁삼매	-10.1158
▁천조	-10.1159
▁기재시키	-10.116
▁향락	-10.116
▁빼앗기	-10.116
▁대승	-10.1162
▁가르치며	-10.1163
▁이름이	-10.1163
▁사라지	-10.1164
▁마시고	-10.1164
▁세세	-10.1166
모범적	-10.1166
▁잃어버리	-10.1167
▁예수	-10.117
임의	-10.1172
하자면	-10.1174
▁다투	-10.1175
▁희사	-10.1176
▁노승	-10.1177
▁소용	-10.1179
▁없으리요	-10.118
▁과실	-10.118
▁변천	-10.1181
▁선행	-10.1182
▁자부	-10.1182
▁나온	-10.1182
▁대체	-10.1183
▁맡기	-10.1183
▁되었는가	-10.1186
▁청풍이	-10.1187
▁사무	-10.1188
▁인품	-10.119
▁아님	-10.1192
▁조심할	-10.1194
▁가시니	-10.1198
▁천록	-10.1199
▁비루	-10.1207
▁현상	-10.1212
▁성현	-10.1213
▁익히	-10.1213
▁걸음	-10.1224
▁경치	-10.1224
▁특신급	-10.1227
▁창생	-10.1229
▁점에	-10.123
▁무식	-10.1231
▁일이니	-10.1232
▁장단	-10.1234
▁거울	-10.1237
▁무루	-10.1239
▁외경	-10.1241
▁올라	-10.1248
▁가질	-10.1254
如來	-10.1258
▁힘써	-10.1259
▁길에	-10.1259
▁실상	-10.1262
▁그럴	-10.1263
▁마음병	-10.1267
▁처지에서	-10.1271
▁치성하	-10.1271
▁지나	-10.1272
▁때까지	-10.1273
▁병들	-10.1276
▁커진	-10.1281
것이요	-10.1281
▁지키고	-10.1281
▁이야기	-10.1285
서로	-10.1294
▁이타	-10.1294
▁모친	-10.1298
▁무리와	-10.13
▁되든지	-10.1308
▁생각할	-10.1309
▁누리	-10.1311
▁빈	-10.1313
▁천업	-10.1315
▁정업	-10.1319
사온데	-10.132
▁하지마는	-10.1321
▁집에서	-10.1322
▁보되	-10.1324
▁두려워하	-10.1328
민들	-10.1335
▁확	-10.1338
▁공부로	-10.1346
▁대천	-10.1357
▁연마	-10.1361
▁화하고	-10.1366
▁아니하려	-10.137
▁모시고	-10.1371
▁두어	-10.1373
▁떨어지지	-10.1378
▁한이	-10.1379
▁타인	-10.1379
▁그치	-10.138
▁법률과	-10.1384
▁민	-10.1386
▁베풀어	-10.1388
▁화상	-10.1389
▁간다면	-10.1393
▁대비	-10.1398
▁사시	-10.14
▁효	-10.1405
▁선정	-10.141
▁경로	-10.1412
▁빠져	-10.1415
▁기르	-10.1422
두	-10.1424
▁심인	-10.1425
▁단전	-10.1426
▁6	-10.1427
▁사회에서	-10.1437
▁사유	-10.144
▁무심	-10.1443
▁순응하	-10.1449
▁흩어지	-10.145
▁자유로	-10.1456
었으며	-10.1459
▁분야	-10.1462
▁조선	-10.1463
▁들을	-10.1465
▁방심	-10.1475
▁예법	-10.1476
▁자기에게	-10.1486
▁패	-10.1488
▁구름	-10.149
▁아니함	-10.1493
▁이르기	-10.1494
▁선악간	-10.1501
▁확장	-10.1517
▁법통	-10.1517
▁방지하	-10.1533
▁춘	-10.1534
▁근래에	-10.1546
▁삼세	-10.1559
▁명상	-10.1568
▁인간락	-10.1573
▁어린이	-10.1588
▁탄	-10.1593
▁악이	-10.1606
시더니	-10.161
▁무엇인	-10.1611
▁고기	-10.1629
▁넓은	-10.1633
성으로	-10.1634
하시는지라	-10.1636
마음	-10.1637
▁허물이	-10.1639
으신	-10.165
▁생각하지	-10.1651
치는	-10.1655
▁생각하고	-10.1656
▁강이	-10.1661
▁사람이라고	-10.167
▁받들	-10.167
▁미륵불	-10.1683
▁농사에	-10.1688
어찌하여	-10.1701
없는	-10.1702
▁질	-10.1704
▁중요	-10.1718
▁한다고	-10.1722
▁가져다	-10.1722
▁삼고	-10.1723
하는지라	-10.1726
탄	-10.1762
▁국	-10.1801
하였고	-10.1815
▁살생	-10.1816
▁사람들로	-10.1817
편	-10.1821
▁주리	-10.1854
▁천상	-10.1868
▁그름	-10.1878
▁존대	-10.193
▁치	-10.1938
▁완연	-10.1945
▁그러	-10.1962
하사	-10.1969
▁울	-10.1973
▁공연	-10.1983
번	-10.2008
▁중도	-10.2009
▁그러면	-10.2009
▁아니나	-10.2023
▁대우	-10.2025
."	-10.2043
▁고치기	-10.205
▁대지	-10.2057
▁대답하	-10.2079
이오니	-10.2092
▁지정	-10.2103
▁교법이	-10.2122
▁겨울	-10.2148
▁강급	-10.2156
▁등이	-10.2158
▁준비하	-10.2167
▁반가	-10.217
▁망	-10.2177
▁조심하여	-10.218
▁체받	-10.2194
▁할지니	-10.2205
▁도모	-10.221
었으니	-10.221
▁친절	-10.2215
▁감동	-10.2233
그러므로	-10.2243
천지	-10.2248
▁공이	-10.2254
▁지배	-10.229
▁있기	-10.2292
▁하여서	-10.2298
▁실적	-10.2309
하시어	-10.231
▁짐승	-10.2316
으셨으	-10.2331
▁정이	-10.2331
▁불과	-10.2333
▁천년	-10.2335
▁대상	-10.2343
▁싫어	-10.2348
▁하시며	-10.2352
▁농	-10.2364
아무	-10.2365
▁건축	-10.2366
▁불법이	-10.2393
▁발견하	-10.2399
▁얻었	-10.242
▁산에	-10.2442
고도	-10.2471
것이	-10.2489
▁알았	-10.2504
▁성취하	-10.2514
▁되었으	-10.2532
▁본가	-10.2535
만으로	-10.2539
▁깨끗하	-10.254
▁불가	-10.2552
▁녹아	-10.2557
▁하려는	-10.2568
그것	-10.2569
▁일상	-10.259
인들	-10.2597
▁분분하	-10.2607
▁칭찬	-10.2625
▁쇠약	-10.2636
물질	-10.2639
▁소견	-10.267
▁완	-10.2673
▁사업이	-10.2682
▁살림이	-10.2682
▁범하	-10.2688
살	-10.2694
온데	-10.2718
켜	-10.2732
편에서	-10.2736
각도	-10.2747
줄	-10.2752
▁도덕이	-10.2754
▁허	-10.2758
대중	-10.2786
들지	-10.2787
아주	-10.2792
셨으나	-10.2794
▁시간이	-10.2804
▁발견	-10.2849
▁말씀이	-10.2852
▁참고	-10.2866
▁여가	-10.2868
녀	-10.2873
▁즐기는	-10.2877
극	-10.288
심이요	-10.2885
▁듯하니	-10.2895
▁처리	-10.292
름이	-10.2922
▁떨어	-10.2934
너	-10.294
▁일기	-10.2951
몇	-10.2962
하더니	-10.2971
감	-10.2975
예	-10.2979
볼	-10.2985
▁피은이	-10.2995
초	-10.3002
▁불고하	-10.3003
건	-10.3023
취	-10.3033
좌선	-10.3036
학	-10.3039
동포	-10.3043
▁밭에	-10.3053
▁들인	-10.3053
6	-10.3057
▁웃	-10.3059
▁벌레	-10.3064
상에	-10.3069
▁공심	-10.307
둘	-10.3078
▁있사오	-10.3088
혼	-10.309
▁다를	-10.3092
강연	-10.3092
회화	-10.3094
법강항마위	-10.3097
불상	-10.3101
5	-10.3109
최	-10.3111
무릇	-10.3114
▁준다	-10.3118
층	-10.3131
는가	-10.3133
춘	-10.3137
자면	-10.3139
쇠	-10.314
증	-10.3147
좌	-10.3152
작	-10.3154
봉	-10.3155
효과	-10.3162
리와	-10.3164
▁붙	-10.3167
곡	-10.3169
성리	-10.3176
▁앉	-10.3181
침이	-10.3184
것	-10.3201
었나니	-10.3213
▁부리	-10.3214
▁벗어	-10.3244
하였는가	-10.3247
▁비방	-10.3269
배은	-10.327
▁순응	-10.3281
▁아니한다	-10.3286
▁되는가	-10.3292
이옵니	-10.3309
▁못하나	-10.3313
택	-10.3335
▁고르	-10.3337
받아	-10.3339
▁항복	-10.336
▁시작하여	-10.3364
국가에	-10.3372
량	-10.3374
▁짐작하	-10.3374
▁아나니	-10.3379
본	-10.3382
▁후생	-10.3414
▁내리는	-10.3426
▁염려	-10.3434
▁선진들	-10.3435
보은	-10.3448
▁수도에	-10.345
▁교환하	-10.3451
▁신자들	-10.3451
▁첫째	-10.3478
來	-10.3481
▁어긋	-10.3491
▁순환	-10.3491
▁내생	-10.3494
▁한가	-10.3496
옵고	-10.3499
▁주시니	-10.3505
▁대자	-10.3506
▁다섯	-10.352
으시며	-10.353
▁범위	-10.3533
▁전해	-10.3549
▁굽	-10.3578
니다	-10.3585
▁냉	-10.3592
져	-10.3592
롭	-10.3595
▁영혼이	-10.3595
▁따르	-10.3596
▁화려	-10.3598
쁘	-10.3612
럽	-10.3613
평	-10.3619
▁숨	-10.3621
▁즐거	-10.3621
▁윤	-10.3624
▁베	-10.3627
류	-10.3629
쓴	-10.363
肉	-10.3633
東	-10.3634
界	-10.3634
應	-10.3635
疑	-10.3635
方	-10.3635
精	-10.3635
雨	-10.3635
田	-10.3635
治	-10.3636
工	-10.3636
▁채찍질하	-10.3636
作	-10.3636
回	-10.3636
歲	-10.3636
痴	-10.3636
禍	-10.3636
調	-10.3636
足	-10.3636
▁가라앉	-10.3636
▁검	-10.3636
▁길룡리	-10.3636
▁농작물	-10.3636
▁대접	-10.3636
▁뱀	-10.3636
▁솥	-10.3636
▁싹	-10.3636
▁어머니	-10.3636
▁이룬	-10.3636
▁젊	-10.3636
▁콩	-10.3636
▁편찬	-10.3636
▁폭	-10.3636
▁호흡	-10.3636
▁훌륭	-10.3636
受	-10.3636
嚴	-10.3636
庵	-10.3636
條	-10.3636
波	-10.3636
無念	-10.3636
禮	-10.3636
老	-10.3636
路	-10.3636
값	-10.3636
덟	-10.3636
맥	-10.3636
뭇	-10.3636
용맹	-10.3636
찮	-10.3636
퍽	-10.3636
▁넣	-10.3636
▁부러워하	-10.3636
▁불퇴전	-10.3636
▁퇴굴심	-10.3636
倫	-10.3636
壞	-10.3636
壽	-10.3636
女	-10.3636
寶	-10.3636
尊	-10.3636
愛	-10.3636
果	-10.3636
色	-10.3636
虛	-10.3636
▁머무르	-10.3636
分	-10.3636
劫	-10.3636
喆	-10.3636
死	-10.3636
父	-10.3636
祿	-10.3636
而	-10.3636
醫	-10.3636
▁일으키	-10.3636
國	-10.3636
惺	-10.3636
▁사로잡	-10.3636
▁이소성대	-10.3636
▁종법사	-10.3636
二	-10.3636
鄭	-10.3636
闢	-10.3636
發	-10.3636
返	-10.3636
火	-10.3636
他	-10.3636
元	-10.3636
▁존엄	-10.3636
▁아랫사람	-10.3636
陰陽	-10.3636
▁노릇	-10.3636
▁손가락	-10.3636
▁목표	-10.3636
▁축생	-10.3636
▁즐겁	-10.3636
▁처리건	-10.3636
▁출세간	-10.3636
▁통합	-10.3636
應用	-10.3636
▁솟아	-10.3636
▁트집	-10.3636
▁상쾌하	-10.3637
見性	-10.3637
▁바루고	-10.3637
三昧	-10.3637
▁다닌다	-10.3637
▁아프	-10.3637
▁방향	-10.3637
▁예수께서	-10.3637
▁출역	-10.3637
▁두렵	-10.3637
▁평탄	-10.3637
▁전환	-10.3638
▁근거	-10.3638
▁알뜰	-10.3638
▁전쟁	-10.3638
▁45.	-10.3638
▁법칙	-10.3638
▁화재	-10.3638
▁붙잡	-10.3638
▁해제식	-10.3639
▁44.	-10.3639
▁금생에	-10.3639
▁답답	-10.3639
▁상대처	-10.3639
▁순역	-10.3639
▁불과하나니	-10.3639
修行	-10.364
▁형편	-10.364
▁변태	-10.364
正覺	-10.364
▁희사위	-10.364
▁찬성	-10.364
▁화강	-10.364
▁다스려	-10.364
▁오욕	-10.3641
▁삼건	-10.3641
▁밝아질	-10.3641
▁경영	-10.3641
▁방언	-10.3641
▁것인데	-10.3643
要道	-10.3643
▁저축	-10.3643
佛地	-10.3643
▁아름다	-10.3643
▁신념	-10.3644
▁시종	-10.3644
▁소득	-10.3645
▁계속한다면	-10.3646
▁있어지나니	-10.3646
▁규모	-10.3646
▁심통	-10.3648
▁육대	-10.3648
▁산란	-10.3648
▁이르러	-10.3648
▁상근기	-10.3648
▁불평	-10.3649
▁술수	-10.365
▁정결	-10.365
▁요령	-10.365
▁차등	-10.365
▁박해	-10.365
▁계산하	-10.3652
▁못하였는가	-10.3652
▁지체	-10.3652
▁혜시	-10.3652
▁고역	-10.3653
▁실행하	-10.3653
▁기다리	-10.3654
▁주색	-10.3655
▁끼치	-10.3655
▁흥하게	-10.3655
▁단전주	-10.3655
▁못하였으나	-10.3655
▁못하리니	-10.3655
▁실천	-10.3656
▁달마	-10.3656
▁속임	-10.3657
人道	-10.3658
▁돈공	-10.366
▁당국	-10.3662
▁모르거나	-10.3663
▁유명	-10.3663
▁놓았다	-10.3663
▁폐물이	-10.3666
▁염치	-10.3666
▁달려	-10.3666
▁달라서	-10.3667
▁등불	-10.3669
▁본위로	-10.367
▁맡겨	-10.3671
▁은밀	-10.3672
▁모르는데	-10.3672
▁충고	-10.3674
▁이로움	-10.3674
▁물론이요	-10.3675
▁있을지라도	-10.3675
▁부탁하	-10.3676
▁노동	-10.3676
▁앉아서	-10.3678
주는	-10.3678
친척	-10.3678
▁다녀	-10.3681
▁구공	-10.3682
▁대단	-10.3684
▁고행	-10.3684
▁얻도록	-10.3686
▁제거하	-10.3688
▁깨침	-10.3689
▁도구	-10.3689
▁비밀	-10.3693
▁윗사람	-10.3693
▁든든하	-10.3697
▁불상에게	-10.3697
▁중근기	-10.3697
▁상상하	-10.37
▁얽매이	-10.37
▁안일	-10.3707
▁온전하고	-10.371
▁거느리	-10.371
▁알리어	-10.3711
▁알려	-10.3712
데에	-10.3714
▁보조	-10.3716
▁자라나	-10.372
▁청하여	-10.3721
▁안정시키	-10.3722
▁못하다가	-10.3723
▁싫어하고	-10.3725
▁주착	-10.3728
▁한탄	-10.3729
▁서양	-10.373
▁도와주	-10.3731
▁견성만	-10.3739
▁음광	-10.3744
▁완철	-10.3745
▁청춘	-10.3746
선생님	-10.3748
급	-10.3749
▁유무식	-10.375
▁불리	-10.3751
▁있지마는	-10.3752
▁알음알이	-10.3752
▁적적	-10.3753
▁법마상전급	-10.3754
▁재래	-10.3754
위에	-10.3755
▁옳다	-10.3756
▁없어야	-10.3757
▁모범	-10.3758
▁불신	-10.3759
▁편만	-10.3763
▁되려니와	-10.377
▁태우	-10.3771
으라	-10.378
▁법당	-10.3781
▁순환하	-10.3783
▁뿐만	-10.3788
▁공중사	-10.3788
▁금수	-10.3796
▁만세	-10.38
▁밝히셨	-10.3804
▁불행	-10.3806
▁멸도	-10.381
▁일단	-10.3815
▁정식	-10.382
올지	-10.3821
▁습관에	-10.3822
▁따르는	-10.3825
▁모른다	-10.3825
▁향	-10.3826
▁올라가	-10.3829
▁다음에	-10.383
▁만들고	-10.3835
▁여래	-10.3839
▁아니하여야	-10.3841
추어	-10.3842
▁하겠	-10.3857
▁되도록	-10.3859
▁알자	-10.3859
▁맞추어	-10.3862
▁달라	-10.3863
▁사방	-10.3864
▁취하고	-10.3868
▁상하	-10.3868
▁응하여	-10.3868
치에	-10.3884
▁탁태되	-10.3885
▁보복	-10.3886
▁범과	-10.3887
▁미신	-10.389
▁저희들	-10.3893
▁방법이니	-10.3893
▁도산	-10.3895
▁붙이	-10.3901
▁싫어하	-10.3901
▁인상	-10.3902
▁내세에	-10.3904
▁짐작	-10.3905
▁사욕	-10.3905
▁구애되	-10.3911
▁좋고	-10.3913
▁표어	-10.3915
▁합력	-10.3917
▁한량없	-10.3917
▁미타	-10.3918
▁팔조	-10.3918
▁후로는	-10.3919
▁신기	-10.3923
▁후생에	-10.3925
▁주장하는	-10.3931
▁덕이라	-10.3938
▁되는지라	-10.3943
▁느	-10.3961
▁항복받	-10.3964
▁위신	-10.3966
하였는데	-10.3971
되겠는가	-10.3972
▁인정	-10.3975
▁고요	-10.3983
▁정전	-10.3985
들고	-10.3986
▁시켜	-10.3989
▁걸려	-10.4001
▁선기	-10.4011
▁개선되	-10.4011
▁무정	-10.4013
▁까닭이	-10.4026
▁이해하	-10.4037
▁존	-10.4038
▁가르쳐서	-10.4042
▁처리한	-10.4045
도에	-10.4048
▁하겠다	-10.4054
▁잘못하	-10.4054
▁당시에	-10.4057
▁이러하	-10.4074
▁하였더니	-10.4076
▁단원들	-10.4081
▁판단하	-10.4083
▁힘으로	-10.4083
▁공자	-10.4098
▁뵈오	-10.4106
▁행실	-10.4109
▁이르고	-10.411
▁보존	-10.4121
▁드리	-10.4124
▁오른	-10.4125
▁좌	-10.4126
▁일성이	-10.413
▁부처님이	-10.414
상이	-10.414
▁후진들	-10.4141
▁커나	-10.415
▁항마위에	-10.4152
▁아니며	-10.4153
하리니	-10.4166
▁층	-10.4167
▁주며	-10.4177
늘	-10.4185
달	-10.4203
▁수도인들	-10.4204
▁생생	-10.4207
▁들어가서	-10.4216
▁도문	-10.4222
▁본성	-10.4232
방에	-10.429
▁되었다	-10.4307
▁수운	-10.4328
▁그르치	-10.433
▁먹이는	-10.4332
▁깨치는	-10.435
▁조실	-10.4352
▁지리	-10.4352
▁일심이	-10.4353
▁해로	-10.4359
▁집이	-10.4376
▁부족하	-10.4403
치며	-10.4414
하셨나니	-10.4414
▁해결하	-10.442
▁타락하	-10.4423
▁낙도	-10.4425
▁간다	-10.4426
▁직	-10.443
▁이리	-10.4442
▁말이나	-10.4446
가지	-10.4455
▁태연	-10.4461
▁따름이	-10.4464
▁자만	-10.4472
선이	-10.4479
▁활용되	-10.4482
▁편이	-10.4484
▁어제	-10.4503
▁당인	-10.4513
▁나오시	-10.4515
▁본위	-10.4525
▁발휘하	-10.4531
▁하였고	-10.4532
▁헌신	-10.4543
▁제자만	-10.4544
▁천인	-10.4559
▁사람만	-10.4563
▁고쳐	-10.4566
▁시봉	-10.4567
▁길이라	-10.4593
▁방면에	-10.4594
▁살지	-10.4603
▁박멸하	-10.4611
하였더니	-10.4628
▁소지	-10.4635
으로서	-10.4636
▁중음	-10.4638
이지마는	-10.4648
▁행하라	-10.4648
옵니	-10.466
▁융성	-10.4663
▁묘	-10.4667
▁주저하	-10.4668
▁유상	-10.4692
▁나며	-10.4695
▁물질이	-10.4699
▁빼앗	-10.4705
▁사정	-10.4711
시기	-10.4728
을지라도	-10.4733
▁마르	-10.4749
▁성과	-10.4764
▁병진하여	-10.4767
▁운용하	-10.4778
심과	-10.4802
말	-10.4803
▁달이	-10.4812
▁근심이	-10.4814
▁뿐이	-10.4819
왔	-10.4846
함이어늘	-10.4857
▁강자로	-10.4886
▁사람이니	-10.4889
▁하매	-10.4893
▁가득	-10.4897
▁적절	-10.4932
▁자녀들	-10.4945
▁찬란하	-10.4967
하오니	-10.499
▁섭섭	-10.4998
계에서	-10.5006
▁활발하	-10.5035
▁연고이니	-10.5036
어찌	-10.5055
▁인공	-10.507
▁뵈옵	-10.5093
▁신앙이	-10.5101
▁여여	-10.5122
▁넘	-10.5124
▁늙	-10.5131
▁알았으	-10.5133
▁창립하는	-10.5162
▁슬퍼하	-10.5165
침	-10.5181
▁들었	-10.5183
▁다할	-10.5184
▁집착하	-10.5184
▁지방에	-10.5187
▁발달되	-10.5226
되니	-10.5255
[	-10.5276
▁특성	-10.5292
▁일행	-10.5299
▁정하였	-10.5312
▁허락하	-10.5325
▁때에나	-10.5328
▁증득	-10.5337
▁응하	-10.5338
▁일동	-10.5339
▁만인	-10.5349
▁분명하	-10.5355
▁경전은	-10.5366
▁유가	-10.5366
▁사나	-10.5376
정하여	-10.5382
▁벌이	-10.5387
▁문에	-10.5391
존	-10.5411
히고	-10.5453
▁채굴	-10.5458
▁제도하기	-10.5495
▁방식이	-10.5503
▁유지	-10.5504
▁베풀	-10.5518
▁통하	-10.554
▁과목이	-10.5548
▁어떠	-10.557
치가	-10.5581
▁좋아하나니	-10.5586
▁존경	-10.5603
장이	-10.5609
▁권속이	-10.563
▁년	-10.564
▁주의하	-10.566
▁기약	-10.5679
▁주의하여	-10.5699
▁행함	-10.5702
▁그리하여	-10.5712
▁심신이	-10.5715
▁듯하나	-10.5717
면에	-10.5722
▁증명	-10.5742
▁전생	-10.5777
▁익	-10.5779
▁진행하	-10.5782
▁무시하	-10.5783
▁들기	-10.5795
▁날에	-10.5797
▁개인이	-10.5811
▁도량이	-10.5835
하시는	-10.584
법률	-10.5876
었고	-10.588
중하여	-10.5882
▁가리	-10.5934
▁듯하	-10.5939
체	-10.5939
만일	-10.5944
해지	-10.5946
▁동물	-10.5947
▁닦아	-10.5951
▁충실	-10.5955
▁방면	-10.5961
▁심어	-10.5995
▁원하	-10.5999
하더라도	-10.6005
▁남자	-10.6016
▁때라	-10.602
▁고하	-10.6022
자들이	-10.6031
▁전개	-10.6048
어지나니	-10.6054
6.	-10.6057
시키기	-10.608
식이	-10.608
▁공부하여	-10.6081
터	-10.6092
마음이	-10.6094
올	-10.6095
멸	-10.6116
되었	-10.6123
▁없을지	-10.6125
▁외인	-10.6139
▁소개	-10.6144
식에	-10.6146
포	-10.6149
림이	-10.615
많은	-10.6158
몸	-10.616
▁불은	-10.6168
▁오시	-10.6173
▁전공	-10.6174
▁모신	-10.6184
▁삼나니	-10.6226
▁면	-10.623
하였	-10.6231
혜	-10.6236
어떻게	-10.6236
▁정하였나니	-10.6238
재	-10.6259
▁현세	-10.6263
▁쌓아	-10.6284
교육	-10.6308
7	-10.6317
십	-10.6323
종교	-10.6324
▁때로	-10.634
▁원동력이	-10.6341
도덕	-10.6341
열반	-10.6342
▁실행하여	-10.6346
근래	-10.636
▁일부	-10.6369
▁품	-10.637
보통	-10.6376
희	-10.6377
오며	-10.6382
출가위	-10.6391
▁선생님	-10.6392
예로부터	-10.6417
▁없었나니	-10.642
힘이	-10.642
삼세	-10.6421
글	-10.6427
낼	-10.6439
옛	-10.644
책	-10.645
필	-10.6455
판	-10.6464
졸	-10.6465
골	-10.6469
육	-10.6471
급하여	-10.6474
소리	-10.6478
▁원망하	-10.6483
▁선진	-10.6487
근래에	-10.6494
▁알면서	-10.6495
때로	-10.6497
▁당대	-10.6506
▁잡으	-10.6508
시켜	-10.6512
是	-10.6518
▁유람하	-10.6518
청	-10.6521
우주	-10.653
았다	-10.6532
▁현생	-10.6535
▁나타나나니	-10.654
▁연마하	-10.6541
시어	-10.6541
佛法	-10.6553
들인	-10.6559
▁사업자	-10.6571
▁불제자	-10.6583
▁염불이	-10.66
락과	-10.66
▁이어	-10.6603
연한	-10.662
▁개선하	-10.6637
나무	-10.6643
▁그로	-10.6647
▁제자로	-10.667
척	-10.6689
불법	-10.6698
▁시행	-10.671
▁주시는	-10.6733
▁긴요하	-10.6755
이라고	-10.6758
사조	-10.6765
▁헛되	-10.6767
▁명심하	-10.6781
자연	-10.6813
▁않나니	-10.6835
▁따	-10.6838
▁고백	-10.684
▁벗	-10.6845
벽	-10.6852
패	-10.6858
▁성자	-10.6864
이어늘	-10.6866
▁거느	-10.6868
▁생에	-10.6874
경에	-10.6883
▁배운	-10.6884
▁치우	-10.6889
▁부동	-10.6894
▁붓	-10.6896
▁어둡	-10.6903
▁혈	-10.6903
아갈	-10.6908
▁빌	-10.6908
▁부탁	-10.6916
▁드물	-10.6919
수도인	-10.6923
찰	-10.6925
▁괴롭	-10.6925
하심	-10.6929
▁꾸준	-10.693
렸	-10.6932
르침이	-10.6945
▁허다	-10.6945
▁몰라	-10.6947
조사	-10.6949
벼	-10.695
▁개척하	-10.6952
▁겸	-10.6962
뇌	-10.6963
인즉	-10.6964
쳤	-10.6964
如	-10.6965
衆	-10.6965
▁뒷	-10.6965
▁도둑	-10.6966
액	-10.6967
昧	-10.6967
見	-10.6967
▁견	-10.6968
▁법마상전	-10.6968
因	-10.6968
十	-10.6968
講	-10.6969
念佛	-10.6969
▁흠	-10.6969
▁갱	-10.6969
▁꿈	-10.6969
强	-10.6969
草	-10.6969
仁	-10.6969
始	-10.6969
崔	-10.6969
忠	-10.6969
捨	-10.6969
胎	-10.6969
貪	-10.6969
農	-10.6969
高	-10.6969
例	-10.6969
具	-10.6969
原	-10.6969
極	-10.6969
玉	-10.6969
里	-10.6969
▁가짐	-10.6969
▁계획	-10.6969
▁공헌	-10.6969
▁기뻐하	-10.6969
▁꽃	-10.6969
▁뉘우치	-10.6969
▁덜	-10.6969
▁덮	-10.6969
▁묶	-10.6969
▁북돋	-10.6969
▁비웃	-10.6969
▁썩	-10.6969
▁응감지위	-10.6969
▁의논	-10.6969
▁잦	-10.6969
▁틈	-10.6969
仙	-10.6969
及	-10.6969
口	-10.6969
周	-10.6969
呪	-10.6969
商	-10.6969
塵	-10.6969
寺	-10.6969
形	-10.6969
忿	-10.6969
懺	-10.6969
數	-10.6969
旨	-10.6969
智	-10.6969
末	-10.6969
海	-10.6969
涅槃	-10.6969
無時禪	-10.6969
獨	-10.6969
珠	-10.6969
編	-10.6969
脫	-10.6969
親	-10.6969
誓願	-10.6969
誠	-10.6969
途	-10.6969
邊	-10.6969
阿	-10.6969
靈肉雙全	-10.6969
객	-10.6969
껏	-10.6969
껴	-10.6969
꼭	-10.6969
뀌	-10.6969
끔	-10.6969
닐	-10.6969
덥	-10.6969
뜬	-10.6969
엽	-10.6969
웅	-10.6969
잔	-10.6969
짚	-10.6969
쪼	-10.6969
힐	-10.6969
▁똥	-10.6969
▁부촉	-10.6969
▁빠짐	-10.6969
▁영접하	-10.6969
▁편협	-10.6969
▁투철하	-10.6969
五	-10.6969
僧	-10.6969
八	-10.6969
參	-10.6969
吳	-10.6969
孝	-10.6969
彌	-10.6969
律	-10.6969
從	-10.6969
愚	-10.6969
松	-10.6969
欲	-10.6969
無碍	-10.6969
男	-10.6969
罪	-10.6969
轉	-10.6969
野	-10.6969
齊	-10.6969
▁묻자오매	-10.6969
▁창조자	-10.6969
(194	-10.6969
克	-10.6969
內	-10.6969
功	-10.6969
印	-10.6969
完	-10.6969
局	-10.6969
年	-10.6969
悲	-10.6969
書	-10.6969
注意	-10.6969
王	-10.6969
脈	-10.6969
退	-10.6969
頓	-10.6969
齋	-10.6969
▁하감지위	-10.6969
以	-10.6969
偈	-10.6969
場	-10.6969
宿	-10.6969
特	-10.6969
看	-10.6969
至	-10.6969
質	-10.6969
▁알으신다	-10.6969
千峰	-10.6969
曺	-10.6969
漏	-10.6969
濟	-10.6969
鳴	-10.6969
▁꿈꾸	-10.6969
▁훼방하	-10.6969
乘	-10.6969
▁베푸	-10.6969
▁부합시켜	-10.6969
▁석두암	-10.6969
臨	-10.6969
▁시탕	-10.6969
▁불구자	-10.6969
丹田	-10.6969
▁용납	-10.6969
▁가리키	-10.6969
金剛	-10.6969
石頭	-10.6969
▁망녕	-10.6969
▁아만심	-10.6969
▁채포	-10.6969
日記	-10.6969
▁옹호	-10.6969
▁압박	-10.6969
▁키워	-10.6969
▁낭비	-10.6969
疑頭	-10.697
▁존재	-10.697
▁고혈마	-10.697
▁알아듣고	-10.697
▁탈선	-10.697
▁최령	-10.697
報恩	-10.697
▁부채	-10.697
▁색색	-10.697
坐禪	-10.697
▁제출	-10.697
▁올챙이들	-10.697
▁존속	-10.697
▁파멸	-10.697
▁군색	-10.697
▁민족	-10.697
▁공자께서	-10.697
動靜	-10.697
▁증세	-10.697
▁출석하	-10.697
▁탐욕	-10.6971
▁몰아	-10.6971
▁흘러	-10.6971
▁종류	-10.6971
修養	-10.6971
▁표창	-10.6971
▁춤추	-10.6971
▁묘방	-10.6971
三界	-10.6971
空寂	-10.6971
▁축원	-10.6971
▁학교에서	-10.6972
▁철석	-10.6972
自然	-10.6972
▁적벽	-10.6972
▁건강	-10.6972
끝만	-10.6972
▁육통	-10.6972
▁가벼워	-10.6972
▁길흉	-10.6972
▁봉안하	-10.6972
▁마쳤	-10.6972
▁단속	-10.6973
천봉	-10.6973
▁뒷날	-10.6973
▁각별	-10.6973
▁존중	-10.6973
▁외학	-10.6973
▁혜두	-10.6973
▁게으	-10.6973
▁선량하여	-10.6973
▁경륜	-10.6974
▁평안	-10.6974
▁혈심	-10.6974
▁음부	-10.6974
敎義	-10.6974
▁음조	-10.6974
▁탄식	-10.6974
自力	-10.6974
▁각색	-10.6974
▁세탁	-10.6974
▁관변	-10.6974
▁근동	-10.6974
▁존모	-10.6975
▁각파	-10.6975
▁가꾸	-10.6975
▁진대지	-10.6975
▁역력	-10.6975
▁바꾸	-10.6975
▁위험	-10.6975
국토	-10.6975
▁촉진	-10.6975
▁조급	-10.6975
▁묘유	-10.6975
▁초범	-10.6975
▁정성스럽	-10.6976
▁분항	-10.6976
▁태산	-10.6976
▁밝힌	-10.6976
▁정토	-10.6976
▁접응할	-10.6976
▁파괴자	-10.6977
▁며칠	-10.6977
▁깨우치	-10.6977
▁노송	-10.6977
▁윤활	-10.6978
▁전곡	-10.6978
▁상봉	-10.6978
▁연락	-10.6979
▁영근	-10.6979
▁못하였음이	-10.6979
▁일찍	-10.6979
▁엄부	-10.6979
▁근처	-10.6979
▁해로움	-10.6979
▁키우	-10.6979
▁친애	-10.698
▁진열	-10.698
▁상황	-10.6981
▁보험	-10.6981
大圓	-10.6981
▁업연	-10.6981
▁그러하오나	-10.6981
▁돌아오시	-10.6981
▁난행	-10.6981
▁풍속	-10.6982
▁되었다든지	-10.6982
▁자포	-10.6982
▁문하에	-10.6982
▁세밀히	-10.6982
▁진위	-10.6982
▁허실	-10.6982
▁물었더니	-10.6983
▁불러들이	-10.6983
▁노래	-10.6983
大覺	-10.6984
▁확신	-10.6984
제자	-10.6984
▁초학자	-10.6985
▁않사오니	-10.6985
▁먹으려	-10.6985
▁심력	-10.6985
▁방종	-10.6985
▁포함	-10.6986
▁책망	-10.6986
▁47.	-10.6986
▁묵연하	-10.6987
▁거절하	-10.6987
▁대질리	-10.6987
▁계단	-10.6987
심하지	-10.6987
▁담화하	-10.6987
▁내려	-10.6987
▁억만	-10.6988
▁화복	-10.6988
▁기계	-10.6988
▁영단	-10.6988
▁올리는지라	-10.6988
▁되었음이	-10.6989
▁비결	-10.699
▁여하	-10.699
▁조심함이	-10.699
▁자본	-10.699
▁되었으므로	-10.6991
▁명산	-10.6991
▁풍부	-10.6992
▁체성	-10.6992
법규	-10.6993
▁기간	-10.6993
▁소승	-10.6993
▁사량	-10.6994
▁남용하여	-10.6995
▁성인들	-10.6995
▁요소	-10.6995
▁없사오니	-10.6996
▁무료	-10.6996
▁있사온데	-10.6997
▁요란하지	-10.6997
▁불가에서	-10.6997
숙명	-10.6998
▁장경	-10.6998
▁엿보	-10.6998
▁유혹	-10.6998
우리는	-10.6999
▁것이냐	-10.6999
▁무극	-10.6999
▁선후	-10.6999
▁불편	-10.7
▁모름	-10.7001
▁아끼	-10.7001
▁신년	-10.7002
▁타력신	-10.7003
▁아니하였으나	-10.7003
▁음성	-10.7004
▁주인공	-10.7005
▁진공	-10.7005
▁가까와	-10.7006
▁좋으나	-10.7006
▁순리로	-10.7007
▁상종	-10.7007
▁예산	-10.7007
▁부자유	-10.7007
▁내리시며	-10.7008
▁몰라주	-10.7008
▁소원	-10.7008
서가모니불	-10.7008
▁그리하면	-10.701
정녀	-10.7011
▁장양	-10.7011
▁둘러	-10.7012
▁잠시	-10.7012
▁장마	-10.7012
▁본분이라	-10.7013
▁괴롭게	-10.7014
▁순일	-10.7015
▁신중	-10.7015
▁조소	-10.7015
락에	-10.7015
▁영구	-10.7016
▁돈수	-10.7017
▁면목	-10.7017
▁감소	-10.7018
▁원적	-10.7019
▁정남	-10.702
▁비교	-10.7021
▁얻으리요	-10.7021
▁달성	-10.7021
▁있거니와	-10.7023
▁다르나니	-10.7023
▁자연화	-10.7024
버림	-10.7025
▁귀함이	-10.7029
▁냉수	-10.703
▁하신	-10.703
▁요란함	-10.7034
▁진세	-10.7035
▁어둡고	-10.7035
▁악연	-10.7037
▁무너	-10.7038
▁자력신	-10.7039
▁편벽되	-10.7039
▁개교	-10.704
▁대하라	-10.7044
▁점차	-10.7044
▁도통	-10.7045
▁크다	-10.7048
▁못하거늘	-10.7048
▁굽히	-10.7049
▁삼으라	-10.7049
▁행적	-10.7052
▁더위	-10.7052
▁금하지	-10.7054
▁치우치	-10.7055
▁경관	-10.7055
▁실상사	-10.7058
▁강연히	-10.7059
▁어긋나지	-10.7059
▁당장	-10.7062
▁천주	-10.7063
▁독서	-10.7066
▁주인이요	-10.7067
▁고물	-10.7068
▁기록	-10.7071
▁허위	-10.7072
▁저승	-10.7072
사요	-10.7073
▁인내	-10.7082
▁비용	-10.7083
▁연마하고	-10.7083
▁불고하고	-10.7083
▁면하려	-10.7083
▁미소	-10.7083
옥이	-10.7084
▁천의	-10.7085
▁없지마는	-10.7085
▁받으며	-10.7087
▁출세하여	-10.7088
▁교단에서	-10.7088
▁주시며	-10.7089
▁없거나	-10.7093
▁지금까지	-10.7094
▁어긋난	-10.7101
▁천대	-10.7101
▁채	-10.7104
▁유교	-10.7105
겠느냐	-10.7106
하였사오니	-10.7108
▁봄	-10.7109
▁기차	-10.7109
▁관리	-10.7111
▁자모	-10.7114
▁장려하	-10.7115
▁미미	-10.7116
▁말이니	-10.7119
▁돌리고	-10.712
▁호리	-10.712
▁식당	-10.7121
▁태극	-10.7121
▁증산	-10.7121
▁문자	-10.7122
▁정이며	-10.7123
▁음양	-10.7123
▁초목	-10.7124
▁가마귀	-10.7125
▁산돼지	-10.7125
▁육조	-10.7126
▁진강급	-10.7126
▁경편차	-10.7126
소에	-10.7127
▁등급	-10.7128
▁구일	-10.713
▁나중에	-10.713
▁천도재	-10.713
▁최상	-10.713
▁원칙	-10.7131
▁예수교	-10.7133
▁팔산	-10.7137
▁용처	-10.7137
▁수단	-10.7142
▁닦고	-10.7143
옵는데	-10.7146
▁판이	-10.7147
▁재물	-10.7153
마침	-10.7153
▁불경	-10.7156
▁믿어	-10.7157
▁수양이라	-10.7158
▁영상	-10.7166
▁두려	-10.7171
▁잘못이	-10.7172
▁역경	-10.7172
보라	-10.7173
무념	-10.7174
▁묻히	-10.7177
▁선종	-10.7181
▁이치까지	-10.7186
▁손상	-10.7195
▁공적에	-10.7199
▁어디서	-10.72
▁화신	-10.7201
조행	-10.7207
▁경중	-10.7212
우나	-10.7212
의두	-10.7219
▁말단	-10.7228
▁사제	-10.7229
▁알으시는	-10.723
▁하셨으	-10.7235
불각	-10.7238
▁말아서	-10.7239
▁주해	-10.7244
性理	-10.7251
▁밝음이	-10.7254
▁수명	-10.7261
▁탁태	-10.7264
▁새겨	-10.7265
▁높고	-10.7266
▁실행할	-10.7267
▁자지하여	-10.7267
▁여래위	-10.7271
▁소멸되	-10.7279
▁깨치고	-10.7288
아지	-10.7292
▁비치고	-10.7295
▁판	-10.7295
▁경전이라	-10.7296
▁전세	-10.7298
▁출입	-10.73
▁중요하나니	-10.7301
▁슬	-10.7307
▁후세	-10.7311
솔	-10.7313
주지	-10.7323
▁원망하지	-10.7324
▁살며	-10.7328
시는지라	-10.7328
▁바퀴	-10.7334
▁제목	-10.7337
▁행사에	-10.734
▁드러나고	-10.734
▁동학	-10.7346
천이	-10.735
▁도수	-10.7354
▁전정	-10.7362
▁못할지니	-10.7377
▁동기	-10.7378
▁우대	-10.7382
▁얻으	-10.7382
▁경계하	-10.7395
▁범하고	-10.7402
▁평정	-10.7404
▁나가기	-10.7408
▁대운	-10.7414
▁변론	-10.7415
▁면하기	-10.7417
▁법명	-10.742
▁우자	-10.7425
▁멸	-10.7429
▁진정	-10.7431
▁대덕	-10.7433
▁현생에	-10.7439
▁건설하	-10.7448
▁영통	-10.7448
▁집중	-10.7452
▁노력할	-10.7452
▁골	-10.7454
▁각오하여	-10.7454
▁것만으로	-10.7462
▁열린	-10.7465
▁이승	-10.7476
라면	-10.748
▁회상이라	-10.7491
▁정성으로	-10.7492
어도	-10.7497
▁종교라	-10.7501
▁죄벌이	-10.7512
▁이르게	-10.7516
▁원기	-10.7518
▁버려	-10.7519
▁다스	-10.752
▁중천	-10.7522
▁상대자	-10.7525
▁낼	-10.7528
▁무기	-10.7529
▁외지	-10.7532
▁위주하여	-10.7535
호의	-10.7541
▁끝에	-10.7543
▁구하기	-10.7545
▁선전	-10.7547
▁격	-10.7547
▁천지에게	-10.7561
▁굴	-10.7568
▁반성하	-10.7586
▁용서하	-10.7587
▁알아지	-10.7589
▁뜨면	-10.759
▁습관되	-10.759
▁봉	-10.7607
▁어진	-10.7609
▁불만	-10.7618
▁화로	-10.7619
▁말에	-10.7621
▁흐르는	-10.7627
▁배은자	-10.7631
▁원동력	-10.7639
)]	-10.7646
▁불문	-10.7654
▁종지	-10.7659
▁차서	-10.7659
▁회의	-10.7676
▁차자	-10.7679
▁좋으	-10.7682
도가	-10.7683
▁깨치지	-10.7694
▁작용하	-10.7701
▁법신	-10.7704
▁보답하	-10.7711
▁좋다	-10.7711
▁당하고	-10.7713
▁선승	-10.7719
▁간사	-10.7748
▁탐심이	-10.7748
▁어리석음	-10.7754
▁근본이라	-10.7758
▁역리	-10.7759
▁혼	-10.7761
▁영생	-10.7763
▁강산	-10.7767
▁출가위	-10.7772
▁성자들	-10.7772
있	-10.7777
▁속인	-10.7781
▁회화	-10.7785
▁원인은	-10.7791
▁위인	-10.7809
▁수기	-10.7811
▁보았노	-10.7816
▁벌레들	-10.7822
▁하였는가	-10.7825
▁영신	-10.7839
불공	-10.7842
▁서서	-10.7845
▁모함	-10.785
▁가라	-10.7855
가는	-10.7863
▁훈	-10.7867
통하며	-10.7881
▁쓰라	-10.7904
▁좌선에	-10.7915
▁깊고	-10.7919
▁도요	-10.7919
▁물러	-10.7934
▁과장	-10.7935
▁매하여	-10.7939
▁환경에	-10.7948
▁순리	-10.7951
▁낙망	-10.797
▁싸움	-10.7978
▁세상이라	-10.7979
▁바이라	-10.7993
▁이것으로	-10.8005
▁해석하	-10.8005
▁불어	-10.801
▁평등하	-10.8011
▁악의	-10.8021
▁공부요	-10.8021
▁되니	-10.8032
▁가졌	-10.8041
님께서	-10.8043
냐	-10.8058
히는	-10.807
▁없어진다	-10.8079
▁암	-10.8094
▁충실하	-10.8109
▁외면	-10.8121
물에	-10.8131
▁무법	-10.8134
린다	-10.8135
명함	-10.8146
▁병고	-10.8151
▁알으시	-10.8153
▁그런가	-10.8157
▁문명에	-10.8164
▁설한	-10.8174
▁불화하	-10.8177
▁성안	-10.8187
▁내왕하	-10.8227
▁영도	-10.8236
천진	-10.8238
하였으니	-10.8242
▁필요하다	-10.8244
▁삼으	-10.8245
리에	-10.826
동양	-10.828
▁가산	-10.8281
▁죄과	-10.8301
▁부귀가	-10.8314
력으로	-10.8319
▁보관	-10.832
▁존숭하	-10.8332
하옵고	-10.8334
▁방식	-10.834
▁밑에	-10.8356
▁없으면서	-10.8359
▁잡았	-10.836
▁동지들	-10.8375
되므로	-10.8379
▁적당하	-10.8381
자로서	-10.839
▁조성	-10.8397
자선	-10.8412
근심하지	-10.8415
▁지내보	-10.8423
왔으	-10.8427
▁금강산이	-10.8443
▁기재	-10.8444
▁제재	-10.8453
▁수양에	-10.8461
▁빛	-10.8468
▁종교들	-10.8473
▁관심	-10.8476
▁해결되	-10.8483
▁인사	-10.8495
▁애석	-10.8498
▁아니하시니	-10.851
▁석	-10.8512
▁불보살이	-10.8514
▁아이들	-10.8514
▁권속	-10.8519
▁시끄러	-10.8521
▁일신	-10.8531
▁보이지	-10.8547
▁돌이	-10.8566
▁자라	-10.8572
▁끌려가	-10.8576
기미	-10.8581
▁일조	-10.8592
그러	-10.8602
▁회상에	-10.8622
마는	-10.8663
▁원만하	-10.8668
▁장자	-10.8676
시킬	-10.8711
▁단원	-10.8726
▁장만하	-10.8731
▁융통	-10.8738
▁요구하는	-10.8738
▁시설이	-10.8742
으려	-10.8742
▁사요	-10.8754
▁맹세한	-10.8787
서도	-10.8789
그러하	-10.8799
▁비롯이	-10.8803
면으로	-10.8806
우며	-10.8806
▁응용하	-10.8807
▁하시는	-10.8816
▁서가	-10.882
▁오득	-10.8822
▁알겠	-10.8822
▁내심	-10.8832
▁이루어지는	-10.8836
▁병법	-10.8858
▁즉	-10.8869
로서는	-10.8882
다니	-10.8899
▁낙에	-10.89
▁천자	-10.8915
관이	-10.8928
▁배척하	-10.8934
▁허락	-10.8936
▁설법하	-10.8938
화시키	-10.8938
▁사용하여	-10.8941
▁줄기	-10.8944
▁길로	-10.896
▁걱정되	-10.897
성이	-10.8976
▁선도자	-10.8976
▁입고	-10.8979
▁무력	-10.8983
▁있더라	-10.8994
▁불고	-10.9
▁있었다	-10.9009
▁추측	-10.9015
▁부정이	-10.9025
▁숭상하	-10.9036
▁대법	-10.9036
나간	-10.9044
▁무시	-10.906
▁차리	-10.9067
탄하	-10.907
▁미래에	-10.9073
▁담박	-10.9077
보면	-10.9082
가에서	-10.9085
하루	-10.9089
▁띠	-10.9095
▁견지	-10.9126
▁사이라	-10.9134
▁근	-10.9152
▁밝으	-10.9189
▁운영하	-10.9193
세계에	-10.921
▁세상으로	-10.9228
▁지배하	-10.9233
▁나가시	-10.924
되리라	-10.925
▁많으	-10.9258
라든지	-10.9277
▁전력	-10.9296
▁잠자	-10.9304
동이	-10.9311
여서	-10.9317
▁화기	-10.9333
신다	-10.9337
▁발표	-10.9338
▁광대하	-10.9347
▁조직이	-10.9355
▁말도	-10.9364
▁운	-10.9365
지어	-10.9368
▁대도에	-10.9368
것이며	-10.9393
▁섭섭하	-10.9407
▁먹는	-10.9421
▁많으니	-10.9451
▁하심	-10.9469
▁죄송	-10.9479
▁견지에	-10.948
▁아니하리	-10.9481
▁사랑이	-10.9484
▁장내	-10.9485
▁해야	-10.9496
신이	-10.9503
▁부분적	-10.9504
목이	-10.9506
원이	-10.9508
▁지도자	-10.9519
▁보람	-10.953
▁운전하	-10.9535
▁신이	-10.9538
▁과도	-10.9546
▁명랑	-10.9552
▁범한	-10.9559
▁사리에	-10.9567
▁초조	-10.9572
▁가나	-10.9572
▁함으로	-10.9577
르지	-10.9578
▁사양하	-10.9578
▁설치	-10.959
것이라	-10.9636
▁요구하	-10.9637
이라든지	-10.9639
▁유감	-10.9642
담하	-10.9645
취할	-10.9645
망하	-10.9684
▁도모하	-10.9696
때에	-10.9726
았으니	-10.9726
세우	-10.9756
▁단련하	-10.9758
▁비유하	-10.9775
▁공급	-10.9784
▁병법이	-10.9785
▁운용	-10.9795
▁재계하	-10.9804
원화	-10.9817
도와	-10.9821
▁닦을	-10.9831
대의	-10.9836
▁앉으	-10.9837
▁그것만	-10.9865
▁필요하나	-10.9879
▁세도	-10.9887
잘	-10.9892
▁가면	-10.9896
▁늘어	-10.9902
▁될지라	-10.9906
▁빛이	-10.9917
▁보여	-10.9918
▁무간	-10.9946
시킴	-10.9951
▁제재하	-10.9977
물질로	-11.0066
▁됨이	-11.0066
▁어리	-11.0067
▁장만	-11.0088
▁시봉하	-11.0128
▁교중에	-11.0133
루는	-11.0137
▁저것	-11.0147
▁처소에	-11.0152
지지	-11.018
지며	-11.0184
하오면	-11.0185
▁떨	-11.0204
생활	-11.0205
▁때문이	-11.0224
키	-11.0231
라리	-11.0282
▁구분하	-11.0285
▁내세	-11.0298
▁맹세하	-11.031
려고	-11.0347
여러	-11.0376
확	-11.0392
▁대법이	-11.0397
▁성적	-11.0411
▁내왕하는	-11.0427
인지라	-11.044
▁등한시하	-11.0449
▁권장하	-11.0459
행한	-11.0463
▁등한	-11.0476
▁예배하	-11.0479
▁합하	-11.0488
궁	-11.0502
▁받았	-11.053
솔하	-11.0532
▁불안	-11.054
귀하	-11.0541
주처	-11.0546
▁주장하	-11.0553
▁바치는	-11.0556
▁밤이	-11.0563
성과	-11.06
선생	-11.0633
아지고	-11.0634
▁우주에	-11.0663
▁운행	-11.0685
▁방심이	-11.0689
▁음식	-11.0695
피	-11.0715
▁극락이	-11.0715
는지	-11.0721
능	-11.0722
못	-11.0737
민	-11.0738
▁모으	-11.0751
▁사실이	-11.0781
진리	-11.0782
아니라	-11.0784
8.	-11.0787
▁산업부	-11.0805
▁잡기	-11.0807
9.	-11.0821
되어서	-11.0838
강산	-11.084
옥	-11.0844
▁효도하	-11.0849
좋은	-11.0867
각자	-11.0875
▁탐심	-11.0883
▁항마위	-11.0889
▁신자로	-11.0897
죄	-11.0898
▁빼앗아	-11.0914
밭이	-11.092
▁방탕	-11.0926
▁심상	-11.0934
함이니	-11.0949
하다가	-11.0957
하온데	-11.0963
기까지	-11.0964
으려니와	-11.0973
▁나오는	-11.0989
▁이르나니	-11.0999
▁보았	-11.1006
입	-11.1025
▁막는	-11.106
굴	-11.106
격	-11.107
처음	-11.1078
▁하므로	-11.1083
였으며	-11.1085
전무출신	-11.1087
▁맹세	-11.109
합	-11.109
겨서	-11.1105
노	-11.1122
들만	-11.1124
작은	-11.1129
성할	-11.1135
막	-11.1183
▁볼지	-11.1188
▁담당	-11.1195
▁생기나니	-11.1197
▁명심	-11.1209
죽	-11.121
▁답	-11.1213
술	-11.1222
▁좋아하나	-11.1222
인간	-11.1232
▁용서	-11.1234
▁조상	-11.1249
본래	-11.1258
▁잘하	-11.1263
촌에	-11.1265
축	-11.1266
철	-11.1267
일원	-11.127
▁물어	-11.1274
집	-11.1281
놓고	-11.1281
교당	-11.1289
▁좌선이	-11.1297
공중	-11.1297
불교	-11.1307
서가모니	-11.1318
탁	-11.1325
▁병진	-11.1326
불보살들	-11.1336
낙	-11.1339
▁입어	-11.134
짓	-11.1345
범부	-11.1348
남녀	-11.1354
오나니라	-11.1363
자에게	-11.1364
천하	-11.1367
오조	-11.1369
삼대력	-11.1371
▁우월하	-11.1372
누	-11.1377
간다면	-11.1377
엄	-11.138
표	-11.1383
군	-11.1383
광	-11.1384
계에	-11.1385
몽	-11.1386
견	-11.1387
형제	-11.1388
바퀴	-11.14
둔	-11.1402
옛날	-11.1404
동학	-11.1404
갑	-11.1406
노소	-11.1406
부부	-11.1408
▁새벽	-11.141
▁건설되	-11.1411
▁보았으	-11.1412
지출	-11.1412
너희	-11.1413
말로	-11.1417
씨	-11.1419
여래	-11.142
▁변동	-11.1422
더러	-11.1425
팔조	-11.1425
표어	-11.1428
향	-11.1428
▁두려워	-11.1433
조선	-11.1434
토	-11.1436
슬	-11.1438
▁하시나	-11.1443
융	-11.1447
미타	-11.1451
▁진화	-11.1451
▁출입하	-11.1451
빈	-11.1461
뿐이요	-11.1463
▁의식이	-11.1469
▁제거	-11.1471
정전	-11.1477
충	-11.1485
영혼이	-11.1487
▁제조	-11.1503
천에	-11.1519
▁출세	-11.1528
름	-11.1533
▁때문이니	-11.1539
▁기재하	-11.1544
▁하였삽	-11.1554
복이	-11.156
면하기	-11.1562
득한	-11.1563
스승이	-11.1563
정기	-11.157
저희들	-11.159
▁밝음	-11.1595
이어	-11.1597
▁뒤	-11.1616
▁맞추	-11.163
▁시끄	-11.1636
허	-11.1654
올라	-11.1656
▁서약	-11.1656
▁길이니	-11.1669
▁순연	-11.1671
대종사께서	-11.1684
▁분간	-11.1684
▁평정하	-11.1708
나와서	-11.1726
다든지	-11.1737
▁어그러	-11.1741
▁넘으	-11.1743
약이	-11.1745
달하	-11.1753
길로	-11.1756
▁수라	-11.1784
법률은	-11.1787
▁부처님께	-11.1794
저희	-11.1813
곳에	-11.1815
가면	-11.1818
▁주었	-11.1825
보지	-11.183
럴	-11.1832
▁가면서	-11.1834
법률이	-11.1839
▁정하여	-11.1845
재하	-11.1852
▁26	-11.1854
공부인	-11.1867
▁얻었으	-11.1869
시키고	-11.1871
▁정한	-11.188
9	-11.1908
8	-11.1912
▁멀어지	-11.1914
▁쓰나	-11.1921
▁촉	-11.1933
보나	-11.1936
▁신봉하	-11.1937
▁어긋나	-11.1939
뢰	-11.1941
랑	-11.1942
▁임시	-11.1946
▁얼	-11.1953
략	-11.1956
▁파괴	-11.1959
쟁	-11.196
뜰	-11.1963
10	-11.1964
慈	-11.1965
▁얽	-11.1965
19	-11.1965
율	-11.1966
活	-11.1967
▁트	-11.1967
坐	-11.1967
期	-11.1967
報	-11.1967
15	-11.1968
語	-11.1968
記	-11.1968
石	-11.1968
陽	-11.1968
녕	-11.1968
露	-11.1968
非	-11.1968
神	-11.1969
丹	-11.1969
典	-11.1969
唯	-11.1969
朝鮮	-11.1969
江	-11.1969
淨	-11.1969
第一	-11.1969
랐	-11.1969
己	-11.1969
곤	-11.1969
度	-11.1969
食	-11.1969
亦	-11.1969
反	-11.1969
呼	-11.1969
喚	-11.1969
屈	-11.1969
武	-11.1969
秀	-11.1969
窮	-11.1969
總	-11.1969
聲	-11.1969
胞	-11.1969
蒼	-11.1969
變	-11.1969
鐵	-11.1969
霜雪	-11.1969
魚	-11.1969
千	-11.1969
▁월명암	-11.1969
全	-11.1969
務	-11.1969
孔	-11.1969
專	-11.1969
殺	-11.1969
熟	-11.1969
願	-11.1969
▁기다렸삽	-11.1969
▁꾀	-11.1969
▁나타냄이	-11.1969
▁돋	-11.1969
▁목숨	-11.1969
▁숲	-11.1969
▁엎	-11.1969
▁이르렀	-11.1969
▁재촉하	-11.1969
▁짖는	-11.1969
令	-11.1969
일렀	-11.1969
▁가볍	-11.1969
▁관헌	-11.1969
▁굉장	-11.1969
▁근검	-11.1969
▁기쁨	-11.1969
▁기혈	-11.1969
▁껍질	-11.1969
▁끄리	-11.1969
▁늦	-11.1969
▁단촉	-11.1969
▁돌아갔	-11.1969
▁돕	-11.1969
▁돼지	-11.1969
▁두터워	-11.1969
▁딸	-11.1969
▁밝아짐	-11.1969
▁배웠는가	-11.1969
▁삭	-11.1969
▁섬	-11.1969
▁셈	-11.1969
▁소홀	-11.1969
▁슬픔	-11.1969
▁쌀	-11.1969
▁어둠	-11.1969
▁여겨	-11.1969
▁옮겨	-11.1969
▁이뤄내	-11.1969
▁일컬으오나	-11.1969
▁잎	-11.1969
▁잠깐	-11.1969
▁지냈	-11.1969
▁지붕	-11.1969
▁찢	-11.1969
▁커짐	-11.1969
▁클	-11.1969
▁티끌이라	-11.1969
▁팥	-11.1969
▁퍼	-11.1969
▁협력	-11.1969
▁황홀하	-11.1969
一切	-11.1969
件	-11.1969
何處	-11.1969
個	-11.1969
倚	-11.1969
偏	-11.1969
僞	-11.1969
儒	-11.1969
兒	-11.1969
去	-11.1969
取	-11.1969
可	-11.1969
喜	-11.1969
圃	-11.1969
園	-11.1969
堰	-11.1969
士	-11.1969
奎	-11.1969
好	-11.1969
嫌	-11.1969
定期訓練	-11.1969
尺	-11.1969
尾	-11.1969
工夫	-11.1969
布	-11.1969
常時訓練	-11.1969
干	-11.1969
幾	-11.1969
序	-11.1969
役	-11.1969
往	-11.1969
忌	-11.1969
惡	-11.1969
慢	-11.1969
懶	-11.1969
戰	-11.1969
拜	-11.1969
施	-11.1969
昌	-11.1969
曲	-11.1969
木	-11.1969
格	-11.1969
正其義而不謀其利	-11.1969
母	-11.1969
淫	-11.1969
源	-11.1969
潟	-11.1969
狐	-11.1969
産	-11.1969
異	-11.1969
白	-11.1969
盜	-11.1969
目	-11.1969
瞋	-11.1969
硏究	-11.1969
碑	-11.1969
紀	-11.1969
絶頂	-11.1969
維	-11.1969
綱	-11.1969
繞	-11.1969
背恩	-11.1969
舍	-11.1969
萊	-11.1969
蓬	-11.1969
藏	-11.1969
被	-11.1969
詩	-11.1969
誦	-11.1969
說	-11.1969
誼	-11.1969
費	-11.1969
載	-11.1969
迦	-11.1969
遊	-11.1969
郡	-11.1969
酒	-11.1969
重	-11.1969
間	-11.1969
項	-11.1969
風雲雨露	-11.1969
黃	-11.1969
黙	-11.1969
鼎	-11.1969
깥	-11.1969
꿀	-11.1969
꿋	-11.1969
꿩	-11.1969
끓	-11.1969
낀	-11.1969
낌	-11.1969
넷	-11.1969
덩어리	-11.1969
땀	-11.1969
뜯	-11.1969
렬	-11.1969
맛	-11.1969
샐	-11.1969
쉴	-11.1969
앎	-11.1969
앓	-11.1969
엷	-11.1969
옆	-11.1969
즈	-11.1969
쪽	-11.1969
칭	-11.1969
카	-11.1969
털	-11.1969
헒	-11.1969
흰	-11.1969
▁자물쇠	-11.1969
▁곡출	-11.1969
▁섞	-11.1969
▁숨겨	-11.1969
▁울타리	-11.1969
▁위생상으로	-11.1969
▁읊	-11.1969
▁잎사귀	-11.1969
▁집주하되	-11.1969
징	-11.1969
▁곤궁	-11.1969
▁대자대비	-11.1969
交	-11.1969
創	-11.1969
助	-11.1969
友	-11.1969
同	-11.1969
喪	-11.1969
器	-11.1969
圖	-11.1969
境	-11.1969
壁	-11.1969
夏	-11.1969
奉	-11.1969
威	-11.1969
婚	-11.1969
尙	-11.1969
崇	-11.1969
平	-11.1969
建	-11.1969
張	-11.1969
徐	-11.1969
得	-11.1969
志	-11.1969
忘	-11.1969
感	-11.1969
操	-11.1969
旋	-11.1969
梁	-11.1969
決定	-11.1969
獄	-11.1969
獻貢	-11.1969
示	-11.1969
秘	-11.1969
等	-11.1969
育	-11.1969
葬	-11.1969
薦度	-11.1969
融	-11.1969
訣	-11.1969
論	-11.1969
輕	-11.1969
輪	-11.1969
達	-11.1969
震	-11.1969
靑	-11.1969
鷄	-11.1969
긍	-11.1969
켰	-11.1969
▁간화선	-11.1969
▁도솔천	-11.1969
▁어두웠	-11.1969
▁염라국	-11.1969
▁흡	-11.1969
▁우러러	-11.1969
▁덕송옥	-11.1969
▁몰이꾼	-11.1969
▁무시광겁	-11.1969
▁어지러운	-11.1969
▁충돌	-11.1969
▁퇴전	-11.1969
其	-11.1969
博	-11.1969
放	-11.1969
族	-11.1969
昭昭	-11.1969
渡	-11.1969
生焉	-11.1969
甲	-11.1969
盡	-11.1969
監	-11.1969
祖	-11.1969
移	-11.1969
衣食	-11.1969
貞	-11.1969
閣	-11.1969
▁明其道而不計其功	-11.1969
▁일귀하처	-11.1969
▁몰랐	-11.1969
▁칠보화	-11.1969
術	-11.1969
혐	-11.1969
▁무처선	-11.1969
▁서투르	-11.1969
▁분개하여	-11.1969
乙	-11.1969
俗	-11.1969
弓	-11.1969
昇	-11.1969
步	-11.1969
燒	-11.1969
花	-11.1969
非非	-11.1969
▁흠앙	-11.1969
▁가르친다	-11.1969
滅度	-11.1969
▁박람	-11.1969
▁지남침	-11.1969
陰府	-11.1969
絶	-11.1969
▁명리욕	-11.1969
▁무정지물	-11.1969
▁벽조	-11.1969
太極	-11.1969
淸風	-11.1969
耳	-11.1969
▁경책하시	-11.1969
▁서북풍	-11.1969
▁기울어지	-11.1969
▁손님	-11.1969
▁타일러	-11.1969
精神	-11.1969
雨露	-11.1969
▁측량	-11.1969
▁광채	-11.1969
▁기특	-11.1969
如如	-11.1969
▁자력양성	-11.1969
▁50.	-11.1969
▁적극적	-11.1969
▁골육	-11.1969
▁엄책하	-11.1969
▁준칙	-11.197
▁답변	-11.197
▁언어도단	-11.197
▁총알	-11.197
十方	-11.197
現世	-11.197
▁하근기로서	-11.197
敎團	-11.197
▁끊어졌	-11.197
▁용화회상	-11.197
▁거룩	-11.197
▁빈궁	-11.197
生於	-11.197
因緣	-11.197
금강경	-11.197
▁철환	-11.197
▁흘리시	-11.197
如意	-11.197
▁친근자로서	-11.197
▁봉변	-11.197
▁터인즉	-11.197
▁전능하시	-11.197
▁헤매	-11.197
▁근엄	-11.197
▁답례	-11.197
▁허덕이	-11.197
▁가르쳤는가	-11.197
▁과불급	-11.197
▁가까움	-11.197
先進	-11.197
眞如	-11.197
定期	-11.1971
言語道	-11.1971
▁관람	-11.1971
▁상통할	-11.1971
▁적지않	-11.1971
▁목탁	-11.1971
▁회계	-11.1971
▁기억	-11.1971
만법귀일	-11.1971
14	-11.1971
▁마련	-11.1971
生活	-11.1971
▁걸어가	-11.1971
▁궁곡	-11.1971
▁혼란	-11.1971
安樂	-11.1971
▁빨아	-11.1971
▁훈계	-11.1971
▁생겼	-11.1971
▁거슬	-11.1971
▁철벽	-11.1971
▁중앙	-11.1971
▁상쇄	-11.1971
▁천주교인	-11.1971
日月	-11.1972
▁육체	-11.1972
▁55.	-11.1972
▁병환	-11.1972
▁54.	-11.1972
▁음악	-11.1972
▁그럴듯	-11.1972
▁표현	-11.1972
▁수자상	-11.1972
▁분쟁	-11.1972
▁잡철	-11.1972
▁경향	-11.1972
▁타이르	-11.1972
有情	-11.1972
▁청산하	-11.1972
▁거액	-11.1972
▁59.	-11.1973
▁채우	-11.1973
▁녹듯	-11.1973
▁화락하	-11.1973
大慈	-11.1973
▁58.	-11.1973
▁타파	-11.1973
▁장년기에	-11.1973
▁신속하	-11.1973
李東	-11.1973
▁허영	-11.1973
常時	-11.1973
▁망덕	-11.1973
▁충성	-11.1973
험	-11.1973
▁관찰하	-11.1973
▁찾아와서	-11.1973
▁황공	-11.1973
▁기념식에	-11.1974
▁논평	-11.1974
▁도둑질	-11.1974
▁있어진다든지	-11.1974
▁산책하	-11.1974
▁즐거워하	-11.1974
▁56.	-11.1974
▁운외	-11.1974
自主	-11.1974
미륵불이	-11.1974
▁익산	-11.1974
▁겸비	-11.1974
▁약재	-11.1974
時不	-11.1974
▁꾸미	-11.1974
▁사시화	-11.1975
▁조판	-11.1975
▁겸전	-11.1975
▁승강	-11.1975
13	-11.1975
▁그려내	-11.1975
▁가섭	-11.1975
大衆	-11.1975
▁하였으되	-11.1975
▁애호	-11.1975
▁진작	-11.1975
▁궁궁	-11.1975
▁재능	-11.1975
▁장벽	-11.1975
혁신	-11.1976
하여졌으	-11.1976
▁송암	-11.1976
▁놓으셨	-11.1976
▁화목하	-11.1976
▁태워	-11.1976
開敎	-11.1976
▁봉양	-11.1976
▁백발	-11.1976
12	-11.1976
▁급속	-11.1976
自利	-11.1976
▁단순	-11.1976
▁노예	-11.1976
▁야위	-11.1976
▁시체	-11.1976
▁뻗어	-11.1976
▁주밀	-11.1976
▁부패	-11.1976
▁번잡	-11.1976
▁나누	-11.1977
空中	-11.1977
▁그림자	-11.1977
▁기재하되	-11.1977
▁봉공	-11.1977
11	-11.1977
▁삼매화	-11.1977
▁가슴	-11.1977
▁우애하	-11.1977
▁전무출신인가	-11.1977
킴	-11.1978
▁작복	-11.1978
▁칠불	-11.1978
▁작업취사	-11.1978
▁듯하오니	-11.1978
▁병증	-11.1978
▁내쉬	-11.1978
▁삼강령	-11.1978
▁않으시	-11.1978
一圓	-11.1979
▁열쇠	-11.1979
▁스승님	-11.1979
▁반갑	-11.1979
▁진체	-11.1979
▁같사오니	-11.1979
▁관통	-11.1979
▁찾아온	-11.1979
▁자랑	-11.1979
無量	-11.1979
▁결정보	-11.1979
▁번민	-11.198
▁듣느냐	-11.198
▁막심하	-11.198
▁조석	-11.1981
▁계급	-11.1981
▁57.	-11.1981
▁힘쓴	-11.1981
▁출품하지	-11.1981
▁화근	-11.1982
▁출중	-11.1982
▁대략	-11.1982
▁들으시다가	-11.1982
▁폐풍	-11.1982
▁식구들	-11.1982
▁증거하기	-11.1982
▁회장	-11.1982
▁분립	-11.1982
▁왔지마는	-11.1982
▁생육	-11.1983
▁물결	-11.1983
▁침울	-11.1983
▁좋으니	-11.1983
▁남편에게	-11.1983
▁섭섭함	-11.1983
▁심체	-11.1984
▁결산	-11.1984
▁아니하였으므로	-11.1984
▁염소	-11.1984
▁적적함	-11.1984
▁구원하	-11.1984
▁같으니	-11.1984
天下	-11.1985
▁당하였으나	-11.1985
▁처처	-11.1985
▁유족	-11.1985
▁치소	-11.1985
석현	-11.1985
▁없었지마는	-11.1986
▁두호하	-11.1986
▁상좌	-11.1986
▁학명	-11.1986
▁주장하므로	-11.1986
▁그러하거늘	-11.1986
▁감역	-11.1987
▁방해될	-11.1987
▁추모	-11.1987
▁처량	-11.1987
▁되어주기	-11.1987
▁합치	-11.1987
▁거개	-11.1987
▁아니하였다면	-11.1987
▁입힌	-11.1988
▁달구	-11.1988
▁죄송하다	-11.1988
▁우습	-11.1988
▁부근	-11.1988
▁대항하	-11.1988
▁무산자	-11.1988
▁인재	-11.1989
▁학문	-11.1989
▁비판	-11.1989
天眞	-11.199
▁무군	-11.199
▁아니하셨	-11.199
▁오름	-11.199
▁치심	-11.199
▁인색	-11.1991
▁지키면서	-11.1991
▁새끼	-11.1991
▁왕래하	-11.1992
▁독선	-11.1992
▁유언	-11.1992
▁물었	-11.1992
▁계승	-11.1993
▁추진	-11.1993
▁끊음이	-11.1993
▁의술	-11.1993
▁친우	-11.1993
▁선택	-11.1994
▁본원이며	-11.1994
▁순회하	-11.1994
▁알았으니	-11.1996
▁남편	-11.1996
▁아닌데	-11.1996
▁불사르	-11.1996
▁즐거움	-11.1996
▁허령	-11.1996
▁해득	-11.1997
▁출품	-11.1997
▁영업	-11.1997
事理	-11.1999
년기에	-11.1999
▁고결	-11.1999
▁어기고	-11.1999
▁착오	-11.1999
▁망신	-11.1999
▁하겠느냐	-11.1999
▁부주의	-11.2
▁사귀는	-11.2
▁상속	-11.2
▁임원	-11.2001
▁위반	-11.2001
▁만능	-11.2001
▁갈래	-11.2002
▁참회문	-11.2002
▁편착심	-11.2002
▁도척	-11.2002
▁묵묵	-11.2002
▁말씀하	-11.2002
▁부안	-11.2002
▁실어다	-11.2003
四大	-11.2003
▁숨기	-11.2003
▁비료	-11.2003
▁깨우쳐	-11.2003
▁결실	-11.2003
▁지량	-11.2004
▁모욕	-11.2004
▁제외하	-11.2005
▁양명	-11.2005
치지	-11.2006
▁무별	-11.2006
▁감당	-11.2006
▁위덕	-11.2006
▁평론	-11.2006
▁넘기	-11.2007
▁심교	-11.2007
▁전권	-11.2007
▁자체	-11.2007
▁더럽	-11.2007
▁촌수	-11.2008
▁경동	-11.2008
▁어렸	-11.2008
▁변절	-11.2008
▁십분	-11.2008
▁교종	-11.2009
▁양계에	-11.2009
▁명부	-11.2009
▁개명	-11.2009
▁등위	-11.2009
▁승려들	-11.2009
法身	-11.201
▁자존심	-11.2011
▁행복	-11.2011
활한	-11.2011
▁견고하여	-11.2011
▁운명	-11.2011
▁구한다	-11.2012
▁발명가	-11.2012
▁이르심이	-11.2012
▁신봉	-11.2013
▁여의주	-11.2013
公道	-11.2015
▁소요하	-11.2016
▁누진	-11.2016
▁횡행하	-11.2016
▁소란	-11.2016
正法	-11.2017
▁봉사하	-11.2017
에나	-11.2017
보았더니	-11.2017
▁없어지나니	-11.2017
▁적조	-11.2017
▁바로잡기	-11.2019
▁허식	-11.202
▁군자	-11.202
法位	-11.202
▁겨를	-11.202
▁사죄	-11.202
▁임시로	-11.2021
▁내외	-11.2022
▁망하게	-11.2022
▁도탄	-11.2023
▁나쁘	-11.2024
▁못하겠	-11.2024
질러	-11.2024
▁시절	-11.2024
▁착실	-11.2025
▁것인즉	-11.2025
▁잡으려	-11.2025
▁종파	-11.2025
▁반목	-11.2026
▁시국	-11.2026
正心	-11.2026
▁싫어하며	-11.2027
(?	-11.2028
▁되었는지라	-11.2028
?)	-11.2028
▁좌선법	-11.2028
▁떨어졌	-11.203
▁묻자	-11.2031
▁없으되	-11.2031
▁범위에서	-11.2032
▁학업	-11.2034
▁죽음	-11.2034
▁오래되고	-11.2035
▁기관수	-11.2036
조합	-11.2037
▁삼산	-11.2037
▁부연	-11.2037
▁너그러	-11.2037
관에	-11.2038
▁주었는가	-11.2038
▁능란	-11.204
▁역리로	-11.204
▁주었더니	-11.204
▁단장	-11.2041
▁물러나	-11.2041
▁남천에게	-11.2041
▁자손에게	-11.2042
▁업력	-11.2042
▁유산	-11.2042
無無	-11.2043
▁멀어지고	-11.2044
▁주유	-11.2045
▁구하든지	-11.2046
▁어김	-11.2046
▁떨어지기	-11.2046
▁된다든지	-11.2046
▁증득하여	-11.2047
▁금지하	-11.2048
▁서문	-11.2048
▁치료해	-11.2048
▁업신	-11.2048
▁평야	-11.2048
▁노력하시고	-11.205
▁확장하고	-11.2051
▁않겠는가	-11.2052
▁구비	-11.2053
▁후대에	-11.2053
▁재질	-11.2054
▁전부	-11.2055
▁닭	-11.2055
▁동거하	-11.2056
절정	-11.2056
▁명예까지	-11.2057
▁피하려	-11.2058
▁일꾼들	-11.2058
▁총중에	-11.2058
▁천명	-11.2059
▁박식이	-11.2059
▁심문	-11.2059
▁놓기로	-11.206
▁청풍	-11.206
▁소견으로	-11.2062
▁대호	-11.2062
▁비행	-11.2062
▁상하기	-11.2064
▁제일대	-11.2064
▁탁해	-11.2064
▁만나기	-11.2064
▁배우려	-11.2065
▁잊어	-11.2065
▁견성만으로	-11.2066
▁변해	-11.2066
▁있었으나	-11.2066
▁소중	-11.2066
▁탕	-11.2067
▁지키기	-11.2068
▁사후	-11.2069
▁개시	-11.2069
▁분량	-11.2069
▁혈인	-11.2069
▁기울	-11.2071
▁색정	-11.2072
▁물어보	-11.2073
▁어려서	-11.2073
▁먹으며	-11.2073
▁대거	-11.2073
▁다르며	-11.2076
▁천문	-11.2076
▁대업	-11.2079
▁법박	-11.208
▁가득하여	-11.208
▁수족	-11.2081
▁악행	-11.2081
▁보았고	-11.2081
▁열려	-11.2082
▁몰이	-11.2084
▁사업가들	-11.2085
▁해제	-11.2086
▁갔다	-11.2087
▁인부	-11.2087
▁무왕	-11.2087
▁수도인에게	-11.2088
▁복전	-11.2088
▁드물고	-11.2089
▁붓고	-11.2089
▁시장	-11.209
▁반복	-11.209
▁법회	-11.2093
▁밝혀주	-11.2093
▁삼지	-11.2096
▁벌어	-11.2096
절후	-11.2098
▁조물주라	-11.2098
▁전심하	-11.2099
동천에	-11.21
▁것이온데	-11.2102
▁만년	-11.2102
▁되어질	-11.2103
▁구미	-11.2103
▁효력	-11.2104
▁불성	-11.2104
진묵	-11.2105
▁소인이	-11.2107
▁전법	-11.2109
▁동문	-11.2109
▁알지마는	-11.2111
▁어루	-11.2112
답게	-11.2113
충신	-11.2113
대저	-11.2115
▁실시	-11.2116
▁주종	-11.2116
▁발전시키	-11.2118
▁각성하여	-11.212
▁까닭이라	-11.2123
▁제거할	-11.2125
▁못할지라	-11.2129
▁글자	-11.2132
벽에	-11.2133
▁기색	-11.2133
▁전력하여	-11.2133
비행기	-11.2136
▁흐	-11.2138
▁주나니	-11.2138
▁마땅하게	-11.2139
▁부동심	-11.214
▁후일	-11.214
▁제거해	-11.2141
▁정행	-11.2143
▁구정	-11.2144
▁것이옵고	-11.2144
▁압	-11.2145
▁부합되	-11.2146
▁나태	-11.2147
▁녹아지	-11.2149
령이라	-11.215
▁누구에게	-11.2151
▁여기며	-11.2154
▁모르는지라	-11.2156
▁공명	-11.2157
▁비명	-11.2157
▁세웠	-11.2157
▁사참	-11.2158
▁선연	-11.2161
▁감시	-11.2162
▁평화하여	-11.2162
▁거동	-11.2162
▁선비	-11.2162
▁원진	-11.2163
르는지라	-11.2166
▁범위에	-11.2167
▁수생	-11.2168
▁억	-11.2169
원이나	-11.2171
▁마장	-11.2171
하였으므로	-11.2172
임할	-11.2173
▁완성	-11.2173
▁적공	-11.2174
▁아니하거나	-11.2177
▁대치	-11.218
선지자	-11.218
▁이욕	-11.218
▁여일	-11.2181
▁간섭하여	-11.2181
▁모순	-11.2182
포에	-11.2189
▁업장	-11.2189
▁교운	-11.2191
▁흘	-11.2191
▁고금	-11.2193
▁수용하시	-11.2193
▁상주	-11.2195
▁발동	-11.2195
▁지조	-11.2198
▁수호	-11.2199
화상	-11.2202
명덕	-11.2202
▁복록	-11.2204
편의	-11.2207
대강령	-11.2209
▁사무쳐	-11.2209
▁꾸	-11.2213
▁충	-11.2213
▁어그러지	-11.2216
▁빛나	-11.2218
▁외도들	-11.2219
▁달사	-11.222
▁주착심	-11.222
▁진여	-11.2221
▁살려	-11.2221
▁북	-11.2221
▁신망	-11.2221
▁추위	-11.2222
▁찰나	-11.2225
▁항마	-11.2226
▁무량수	-11.2227
▁고백하	-11.2228
▁증애	-11.2229
▁춘추	-11.223
이까	-11.2233
▁육년	-11.2235
▁측	-11.2235
▁계룡산	-11.2236
▁출가하	-11.2238
▁인의화	-11.2239
▁있사와	-11.224
▁여러분	-11.2241
변산	-11.2241
▁되리니	-11.2242
▁입혔다	-11.2243
▁터이니	-11.2244
▁대각여래위	-11.2245
▁동령	-11.2248
▁보물	-11.2248
건물	-11.2249
▁배운다	-11.2252
▁교세	-11.2253
못자리	-11.2253
▁공금	-11.2254
▁부호	-11.2255
▁각처	-11.2257
▁물으	-11.2257
▁수입이	-11.2257
석에	-11.2257
▁심중	-11.2257
죽었다	-11.2257
▁다니다가	-11.2258
▁정금	-11.2258
전주	-11.2259
영령	-11.2264
▁발견하고	-11.2265
▁골라지	-11.227
▁능력으로	-11.2271
▁얻는다	-11.2271
▁실업	-11.2274
▁괴로와	-11.2274
▁근로	-11.2276
▁음해	-11.2276
▁서에서	-11.2277
▁내려가	-11.2279
▁유가에서	-11.2281
▁생계	-11.2283
았으며	-11.2283
▁못함이	-11.2284
▁삼보	-11.229
▁지내며	-11.2293
▁공기	-11.2294
귀교	-11.2295
▁도화	-11.2296
▁산하	-11.2298
▁동일	-11.23
▁짧음	-11.23
▁자비로	-11.23
온하여	-11.2304
▁진심	-11.2308
▁서약하	-11.231
▁난리라	-11.2311
▁중도에	-11.2313
▁생활이며	-11.2315
▁못하였고	-11.2315
▁결제	-11.2317
▁금강산으로	-11.2321
▁뿐이옵	-11.2324
▁경지에	-11.2327
▁성취할	-11.2328
▁증거라	-11.2328
▁재산으로	-11.2332
▁선진자	-11.2334
▁헛되지	-11.2334
▁전신	-11.2336
▁자심	-11.2345
▁가까	-11.2346
▁심수	-11.2347
▁아직까지	-11.2355
▁거년	-11.2356
▁두미	-11.2357
▁수양이요	-11.2359
▁버린	-11.2359
▁산수	-11.236
▁시주	-11.2361
▁심령	-11.2363
▁통일시키	-11.237
▁기초	-11.2371
▁사천	-11.2378
▁팔년	-11.2379
▁분이라	-11.2379
응	-11.2384
▁무등	-11.2387
▁평시	-11.2391
▁짓는다	-11.2394
▁뜨기	-11.2394
▁수양하여	-11.2394
▁나무와	-11.2398
무애	-11.24
▁밀	-11.2401
▁정산	-11.2402
▁없었고	-11.2405
이러	-11.2408
삽더니	-11.241
▁육안	-11.2413
▁밝히는	-11.2414
▁병진되	-11.2415
▁집집	-11.2416
▁법력에	-11.2417
▁전날	-11.2425
▁삼교	-11.2426
▁생산	-11.2427
▁법만	-11.2435
▁융	-11.2435
▁사자	-11.244
▁근본이요	-11.2448
▁시시	-11.2457
▁보주	-11.2458
▁염려되	-11.2458
▁제공	-11.246
천만	-11.2461
▁만나고	-11.2463
태아	-11.2464
▁목적하	-11.2468
▁위태롭	-11.2468
▁붙는	-11.2471
▁전해지	-11.2472
설하는	-11.2472
생어	-11.2479
정각	-11.2484
▁모래	-11.2493
▁수화	-11.2494
▁가는데	-11.2496
▁제도하시	-11.2498
▁말한다면	-11.2499
▁금년	-11.2499
▁돌아와	-11.251
▁말하기	-11.2514
▁신심이라	-11.2515
▁매어	-11.2516
▁없는데	-11.2516
수행	-11.2517
▁지나가	-11.2519
▁갚고	-11.2536
▁중생상	-11.2538
▁상관	-11.2551
▁공장	-11.2551
▁돌아오나니라	-11.2553
▁도인인	-11.2554
▁표함이	-11.2555
▁차지하	-11.2564
▁범하여	-11.2566
▁이번	-11.2568
▁새벽에	-11.2569
수라	-11.2575
▁작음	-11.2576
▁동정간	-11.2578
▁이목	-11.2586
▁몽	-11.2587
▁곳곳	-11.2588
단심	-11.2597
▁마시	-11.2598
이제	-11.2602
하였다면	-11.2613
▁내려고	-11.2616
▁우월	-11.2625
▁떨어진	-11.2626
▁백성	-11.2627
▁악용	-11.2628
▁전기	-11.2629
▁믿는가	-11.2643
▁들었다	-11.2643
▁사마	-11.2647
▁좌선으로	-11.2647
행할	-11.2649
▁조만	-11.2654
▁근래	-11.2658
▁불제자로	-11.2664
▁나간다	-11.2675
▁사모	-11.2678
▁교육이	-11.2682
▁촌	-11.2683
▁일관하	-11.2683
▁나아가서	-11.2684
▁벗어난	-11.2689
▁해석에	-11.2699
▁기념일	-11.2706
▁무명	-11.271
▁빠르	-11.2714
한들	-11.2721
하려고	-11.2723
▁허일	-11.2727
▁출신하	-11.2732
▁넘는	-11.2733
▁도는	-11.2735
▁법이며	-11.2738
▁근원이	-11.2738
▁수마	-11.2739
▁부산	-11.2745
▁줄어	-11.2745
▁하나이나	-11.2749
▁야	-11.275
是佛	-11.2752
▁근실하여	-11.2753
▁유람	-11.2754
인으로	-11.2757
▁공부심	-11.2757
▁무애	-11.2763
▁자금	-11.2767
▁그때	-11.2777
▁자리요	-11.2779
▁가는지라	-11.2784
▁부르시	-11.2787
▁울리	-11.2787
▁모시지	-11.2793
▁두었	-11.2795
▁그르지	-11.2796
▁일성	-11.2797
리까	-11.2803
비하	-11.2805
▁7	-11.2811
하더라	-11.2812
▁품기	-11.2813
▁통일하	-11.2816
▁이참	-11.2829
▁기식	-11.2829
▁환경이	-11.2838
▁필	-11.2849
▁약이	-11.2853
▁금전이	-11.2855
▁요약하	-11.2855
▁것같이	-11.2858
▁문답이	-11.2858
▁어려우리	-11.286
움이	-11.2862
▁벗어나고	-11.2873
▁일천	-11.2883
▁담당하였	-11.2887
▁당대에	-11.2896
▁사람에	-11.2916
▁부인	-11.2925
▁불조들	-11.2925
우고	-11.2925
▁간절하	-11.2928
망이	-11.293
▁이면에	-11.2934
▁주의할지	-11.2937
제일	-11.2938
▁한문	-11.2942
▁사랑에	-11.2959
할진대	-11.297
▁결심하	-11.2974
▁내생에	-11.2975
▁옥	-11.2982
▁주었다	-11.2985
▁애착심	-11.2994
▁솔	-11.2999
▁외도	-11.3004
▁신앙하	-11.3029
▁구년	-11.3035
▁집착하지	-11.3048
으시	-11.3053
선하여	-11.3073
▁하였는데	-11.3102
▁전통	-11.3102
▁없애기	-11.311
▁증	-11.3113
가고	-11.3115
▁없었다	-11.3132
▁정법이	-11.3133
▁일반이	-11.3153
▁없어	-11.3153
▁통함	-11.3158
▁해당	-11.317
▁만리	-11.3171
정에	-11.3175
▁후진들로	-11.3178
▁무난하	-11.3186
▁연속	-11.3191
▁최	-11.3205
▁잡히	-11.3211
▁간섭하	-11.3213
▁선진들로	-11.3222
▁산이	-11.3224
▁도덕으로	-11.3234
▁허사	-11.3235
▁쌓기	-11.3238
▁만났으	-11.3239
▁키	-11.3242
기념상	-11.3246
▁이루고	-11.3246
▁주니	-11.3283
▁빠지지	-11.3285
▁법률이	-11.3288
▁지으	-11.3293
주에	-11.3302
▁주자	-11.3308
▁열반하	-11.3318
▁강연	-11.3332
실하여	-11.3357
▁이치로	-11.3359
▁편안하기	-11.3375
▁대요	-11.3378
▁피은자	-11.3389
겠노	-11.3389
▁사원에	-11.3391
▁길들여	-11.3394
▁태중에	-11.3433
▁복종하여	-11.3436
▁운행되	-11.3454
▁등에	-11.3469
▁유정	-11.3488
▁전주	-11.3495
▁놓고도	-11.3497
▁이르는	-11.3498
화하여	-11.3498
▁연도	-11.3504
▁문의하	-11.3506
시라	-11.3509
▁괴	-11.3514
▁교단에	-11.3516
▁많아지	-11.3523
▁우로	-11.3523
▁높이	-11.3524
▁사대	-11.3529
▁얻으면	-11.3533
품이	-11.3544
▁일미	-11.3556
▁청하면	-11.356
▁좋아하지	-11.356
▁시키기	-11.3562
▁권면하기	-11.3567
▁이루어지	-11.3575
천도에	-11.3582
▁효도	-11.3586
▁기동하	-11.3589
인화	-11.3604
▁갚는	-11.3625
▁일까지	-11.3655
▁여기시	-11.3659
자니	-11.3669
▁황	-11.3672
▁받아서	-11.3679
▁생활하	-11.3691
▁바는	-11.3692
▁연구해	-11.3693
▁위치	-11.3711
산업부에	-11.3719
▁되시	-11.3727
▁예배	-11.373
자들	-11.3734
▁부수	-11.3737
▁전개하였	-11.375
도끼	-11.3756
▁보아야	-11.3758
▁등한시	-11.3764
▁거기에서	-11.3771
령이	-11.3778
▁힘들	-11.3781
▁비방하	-11.3793
▁들어오	-11.3807
▁음식이	-11.3826
▁마음이며	-11.3826
▁만생	-11.3832
압하	-11.3837
▁매고	-11.3855
▁아상	-11.3859
▁도심	-11.3865
▁불공법	-11.3866
▁없사	-11.3887
▁주위	-11.3893
▁먹여	-11.3905
▁밝았	-11.3907
▁갈리	-11.3916
치라	-11.3935
▁모시기	-11.3941
▁보호하	-11.3942
▁무리들	-11.396
▁철없	-11.3965
▁베풀었	-11.3997
성경	-11.3998
▁보내기	-11.4003
섭하	-11.4006
▁사원	-11.4007
▁이렇	-11.4032
인은	-11.4053
나지	-11.4057
▁년이	-11.4061
▁받으면	-11.4086
▁복음	-11.4104
▁자재하	-11.4135
▁돌아가는	-11.4136
▁가림	-11.4137
▁신앙에	-11.4137
▁병원에	-11.4158
까운	-11.4163
▁회	-11.4176
▁그것이니	-11.4177
▁발하	-11.4182
상설	-11.4197
이를	-11.4202
▁좌선하	-11.4203
비비	-11.4228
▁마을	-11.4229
▁자비심	-11.4246
▁정신만	-11.4259
▁감수하	-11.4265
하였노니	-11.427
▁악하나	-11.4282
▁먹으	-11.4289
▁켜	-11.4302
▁듣는다	-11.4306
▁신앙심	-11.433
▁얻을지	-11.4335
▁그르	-11.4359
▁서원이	-11.436
업으로	-11.4374
▁숙	-11.4383
▁받았으	-11.4389
▁공부법	-11.4391
되었다	-11.4398
▁참조하	-11.4405
수성	-11.4411
▁향상되	-11.4423
▁유용하	-11.4433
약하여	-11.4434
▁차지	-11.4437
방하기	-11.4456
▁부처님이시	-11.4466
법이	-11.4486
▁사랑하시	-11.4505
▁못하리	-11.452
▁가니	-11.4537
펴서	-11.4547
▁중이라	-11.4552
▁오해	-11.4555
▁이해하여	-11.4556
▁진리로	-11.4561
▁한편	-11.4574
들어	-11.459
병인	-11.4595
▁큼	-11.4627
▁높아	-11.4629
들에	-11.4668
▁존경하	-11.469
▁본분이	-11.469
▁들으시	-11.4709
▁곳이라	-11.4711
▁든	-11.4726
▁염불이라	-11.4727
▁재계	-11.4732
리요마는	-11.4748
▁옳으니	-11.4763
▁대어	-11.4764
▁세우기	-11.4764
인들이	-11.4767
▁시사	-11.4774
▁철인	-11.4779
▁신인이	-11.4784
▁남용하	-11.4794
▁분분	-11.4798
▁일이며	-11.4806
▁생각한	-11.4808
추고	-11.4809
▁말하는	-11.482
▁막지	-11.4869
▁한시	-11.4894
▁움	-11.4902
▁유로	-11.4902
▁놀다	-11.4909
▁법력	-11.4923
▁생각이라	-11.4925
▁보나	-11.496
빠지고	-11.4963
▁칭찬하	-11.4964
진한	-11.4965
▁말이요	-11.4967
으시고	-11.4974
▁넘어	-11.4989
순이	-11.4998
▁유감이	-11.5002
마치	-11.5005
▁극도	-11.5007
겠다	-11.5074
▁법률은	-11.5082
▁일경	-11.5108
였다	-11.5121
▁자재하시	-11.5126
말씀하시기를	-11.5128
▁의리	-11.5129
▁꾸짖으시	-11.5131
▁호의	-11.5144
▁살았	-11.5153
▁과중하	-11.5161
지로	-11.5165
▁기약하	-11.517
▁대기	-11.5177
러지	-11.5181
▁도중	-11.5184
▁하겠노	-11.5194
▁창립하	-11.5197
▁받으시	-11.5219
▁주임	-11.5251
▁불시	-11.5257
▁단원에	-11.5288
▁수행이	-11.5288
르치기	-11.531
▁시서	-11.5312
▁거칠어	-11.5326
기나	-11.5331
▁침노	-11.536
▁견고	-11.5369
무무	-11.5374
도무	-11.5375
▁바라다	-11.5387
▁간이	-11.5395
▁성공하	-11.5401
▁원심	-11.5408
어나	-11.5414
▁살리는	-11.5429
▁조리	-11.5432
▁다니나니	-11.5446
▁잠들	-11.5465
▁발표하	-11.5513
▁친근하	-11.5544
되면	-11.5548
▁장중	-11.556
▁귀의	-11.5579
▁특성이	-11.5616
▁편의	-11.5629
▁아기	-11.563
태자	-11.5632
▁허송하	-11.5635
사하고	-11.5636
▁심하여	-11.564
▁끼	-11.5648
▁깊어	-11.5651
성신	-11.5654
▁공부인들	-11.566
▁종교계	-11.5692
▁못하거니	-11.5752
오거	-11.5777
자나	-11.5778
▁운영	-11.5783
▁짐승이	-11.5811
▁천년이	-11.5817
▁슬퍼	-11.5833
제중	-11.5844
▁낙이라	-11.5848
▁보은자	-11.5863
▁쉬어	-11.5865
相生	-11.5873
生相	-11.5873
▁뵈옵는	-11.5877
▁보전하	-11.589
▁전무출신이	-11.5899
▁늙어	-11.5929
▁났	-11.5957
▁띠시	-11.5968
사망	-11.5971
▁것이옵	-11.5978
▁앉았	-11.6007
▁담박하	-11.6008
▁제정하였	-11.601
승이	-11.6014
해하지	-11.6021
▁수습	-11.6033
▁악해	-11.6038
무아	-11.6039
▁허송	-11.6042
물들	-11.6053
▁정하	-11.6069
▁필요하	-11.6073
▁제법	-11.6078
습으로	-11.6079
▁인가	-11.608
▁숭상	-11.6083
시었으나	-11.6096
▁없으셨	-11.6096
▁추측하	-11.6124
▁친근	-11.614
낮으로	-11.6157
▁왔나니	-11.6159
▁악심	-11.6162
였는가	-11.6202
▁활발	-11.6209
내려고	-11.6223
▁발견하였	-11.6228
총부	-11.6231
▁두신	-11.6239
났으	-11.6243
▁요란	-11.6253
버린	-11.6257
▁읽어	-11.6275
▁합리	-11.6282
더	-11.6319
▁침노하	-11.6328
성품	-11.6356
▁만족하기	-11.6385
▁건설한	-11.6398
▁작업에	-11.64
▁지도인이	-11.6402
▁이만	-11.641
▁찬란	-11.6419
▁거칠	-11.642
▁사람일	-11.6421
▁생기기	-11.6437
▁겨울이	-11.6459
▁나타난다	-11.6474
음으로	-11.6486
▁견고하	-11.6487
십여	-11.6488
아질	-11.6499
였	-11.6509
색이	-11.6515
명리	-11.6522
▁인하	-11.6531
문이	-11.6533
산에	-11.6536
행이	-11.6548
▁그려	-11.6603
▁등한하	-11.6614
양하며	-11.662
▁적절하	-11.6628
▁선하여	-11.6655
안으로	-11.667
▁주심	-11.6676
▁닦는다	-11.669
정으로	-11.6693
▁없더라	-11.6729
▁융통하	-11.6737
▁초가	-11.6741
▁되어지	-11.6743
▁해하여	-11.6754
득하여	-11.676
▁하나님이	-11.6786
그들	-11.6799
▁있은	-11.6803
을지니	-11.6803
업이	-11.6811
▁감동시	-11.6817
▁온다	-11.6864
을지라	-11.6874
▁하루에	-11.6896
▁입선하	-11.6899
▁열으	-11.6907
무와	-11.6909
▁때문	-11.6929
으시다가	-11.6931
하오나	-11.6954
지기	-11.6967
▁인도하기	-11.6994
▁들려	-11.7001
▁중하	-11.7013
▁중지	-11.7014
▁없는가	-11.7023
때	-11.7029
답이	-11.7055
▁남용	-11.706
▁쳐	-11.7123
▁주시었으	-11.7131
사자	-11.7131
▁사지	-11.7154
▁가난하	-11.7183
었는지라	-11.7193
▁갑이	-11.7197
시킴이	-11.7203
▁데리	-11.7204
▁노인	-11.7214
▁애석하	-11.724
▁감각이	-11.7265
▁본원이	-11.7278
▁어리석지	-11.7286
리었으나	-11.7291
하리요마는	-11.7301
응하	-11.7324
▁달에	-11.7336
것만으로	-11.7362
심하여	-11.7365
▁악인	-11.7389
▁활동하	-11.7411
▁존대하	-11.7413
▁성품이	-11.7431
하심이	-11.7436
공부하	-11.7481
어내기	-11.7496
▁유용	-11.7505
▁교화하	-11.7507
았느냐	-11.7561
였으니	-11.7569
▁밑	-11.7573
▁하겠으	-11.7582
▁박멸	-11.7583
▁대과	-11.7624
▁가난이	-11.7629
▁믿기	-11.7631
▁당연함이어	-11.7631
▁존숭	-11.7633
겠으나	-11.7662
▁분의	-11.767
곧	-11.769
▁마는	-11.7703
인에게	-11.7724
▁배우기	-11.7724
철도	-11.7735
원에서	-11.7783
▁은인	-11.7786
웠	-11.781
▁알으시나	-11.7815
▁헌신한	-11.7824
▁전일하	-11.7829
버리	-11.7834
시면서	-11.7837
▁감수	-11.7865
▁발휘	-11.7868
▁노력하여	-11.7879
▁가득하	-11.7891
▁소유하	-11.7895
련	-11.7912
▁물들	-11.7965
▁풍기	-11.799
천도	-11.799
▁읽으	-11.7998
▁따름이니	-11.8078
▁크나니	-11.8088
▁살생하	-11.809
▁이용되	-11.8092
▁좋겠	-11.8104
러운	-11.8128
▁끝마	-11.8167
▁생각하시	-11.8205
하냐	-11.8245
으시더니	-11.8258
항	-11.8321
▁정해	-11.8343
또한	-11.8365
행하여	-11.8395
▁기사	-11.8413
▁두시	-11.8453
▁무성하	-11.8462
▁평등	-11.8474
▁안주	-11.848
도인에게	-11.8481
▁싶어	-11.8507
▁법설이	-11.8521
▁허다하	-11.8523
▁실내	-11.8563
▁싸움이	-11.8564
미륵불	-11.8572
▁넓어	-11.862
을지언정	-11.8749
행하려니와	-11.8762
정신	-11.8765
▁쌓으	-11.8798
▁삼았	-11.8808
▁구족하	-11.8808
▁심리	-11.8809
영혼에	-11.8843
▁있을지	-11.885
망하지	-11.887
▁간섭	-11.8909
▁길들	-11.8928
▁주저	-11.8945
수도	-11.8959
사로	-11.8961
▁선중	-11.8971
▁주문이	-11.8974
▁청정하	-11.8995
▁들어보	-11.9012
▁복종	-11.9039
▁교인	-11.9059
사원	-11.9068
진인	-11.9077
변하	-11.9092
조는	-11.9112
▁살기	-11.9113
▁빼앗으	-11.9132
우자	-11.9173
들에서	-11.9202
당하는	-11.9212
▁생심	-11.9223
시는데	-11.9255
▁입교하	-11.9274
동방	-11.9277
다시	-11.9301
대하여	-11.9301
기화	-11.9305
▁만났	-11.9305
▁당하였	-11.9326
별	-11.9326
▁놓으	-11.9329
▁태중	-11.9337
오는	-11.935
▁분명하여	-11.9352
▁병원	-11.9376
받	-11.9387
무에	-11.9405
그러나	-11.9407
되며	-11.9444
가에	-11.945
덕이	-11.9473
사업	-11.9475
하옵	-11.9499
▁수천	-11.9502
▁인간락이	-11.9511
▁이곳	-11.9517
것으로	-11.9522
▁보내시	-11.9529
웠으	-11.9542
▁내역이	-11.9566
표한	-11.9577
초가	-11.9592
▁도원	-11.9594
▁없나	-11.9595
▁아까	-11.9598
▁좌우되	-11.9606
▁오심	-11.961
위의	-11.9611
▁탁태하	-11.9613
▁지옥이	-11.9615
사람에게	-11.9624
▁지니	-11.9657
것과	-11.9672
▁그러하나니	-11.9679
▁보답	-11.9697
▁가려	-11.9699
우시고	-11.9702
▁바이니	-11.9703
해하여	-11.972
▁건설하는	-11.9726
▁길가	-11.9741
성하여	-11.9741
험하	-11.9789
▁행실이	-11.9817
▁영정	-11.9819
사은	-11.9823
▁되었사오	-11.9831
▁양성하나니	-11.9832
▁수선하	-11.9868
▁나로	-11.9874
경계	-11.9884
▁무난	-11.9896
▁제정하	-11.9912
▁먹기	-11.9917
▁권면하	-11.9919
▁간절	-11.9935
곳	-11.9941
자리	-11.9971
▁죄벌	-11.9973
▁유념하	-11.9976
함인가	-11.9982
하온	-12.0017
▁막아	-12.0018
▁문답	-12.0023
▁편착하	-12.0027
▁금전	-12.007
▁결과이니	-12.0096
받는	-12.0101
난다면	-12.0115
이었	-12.0115
안에	-12.0133
▁유지하	-12.0136
▁조성하	-12.0141
▁수행하	-12.0144
스승	-12.015
하겠	-12.0159
크게	-12.0189
▁천인이	-12.0203
느	-12.0206
▁근실하	-12.0216
▁선법	-12.0245
염불	-12.0247
권도	-12.0256
▁각오	-12.0256
돌아오	-12.0264
한지라	-12.027
경전	-12.0278
심만	-12.0282
약자	-12.0293
실행	-12.031
범하	-12.0313
▁지도한다	-12.0368
수양	-12.0378
▁중지하	-12.039
욕이	-12.0415
일이나	-12.0416
▁집중시	-12.0449
일체	-12.0452
보살	-12.0461
▁선이	-12.0498
욕	-12.0508
된다	-12.0513
착	-12.0522
후에	-12.0528
▁과장하	-12.053
었다고	-12.054
▁나간다면	-12.0549
지혜	-12.0571
▁구애	-12.0585
▁은의	-12.0601
▁천지같	-12.0632
만물	-12.0637
잡	-12.0648
되는지라	-12.0653
교화	-12.0679
▁정당하	-12.068
열한	-12.0685
자력	-12.0691
▁일정	-12.0698
원래	-12.0706
먹	-12.0727
그런즉	-12.0735
▁애착이	-12.0738
남에게	-12.0758
대개	-12.0768
재산	-12.0785
쉬	-12.0792
▁소멸	-12.0795
특별	-12.08
▁진리적	-12.0819
▁여기나니	-12.0821
법신불	-12.0828
▁깊으	-12.0833
응용	-12.0839
경이	-12.0839
욕심	-12.0841
벌	-12.0856
대종사께	-12.0857
물의	-12.0863
눈	-12.0866
밀	-12.0883
완전	-12.0886
▁아니하였	-12.0895
▁생각되	-12.0899
총부에	-12.0901
▁선생이니	-12.091
방면으로	-12.0922
창립	-12.0923
쓸	-12.0923
▁놓았	-12.0928
생이	-12.0946
사람으로서	-12.0955
대할	-12.096
밖에	-12.0962
팔	-12.0965
낮	-12.0973
▁옳으	-12.0974
리하여	-12.0981
통하여	-12.0996
탈	-12.0999
있으므로	-12.1
돌아	-12.1004
같나니	-12.1015
육근	-12.1029
돈	-12.1031
무엇이	-12.1033
心性	-12.1038
▁법문이	-12.1039
진하여	-12.1041
났	-12.1043
없다	-12.1045
금강산	-12.1048
▁상대하	-12.1054
그릇	-12.1062
출가	-12.1063
놓아	-12.1064
보시	-12.1073
정법	-12.1082
삼아	-12.1083
수양력	-12.1085
▁그러할	-12.1087
▁일관	-12.1087
▁그러하오	-12.1094
쉽	-12.1095
리며	-12.1095
력에	-12.1097
맞	-12.1108
선악	-12.1109
身如	-12.1109
▁유의	-12.1114
할지니	-12.1115
준	-12.1122
작업	-12.1126
▁쓰시	-12.1133
정정	-12.1138
▁사랑이면	-12.1147
보려	-12.1148
▁이루기	-12.1154
받을	-12.1156
그것이	-12.1169
무궁	-12.1172
잠	-12.1173
▁피하	-12.118
앞에서	-12.1184
환	-12.1186
어디	-12.1189
응하고	-12.119
시간	-12.1192
오르는	-12.1196
▁취함	-12.1197
버	-12.1203
기술	-12.1204
박람회	-12.1204
▁수확하	-12.1205
걸	-12.121
▁말씀이니	-12.1211
후일에	-12.1211
탐착	-12.1221
조건	-12.1228
온전	-12.124
흉	-12.1242
시나	-12.1246
무엇으로	-12.1252
춤	-12.1253
상극	-12.1255
제도	-12.1256
쌍전	-12.1257
▁강기	-12.1258
손	-12.1259
너무	-12.1261
생전	-12.1262
석두	-12.1263
▁손상하	-12.1267
듣	-12.1269
생명	-12.127
것만	-12.127
되었으며	-12.1271
분간	-12.1278
시불	-12.1281
비로	-12.1284
영신	-12.1285
일생	-12.1287
하나님	-12.1291
보통급	-12.1293
줌	-12.1294
본위	-12.1294
대각여래위	-12.1296
▁입혔	-12.1299
영광	-12.13
영육	-12.1301
당초	-12.1305
법마상전급	-12.1308
꾸	-12.131
보이기	-12.1311
깨	-12.1311
특신급	-12.1314
백성	-12.1315
측	-12.1315
계룡산	-12.1316
알음알이	-12.1318
아직까지	-12.1319
신통	-12.1319
구인	-12.1319
▁원칙이	-12.1323
춘풍	-12.1324
으시니	-12.1324
일월	-12.1328
이웃	-12.1329
세존	-12.1332
임이	-12.1336
버려	-12.1338
경편차	-12.134
산돼지	-12.134
진강급	-12.134
선승	-12.134
▁옹	-12.1341
춘추	-12.1341
가마귀	-12.1342
천도재	-12.1343
터이니	-12.1344
북	-12.1345
증애	-12.1346
귀천	-12.1346
유가에서	-12.1347
밤	-12.1347
빛이	-12.135
고로	-12.1352
법위	-12.1353
삼보	-12.1355
완철	-12.1357
아침	-12.1359
청춘	-12.1359
구하여	-12.136
진급	-12.136
걸려	-12.1361
꺼	-12.1366
희망	-12.1366
예수교	-12.1367
팔산	-12.1368
음광	-12.1369
병자	-12.137
초목	-12.137
등급	-12.1371
재래	-12.1372
태극	-12.1372
잠자	-12.1374
장차	-12.1374
▁맞으	-12.1375
증산	-12.1376
편으로	-12.1378
었으므로	-12.1378
살이	-12.1383
그럴	-12.1385
되려니와	-12.1386
청풍	-12.1386
였다면	-12.1387
부호	-12.1389
각처	-12.1389
▁하옵는	-12.1391
억	-12.1394
인의화	-12.1394
거울	-12.1398
하는데	-12.1399
주문	-12.1402
폐	-12.1403
봄	-12.1404
쓰고	-12.1404
채	-12.1407
전문	-12.1408
경중	-12.1411
흘	-12.1412
성현	-12.1414
대체	-12.1415
▁지라	-12.1416
말이	-12.1417
금년	-12.1419
다니다가	-12.1423
전생	-12.1426
식당	-12.1428
흐	-12.1432
수만	-12.1438
몰	-12.1441
감상	-12.1443
▁않았	-12.1449
진화	-12.145
우리에게	-12.1452
당시	-12.1454
떠나	-12.1458
최상	-12.146
적적	-12.1462
음식	-12.1465
▁알아내	-12.1467
여래위	-12.1477
애착심	-12.1478
염	-12.148
선종	-12.1486
정산	-12.1489
줌이	-12.1489
찰나	-12.1507
▁정심	-12.1508
음양	-12.1509
완	-12.151
살펴	-12.1526
일경	-12.1527
▁부합	-12.1546
육년	-12.1551
세의	-12.1559
어난다면	-12.1563
매일	-12.1564
▁따르지	-12.1564
산수	-12.1571
잡히	-12.1576
육조	-12.1577
장단	-12.1579
▁월	-12.158
유상	-12.1584
불경	-12.1586
구함	-12.1588
따	-12.1588
곳이	-12.1605
▁얽매	-12.1613
재산이	-12.1614
무량	-12.1617
은의	-12.1619
▁위주	-12.1625
극락	-12.1629
▁공것	-12.163
정심	-12.1638
▁윗	-12.1643
▁칠	-12.1648
아까	-12.1654
두어	-12.1659
삽	-12.1662
오라	-12.1664
?	-12.1673
▁갔	-12.1674
조각	-12.1678
온다	-12.1678
▁마나니	-12.1685
우리들	-12.169
보았	-12.1709
▁적나니	-12.171
멸도	-12.1713
졌	-12.1714
화신	-12.1715
람	-12.1727
였으므로	-12.1732
주인	-12.1747
되도록	-12.1757
일일	-12.176
이고	-12.1762
▁생각하기	-12.1777
유심	-12.1793
하겠다	-12.1793
▁일꾼	-12.1801
릇	-12.1818
활	-12.1819
▁박식	-12.182
되나니	-12.1826
▁잊어버	-12.1829
▁겨	-12.1837
우러	-12.184
▁폐물	-12.1842
▁여섯	-12.1843
제하	-12.1844
▁횡	-12.1849
사이에	-12.1857
▁쌍	-12.1861
▁하는지	-12.1864
▁지었	-12.1876
▁24	-12.1878
속하며	-12.1895
파들	-12.1898
습하기	-12.19
▁뿌	-12.1906
수신	-12.1911
꾼	-12.1912
악도	-12.1913
정사	-12.1919
▁하나이	-12.1919
정성	-12.1924
천상	-12.1927
찍	-12.1928
님	-12.193
섯	-12.1931
▁세밀	-12.1931
▁자존	-12.1932
▁어떻	-12.1933
▁양계	-12.1936
▁있거니	-12.1938
▁잘되	-12.1938
▁즐	-12.1938
▁접응	-12.1938
칙	-12.1945
▁옮	-12.1946
슴	-12.1947
▁보았는	-12.1948
▁뻗	-12.195
▁식구	-12.1952
혁	-12.1952
였으되	-12.1953
렵	-12.1953
앙	-12.1957
▁헤	-12.196
0.	-12.1961
다닌	-12.1962
프	-12.1962
쇄	-12.1962
겼	-12.1963
▁빨	-12.1963
쾌	-12.1963
▁솟	-12.1964
▁아름	-12.1964
▁올챙이	-12.1964
냥	-12.1965
렁	-12.1966
▁고혈	-12.1966
爲	-12.1966
▁낭	-12.1966
▁부르는	-12.1966
言語	-12.1967
룩	-12.1967
供	-12.1967
團	-12.1967
現	-12.1967
휘	-12.1967
於	-12.1967
率	-12.1968
剛	-12.1968
납	-12.1968
닫	-12.1968
府	-12.1968
淸	-12.1968
羅	-12.1968
演	-12.1968
盖	-12.1968
푸	-12.1969
太	-12.1969
右	-12.1969
壑	-12.1969
퇴	-12.1969
▁훼	-12.1969
滅	-12.1969
衣	-12.1969
룡	-12.1969
峰	-12.1969
使	-12.1969
便	-12.1969
倒	-12.1969
兩	-12.1969
冥	-12.1969
卵	-12.1969
堂	-12.1969
尼	-12.1969
展	-12.1969
徒	-12.1969
必	-12.1969
惶	-12.1969
捐	-12.1969
政	-12.1969
更	-12.1969
染	-12.1969
滿	-12.1969
漸	-12.1969
濕	-12.1969
牟	-12.1969
環	-12.1969
硏	-12.1969
聽	-12.1969
諸	-12.1969
賴	-12.1969
透	-12.1969
顚	-12.1969
兵	-12.1969
池	-12.1969
閔	-12.1969
丁	-12.1969
也	-12.1969
乾	-12.1969
云	-12.1969
亡	-12.1969
仰	-12.1969
仲	-12.1969
侍	-12.1969
保	-12.1969
倍	-12.1969
候	-12.1969
健	-12.1969
儀	-12.1969
共	-12.1969
冠	-12.1969
凡	-12.1969
刀	-12.1969
初	-12.1969
別	-12.1969
則	-12.1969
副	-12.1969
劉	-12.1969
匠	-12.1969
午	-12.1969
半	-12.1969
危	-12.1969
卽	-12.1969
古	-12.1969
吉	-12.1969
向	-12.1969
吾	-12.1969
呂	-12.1969
告	-12.1969
味	-12.1969
咳	-12.1969
哀	-12.1969
啓	-12.1969
嗔	-12.1969
嗽	-12.1969
嘉	-12.1969
坤	-12.1969
執	-12.1969
基	-12.1969
堅	-12.1969
塗	-12.1969
失	-12.1969
奸	-12.1969
姦	-12.1969
婦	-12.1969
嫁	-12.1969
嫡	-12.1969
存	-12.1969
季	-12.1969
守	-12.1969
官	-12.1969
容	-12.1969
富	-12.1969
寒	-12.1969
射	-12.1969
將	-12.1969
尋	-12.1969
對	-12.1969
少	-12.1969
尸	-12.1969
島	-12.1969
巧	-12.1969
巨	-12.1969
巾	-12.1969
帝	-12.1969
帥	-12.1969
席	-12.1969
幀	-12.1969
幽	-12.1969
庭	-12.1969
庶	-12.1969
庸	-12.1969
影	-12.1969
待	-12.1969
復	-12.1969
怒	-12.1969
怠	-12.1969
急	-12.1969
恭	-12.1969
悉	-12.1969
悌	-12.1969
悔	-12.1969
悖	-12.1969
患	-12.1969
惠	-12.1969
想	-12.1969
慾	-12.1969
憎	-12.1969
懷	-12.1969
手	-12.1969
才	-12.1969
技	-12.1969
拓	-12.1969
指	-12.1969
捕	-12.1969
授	-12.1969
掌	-12.1969
掛	-12.1969
提	-12.1969
換	-12.1969
摩	-12.1969
擧	-12.1969
收	-12.1969
救	-12.1969
旣	-12.1969
昏	-12.1969
暢	-12.1969
曆	-12.1969
曠	-12.1969
最	-12.1969
服	-12.1969
望	-12.1969
柔	-12.1969
柳	-12.1969
査	-12.1969
梭	-12.1969
棲	-12.1969
樓	-12.1969
歌	-12.1969
此	-12.1969
殼	-12.1969
河	-12.1969
泰	-12.1969
流	-12.1969
浪	-12.1969
淵	-12.1969
湖	-12.1969
湯	-12.1969
漢	-12.1969
瀾	-12.1969
炭	-12.1969
烈	-12.1969
爭	-12.1969
猜	-12.1969
甑	-12.1969
由	-12.1969
畜	-12.1969
當	-12.1969
疎	-12.1969
癸	-12.1969
百	-12.1969
益	-12.1969
盧	-12.1969
睡	-12.1969
矢	-12.1969
短	-12.1969
磨	-12.1969
社	-12.1969
祈	-12.1969
祭	-12.1969
禱	-12.1969
秋	-12.1969
稟	-12.1969
種	-12.1969
積	-12.1969
穩	-12.1969
穴	-12.1969
符	-12.1969
篤	-12.1969
米	-12.1969
紂	-12.1969
終	-12.1969
線	-12.1969
緩	-12.1969
縛	-12.1969
縱	-12.1969
織	-12.1969
繼	-12.1969
續	-12.1969
聊	-12.1969
聞	-12.1969
職	-12.1969
肇	-12.1969
膏	-12.1969
臣	-12.1969
與	-12.1969
舒	-12.1969
舟	-12.1969
般	-12.1969
船	-12.1969
良	-12.1969
苑	-12.1969
若	-12.1969
菜	-12.1969
董	-12.1969
蓮	-12.1969
蘿	-12.1969
號	-12.1969
衡	-12.1969
覽	-12.1969
計	-12.1969
訓	-12.1969
訥	-12.1969
註	-12.1969
詞	-12.1969
證	-12.1969
警	-12.1969
議	-12.1969
谷	-12.1969
豪	-12.1969
財	-12.1969
貧	-12.1969
責	-12.1969
貴	-12.1969
資	-12.1969
賢	-12.1969
赤	-12.1969
起	-12.1969
跋	-12.1969
踏	-12.1969
車	-12.1969
軍	-12.1969
轍	-12.1969
辨	-12.1969
近	-12.1969
迷	-12.1969
速	-12.1969
逢	-12.1969
遠	-12.1969
部	-12.1969
都	-12.1969
醍	-12.1969
釋	-12.1969
銀	-12.1969
鎬	-12.1969
閻	-12.1969
關	-12.1969
防	-12.1969
陀	-12.1969
附	-12.1969
除	-12.1969
隙	-12.1969
隨	-12.1969
險	-12.1969
隱	-12.1969
雜	-12.1969
難	-12.1969
靖	-12.1969
韻	-12.1969
須	-12.1969
領	-12.1969
額	-12.1969
顔	-12.1969
顯	-12.1969
飢	-12.1969
飴	-12.1969
餓	-12.1969
餘	-12.1969
뉘	-12.1969
▁떳	-12.1969
亂	-12.1969
京	-12.1969
俱	-12.1969
兜	-12.1969
冷	-12.1969
凝	-12.1969
列	-12.1969
勒	-12.1969
君	-12.1969
員	-12.1969
囑	-12.1969
城	-12.1969
央	-12.1969
妙	-12.1969
導	-12.1969
岫	-12.1969
廣	-12.1969
弱	-12.1969
怨	-12.1969
息	-12.1969
戶	-12.1969
扶	-12.1969
敷	-12.1969
斷	-12.1969
早	-12.1969
昊	-12.1969
易	-12.1969
晩	-12.1969
普	-12.1969
桀	-12.1969
樞	-12.1969
津	-12.1969
洽	-12.1969
液	-12.1969
災	-12.1969
班	-12.1969
症	-12.1969
盤	-12.1969
眷	-12.1969
矜	-12.1969
碧	-12.1969
程	-12.1969
竝	-12.1969
竹	-12.1969
網	-12.1969
舊	-12.1969
菩	-12.1969
薩	-12.1969
衍	-12.1969
裡	-12.1969
觸	-12.1969
課	-12.1969
謹	-12.1969
豫	-12.1969
超	-12.1969
蹟	-12.1969
采	-12.1969
銓	-12.1969
院	-12.1969
隍	-12.1969
障	-12.1969
飮	-12.1969
宅	-12.1969
林	-12.1969
毁	-12.1969
破	-12.1969
葉	-12.1969
談	-12.1969
趙	-12.1969
鍾	-12.1969
협하	-12.1969
合	-12.1969
斛	-12.1969
景	-12.1969
溪	-12.1969
細	-12.1969
舌	-12.1969
跡	-12.1969
상전급	-12.1969
判	-12.1969
▁가르쳤	-12.197
응감	-12.1972
17	-12.1973
▁서북	-12.1974
전무출신이	-12.1975
16	-12.1978
▁있사온	-12.1982
靈肉	-12.1985
▁말씀하시	-12.1986
▁학교	-12.1988
원하는	-12.1989
안하라	-12.1991
경처	-12.1998
▁경편	-12.1999
승급	-12.2002
심수	-12.2004
▁불과하나	-12.2007
십육	-12.2008
과보	-12.2008
▁상근	-12.2016
圓相	-12.2017
감이니	-12.2017
하였음이	-12.2022
도가에서	-12.2023
렸다	-12.2023
공사	-12.2029
금강	-12.2032
닭이	-12.2032
달아	-12.2033
▁삼강	-12.2033
▁촉진하	-12.2034
해함이	-12.2043
中天	-12.2064
볼지	-12.2065
덕으로	-12.2065
학자들	-12.2071
▁하더	-12.2079
▁무궁하	-12.2084
근기	-12.2089
승들	-12.2096
▁되어가	-12.2096
게송	-12.2098
▁어두	-12.2105
▁하근	-12.2115
▁되었는지	-12.2121
구해	-12.2125
▁동남풍이	-12.2128
▁몰	-12.2142
▁정연	-12.2143
▁번거하	-12.216
▁동남	-12.2165
▁작업이	-12.2169
▁죽으	-12.217
다음	-12.2174
▁하감	-12.2177
어졌으	-12.218
전심	-12.2185
▁하근기	-12.219
영지	-12.2213
르쳐	-12.2219
근자	-12.222
▁노력하시	-12.2224
▁취함이	-12.2232
▁한결	-12.2234
▁대종	-12.2253
▁훈련시	-12.2257
었삽	-12.2264
침으로	-12.2267
▁거기	-12.2267
공자	-12.228
▁법강	-12.2295
▁전무	-12.2295
▁되리	-12.2301
불하는	-12.231
처하	-12.2314
상불	-12.2316
오시사	-12.2321
하든지	-12.2325
▁들었으	-12.233
기천	-12.2341
셨으	-12.2344
▁너그	-12.235
▁지남	-12.2363
중이	-12.2364
▁도량에	-12.2387
▁가지에	-12.2392
▁화려하	-12.2403
▁같으	-12.2416
량에	-12.2457
살피	-12.2463
림이라	-12.2472
회에	-12.2508
사리	-12.2524
사회에	-12.2525
동지	-12.2528
대에	-12.2533
▁대질	-12.2535
전시키	-12.256
과거에	-12.2562
▁발명	-12.2564
만세	-12.2568
▁하나인	-12.2573
▁내정	-12.2576
▁응용하여	-12.2581
너지	-12.2581
▁위로하시	-12.2584
▁뜻이니	-12.2596
▁삼대	-12.2605
여기	-12.2619
하처	-12.2631
시대에	-12.2647
이시니	-12.2652
대자	-12.2664
백하여	-12.2677
▁돌아다	-12.268
▁지키면	-12.2686
주고	-12.2699
여지고	-12.2712
▁춤	-12.2723
일까	-12.2729
운지라	-12.2733
성인	-12.2738
▁석두	-12.274
▁출세하	-12.2744
인데	-12.2773
▁정이니	-12.279
겁고	-12.2792
▁쌓은	-12.2796
▁일으	-12.2821
으오리까	-12.2826
척이	-12.2831
제자로	-12.2837
▁오래가	-12.2848
▁내나니	-12.287
거할	-12.287
▁원망이	-12.2911
▁못하니	-12.293
멸시	-12.2937
일기	-12.2943
구경하	-12.2969
세상이	-12.2979
부지	-12.2988
물질이	-12.3001
력하여	-12.3012
화로	-12.3015
▁탈	-12.302
의로	-12.3023
▁대하시	-12.308
나가는	-12.308
우로	-12.3111
사람과	-12.3119
오기	-12.3137
▁드나	-12.3158
▁보나니	-12.3161
▁보자	-12.32
족에	-12.3204
▁지극하	-12.3207
▁많나니	-12.3213
▁시행하	-12.3219
행으로	-12.3225
으셨	-12.326
칭찬하	-12.3264
▁생각하나	-12.3292
명이	-12.3307
법만	-12.3309
통과	-12.3322
응하여	-12.3334
▁미치지	-12.3339
불은	-12.3356
고는	-12.3361
▁법마	-12.3364
▁내기	-12.3366
▁왔으	-12.3382
▁근심하	-12.3432
▁권하	-12.3438
▁말아	-12.3462
심고	-12.3479
▁만대	-12.352
부니라	-12.3548
오셨다	-12.3575
▁사이로	-12.358
상에서	-12.3594
진자	-12.3622
이번	-12.363
여자	-12.363
▁분간하	-12.3665
려워	-12.3666
내리	-12.3667
이용하	-12.3678
주나	-12.3695
▁입으	-12.3695
장하여	-12.3702
아상	-12.3736
▁맺으	-12.3745
그만	-12.3792
택하	-12.3807
▁수도인에	-12.381
말에	-12.3845
▁아니하시는	-12.3856
수용하	-12.3885
존하	-12.3894
용하시	-12.3902
설에	-12.3906
▁오나니	-12.3911
정의	-12.3911
불급	-12.3921
▁잘한	-12.3922
▁축	-12.3924
▁언어도	-12.3926
▁살면	-12.3931
종사	-12.3936
각한	-12.398
무한	-12.401
식물	-12.4029
전하고	-12.4068
▁조사하	-12.4081
본이	-12.4084
▁하더라	-12.4098
▁하시었	-12.4112
▁가을	-12.4143
구한	-12.4155
▁불사	-12.4174
성만	-12.4198
▁안정하	-12.42
거에	-12.4209
관하	-12.4241
통이	-12.4247
분의	-12.4254
니와	-12.4255
궁을	-12.4273
▁책	-12.4328
하여지고	-12.4342
▁계속한	-12.4342
해수	-12.4346
▁못하다	-12.4358
선성	-12.437
▁것들	-12.4433
▁인증하	-12.4435
풍이	-12.4477
여도	-12.4497
부하여	-12.45
▁들어가시	-12.4512
달리	-12.4554
▁사의	-12.4608
상하	-12.4624
▁상도	-12.4662
직이	-12.4705
나오며	-12.4723
리나니	-12.473
▁위주하	-12.4757
치로	-12.4779
이오나	-12.4788
저들	-12.4807
두시	-12.4846
나일지	-12.488
선으로	-12.4916
확하	-12.4951
▁곡	-12.4994
지중	-12.4996
나서	-12.5044
들어가	-12.5057
공이	-12.5061
번이	-12.5113
▁인사하	-12.5114
도령이	-12.5145
기어	-12.5152
▁다정	-12.5161
만유	-12.5166
▁방탕하	-12.5183
었노	-12.5354
▁예에	-12.5367
하시는데	-12.5377
원수	-12.5383
없	-12.5456
급할	-12.5469
▁편착	-12.5508
착이	-12.5531
▁되었노	-12.5542
▁있나	-12.5592
▁할지	-12.5605
모로	-12.5653
위도	-12.5656
조로	-12.5684
▁같사	-12.5693
아리	-12.5695
도가에	-12.5708
소나	-12.5731
▁귀의하	-12.5777
▁그대들로	-12.5795
▁나나니	-12.5848
편지	-12.5881
▁사은이	-12.5889
달음	-12.5892
▁환영하	-12.5904
론이	-12.5912
신여	-12.5944
▁어기	-12.5993
▁걱정하	-12.6016
갈지	-12.6067
치기	-12.6141
어버리	-12.6146
▁불상에	-12.6148
물로	-12.6148
▁그러하거	-12.6177
▁고락이	-12.6179
어나고	-12.6221
▁도가에	-12.6278
우치	-12.6293
▁소개하	-12.6443
세로	-12.6474
으셨나니	-12.6488
▁철저하	-12.6528
안이	-12.6606
우리에	-12.663
▁죽었	-12.6667
사도	-12.6682
어난	-12.6743
▁이적	-12.6772
녀들	-12.6852
미하여	-12.6868
▁예로	-12.6886
▁불안하	-12.6985
▁먹이	-12.7019
식이니	-12.7055
옵는	-12.7072
▁없기	-12.7222
기에서	-12.7243
▁깨우	-12.7271
있나니	-12.7292
할지	-12.7327
▁맞을	-12.7328
들이나니	-12.7345
들이나	-12.7422
하였사오	-12.745
▁보리	-12.7465
▁동포에	-12.7514
▁가는지	-12.7552
▁견성이	-12.7586
질이	-12.7635
령하	-12.7745
었을	-12.7748
문에	-12.7752
▁하였더	-12.7803
것이니	-12.7808
▁어떠하오	-12.7845
▁공부니	-12.7863
▁제조하	-12.7884
명에	-12.7897
▁방심하	-12.7939
어지는	-12.7941
▁상한	-12.7974
금이	-12.8005
▁자가	-12.8059
▁행한	-12.8161
취하나니	-12.8183
▁터인	-12.8258
련하	-12.8324
▁투	-12.8363
가는지라	-12.8368
▁교에	-12.8392
▁문의	-12.8403
의하여	-12.8488
하시나	-12.8529
▁해탈하	-12.8552
진수	-12.8563
진다면	-12.8765
▁잡는	-12.8778
정당	-12.8787
▁어찌하	-12.8855
나라	-12.888
▁아나	-12.902
▁와	-12.9037
▁선량	-12.9083
▁절하	-12.9112
▁두르	-12.9112
전하는	-12.9115
▁각각이	-12.9213
▁말리	-12.9274
▁증명하	-12.9304
르치나니	-12.9335
업인	-12.9349
▁많사오	-12.9364
설만	-12.9438
▁생각에	-12.9618
▁소견이	-12.9698
▁전공하	-12.9721
자로	-12.9803
▁먹은	-12.9826
정하였	-12.9891
▁넉넉하	-13.0037
▁가자	-13.0114
주함이	-13.0166
부러	-13.0442
▁은	-13.0492
가시	-13.0515
▁그물	-13.0566
하셨	-13.0702
▁하였나이	-13.0717
로는	-13.0727
▁무간하	-13.0746
착하지	-13.0965
풀기	-13.1012
교인이	-13.1154
▁갚기	-13.1179
▁잃어버	-13.1267
▁회복하	-13.1311
화하는	-13.1415
이온데	-13.1416
▁고집하	-13.1435
사물	-13.1442
도라	-13.1468
어지	-13.1471
그로	-13.1569
명의	-13.161
장함	-13.1655
들로	-13.1697
되었사오	-13.1749
해에	-13.1827
화함	-13.1925
▁오르더	-13.2006
복되	-13.2053
▁채굴하	-13.2077
▁보다	-13.2164
▁사업하	-13.227
들이기	-13.2307
▁가지라	-13.2386
▁등지	-13.2461
▁명랑하	-13.2471
람이	-13.249
▁설치하	-13.2493
세에	-13.2692
은지라	-13.2713
겠	-13.276
▁서에	-13.2789
▁초조하	-13.2795
이여	-13.2839
일에	-13.2864
▁인의	-13.2927
▁요란하	-13.2941
▁개과하	-13.3042
▁증득하	-13.3056
▁습	-13.3095
이에	-13.3154
▁못하오	-13.3221
▁죄송하	-13.3262
세웠	-13.3263
되기	-13.3371
어함	-13.3499
▁쇠약하	-13.3571
▁낮으	-13.3867
▁무념하	-13.3912
▁열리었	-13.3956
▁더하	-13.4119
제까지	-13.4286
▁지기	-13.4559
▁바이	-13.4574
행해	-13.4614
식이라	-13.4615
▁하셨사	-13.4632
▁건축하	-13.4735
▁어렵나	-13.4893
시로	-13.4941
▁부모에	-13.5018
이지	-13.5207
어진	-13.5253
▁수양하	-13.5345
▁좌우하	-13.5403
귀일	-13.5441
르며	-13.5447
픔	-13.5532
팥	-13.5533
티	-13.5534
클	-13.5535
컬	-13.5536
찢	-13.5537
읊	-13.5538
엎	-13.5539
쌀	-13.554
숲	-13.5541
셈	-13.5542
섬	-13.5543
섞	-13.5544
삭	-13.5545
쁨	-13.5546
볍	-13.5547
뤄	-13.5548
딸	-13.5549
둠	-13.555
돕	-13.5551
덩	-13.5552
늦	-13.5553
냈	-13.5554
냄	-13.5555
꾀	-13.5556
껍	-13.5557
깐	-13.5558
굉	-13.5559
鮮	-13.556
頂	-13.5561
霜	-13.5562
雪	-13.5563
貢	-13.5564
謀	-13.5565
薦	-13.5566
背	-13.5567
第	-13.5568
究	-13.5569
獻	-13.557
焉	-13.5571
決	-13.5572
朝	-13.5573
夫	-13.5574
切	-13.5575
何	-13.5576
횡	-13.5577
획	-13.5578
혔	-13.5579
틈	-13.558
잦	-13.5581
썩	-13.5582
뻗	-13.5583
뻐	-13.5584
빨	-13.5585
묶	-13.5586
똥	-13.5587
덮	-13.5588
덜	-13.5589
▁이루리	-13.559
꽃	-13.559
라서	-13.5591
갱	-13.5591
雙	-13.5592
誓	-13.5593
碍	-13.5594
涅	-13.5595
注	-13.5596
槃	-13.5597
훼	-13.5598
훌	-13.5599
폭	-13.56
콩	-13.5601
젊	-13.5602
잎	-13.5603
싹	-13.5604
솥	-13.5605
뱀	-13.5606
밑	-13.5607
륭	-13.5608
룬	-13.5609
렀	-13.561
띠	-13.5611
넣	-13.5612
낭	-13.5613
練	-13.5614
昭	-13.5615
흠	-13.5616
퀴	-13.5617
좁	-13.5618
젖	-13.5619
윗	-13.562
솟	-13.5621
붓	-13.5622
떼	-13.5623
둑	-13.5624
돋	-13.5625
늙	-13.5626
갔	-13.5627
흡	-13.5628
협	-13.5629
당하	-13.563
트	-13.563
탑	-13.5631
칼	-13.5632
촌	-13.5633
렷	-13.5634
뒷	-13.5635
둡	-13.5636
돼	-13.5637
꿈	-13.5638
곱	-13.5639
겪	-13.564
검	-13.5641
걷	-13.5642
퍼	-13.5643
얽	-13.5644
붕	-13.5645
냉	-13.5646
낳	-13.5647
굽	-13.5648
겸	-13.5649
念	-13.565
헤	-13.5651
쥐	-13.5652
옮	-13.5653
엿	-13.5654
삿	-13.5655
빛	-13.5656
륵	-13.5657
홉	-13.5658
홀	-13.5659
짧	-13.566
빌	-13.5661
흩	-13.5662
헛	-13.5663
옹	-13.5664
숨	-13.5665
뛰	-13.5666
읽	-13.5667
싸	-13.5668
셋	-13.5669
맺	-13.567
맹	-13.5671
끗	-13.5672
틀	-13.5673
앗	-13.5674
압	-13.5675
빼	-13.5676
밥	-13.5677
긋	-13.5678
촉	-13.5679
떳	-13.568
논	-13.5681
혈	-13.5682
쌍	-13.5683
붙	-13.5684
뜨	-13.5685
녹	-13.5686
헌	-13.5687
짖	-13.5688
옷	-13.5689
뿌	-13.569
빚	-13.5691
롯	-13.5692
굳	-13.5693
밭	-13.5694
맡	-13.5695
커	-13.5696
이거든	-13.5697
윤	-13.5697
베	-13.5698
밟	-13.5699
맑	-13.57
넓	-13.5701
갚	-13.5702
싶	-13.5703
멀	-13.5704
높	-13.5705
넘	-13.5706
끄	-13.5707
총	-13.5708
놀	-13.5709
레	-13.571
닭	-13.5711
넉	-13.5712
걱	-13.5713
탕	-13.5714
앉	-13.5715
묻	-13.5716
머	-13.5717
챙	-13.5718
흔	-13.5719
펴	-13.572
웃	-13.5721
닦	-13.5722
잊	-13.5723
섭	-13.5724
풀	-13.5725
첫	-13.5726
찬	-13.5727
쌓	-13.5728
싫	-13.5729
옳	-13.573
빠	-13.5731
끝	-13.5732
짐	-13.5733
벗	-13.5734
뒤	-13.5735
뵈	-13.5736
잃	-13.5737
닌	-13.5738
탐	-13.5739
떨	-13.574
찾	-13.5741
즐	-13.5742
숭	-13.5743
떻	-13.5744
끊	-13.5745
밖	-13.5746
규	-13.5747
렇	-13.5748
접	-13.5749
깊	-13.575
률	-13.5751
얼	-13.5752
특	-13.5753
새	-13.5754
엇	-13.5755
0	-13.5756
땅	-13.5757
았	-13.5758
믿	-13.5759
겨	-13.576
쓰	-13.5761
크	-13.5762
끌	-13.5763
익	-13.5764
밝	-13.5765
출	-13.5766
앞	-13.5767
먼	-13.5768
째	-13.5769
힘	-13.577
놓	-13.5771
뜻	-13.5772
떠	-13.5773
돌	-13.5774
좋	-13.5775
쭙	-13.5776
않	-13.5777
많	-13.5778
얻	-13.5779
므	-13.578
르	-13.5781
알	-13.5782
같	-13.5783
씀	-13.5784
▁오래되	-13.5785
으	-13.5785
