<unk>	0
<s>	0
</s>	0
▁이	-0
▁것	-1
▁하	-2
▁그	-3
▁사	-4
▁대	-5
▁것이	-6
▁말	-7
으로	-8
▁일	-9
하여	-10
▁있	-11
니라	-12
기를	-13
하시	-14
▁가	-15
▁아	-16
▁[	-17
종사	-18
▁없	-19
▁사람	-20
▁정	-21
하고	-22
▁자	-23
▁공	-24
▁되	-25
▁말씀	-26
▁마	-27
▁다	-28
하는	-29
▁수	-30
하시기를	-31
▁세	-32
.]	-33
▁말씀하시기를	-34
▁교	-35
▁지	-36
▁한	-37
▁보	-38
▁어	-39
▁법	-40
▁모	-41
▁주	-42
▁생	-43
▁마음	-44
▁나	-45
▁기	-46
▁부	-47
▁제	-48
▁1	-49
▁도	-50
▁때	-51
나니	-52
▁인	-53
▁바	-54
▁원	-55
에는	-56
▁것이요	-57
▁만	-58
▁아니	-59
에서	-60
▁못	-61
▁성	-62
▁불	-63
▁무	-64
이요	-65
▁중	-66
▁2	-67
▁우	-68
▁또	-69
▁여	-70
에게	-71
▁모든	-72
▁천	-73
이라	-74
▁대종사	-75
▁같	-76
▁시	-77
▁위	-78
▁동	-79
▁할	-80
▁오	-81
▁경	-82
▁알	-83
▁전	-84
▁공부	-85
▁선	-86
▁받	-87
▁3	-88
▁영	-89
▁종사	-90
▁서	-91
▁내	-92
▁신	-93
나니라	-94
므로	-95
▁고	-96
▁큰	-97
▁조	-98
▁진	-99
▁우리	-100
▁잘	-101
▁세상	-102
▁4	-103
▁삼	-104
▁않	-105
▁「	-106
하면	-107
하지	-108
.」	-109
▁회	-110
▁의	-111
▁사람이	-112
▁얻	-113
▁대산	-114
▁실	-115
▁해	-116
▁상	-117
▁따	-118
▁구	-119
▁그러	-120
하게	-121
▁하는	-122
▁종	-123
▁후	-124
▁소	-125
▁없는	-126
▁더	-127
▁발	-128
▁등	-129
▁비	-130
▁곧	-131
▁거	-132
▁있는	-133
하며	-134
▁길	-135
▁열	-136
하였	-137
▁가지	-138
▁들	-139
▁개	-140
▁부처	-141
▁새	-142
▁세계	-143
▁행	-144
▁생각	-145
▁5	-146
이니	-147
▁각	-148
▁근	-149
째는	-150
▁본	-151
으며	-152
▁회상	-153
▁참	-154
▁연	-155
▁하여	-156
▁유	-157
▁물	-158
이니라	-159
▁심	-160
이다	-161
▁많	-162
▁따라	-163
▁살	-164
▁정신	-165
으나	-166
이나	-167
▁두	-168
▁것이니라	-169
▁남	-170
느니라	-171
▁예	-172
리라	-173
께서	-174
▁당	-175
▁계	-176
▁방	-177
▁같이	-178
▁하고	-179
리를	-180
▁것은	-181
지라	-182
▁미	-183
▁사업	-184
▁스	-185
들이	-186
▁하나	-187
▁장	-188
▁또한	-189
▁안	-190
▁과	-191
▁마음을	-192
대종사	-193
어서	-194
▁힘	-195
었다	-196
운데	-197
▁돌	-198
▁뜻	-199
▁재	-200
▁함	-201
▁그대	-202
▁것이니	-203
▁복	-204
▁저	-205
▁가운데	-206
▁때에	-207
▁혹	-208
들은	-209
▁것이며	-210
하야	-211
▁데	-212
▁부처님	-213
▁생활	-214
▁반	-215
▁좋	-216
▁항	-217
▁결	-218
▁것을	-219
19	-220
▁일을	-221
▁처	-222
▁설	-223
시고	-224
▁서로	-225
▁자기	-226
▁될	-227
▁단	-228
▁통	-229
▁분	-230
▁사람은	-231
▁어찌	-232
▁6	-233
▁평	-234
▁때에는	-235
▁교단	-236
▁적	-237
도록	-238
▁그러므로	-239
▁깨	-240
▁밝	-241
▁중생	-242
▁명	-243
▁대중	-244
▁국	-245
7.	-246
▁먼	-247
아서	-248
▁다시	-249
▁몸	-250
▁입	-251
▁편	-252
▁차	-253
▁감	-254
심을	-255
▁일원	-256
▁앞	-257
▁관	-258
자는	-259
하기	-260
▁이는	-261
다면	-262
▁병	-263
(19	-264
▁육	-265
▁없이	-266
으로써	-267
으면	-268
도를	-269
▁먼저	-270
▁문	-271
▁또는	-272
▁배	-273
▁크	-274
▁강	-275
▁출	-276
▁마음이	-277
▁일이	-278
▁능	-279
▁줄	-280
▁항상	-281
▁죄	-282
나이다	-283
리는	-284
심이	-285
8.	-286
▁더욱	-287
▁간	-288
▁허	-289
▁봉	-290
▁화	-291
인이	-292
▁은	-293
▁양	-294
▁건	-295
력을	-296
▁만일	-297
▁사람의	-298
▁둘	-299
▁제자	-300
▁노	-301
▁2.	-302
▁되어	-303
▁총	-304
▁천지	-305
▁드	-306
▁순	-307
들의	-308
▁되고	-309
9.	-310
▁요	-311
▁1.	-312
0.	-313
▁종교	-314
▁있나니	-315
▁청	-316
▁초	-317
▁없고	-318
까지	-319
▁되는	-320
▁집	-321
▁어떠	-322
▁하면	-323
▁하였	-324
▁번	-325
▁작	-326
▁3.	-327
1.	-328
▁이루	-329
▁권	-330
불교	-331
사를	-332
▁법을	-333
▁특	-334
▁놓	-335
▁근본	-336
▁형	-337
으니	-338
▁악	-339
▁있고	-340
다가	-341
▁일체	-342
▁여러	-343
하나니	-344
▁창	-345
▁학	-346
▁세상에	-347
▁훈	-348
▁이름	-349
▁돌아	-350
▁스승	-351
▁이것	-352
▁"	-353
▁위하여	-354
2.	-355
리요	-356
에도	-357
▁이치	-358
오니	-359
▁표	-360
인의	-361
▁매	-362
부터	-363
성을	-364
자의	-365
▁경계	-366
▁원기	-367
로써	-368
▁열반	-369
▁변	-370
지라도	-371
3.	-372
다는	-373
▁부모	-374
▁기운	-375
▁취	-376
▁不	-377
리고	-378
▁날	-379
4.	-380
어지	-381
이시	-382
▁4.	-383
▁하시	-384
▁길이	-385
리가	-386
▁나타	-387
▁도를	-388
▁맞	-389
거나	-390
하되	-391
▁산	-392
▁말고	-393
▁준	-394
자가	-395
▁있어서	-396
5.	-397
▁‘	-398
기에	-399
하신	-400
▁교화	-401
▁다른	-402
▁수도	-403
▁오직	-404
▁제도	-405
▁하며	-406
라도	-407
▁이를	-408
▁곳	-409
▁태	-410
▁합	-411
▁들어	-412
▁믿	-413
스로	-414
▁어느	-415
▁많이	-416
▁스스로	-417
▁쓰	-418
연히	-419
▁ᄋ	-420
▁운	-421
▁크게	-422
▁달	-423
▁공부를	-424
▁아니하고	-425
▁그것	-426
▁원만	-427
▁지도	-428
▁사람을	-429
6.	-430
▁역	-431
▁온	-432
▁첫	-433
▁수행	-434
▁약	-435
▁훈련	-436
하였다	-437
▁아니라	-438
▁친	-439
하라	-440
든지	-441
▁자리	-442
▁끊	-443
▁닦	-444
어야	-445
▁죽	-446
▁능히	-447
▁금	-448
상을	-449
▁어떠한	-450
▁않는	-451
▁속	-452
시에	-453
▁시대	-454
신불	-455
▁보고	-456
▁하느니라	-457
▁활	-458
이며	-459
▁점	-460
▁인연	-461
▁가르	-462
▁사회	-463
▁외	-464
菩提	-465
▁도덕	-466
▁은혜	-467
▁갖	-468
원을	-469
▁아무	-470
▁좋은	-471
▁귀	-472
▁막	-473
▁5.	-474
▁경우	-475
▁못하	-476
▁네	-477
생의	-478
▁보면	-479
▁올	-480
▁짓	-481
법을	-482
▁같은	-483
▁교당	-484
▁무슨	-485
▁진리	-486
▁하지	-487
▁원불교	-488
▁직	-489
▁되었	-490
▁광	-491
▁잡	-492
식을	-493
▁아는	-494
▁못하고	-495
▁찾	-496
▁동지	-497
▁바로	-498
▁있다	-499
▁우리의	-500
▁정신을	-501
▁대종사께서	-502
▁듣	-503
드시	-504
이까	-505
▁모르	-506
▁정산	-507
▁되나니라	-508
▁박	-509
기가	-510
함이	-511
▁혜	-512
되는	-513
▁신앙	-514
▁여래	-515
▁천하	-516
하여야	-517
▁착	-518
▁현	-519
▁비록	-520
이시여	-521
▁반드시	-522
▁우리는	-523
▁떠	-524
▁이르	-525
마는	-526
어나	-527
▁영원	-528
▁목	-529
▁많은	-530
▁누	-531
보리	-532
생을	-533
의를	-534
▁치	-535
▁것과	-536
▁사은	-537
▁끌	-538
▁범	-539
하옵	-540
▁못한	-541
대로	-542
▁6.	-543
▁내가	-544
▁실행	-545
▁덕	-546
▁응	-547
▁체	-548
▁추	-549
들을	-550
법사	-551
아야	-552
▁과거	-553
▁염	-554
▁여쭙	-555
리지	-556
▁못할	-557
▁여쭙기를	-558
▁존	-559
함을	-560
▁버	-561
도에	-562
으시	-563
에서는	-564
▁이것이	-565
▁증	-566
보살	-567
치는	-568
▁가정	-569
▁7	-570
▁{	-571
漢文	-572
▁걸	-573
▁깊	-574
▁드러	-575
▁절	-576
▁혹은	-577
나이까	-578
으므로	-579
衆生	-580
당한	-581
▁되나니	-582
▁승	-583
▁교육	-584
▁뜻을	-585
▁어려	-586
▁자기의	-587
▁如	-588
▁기관	-589
▁받는	-590
▁않고	-591
▁알고	-592
이라도	-593
▁하나니	-594
▁몇	-595
업을	-596
▁기념	-597
▁나의	-598
들에게	-599
▁너	-600
되어	-601
▁동안	-602
▁법신불	-603
월에	-604
▁국가	-605
▁수양	-606
▁밖	-607
▁최	-608
▁타	-609
▁나라	-610
함이요	-611
▁종법사	-612
▁된	-613
▁손	-614
▁있을	-615
▁是	-616
음을	-617
▁자신	-618
▁뒤	-619
▁송	-620
▁알지	-621
▁임	-622
▁확	-623
는가	-624
사람	-625
▁대한	-626
須菩提	-627
▁若	-628
기로	-629
▁것도	-630
▁데에	-631
▁본래	-632
▁청정	-633
▁생활을	-634
▁대종사의	-635
▁인류	-636
▁아니하	-637
▁좌	-638
▁책	-639
리어	-640
▁계속	-641
▁모두	-642
▁지금	-643
▁그러나	-644
▁쉬	-645
▁얼	-646
▁음	-647
니다	-648
하사	-649
▁7.	-650
▁주의	-651
▁특별	-652
▁하늘	-653
▁언	-654
다고	-655
▁공덕	-656
▁주시	-657
하시고	-658
▁대하여	-659
▁세상을	-660
▁축	-661
▁ᄋᄋ	-662
▁건설	-663
▁교도	-664
▁발전	-665
▁묻	-666
기도	-667
노라	-668
지는	-669
▁그대들은	-670
사에	-671
▁각각	-672
▁우주	-673
▁주는	-674
▁낙	-675
거든	-676
나는	-677
해야	-678
▁이러	-679
▁지혜	-680
▁진리를	-681
▁완	-682
▁용	-683
력이	-684
▁총부	-685
적으로	-686
지를	-687
▁보은	-688
하기를	-689
▁동시에	-690
기는	-691
명을	-692
▁연구	-693
▁욕	-694
소서	-695
임을	-696
▁관계	-697
문을	-698
▁가히	-699
▁경전	-700
▁말을	-701
▁사뢰	-702
▁힘을	-703
▁마음에	-704
▁앞으로	-705
▁피	-706
회를	-707
▁무엇	-708
▁이와	-709
▁조금	-710
▁것이라	-711
▁업	-712
▁충	-713
성이	-714
▁대각	-715
).	-716
하자	-717
▁서원	-718
▁각자의	-719
▁하시고	-720
▁회상의	-721
▁뿐	-722
▁마땅	-723
▁받들	-724
▁육신	-725
▁처음	-726
▁마음으로	-727
▁바가	-728
▁사업을	-729
▁있으나	-730
▁글	-731
▁쌓	-732
▁어렵	-733
▁이에	-734
▁須菩提	-735
▁우리가	-736
▁자유	-737
▁함께	-738
사의	-739
서는	-740
출신	-741
▁창립	-742
▁19	-743
▁심고	-744
무출신	-745
▁땅	-746
▁바라	-747
▁위해	-748
▁하라	-749
▁無	-750
▁끝	-751
▁백	-752
▁식	-753
보다	-754
일에	-755
▁8.	-756
▁길을	-757
▁노력	-758
▁만물	-759
▁법이	-760
▁있으며	-761
▁사람에게	-762
다운	-763
▁마땅히	-764
▁희	-765
되고	-766
▁나는	-767
▁새로	-768
▁제일	-769
▁부처님의	-770
그대	-771
태산	-772
▁받아	-773
▁이상	-774
▁이어	-775
▁이러한	-776
▁회상을	-777
▁그런	-778
▁등을	-779
▁마치	-780
▁불교	-781
▁되리라	-782
▁견	-783
▁널	-784
▁셋	-785
▁환	-786
▁사이	-787
▁일에	-788
▁잘못	-789
가는	-790
사가	-791
▁갖추	-792
▁널리	-793
▁세우	-794
▁함은	-795
▁둘째는	-796
▁불보살	-797
▁以	-798
▁및	-799
▁포	-800
▁필	-801
간의	-802
▁중앙	-803
▁통하여	-804
▁망	-805
▁잊	-806
▁향	-807
▁호	-808
▁사용	-809
▁이제	-810
▁하셨	-811
심으로	-812
▁그대로	-813
▁소태산	-814
▁아무리	-815
▁규	-816
▁넘	-817
▁혼	-818
하나	-819
▁10	-820
▁상대	-821
▁이익	-822
▁천만	-823
▁애	-824
리니	-825
▁방법	-826
▁연고	-827
▁이치를	-828
▁중생이	-829
▁9.	-830
▁떠나	-831
▁성품	-832
보리야	-833
▁있느니라	-834
▁답	-835
▁먹	-836
▁다음	-837
▁만나	-838
▁불공	-839
▁알아	-840
▁일반	-841
▁있어	-842
▁자성	-843
▁준비	-844
더니	-845
로서	-846
생에	-847
지에	-848
▁물질	-849
▁복을	-850
▁성공	-851
▁오래	-852
께서는	-853
▁정성을	-854
▁전무출신	-855
▁·	-856
▁佛	-857
▁떨	-858
▁면	-859
▁철	-860
▁깨달	-861
▁도가	-862
▁이해	-863
▁출가	-864
▁것으로	-865
▁것이다	-866
▁독	-867
▁잃	-868
상이	-869
시키	-870
인가	-871
인은	-872
▁보시	-873
▁이미	-874
▁인도	-875
▁자연	-876
▁좋아	-877
으리라	-878
▁영원한	-879
▁자연히	-880
▁9	-881
▁농	-882
▁돈	-883
느냐	-884
음이	-885
전에	-886
▁시방	-887
▁오늘	-888
▁인과	-889
▁작은	-890
▁알아서	-891
▁사뢰기를	-892
▁할지라도	-893
▁得	-894
거늘	-895
▁받을	-896
하니	-897
▁대도	-898
▁배우	-899
▁교단의	-900
▁가장	-901
▁바르	-902
▁불법	-903
▁자녀	-904
▁생각이	-905
▁於	-906
▁벗	-907
한다	-908
▁거행	-909
▁나아	-910
▁몸을	-911
▁받게	-912
▁얻어	-913
▁일은	-914
▁평화	-915
▁극	-916
▁즐	-917
래에	-918
리까	-919
리에	-920
예문	-921
▁동포	-922
▁말며	-923
▁가지고	-924
▁경계를	-925
▁마음의	-926
▁자리를	-927
▁하나니라	-928
▁탐	-929
▁폐	-930
는데	-931
지가	-932
▁지키	-933
▁기운이	-934
▁돌아오	-935
▁세계를	-936
하나니라	-937
),	-938
▁卽	-939
▁김	-940
▁말라	-941
▁책임	-942
오리까	-943
▁묻기를	-944
▁일원상	-945
명이	-946
▁바른	-947
▁못하는	-948
▁있어야	-949
▁一	-950
▁개인	-951
▁시작	-952
▁있었	-953
▁활용	-954
▁10.	-955
▁눈	-956
주의	-957
▁듣고	-958
▁만들	-959
론하고	-960
▁잠	-961
▁헌	-962
문에	-963
▁기도	-964
▁아닌	-965
▁표준	-966
한다면	-967
▁조금도	-968
▁첫째는	-969
▁높	-970
▁늘	-971
▁쉽	-972
같이	-973
경을	-974
자를	-975
▁얻게	-976
▁도리어	-977
▁머	-978
이지	-979
하려	-980
▁남의	-981
▁되지	-982
▁삼학	-983
▁있게	-984
▁지내	-985
하리라	-986
떻게	-987
물을	-988
없는	-989
▁마침	-990
▁밝히	-991
▁보살	-992
▁염불	-993
▁나타나	-994
▁있으면	-995
▁민	-996
계를	-997
니와	-998
면서	-999
▁공을	-1000
▁다섯	-1001
▁대로	-1002
▁얻을	-1003
▁영가	-1004
▁유무	-1005
▁정성	-1006
▁허공	-1007
사람이	-1008
▁세상의	-1009
▁사람들이	-1010
▁꾸	-1011
▁벌	-1012
▁옛	-1013
▁익	-1014
위단	-1015
이고	-1016
정을	-1017
▁강령	-1018
▁이가	-1019
▁차차	-1020
▁원만한	-1021
간에	-1022
교의	-1023
내가	-1024
락을	-1025
와서	-1026
치고	-1027
▁명예	-1028
▁물건	-1029
▁수가	-1030
▁어른	-1031
▁조직	-1032
옵소서	-1033
하자는	-1034
▁볼	-1035
과를	-1036
로다	-1037
인을	-1038
▁말이	-1039
▁얻는	-1040
▁없을	-1041
▁직접	-1042
▁되었다	-1043
▁안으로	-1044
▁은혜를	-1045
▁막론하고	-1046
▁아니하여	-1047
▁8	-1048
▁何	-1049
▁까	-1050
라는	-1051
▁가는	-1052
▁나를	-1053
▁바탕	-1054
▁성현	-1055
▁실천	-1056
▁주신	-1057
▁해야	-1058
(196	-1059
▁정신이	-1060
▁갈	-1061
도다	-1062
▁공경	-1063
▁다만	-1064
▁원광	-1065
▁하게	-1066
▁일어나	-1067
▁참다운	-1068
▁빠	-1069
▁십	-1070
▁팔	-1071
져서	-1072
▁고로	-1073
▁누구	-1074
▁두루	-1075
▁무량	-1076
▁사랑	-1077
▁시비	-1078
▁얼마	-1079
▁자비	-1080
▁정진	-1081
사오니	-1082
▁11.	-1083
▁사업에	-1084
▁참으로	-1085
▁있나니라	-1086
.’	-1087
▁맡	-1088
▁묘	-1089
▁숭	-1090
들도	-1091
부처	-1092
세의	-1093
없이	-1094
옵고	-1095
요한	-1096
정한	-1097
▁나오	-1098
▁남녀	-1099
▁생령	-1100
▁설법	-1101
▁찾아	-1102
▁하되	-1103
▁한다	-1104
▁후에	-1105
▁어떻게	-1106
▁난	-1107
라고	-1108
복을	-1109
▁대해	-1110
▁미리	-1111
▁사실	-1112
▁아래	-1113
▁장차	-1114
더라도	-1115
음이요	-1116
▁그러한	-1117
▁수위단	-1118
▁“	-1119
▁챙	-1120
마다	-1121
연구	-1122
적인	-1123
▁살아	-1124
▁선원	-1125
▁행동	-1126
월에는	-1127
하시되	-1128
▁모르는	-1129
▁생각을	-1130
▁없나니라	-1131
▁心	-1132
▁색	-1133
▁앉	-1134
대학	-1135
리와	-1136
법이	-1137
부로	-1138
시며	-1139
▁근원	-1140
▁까닭	-1141
▁매양	-1142
▁성취	-1143
▁정의	-1144
▁차별	-1145
겠는가	-1146
▁것이나	-1147
▁대중의	-1148
▁마침내	-1149
▁세째는	-1150
▁써	-1151
리의	-1152
사는	-1153
▁오는	-1154
▁주인	-1155
▁지방	-1156
▁대중에게	-1157
가지	-1158
리석	-1159
장이	-1160
진대	-1161
▁공중	-1162
▁남을	-1163
▁대조	-1164
▁뒤에	-1165
▁뜻이	-1166
▁있어서는	-1167
▁뿌	-1168
▁찬	-1169
▁풀	-1170
심과	-1171
함은	-1172
▁끊임	-1173
▁양성	-1174
▁정치	-1175
▁지극	-1176
▁천도	-1177
하였고	-1178
(195	-1179
▁빈	-1180
▁옳	-1181
되었	-1182
리오	-1183
수록	-1184
식이	-1185
지고	-1186
▁如來	-1187
▁그리	-1188
▁놓고	-1189
▁때는	-1190
▁성불	-1191
▁없게	-1192
▁완전	-1193
▁저희	-1194
▁주고	-1195
▁주로	-1196
▁평등	-1197
하므로	-1198
▁12.	-1199
▁받들어	-1200
▁사람도	-1201
▁행하는	-1202
부를	-1203
신을	-1204
위에	-1205
▁목적	-1206
▁보통	-1207
▁예를	-1208
▁의지	-1209
으로는	-1210
▁겸	-1211
▁베	-1212
▁빛	-1213
식의	-1214
호대	-1215
▁다르	-1216
▁되며	-1217
▁선을	-1218
▁아직	-1219
▁진실	-1220
▁나아가	-1221
▁따라서	-1222
▁못하면	-1223
▁아니요	-1224
▁어떠하	-1225
▁인하여	-1226
▁있으니	-1227
▁정당한	-1228
하였으며	-1229
▁사람들은	-1230
▁별	-1231
▁윤	-1232
▁효	-1233
▁흔	-1234
▁국한	-1235
▁법은	-1236
▁시간	-1237
▁의무	-1238
▁있으	-1239
▁해탈	-1240
지마는	-1241
▁스승님	-1242
▁없나니	-1243
▁일원의	-1244
▁천하의	-1245
▁하였다	-1246
▁하자는	-1247
▁되느니라	-1248
▁파	-1249
르는	-1250
이는	-1251
행을	-1252
▁감사	-1253
▁내지	-1254
▁영산	-1255
▁인간	-1256
▁인격	-1257
▁자력	-1258
▁정법	-1259
부처님	-1260
하기로	-1261
▁드러나	-1262
▁중생을	-1263
.[	-1264
▁질	-1265
그러	-1266
로는	-1267
부의	-1268
성가	-1269
에만	-1270
울러	-1271
화를	-1272
회의	-1273
▁닦는	-1274
▁단련	-1275
▁들으	-1276
▁수용	-1277
▁원망	-1278
▁조심	-1279
▁활동	-1280
▁13.	-1281
▁당하여	-1282
▁어리석	-1283
▁없으며	-1284
▁하여금	-1285
▁아니하면	-1286
)·	-1287
▁담	-1288
▁멀	-1289
▁판	-1290
장을	-1291
하셨	-1292
▁가져	-1293
▁밝은	-1294
▁보는	-1295
▁어린	-1296
▁없었	-1297
▁힘쓰	-1298
▁공부가	-1299
▁대중을	-1300
▁아울러	-1301
▁함부로	-1302
▁復	-1303
경에	-1304
오면	-1305
치지	-1306
▁날로	-1307
▁받은	-1308
▁얻지	-1309
▁전체	-1310
▁힘이	-1311
하사대	-1312
하시니	-1313
▁같아서	-1314
▁세계에	-1315
▁어려운	-1316
▁부처님께서	-1317
▁能	-1318
▁듯	-1319
▁묵	-1320
▁풍	-1321
世尊	-1322
물이	-1323
서를	-1324
움을	-1325
하다	-1326
▁당시	-1327
▁발견	-1328
▁밝혀	-1329
▁법계	-1330
▁보지	-1331
▁선진	-1332
▁성인	-1333
▁숭배	-1334
▁짓는	-1335
▁처리	-1336
▁공부와	-1337
▁공부의	-1338
▁세계의	-1339
▁경우에는	-1340
오며	-1341
지도	-1342
▁개벽	-1343
▁다스	-1344
▁단체	-1345
▁도인	-1346
▁되면	-1347
▁줄을	-1348
▁하루	-1349
되었다	-1350
이라고	-1351
▁14.	-1352
▁그것을	-1353
▁그것이	-1354
▁바르게	-1355
▁세계가	-1356
▁천지의	-1357
▁회상이	-1358
▁수보리야	-1359
▁걱	-1360
▁굳	-1361
▁토	-1362
업이	-1363
여래	-1364
회가	-1365
▁가진	-1366
▁교무	-1367
▁나무	-1368
▁법률	-1369
▁부터	-1370
▁서울	-1371
▁점점	-1372
▁중에	-1373
▁하신	-1374
어지고	-1375
으로서	-1376
하도록	-1377
하면서	-1378
하옵고	-1379
▁벗어나	-1380
▁인연을	-1381
▁하나는	-1382
▁見	-1383
▁급	-1384
▁녹	-1385
▁맑	-1386
▁습	-1387
리시	-1388
세계	-1389
소에	-1390
일이	-1391
쳐서	-1392
▁그렇	-1393
▁둘째	-1394
▁살펴	-1395
▁여기	-1396
▁행할	-1397
하거나	-1398
하시며	-1399
▁나에게	-1400
▁남에게	-1401
▁없으면	-1402
겠나이다	-1403
▁일원상을	-1404
하옵나이다	-1405
▁말씀하시되	-1406
▁『	-1407
▁년	-1408
▁왔	-1409
상의	-1410
생활	-1411
세에	-1412
통을	-1413
▁개척	-1414
▁걱정	-1415
▁것인	-1416
▁대표	-1417
▁방편	-1418
▁비롯	-1419
▁설립	-1420
▁세존	-1421
▁영광	-1422
▁위한	-1423
▁재주	-1424
▁좌선	-1425
▁진행	-1426
▁집안	-1427
▁초월	-1428
에서도	-1429
▁15.	-1430
▁되어야	-1431
▁새로운	-1432
▁아니할	-1433
▁특별한	-1434
▁하여야	-1435
▁낮	-1436
로운	-1437
만을	-1438
어진	-1439
위를	-1440
으신	-1441
▁12	-1442
▁결과	-1443
▁공도	-1444
▁금강	-1445
▁깊이	-1446
▁나가	-1447
▁도량	-1448
▁받지	-1449
▁범부	-1450
▁않을	-1451
▁의식	-1452
▁자주	-1453
▁주장	-1454
▁지은	-1455
▁첫째	-1456
▁특히	-1457
▁한결	-1458
로부터	-1459
하자면	-1460
▁사이에	-1461
▁얼마나	-1462
▁의하여	-1463
▁자리에	-1464
▁후에는	-1465
름이	-1466
지니	-1467
▁世尊	-1468
▁復有	-1469
▁견성	-1470
▁결국	-1471
▁귀의	-1472
▁미래	-1473
▁어디	-1474
▁일제	-1475
▁참회	-1476
▁크고	-1477
▁형상	-1478
▁화합	-1479
▁16.	-1480
▁경우에	-1481
▁끌리지	-1482
▁영원히	-1483
▁훈련을	-1484
▁괴	-1485
견을	-1486
도가	-1487
상에	-1488
중의	-1489
지의	-1490
▁글을	-1491
▁믿고	-1492
▁보라	-1493
▁사는	-1494
▁세워	-1495
▁알게	-1496
▁얻은	-1497
▁원래	-1498
▁일어	-1499
이라는	-1500
▁거기에	-1501
▁마음과	-1502
▁알아야	-1503
▁어렵고	-1504
▁회상에	-1505
▁말하기를	-1506
단을	-1507
려면	-1508
르고	-1509
생이	-1510
시어	-1511
언정	-1512
오나	-1513
이어	-1514
장에	-1515
재를	-1516
족한	-1517
▁가족	-1518
▁무념	-1519
▁번뇌	-1520
▁소유	-1521
▁않은	-1522
▁알뜰	-1523
▁어떤	-1524
▁일과	-1525
▁집착	-1526
하여도	-1527
▁17.	-1528
▁18.	-1529
▁떠나지	-1530
▁밖으로	-1531
▁버리고	-1532
▁종교의	-1533
▁주인이	-1534
▁같나니라	-1535
▁답하시기를	-1536
.”	-1537
],	-1538
▁(	-1539
▁빌	-1540
수를	-1541
일을	-1542
해서	-1543
▁20	-1544
▁거짓	-1545
▁그가	-1546
▁당할	-1547
▁뜻에	-1548
▁봉안	-1549
▁삼가	-1550
▁악한	-1551
▁앞에	-1552
▁열어	-1553
▁육근	-1554
▁이른	-1555
▁전에	-1556
지언정	-1557
▁경계에	-1558
▁공부요	-1559
▁구하는	-1560
▁대중이	-1561
▁도덕의	-1562
▁마음은	-1563
▁있으므로	-1564
▁有	-1565
▁넓	-1566
▁느	-1567
▁숨	-1568
러운	-1569
어도	-1570
의가	-1571
타원	-1572
▁곳에	-1573
▁길러	-1574
▁무궁	-1575
▁법의	-1576
▁병이	-1577
▁않게	-1578
▁언제	-1579
▁여섯	-1580
▁응용	-1581
▁이용	-1582
▁익산	-1583
▁일심	-1584
▁편안	-1585
▁19.	-1586
▁공부는	-1587
▁공부에	-1588
▁네째는	-1589
▁때에도	-1590
▁자기가	-1591
▁청정한	-1592
▁하나의	-1593
▁대종사께서는	-1594
▁멸	-1595
▁터	-1596
려서	-1597
전을	-1598
▁11	-1599
▁가까	-1600
▁공익	-1601
▁따로	-1602
▁받고	-1603
▁보내	-1604
▁삼고	-1605
▁선악	-1606
▁셋째	-1607
▁쓰는	-1608
▁연마	-1609
▁육도	-1610
▁입정	-1611
▁작용	-1612
▁저축	-1613
▁참된	-1614
▁힘써	-1615
건마는	-1616
▁드러내	-1617
▁이것을	-1618
▁중생의	-1619
▁공부하는	-1620
▁골	-1621
▁넷	-1622
▁채	-1623
▁탄	-1624
세를	-1625
았다	-1626
어다	-1627
회에	-1628
▁대개	-1629
▁반조	-1630
▁방면	-1631
▁보호	-1632
▁생사	-1633
▁습관	-1634
▁승급	-1635
▁얻고	-1636
▁없다	-1637
▁없지	-1638
▁여의	-1639
▁와서	-1640
▁치료	-1641
▁한량	-1642
▁해석	-1643
▁형제	-1644
원불교	-1645
인에게	-1646
▁20.	-1647
▁세상이	-1648
▁학인이	-1649
▁못하나니	-1650
▁其	-1651
▁맺	-1652
▁싫	-1653
▁왕	-1654
▁즉	-1655
기지	-1656
되지	-1657
려고	-1658
사업	-1659
산을	-1660
식에	-1661
움이	-1662
원의	-1663
회는	-1664
▁공동	-1665
▁깊은	-1666
▁꾸준	-1667
▁너무	-1668
▁도와	-1669
▁무상	-1670
▁바를	-1671
▁보아	-1672
▁부지	-1673
▁사사	-1674
▁적공	-1675
▁정기	-1676
▁축원	-1677
▁취사	-1678
▁현재	-1679
▁23.	-1680
▁기운을	-1681
▁못하게	-1682
▁사은의	-1683
▁세상은	-1684
▁대종사를	-1685
."	-1686
▁뵈	-1687
▁짐	-1688
만한	-1689
원기	-1690
일새	-1691
중에	-1692
처럼	-1693
▁佛言	-1694
▁국민	-1695
▁그에	-1696
▁되게	-1697
▁몸이	-1698
▁복이	-1699
▁분별	-1700
▁사무	-1701
▁철저	-1702
▁확립	-1703
심이요	-1704
지니라	-1705
(194	-1706
▁21.	-1707
▁들어가	-1708
▁서원을	-1709
▁아니면	-1710
하였으나	-1711
▁어리석은	-1712
)]	-1713
▁밤	-1714
▁석	-1715
▁억	-1716
▁읽	-1717
년에	-1718
상과	-1719
제를	-1720
하던	-1721
▁거룩	-1722
▁구분	-1723
▁날이	-1724
▁대답	-1725
▁문명	-1726
▁미워	-1727
▁삼대	-1728
▁소개	-1729
▁운전	-1730
▁위에	-1731
▁일곱	-1732
▁재가	-1733
▁조목	-1734
▁하니	-1735
▁하옵	-1736
시키는	-1737
▁22.	-1738
▁26.	-1739
▁공덕이	-1740
▁게	-1741
▁융	-1742
기고	-1743
념을	-1744
드는	-1745
법의	-1746
불어	-1747
으셨	-1748
정이	-1749
지로	-1750
하실	-1751
▁是名	-1752
▁개교	-1753
▁기타	-1754
▁놓지	-1755
▁발원	-1756
▁법문	-1757
▁법에	-1758
▁생겨	-1759
▁안에	-1760
▁일도	-1761
▁제거	-1762
▁지어	-1763
▁24.	-1764
▁그것은	-1765
▁근본을	-1766
▁더불어	-1767
▁물으시	-1768
▁생활에	-1769
▁여래가	-1770
▁일생을	-1771
▁하시니	-1772
수보리야	-1773
▁다섯째는	-1774
▁궁	-1775
▁밟	-1776
▁쓸	-1777
十業	-1778
菩薩	-1779
르지	-1780
소를	-1781
의로	-1782
인댄	-1783
편에	-1784
▁것만	-1785
▁계획	-1786
▁공양	-1787
▁교정	-1788
▁깨치	-1789
▁덕을	-1790
▁돌려	-1791
▁때를	-1792
▁만한	-1793
▁말할	-1794
▁법위	-1795
▁살림	-1796
▁살피	-1797
▁설명	-1798
▁손님	-1799
▁신성	-1800
▁영모	-1801
▁운영	-1802
▁제불	-1803
▁죄를	-1804
▁후진	-1805
▁25.	-1806
▁27.	-1807
▁그런즉	-1808
▁세우고	-1809
▁어찌한	-1810
▁일이나	-1811
▁소태산은	-1812
▁而	-1813
▁슬	-1814
▁퇴	-1815
▁혈	-1816
▁협	-1817
▁흐	-1818
들과	-1819
듯이	-1820
사와	-1821
신의	-1822
자녀	-1823
자와	-1824
체를	-1825
화의	-1826
히려	-1827
▁能令	-1828
▁若有	-1829
▁기술	-1830
▁법과	-1831
▁법설	-1832
▁베풀	-1833
▁실로	-1834
▁영겁	-1835
▁운동	-1836
▁잃지	-1837
▁차례	-1838
▁필요	-1839
▁28.	-1840
▁근본이	-1841
▁꾸준히	-1842
▁없으나	-1843
▁이익을	-1844
▁천도를	-1845
▁能令衆生	-1846
▁我	-1847
▁끼	-1848
▁빚	-1849
▁황	-1850
가를	-1851
가모	-1852
고를	-1853
롭게	-1854
복의	-1855
신이	-1856
자로	-1857
▁고락	-1858
▁교역	-1859
▁기원	-1860
▁두고	-1861
▁등이	-1862
▁물품	-1863
▁바람	-1864
▁발간	-1865
▁변화	-1866
▁병진	-1867
▁봉래	-1868
▁상시	-1869
▁세세	-1870
▁어두	-1871
▁예의	-1872
▁온전	-1873
니이다	-1874
오니까	-1875
이라야	-1876
▁29.	-1877
▁30.	-1878
▁31.	-1879
▁가지가	-1880
▁교단을	-1881
▁사람과	-1882
▁사업의	-1883
▁않도록	-1884
▁없어서	-1885
▁위력을	-1886
▁진리의	-1887
▁말하자면	-1888
▁접	-1889
▁키	-1890
以故	-1891
리게	-1892
우리	-1893
원이	-1894
이가	-1895
일원	-1896
일한	-1897
항마	-1898
].」	-1899
▁以是	-1900
▁거래	-1901
▁결혼	-1902
▁듣는	-1903
▁떨어	-1904
▁만유	-1905
▁봉공	-1906
▁잊지	-1907
▁주지	-1908
▁지나	-1909
▁초대	-1910
▁하겠	-1911
가모니	-1912
었으나	-1913
에게는	-1914
원으로	-1915
▁何以故	-1916
▁누구나	-1917
▁데에도	-1918
▁되므로	-1919
▁떨어지	-1920
▁수보리	-1921
▁아니니	-1922
▁오히려	-1923
함으로써	-1924
▁것이므로	-1925
▁위해서는	-1926
▁세존이시여	-1927
▁亦	-1928
▁엄	-1929
▁헤	-1930
云何	-1931
과거	-1932
또한	-1933
려는	-1934
었고	-1935
으라	-1936
중빈	-1937
▁같고	-1938
▁걸림	-1939
▁과목	-1940
▁과학	-1941
▁광명	-1942
▁그는	-1943
▁기다	-1944
▁대소	-1945
▁둘이	-1946
▁사리	-1947
▁삼아	-1948
▁아홉	-1949
▁욕심	-1950
▁작업	-1951
▁청년	-1952
▁체받	-1953
▁출생	-1954
▁하기	-1955
▁회갑	-1956
상으로	-1957
▁32.	-1958
▁공덕을	-1959
▁못하여	-1960
▁박중빈	-1961
▁부모의	-1962
▁수행의	-1963
▁언제나	-1964
▁진리와	-1965
이니이다	-1966
▁아니하며	-1967
)’	-1968
▁빼	-1969
▁솟	-1970
一切	-1971
世界	-1972
如是	-1973
백년	-1974
수가	-1975
실을	-1976
어버	-1977
위는	-1978
의에	-1979
이란	-1980
이면	-1981
했다	-1982
▁고루	-1983
▁그의	-1984
▁대자	-1985
▁등의	-1986
▁발표	-1987
▁시행	-1988
▁실현	-1989
▁여덟	-1990
▁예수	-1991
▁인증	-1992
▁전문	-1993
▁좌우	-1994
▁주셨	-1995
▁짓지	-1996
▁친척	-1997
우리가	-1998
함이니	-1999
(193	-2000
▁도덕을	-2001
▁돌아가	-2002
▁등으로	-2003
▁모르고	-2004
▁이루어	-2005
▁인생의	-2006
▁적당한	-2007
▁제도를	-2008
▁제자가	-2009
▁주시니	-2010
▁회상은	-2011
▁대종사와	-2012
▁돌아오는	-2013
▁생각하여	-2014
▁원불교의	-2015
▁이름이니	-2016
▁있으리요	-2017
▁주시옵소서	-2018
▁所	-2019
▁갚	-2020
▁옷	-2021
▁울	-2022
가의	-2023
금을	-2024
연한	-2025
전의	-2026
하에	-2027
히고	-2028
▁간절	-2029
▁경제	-2030
▁과보	-2031
▁나와	-2032
▁대학	-2033
▁말한	-2034
▁배출	-2035
▁봉고	-2036
▁실시	-2037
▁정도	-2038
▁해를	-2039
강항마	-2040
하시어	-2041
(192	-2042
▁33.	-2043
▁가르쳐	-2044
▁원리를	-2045
으로든지	-2046
▁나타나는	-2047
대종사께서	-2048
▁사은이시여	-2049
▁붙	-2050
▁쇠	-2051
▁커	-2052
一圓	-2053
如來	-2054
기의	-2055
대의	-2056
로되	-2057
리면	-2058
시켜	-2059
지만	-2060
▁관한	-2061
▁구원	-2062
▁깨닫	-2063
▁물러	-2064
▁부탁	-2065
▁분명	-2066
▁삼동	-2067
▁속에	-2068
▁순서	-2069
▁쉽게	-2070
▁얼굴	-2071
▁이후	-2072
▁일러	-2073
▁중요	-2074
▁최후	-2075
▁현실	-2076
력으로	-2077
성으로	-2078
입니다	-2079
하다가	-2080
하오니	-2081
▁깨달아	-2082
▁법문을	-2083
▁생활이	-2084
▁속에서	-2085
▁아니한	-2086
▁여래의	-2087
▁영생을	-2088
▁우주의	-2089
▁인간의	-2090
▁자신의	-2091
▁중요한	-2092
▁하여도	-2093
▁굴	-2094
▁쌍	-2095
▁침	-2096
노니	-2097
다라	-2098
례를	-2099
사로	-2100
식은	-2101
용을	-2102
원에	-2103
종경	-2104
천이	-2105
치를	-2106
호를	-2107
화가	-2108
▁계시	-2109
▁기간	-2110
▁나서	-2111
▁놓아	-2112
▁누가	-2113
▁단결	-2114
▁대우	-2115
▁둘은	-2116
▁몸에	-2117
▁번역	-2118
▁본위	-2119
▁산업	-2120
▁싫어	-2121
▁알았	-2122
▁애착	-2123
▁이웃	-2124
▁제위	-2125
▁조항	-2126
▁진급	-2127
▁통달	-2128
▁환영	-2129
거니와	-2130
지어다	-2131
하고자	-2132
▁되도록	-2133
▁무엇을	-2134
▁자성의	-2135
▁자신이	-2136
▁하나를	-2137
▁가르치는	-2138
▁대종사께	-2139
▁마음대로	-2140
▁겁	-2141
▁곡	-2142
▁긴	-2143
▁꽃	-2144
▁놀	-2145
▁숙	-2146
▁펴	-2147
▁흥	-2148
多羅	-2149
국의	-2150
대를	-2151
력과	-2152
리로	-2153
먁삼	-2154
모든	-2155
상은	-2156
수양	-2157
실히	-2158
유를	-2159
정전	-2160
▁교서	-2161
▁교의	-2162
▁교헌	-2163
▁그를	-2164
▁그릇	-2165
▁네가	-2166
▁대할	-2167
▁도둑	-2168
▁땅에	-2169
▁때문	-2170
▁때와	-2171
▁무시	-2172
▁발족	-2173
▁법도	-2174
▁삼매	-2175
▁오고	-2176
▁이리	-2177
▁일의	-2178
▁자손	-2179
▁존중	-2180
▁즐거	-2181
▁학인	-2182
▁한갓	-2183
▁헌공	-2184
▁흔들	-2185
뇩다라	-2186
삼먁삼	-2187
성하여	-2188
습니다	-2189
이었다	-2190
하기가	-2191
▁끝까지	-2192
▁맞도록	-2193
▁법으로	-2194
▁사용할	-2195
▁시대의	-2196
▁우리도	-2197
▁육신을	-2198
▁이르시	-2199
▁인연이	-2200
▁일제히	-2201
▁자성을	-2202
▁진리가	-2203
하나이다	-2204
▁세상에서	-2205
▁앞으로는	-2206
▁어떠하냐	-2207
▁자리에서	-2208
▁하시었다	-2209
뇩다라삼먁삼	-2210
▁爲	-2211
自性	-2212
경은	-2213
계의	-2214
공부	-2215
년을	-2216
대한	-2217
도의	-2218
동안	-2219
됨이	-2220
렇게	-2221
로를	-2222
문은	-2223
별록	-2224
수한	-2225
정의	-2226
하와	-2227
▁ᄋ월	-2228
▁가고	-2229
▁경축	-2230
▁고유	-2231
▁기본	-2232
▁놓은	-2233
▁대신	-2234
▁말은	-2235
▁보배	-2236
▁복덕	-2237
▁부분	-2238
▁불과	-2239
▁빼앗	-2240
▁사요	-2241
▁세간	-2242
▁없애	-2243
▁위원	-2244
▁유지	-2245
▁이런	-2246
▁일으	-2247
▁입교	-2248
▁지옥	-2249
▁추진	-2250
▁통해	-2251
▁해결	-2252
는지라	-2253
심하여	-2254
으시니	-2255
▁34.	-2256
▁35.	-2257
▁못하며	-2258
▁반백년	-2259
▁배우는	-2260
▁순으로	-2261
▁인류의	-2262
▁자기를	-2263
옵나이다	-2264
▁그대들의	-2265
▁들으시고	-2266
▁바라노라	-2267
▁세상에는	-2268
▁의지하여	-2269
▁처음에는	-2270
▁하더라도	-2271
▁못하나니라	-2272
▁굽	-2273
▁냄	-2274
▁혁	-2275
福德	-2276
륜을	-2277
심은	-2278
우나	-2279
조합	-2280
종교	-2281
질을	-2282
추어	-2283
▁2)	-2284
▁가난	-2285
▁골라	-2286
▁끌려	-2287
▁나고	-2288
▁높은	-2289
▁다니	-2290
▁대사	-2291
▁도학	-2292
▁동정	-2293
▁멀리	-2294
▁배워	-2295
▁법인	-2296
▁사항	-2297
▁생기	-2298
▁선지	-2299
▁요도	-2300
▁일동	-2301
▁일생	-2302
▁자타	-2303
▁적당	-2304
▁절약	-2305
▁제정	-2306
▁조사	-2307
▁직업	-2308
▁짓고	-2309
▁함이	-2310
▁허망	-2311
▁희사	-2312
▁힘쓸	-2313
三菩提	-2314
多羅三	-2315
까지도	-2316
옵니다	-2317
자에게	-2318
하리니	-2319
▁가르치	-2320
▁공부로	-2321
▁그렇지	-2322
▁나타난	-2323
▁데에는	-2324
▁모시고	-2325
▁부지런	-2326
▁사회에	-2327
▁스승의	-2328
▁욕심을	-2329
▁이치가	-2330
▁있도록	-2331
▁하오면	-2332
▁한다면	-2333
▁번역하면	-2334
▁아니하였	-2335
▁三	-2336
▁검	-2337
▁낳	-2338
▁넉	-2339
▁밑	-2340
▁삿	-2341
▁싸	-2342
阿耨	-2343
고자	-2344
러라	-2345
르게	-2346
리며	-2347
마음	-2348
성의	-2349
시니	-2350
컨대	-2351
함에	-2352
▁40	-2353
▁於意	-2354
▁개식	-2355
▁고백	-2356
▁깨끗	-2357
▁나도	-2358
▁내역	-2359
▁넉넉	-2360
▁두어	-2361
▁등급	-2362
▁마을	-2363
▁매일	-2364
▁밝아	-2365
▁방해	-2366
▁배은	-2367
▁선도	-2368
▁어긋	-2369
▁언어	-2370
▁이행	-2371
▁임시	-2372
▁축하	-2373
▁타력	-2374
었으며	-2375
으시고	-2376
하노라	-2377
▁36.	-2378
▁37.	-2379
▁ᄋᄋ년	-2380
▁ᄋ일에	-2381
▁復有業	-2382
▁개인의	-2383
▁거행할	-2384
▁과거의	-2385
▁교육을	-2386
▁기도를	-2387
▁보아서	-2388
▁보은의	-2389
▁부모가	-2390
▁스승을	-2391
▁실력을	-2392
▁여기에	-2393
▁이르러	-2394
▁정성이	-2395
▁책임을	-2396
▁특별히	-2397
▁하나가	-2398
▁하나로	-2399
▁하리라	-2400
多羅三藐	-2401
그대들이	-2402
하시었다	-2403
함이니라	-2404
▁於意云何	-2405
▁생각으로	-2406
▁여섯째는	-2407
▁하였나니	-2408
▁물으시기를	-2409
▁아니함이요	-2410
阿耨多羅三藐	-2411
阿耨多羅三藐三菩提	-2412
▁四	-2413
▁곤	-2414
▁논	-2415
▁됨	-2416
▁맹	-2417
▁몰	-2418
▁밭	-2419
▁월	-2420
▁탁	-2421
▁품	-2422
▁휴	-2423
布施	-2424
기관	-2425
디어	-2426
머니	-2427
스럽	-2428
인고	-2429
질이	-2430
침이	-2431
히는	-2432
▁결의	-2433
▁고축	-2434
▁공적	-2435
▁기초	-2436
▁낙을	-2437
▁된다	-2438
▁만고	-2439
▁말로	-2440
▁문득	-2441
▁민족	-2442
▁보응	-2443
▁삼천	-2444
▁상을	-2445
▁생멸	-2446
▁설사	-2447
▁쉬지	-2448
▁아님	-2449
▁여자	-2450
▁연원	-2451
▁유공	-2452
▁인물	-2453
▁일념	-2454
▁일상	-2455
▁있지	-2456
▁잡아	-2457
▁재미	-2458
▁적지	-2459
▁절차	-2460
▁지배	-2461
▁향상	-2462
▁혜를	-2463
식으로	-2464
어지는	-2465
회에서	-2466
▁38.	-2467
▁가로되	-2468
▁나타내	-2469
▁대의를	-2470
▁생각할	-2471
▁없도록	-2472
▁인격을	-2473
▁폐식의	-2474
▁형편에	-2475
▁말씀하신	-2476
▁사람으로	-2477
▁아니하는	-2478
▁원광대학	-2479
▁인연으로	-2480
▁일곱째는	-2481
▁하셨나니	-2482
▁사람이라도	-2483
▁아뇩다라삼먁삼	-2484
16	-2485
▁在	-2486
▁겨	-2487
▁군	-2488
▁밥	-2489
▁싶	-2490
▁야	-2491
▁얽	-2492
▁옮	-2493
▁칠	-2494
▁탑	-2495
▁흩	-2496
定慧	-2497
淸淨	-2498
기와	-2499
득이	-2500
봉공	-2501
불을	-2502
성에	-2503
어떠	-2504
우는	-2505
원은	-2506
이를	-2507
제자	-2508
찌기	-2509
치게	-2510
▁26	-2511
▁건국	-2512
▁경례	-2513
▁교환	-2514
▁구족	-2515
▁그와	-2516
▁도에	-2517
▁때가	-2518
▁때의	-2519
▁몸과	-2520
▁방문	-2521
▁병을	-2522
▁보게	-2523
▁보화	-2524
▁상극	-2525
▁서서	-2526
▁심히	-2527
▁안정	-2528
▁유념	-2529
▁의심	-2530
▁일시	-2531
▁있사	-2532
▁장엄	-2533
▁제생	-2534
▁주어	-2535
▁죽는	-2536
▁통일	-2537
▁판단	-2538
하시와	-2539
▁경전을	-2540
▁만물의	-2541
▁보시고	-2542
▁사업이	-2543
▁신심이	-2544
▁신앙의	-2545
▁여러분	-2546
▁완전한	-2547
▁은혜와	-2548
▁일이라	-2549
▁일찌기	-2550
▁자유를	-2551
▁지극히	-2552
▁지금은	-2553
▁지키는	-2554
▁지혜를	-2555
▁하루는	-2556
▁가운데에	-2557
▁아홉째는	-2558
▁얻으리라	-2559
▁여덟째는	-2560
▁영가에게	-2561
▁이름이요	-2562
▁일심으로	-2563
▁일원상의	-2564
▁아니하나니	-2565
▁十	-2566
▁告	-2567
▁大	-2568
▁汝	-2569
▁生	-2570
▁뒷	-2571
▁움	-2572
▁투	-2573
▁홀	-2574
▁훌	-2575
님의	-2576
불이	-2577
소한	-2578
수의	-2579
신은	-2580
심에	-2581
지지	-2582
▁49	-2583
▁가득	-2584
▁감응	-2585
▁계교	-2586
▁계승	-2587
▁권속	-2588
▁기록	-2589
▁대체	-2590
▁마친	-2591
▁밖에	-2592
▁방언	-2593
▁부족	-2594
▁성년	-2595
▁쉬운	-2596
▁실지	-2597
▁아닐	-2598
▁악을	-2599
▁이끌	-2600
▁이룩	-2601
▁재계	-2602
▁조합	-2603
▁집에	-2604
▁최고	-2605
▁타락	-2606
▁피은	-2607
▁확장	-2608
▁훌륭	-2609
▁40.	-2610
▁것인가	-2611
▁관계가	-2612
▁교화를	-2613
▁대도를	-2614
▁무엇이	-2615
▁미치는	-2616
▁생령을	-2617
▁생명을	-2618
▁성현의	-2619
▁셋째는	-2620
▁악도에	-2621
▁의심이	-2622
▁이름을	-2623
▁이해를	-2624
▁일일이	-2625
▁있음을	-2626
▁정신의	-2627
▁지혜의	-2628
▁하시며	-2629
▁힘써야	-2630
▁부처님과	-2631
▁사람들의	-2632
▁사람이요	-2633
▁아니니라	-2634
▁없으리라	-2635
▁열반인의	-2636
▁이르시되	-2637
▁하였으나	-2638
▁아니하리요	-2639
▁故	-2640
▁當	-2641
▁갑	-2642
▁솔	-2643
天地	-2644
無爲	-2645
般若	-2646
陀圓	-2647
같은	-2648
국가	-2649
념이	-2650
단의	-2651
대에	-2652
더라	-2653
로소	-2654
부가	-2655
선을	-2656
어늘	-2657
였다	-2658
우며	-2659
주를	-2660
중한	-2661
지금	-2662
토록	-2663
학교	-2664
훈련	-2665
▁강급	-2666
▁같지	-2667
▁공헌	-2668
▁나누	-2669
▁낮은	-2670
▁넷째	-2671
▁노래	-2672
▁닦아	-2673
▁대원	-2674
▁말과	-2675
▁맞이	-2676
▁묵은	-2677
▁받았	-2678
▁비유	-2679
▁삼세	-2680
▁세월	-2681
▁신의	-2682
▁요법	-2683
▁운용	-2684
▁위로	-2685
▁이로	-2686
▁자라	-2687
▁자재	-2688
▁장소	-2689
▁제가	-2690
▁좋게	-2691
▁증거	-2692
▁지공	-2693
▁해당	-2694
▁행사	-2695
었나니	-2696
자들이	-2697
하니라	-2698
(197	-2699
▁39.	-2700
▁가까운	-2701
▁기관이	-2702
▁드디어	-2703
▁때문에	-2704
▁말씀에	-2705
▁몸으로	-2706
▁무궁한	-2707
▁사회의	-2708
▁삼동윤	-2709
▁스승이	-2710
▁시대에	-2711
▁심신을	-2712
▁열반에	-2713
▁열째는	-2714
▁이것은	-2715
▁있다면	-2716
▁정하고	-2717
▁종교가	-2718
▁죄업이	-2719
▁책임이	-2720
▁함이요	-2721
▁합하여	-2722
▁힘쓰라	-2723
▁교당에서	-2724
▁되었으며	-2725
▁반조하여	-2726
▁부처님을	-2727
▁사용하는	-2728
▁생각하고	-2729
▁지으시니	-2730
▁고하시기를	-2731
▁까닭이니라	-2732
▁이름이니라	-2733
▁起	-2734
▁뛰	-2735
具足	-2736
波羅	-2737
경이	-2738
났다	-2739
들로	-2740
바라	-2741
부모	-2742
비를	-2743
심의	-2744
온데	-2745
으되	-2746
자에	-2747
전이	-2748
제가	-2749
제의	-2750
처를	-2751
치가	-2752
하매	-2753
함과	-2754
해를	-2755
▁고요	-2756
▁곳이	-2757
▁공변	-2758
▁교리	-2759
▁구인	-2760
▁길에	-2761
▁남이	-2762
▁너른	-2763
▁단원	-2764
▁덕이	-2765
▁두렷	-2766
▁등에	-2767
▁맹세	-2768
▁몸은	-2769
▁무사	-2770
▁빚을	-2771
▁사량	-2772
▁삿된	-2773
▁상이	-2774
▁셋은	-2775
▁시기	-2776
▁열린	-2777
▁우선	-2778
▁움직	-2779
▁원을	-2780
▁있던	-2781
▁전개	-2782
▁존령	-2783
▁주례	-2784
▁주세	-2785
▁지켜	-2786
▁초창	-2787
▁추모	-2788
▁포교	-2789
▁합동	-2790
면서도	-2791
▁같나니	-2792
▁같으나	-2793
▁교단이	-2794
▁교도의	-2795
▁다하여	-2796
▁들어서	-2797
▁만드는	-2798
▁만물을	-2799
▁못하였	-2800
▁변하지	-2801
▁보시를	-2802
▁부득이	-2803
▁부처가	-2804
▁부처와	-2805
▁스승과	-2806
▁시비를	-2807
▁악업을	-2808
▁않으면	-2809
▁약간의	-2810
▁역사를	-2811
▁완전히	-2812
▁이익이	-2813
▁인류가	-2814
▁주의할	-2815
▁진리에	-2816
▁할진대	-2817
▁若有衆生	-2818
▁그대들이	-2819
▁그러하면	-2820
▁근본되는	-2821
▁부지런히	-2822
▁서가모니	-2823
▁정신으로	-2824
▁제자에게	-2825
▁종법사는	-2826
▁종법사의	-2827
▁하나이다	-2828
00	-2829
18	-2830
▁'	-2831
▁二	-2832
▁六	-2833
▁걷	-2834
▁든	-2835
▁와	-2836
▁흉	-2837
說法	-2838
건대	-2839
니까	-2840
롭고	-2841
법은	-2842
복은	-2843
사회	-2844
산에	-2845
수도	-2846
연을	-2847
적이	-2848
정에	-2849
정은	-2850
하의	-2851
▁가졌	-2852
▁간단	-2853
▁공이	-2854
▁공한	-2855
▁교전	-2856
▁교회	-2857
▁그르	-2858
▁깨쳐	-2859
▁남아	-2860
▁다행	-2861
▁대범	-2862
▁대치	-2863
▁독경	-2864
▁동작	-2865
▁등한	-2866
▁뜻은	-2867
▁목표	-2868
▁무서	-2869
▁믿는	-2870
▁반야	-2871
▁부끄	-2872
▁사심	-2873
▁실패	-2874
▁영혼	-2875
▁오랜	-2876
▁요양	-2877
▁위를	-2878
▁의견	-2879
▁이듬	-2880
▁일관	-2881
▁일대	-2882
▁정한	-2883
▁조선	-2884
▁조용	-2885
▁종재	-2886
▁지킬	-2887
▁충분	-2888
▁치우	-2889
▁한국	-2890
식에서	-2891
연구회	-2892
이므로	-2893
정으로	-2894
한다는	-2895
▁관계로	-2896
▁국가의	-2897
▁근본은	-2898
▁다름이	-2899
▁도인이	-2900
▁만물이	-2901
▁말씀을	-2902
▁말하면	-2903
▁받들고	-2904
▁보살이	-2905
▁부처를	-2906
▁살펴서	-2907
▁쉽나니	-2908
▁원만히	-2909
▁이루는	-2910
▁이루지	-2911
▁지혜가	-2912
▁진리는	-2913
▁차례로	-2914
▁처지에	-2915
▁그대들도	-2916
▁되었으니	-2917
▁발견하여	-2918
▁있어서도	-2919
▁하시니라	-2920
1)	-2921
5)	-2922
▁《	-2923
▁乃	-2924
▁人	-2925
▁皆	-2926
▁雖	-2927
▁북	-2928
▁촉	-2929
▁흘	-2930
不可	-2931
之人	-2932
壽者	-2933
고로	-2934
덕을	-2935
도로	-2936
반야	-2937
방에	-2938
보면	-2939
복이	-2940
서도	-2941
서원	-2942
수는	-2943
안을	-2944
욕을	-2945
위와	-2946
인과	-2947
일체	-2948
자재	-2949
정산	-2950
조는	-2951
조를	-2952
통이	-2953
▁28	-2954
▁50	-2955
▁가리	-2956
▁개선	-2957
▁개최	-2958
▁거듭	-2959
▁결정	-2960
▁결함	-2961
▁계발	-2962
▁곳을	-2963
▁과연	-2964
▁광대	-2965
▁굳게	-2966
▁권장	-2967
▁그림	-2968
▁극락	-2969
▁기구	-2970
▁깨친	-2971
▁내왕	-2972
▁맞게	-2973
▁모여	-2974
▁무위	-2975
▁바다	-2976
▁발달	-2977
▁방향	-2978
▁봉불	-2979
▁불고	-2980
▁상주	-2981
▁성성	-2982
▁식순	-2983
▁영육	-2984
▁영향	-2985
▁예회	-2986
▁요란	-2987
▁위주	-2988
▁일기	-2989
▁일로	-2990
▁일만	-2991
▁잠간	-2992
▁재산	-2993
▁저의	-2994
▁정사	-2995
▁정화	-2996
▁주체	-2997
▁줄도	-2998
▁지고	-2999
▁표어	-3000
▁해외	-3001
▁행을	-3002
기에는	-3003
려니와	-3004
으니라	-3005
하거늘	-3006
하시는	-3007
하지도	-3008
▁41.	-3009
▁如來說	-3010
▁가지로	-3011
▁경우를	-3012
▁권리를	-3013
▁근원이	-3014
▁금강산	-3015
▁나라의	-3016
▁내리시	-3017
▁도움을	-3018
▁때마다	-3019
▁뜻으로	-3020
▁만들어	-3021
▁부족한	-3022
▁성인이	-3023
▁수도인	-3024
▁시대를	-3025
▁않나니	-3026
▁알뜰한	-3027
▁여의지	-3028
▁영가의	-3029
▁올리고	-3030
▁의무와	-3031
▁이르되	-3032
▁이치에	-3033
▁자리요	-3034
▁정신은	-3035
▁제도의	-3036
▁중생은	-3037
▁중에도	-3038
▁지극한	-3039
▁진실한	-3040
▁차별이	-3041
▁천하를	-3042
▁천하에	-3043
▁평화를	-3044
▁하나도	-3045
▁하다가	-3046
▁하리요	-3047
▁행동을	-3048
▁훌륭한	-3049
겠나이까	-3050
심이러라	-3051
▁끊임없이	-3052
▁단련하여	-3053
▁되나이까	-3054
▁생각하는	-3055
▁연고인고	-3056
▁종사께서	-3057
▁사람에게는	-3058
▁고백하옵나이다	-3059
4)	-3060
▁云	-3061
▁밀	-3062
▁섭	-3063
▁술	-3064
▁싹	-3065
▁좇	-3066
▁줌	-3067
▁했	-3068
因緣	-3069
개소	-3070
개월	-3071
교육	-3072
래의	-3073
려가	-3074
리도	-3075
만이	-3076
보를	-3077
세존	-3078
양이	-3079
의와	-3080
일의	-3081
주는	-3082
중생	-3083
지와	-3084
처에	-3085
해가	-3086
▁不可	-3087
▁如是	-3088
▁각기	-3089
▁공사	-3090
▁교가	-3091
▁기르	-3092
▁기틀	-3093
▁돈오	-3094
▁돌이	-3095
▁따름	-3096
▁만능	-3097
▁미루	-3098
▁믿지	-3099
▁밝힌	-3100
▁보았	-3101
▁불생	-3102
▁사가	-3103
▁살고	-3104
▁상생	-3105
▁생명	-3106
▁섭섭	-3107
▁수입	-3108
▁시국	-3109
▁쓰지	-3110
▁않았	-3111
▁업을	-3112
▁여여	-3113
▁오롯	-3114
▁올라	-3115
▁원칙	-3116
▁이기	-3117
▁자각	-3118
▁전진	-3119
▁정규	-3120
▁조건	-3121
▁죽기	-3122
▁죽을	-3123
▁줄로	-3124
▁즐겨	-3125
▁지역	-3126
▁참석	-3127
▁챙겨	-3128
▁출입	-3129
▁탐착	-3130
▁항마	-3131
▁해가	-3132
▁혼자	-3133
▁회복	-3134
그대가	-3135
되었고	-3136
득하여	-3137
스러운	-3138
▁42.	-3139
▁44.	-3140
▁간절히	-3141
▁고유문	-3142
▁곳에서	-3143
▁광명을	-3144
▁교역자	-3145
▁기관을	-3146
▁나가는	-3147
▁능력이	-3148
▁대각을	-3149
▁말하되	-3150
▁발전에	-3151
▁방법은	-3152
▁번뇌가	-3153
▁보이지	-3154
▁비로소	-3155
▁성공을	-3156
▁세계는	-3157
▁수행을	-3158
▁신앙을	-3159
▁어려울	-3160
▁영모전	-3161
▁이렇게	-3162
▁인과의	-3163
▁인물이	-3164
▁인심이	-3165
▁일체의	-3166
▁임의로	-3167
▁입으로	-3168
▁있었다	-3169
▁자력을	-3170
▁주인공	-3171
▁중에서	-3172
▁후에야	-3173
음이니라	-3174
▁復有十業	-3175
▁기운으로	-3176
▁다스리는	-3177
▁말씀하되	-3178
▁못하므로	-3179
▁부처님이	-3180
▁체받아서	-3181
하시옵소서	-3182
▁학인들에게	-3183
)"	-3184
10	-3185
▁-	-3186
▁五	-3187
▁應	-3188
▁更	-3189
▁發	-3190
▁自	-3191
▁言	-3192
▁객	-3193
▁격	-3194
▁낱	-3195
▁뜨	-3196
▁졸	-3197
▁좀	-3198
▁좁	-3199
▁티	-3200
三界	-3201
歡喜	-3202
광이	-3203
대비	-3204
동이	-3205
력에	-3206
문이	-3207
복과	-3208
불법	-3209
송을	-3210
시는	-3211
식과	-3212
연이	-3213
예전	-3214
용이	-3215
운을	-3216
유가	-3217
이게	-3218
있는	-3219
장의	-3220
제는	-3221
조로	-3222
조의	-3223
▁一者	-3224
▁三者	-3225
▁二者	-3226
▁四者	-3227
▁가라	-3228
▁간에	-3229
▁것에	-3230
▁계율	-3231
▁공주	-3232
▁괴로	-3233
▁교법	-3234
▁구호	-3235
▁내놓	-3236
▁내어	-3237
▁눈을	-3238
▁느끼	-3239
▁닦고	-3240
▁대동	-3241
▁도는	-3242
▁되라	-3243
▁두려	-3244
▁때나	-3245
▁만족	-3246
▁머물	-3247
▁무너	-3248
▁무형	-3249
▁물을	-3250
▁밖의	-3251
▁발심	-3252
▁부귀	-3253
▁분야	-3254
▁사상	-3255
▁선생	-3256
▁선후	-3257
▁성주	-3258
▁심경	-3259
▁써서	-3260
▁아침	-3261
▁앉아	-3262
▁알며	-3263
▁어둡	-3264
▁옛날	-3265
▁용서	-3266
▁이룰	-3267
▁인사	-3268
▁일꾼	-3269
▁일본	-3270
▁일월	-3271
▁일터	-3272
▁잃고	-3273
▁자선	-3274
▁자취	-3275
▁재앙	-3276
▁정식	-3277
▁주며	-3278
▁참고	-3279
▁창건	-3280
▁출세	-3281
▁친히	-3282
▁평소	-3283
▁표본	-3284
▁한이	-3285
▁합력	-3286
바라밀	-3287
시기를	-3288
인으로	-3289
하오면	-3290
▁거룩한	-3291
▁고축문	-3292
▁끊어진	-3293
▁나리시	-3294
▁도움이	-3295
▁많으나	-3296
▁말하고	-3297
▁본다면	-3298
▁부처의	-3299
▁생겨나	-3300
▁생령이	-3301
▁서원과	-3302
▁성품을	-3303
▁세세생	-3304
▁시간을	-3305
▁신심을	-3306
▁실행을	-3307
▁실행이	-3308
▁어두운	-3309
▁어른이	-3310
▁어머니	-3311
▁얻어서	-3312
▁위하는	-3313
▁육신의	-3314
▁의심을	-3315
▁정신과	-3316
▁정신에	-3317
▁정의를	-3318
▁종자가	-3319
▁죄업을	-3320
▁천지가	-3321
▁하노라	-3322
하였나니	-3323
▁공경하고	-3324
▁대종사는	-3325
▁바탕하여	-3326
▁법강항마	-3327
▁사람이라	-3328
▁생각하지	-3329
▁생활하는	-3330
▁우리에게	-3331
▁있으리라	-3332
▁제도하는	-3333
▁좋아하는	-3334
▁그대들에게	-3335
▁사람으로서	-3336
▁하심이러라	-3337
▁설법하시기를	-3338
▁七	-3339
▁九	-3340
▁八	-3341
▁善	-3342
▁本	-3343
▁此	-3344
▁꿈	-3345
▁봄	-3346
▁춘	-3347
▁칭	-3348
▁헛	-3349
作是	-3350
惡業	-3351
無量	-3352
父母	-3353
而不	-3354
靈知	-3355
구나	-3356
근을	-3357
단이	-3358
란한	-3359
령을	-3360
로가	-3361
름을	-3362
많은	-3363
맥을	-3364
명의	-3365
물며	-3366
부에	-3367
상한	-3368
세가	-3369
소가	-3370
수에	-3371
시로	-3372
운이	-3373
위의	-3374
음에	-3375
절로	-3376
지게	-3377
행이	-3378
▁15	-3379
▁25	-3380
▁七者	-3381
▁九者	-3382
▁五者	-3383
▁八者	-3384
▁六者	-3385
▁十者	-3386
▁가시	-3387
▁가질	-3388
▁각자	-3389
▁같다	-3390
▁개정	-3391
▁거두	-3392
▁거울	-3393
▁결실	-3394
▁기뻐	-3395
▁기재	-3396
▁길룡	-3397
▁내리	-3398
▁당한	-3399
▁되기	-3400
▁두지	-3401
▁들여	-3402
▁들지	-3403
▁따르	-3404
▁마련	-3405
▁만났	-3406
▁맑은	-3407
▁맞는	-3408
▁맞아	-3409
▁맞지	-3410
▁모래	-3411
▁모인	-3412
▁물들	-3413
▁바에	-3414
▁법어	-3415
▁본교	-3416
▁본말	-3417
▁설치	-3418
▁시키	-3419
▁신봉	-3420
▁신심	-3421
▁쓰고	-3422
▁아끼	-3423
▁안락	-3424
▁예가	-3425
▁오르	-3426
▁온갖	-3427
▁이타	-3428
▁입은	-3429
▁자격	-3430
▁잠시	-3431
▁점차	-3432
▁주면	-3433
▁지을	-3434
▁차지	-3435
▁챙기	-3436
▁초기	-3437
▁추대	-3438
▁출현	-3439
▁친근	-3440
▁탄생	-3441
▁평상	-3442
▁한가	-3443
▁한번	-3444
▁항복	-3445
▁해독	-3446
▁희망	-3447
까지는	-3448
법신불	-3449
시키고	-3450
어떠한	-3451
어지지	-3452
었으니	-3453
하건대	-3454
하기에	-3455
하는데	-3456
▁43.	-3457
▁45.	-3458
▁46.	-3459
▁가정에	-3460
▁각자가	-3461
▁그대의	-3462
▁나라를	-3463
▁말하여	-3464
▁밝히고	-3465
▁버리지	-3466
▁사상을	-3467
▁사실로	-3468
▁상극의	-3469
▁상대편	-3470
▁신앙과	-3471
▁아닌가	-3472
▁알고자	-3473
▁이루게	-3474
▁이상의	-3475
▁장래에	-3476
▁정도를	-3477
▁정도에	-3478
▁종교를	-3479
▁준비를	-3480
▁지도를	-3481
▁철저히	-3482
▁평소에	-3483
▁하거나	-3484
▁하물며	-3485
▁하오니	-3486
▁행사에	-3487
되었으며	-3488
으로부터	-3489
하시니라	-3490
▁以是十業	-3491
▁나리시와	-3492
▁부처님께	-3493
▁없으므로	-3494
▁있었으나	-3495
▁처음으로	-3496
▁평등하게	-3497
▁하였으며	-3498
▁가운데에는	-3499
▁비옵나이다	-3500
▁사람이니라	-3501
대종사께서는	-3502
..	-3503
2)	-3504
8)	-3505
▁天	-3506
▁奉	-3507
▁聞	-3508
▁갔	-3509
▁뭉	-3510
▁붓	-3511
佛法	-3512
沙門	-3513
涅槃	-3514
諸佛	-3515
급은	-3516
길을	-3517
되니	-3518
령이	-3519
실한	-3520
욕에	-3521
적을	-3522
한즉	-3523
▁거쳐	-3524
▁걸음	-3525
▁경륜	-3526
▁구제	-3527
▁권면	-3528
▁근검	-3529
▁근기	-3530
▁길로	-3531
▁길은	-3532
▁깨우	-3533
▁끊어	-3534
▁남자	-3535
▁내려	-3536
▁돈을	-3537
▁듣지	-3538
▁물론	-3539
▁물이	-3540
▁미혹	-3541
▁발인	-3542
▁밝고	-3543
▁법마	-3544
▁부동	-3545
▁사시	-3546
▁생산	-3547
▁소리	-3548
▁수여	-3549
▁수운	-3550
▁신통	-3551
▁신흥	-3552
▁안다	-3553
▁안심	-3554
▁양보	-3555
▁영생	-3556
▁은법	-3557
▁의뢰	-3558
▁이번	-3559
▁이의	-3560
▁일찍	-3561
▁자행	-3562
▁장려	-3563
▁전해	-3564
▁점이	-3565
▁정각	-3566
▁정결	-3567
▁좋지	-3568
▁주재	-3569
▁중도	-3570
▁중히	-3571
▁착수	-3572
▁총회	-3573
▁최초	-3574
▁취임	-3575
▁친절	-3576
▁특신	-3577
▁티끌	-3578
▁편벽	-3579
▁필경	-3580
▁해방	-3581
▁허다	-3582
겠느냐	-3583
앞으로	-3584
우리의	-3585
으리요	-3586
하기도	-3587
하려는	-3588
하리요	-3589
▁194	-3590
▁가정을	-3591
▁갖추어	-3592
▁그대가	-3593
▁그만한	-3594
▁금생에	-3595
▁나가야	-3596
▁되었고	-3597
▁떨어져	-3598
▁만보살	-3599
▁무량한	-3600
▁물품을	-3601
▁방법을	-3602
▁방편을	-3603
▁배우고	-3604
▁분별이	-3605
▁성인의	-3606
▁소리가	-3607
▁순서를	-3608
▁아니고	-3609
▁아직도	-3610
▁알뜰히	-3611
▁욕심이	-3612
▁유무를	-3613
▁응하여	-3614
▁인심을	-3615
▁일심이	-3616
▁일으키	-3617
▁있다는	-3618
▁자녀를	-3619
▁잘못을	-3620
▁제중의	-3621
▁지식을	-3622
▁태도를	-3623
▁행하고	-3624
▁행하면	-3625
▁행하여	-3626
그대들은	-3627
▁거행하되	-3628
▁계속하여	-3629
▁뜻이니라	-3630
▁법신불의	-3631
▁비롯하여	-3632
▁어찌하여	-3633
▁여래께서	-3634
▁일이니라	-3635
▁일이라도	-3636
▁있나이까	-3637
▁제자들이	-3638
▁죽기로써	-3639
▁집착하여	-3640
▁하옵시며	-3641
▁불보살들은	-3642
▁아니하리라	-3643
▁원광대학교	-3644
ww	-3645
▁名	-3646
▁낭	-3647
▁떳	-3648
▁탈	-3649
▁텅	-3650
功德	-3651
地獄	-3652
大圓	-3653
宗師	-3654
實無	-3655
거니	-3656
계가	-3657
계에	-3658
과의	-3659
내는	-3660
동을	-3661
되게	-3662
러워	-3663
만일	-3664
맥이	-3665
무를	-3666
받는	-3667
받아	-3668
봉도	-3669
선은	-3670
설을	-3671
성과	-3672
속을	-3673
오는	-3674
우고	-3675
원과	-3676
원장	-3677
천의	-3678
침과	-3679
함도	-3680
해지	-3681
▁22	-3682
▁고를	-3683
▁공자	-3684
▁구애	-3685
▁기울	-3686
▁나게	-3687
▁높이	-3688
▁대호	-3689
▁동원	-3690
▁들을	-3691
▁등은	-3692
▁뛰어	-3693
▁머무	-3694
▁미신	-3695
▁발휘	-3696
▁복과	-3697
▁분석	-3698
▁불러	-3699
▁불안	-3700
▁뿌리	-3701
▁솟아	-3702
▁시험	-3703
▁예에	-3704
▁올리	-3705
▁옳은	-3706
▁잡고	-3707
▁재색	-3708
▁적멸	-3709
▁좇아	-3710
▁중근	-3711
▁증산	-3712
▁편착	-3713
▁편찬	-3714
▁표현	-3715
▁풀어	-3716
▁헤아	-3717
▁협력	-3718
波羅蜜	-3719
기까지	-3720
면으로	-3721
부터는	-3722
사람의	-3723
일에는	-3724
▁192	-3725
▁ᄋᄋ는	-3726
▁걸림이	-3727
▁고락을	-3728
▁공부할	-3729
▁공사를	-3730
▁광명과	-3731
▁교당이	-3732
▁그렇게	-3733
▁그리고	-3734
▁기틀을	-3735
▁기회를	-3736
▁다행히	-3737
▁뒤에는	-3738
▁마음도	-3739
▁마치고	-3740
▁말하는	-3741
▁명예를	-3742
▁무형한	-3743
▁문명이	-3744
▁복락을	-3745
▁상당한	-3746
▁생각해	-3747
▁생활로	-3748
▁생활의	-3749
▁시대는	-3750
▁어찌할	-3751
▁올리는	-3752
▁원래에	-3753
▁유일한	-3754
▁육근을	-3755
▁이끌어	-3756
▁이어서	-3757
▁인류를	-3758
▁있는가	-3759
▁있는데	-3760
▁있다고	-3761
▁주어야	-3762
▁중심이	-3763
▁지도에	-3764
▁지도자	-3765
▁지키고	-3766
▁천여래	-3767
그대들의	-3768
어지나니	-3769
일지라도	-3770
▁공양하는	-3771
▁깨달음을	-3772
▁대자대비	-3773
▁벗어나지	-3774
▁부처님은	-3775
▁없느니라	-3776
▁없어지고	-3777
▁원만하게	-3778
▁원불교는	-3779
▁초월하여	-3780
▁당할지라도	-3781
▁제자들에게	-3782
▁방면으로든지	-3783
▁부처님께서는	-3784
▁아뇩다라삼먁삼보	-3785
3)	-3786
▁旣	-3787
▁法	-3788
▁非	-3789
▁균	-3790
▁둔	-3791
▁맛	-3792
▁씨	-3793
▁웃	-3794
▁트	-3795
十二	-3796
受持	-3797
情誼	-3798
煩惱	-3799
羅漢	-3800
誓願	-3801
가정	-3802
감을	-3803
과가	-3804
금강	-3805
나의	-3806
날이	-3807
내에	-3808
단에	-3809
도는	-3810
됨을	-3811
라야	-3812
로지	-3813
면을	-3814
불공	-3815
불멸	-3816
상도	-3817
선의	-3818
성할	-3819
소와	-3820
액을	-3821
양의	-3822
원광	-3823
으려	-3824
종의	-3825
천을	-3826
행의	-3827
▁60	-3828
▁卽非	-3829
▁가벼	-3830
▁가짐	-3831
▁강조	-3832
▁거의	-3833
▁건축	-3834
▁결제	-3835
▁경을	-3836
▁계실	-3837
▁고사	-3838
▁고해	-3839
▁공심	-3840
▁구할	-3841
▁국토	-3842
▁굳은	-3843
▁극히	-3844
▁남은	-3845
▁내외	-3846
▁내정	-3847
▁다할	-3848
▁달리	-3849
▁담당	-3850
▁대법	-3851
▁대의	-3852
▁동학	-3853
▁되시	-3854
▁떠날	-3855
▁떳떳	-3856
▁마지	-3857
▁먹고	-3858
▁모아	-3859
▁문화	-3860
▁바꾸	-3861
▁부부	-3862
▁불의	-3863
▁불전	-3864
▁불토	-3865
▁빛이	-3866
▁살생	-3867
▁서지	-3868
▁선정	-3869
▁성명	-3870
▁성지	-3871
▁소멸	-3872
▁수상	-3873
▁순역	-3874
▁순응	-3875
▁쉽고	-3876
▁심신	-3877
▁쌍전	-3878
▁알면	-3879
▁없어	-3880
▁역경	-3881
▁역시	-3882
▁예비	-3883
▁위태	-3884
▁위험	-3885
▁이룬	-3886
▁인재	-3887
▁일부	-3888
▁장래	-3889
▁장만	-3890
▁재단	-3891
▁적은	-3892
▁적적	-3893
▁정혜	-3894
▁제사	-3895
▁조화	-3896
▁좌석	-3897
▁죄업	-3898
▁중한	-3899
▁지견	-3900
▁진화	-3901
▁참예	-3902
▁천상	-3903
▁출장	-3904
▁태산	-3905
▁평생	-3906
▁한편	-3907
▁해제	-3908
▁헌신	-3909
▁홀로	-3910
▁후일	-3911
▁희생	-3912
년에는	-3913
대종경	-3914
만으로	-3915
성하고	-3916
스럽게	-3917
었다가	-3918
었더니	-3919
우리는	-3920
이어늘	-3921
하오며	-3922
▁47.	-3923
▁49.	-3924
▁53.	-3925
▁가르침	-3926
▁가정의	-3927
▁계문을	-3928
▁공연히	-3929
▁과거에	-3930
▁교당에	-3931
▁국가와	-3932
▁그들의	-3933
▁끌려서	-3934
▁끌리는	-3935
▁다섯째	-3936
▁당하는	-3937
▁대종경	-3938
▁되기를	-3939
▁들으라	-3940
▁만나서	-3941
▁만유의	-3942
▁모두가	-3943
▁물건을	-3944
▁바르고	-3945
▁법계를	-3946
▁법마상	-3947
▁베풀어	-3948
▁부모와	-3949
▁불교의	-3950
▁불법을	-3951
▁사업과	-3952
▁삼대력	-3953
▁수많은	-3954
▁신심과	-3955
▁심경을	-3956
▁아님이	-3957
▁얻었다	-3958
▁없음을	-3959
▁여래를	-3960
▁오르는	-3961
▁은혜가	-3962
▁음식을	-3963
▁있느냐	-3964
▁있어도	-3965
▁저절로	-3966
▁정법을	-3967
▁조항을	-3968
▁최후의	-3969
▁표준을	-3970
▁필요한	-3971
▁하기로	-3972
▁하늘이	-3973
▁하려면	-3974
▁향하여	-3975
▁허물을	-3976
▁활동을	-3977
▁후일에	-3978
심이니라	-3979
▁것이어늘	-3980
▁공부인의	-3981
▁교화하는	-3982
▁못하리라	-3983
▁부모에게	-3984
▁사이에는	-3985
▁세세생생	-3986
▁없는지라	-3987
▁연고인가	-3988
▁자유자재	-3989
▁한결같이	-3990
▁한량없는	-3991
▁때문이니라	-3992
▁사람이라야	-3993
▁아니하여도	-3994
▁아니하여야	-3995
▁회상에서는	-3996
13	-3997
15	-3998
6)	-3999
9)	-4000
?」	-4001
▁今	-4002
▁曰	-4003
▁莫	-4004
▁萬	-4005
▁謂	-4006
▁덜	-4007
▁득	-4008
▁묶	-4009
▁압	-4010
▁젊	-4011
▁훨	-4012
對治	-4013
法相	-4014
無所	-4015
頓悟	-4016
것은	-4017
것이	-4018
남이	-4019
되면	-4020
량이	-4021
려야	-4022
리한	-4023
물질	-4024
보가	-4025
세상	-4026
승이	-4027
신과	-4028
워서	-4029
위가	-4030
은즉	-4031
자력	-4032
정과	-4033
조가	-4034
첫째	-4035
출가	-4036
후에	-4037
▁18	-4038
▁42	-4039
▁「‘	-4040
▁一切	-4041
▁乃至	-4042
▁가서	-4043
▁경영	-4044
▁규약	-4045
▁그로	-4046
▁근거	-4047
▁기쁨	-4048
▁꾸짖	-4049
▁내게	-4050
▁너의	-4051
▁능한	-4052
▁다를	-4053
▁단합	-4054
▁도로	-4055
▁도모	-4056
▁들면	-4057
▁때로	-4058
▁만난	-4059
▁만덕	-4060
▁많고	-4061
▁무한	-4062
▁미진	-4063
▁바와	-4064
▁바치	-4065
▁밝게	-4066
▁법훈	-4067
▁보니	-4068
▁본분	-4069
▁본원	-4070
▁부합	-4071
▁불가	-4072
▁불멸	-4073
▁비치	-4074
▁빠짐	-4075
▁사도	-4076
▁사생	-4077
▁사진	-4078
▁살며	-4079
▁삼십	-4080
▁상징	-4081
▁선령	-4082
▁선한	-4083
▁성탑	-4084
▁소가	-4085
▁속히	-4086
▁수는	-4087
▁순환	-4088
▁숨은	-4089
▁승려	-4090
▁시봉	-4091
▁실은	-4092
▁아름	-4093
▁아버	-4094
▁얽매	-4095
▁여유	-4096
▁연합	-4097
▁염원	-4098
▁예는	-4099
▁외에	-4100
▁육영	-4101
▁융창	-4102
▁이도	-4103
▁있기	-4104
▁자금	-4105
▁전력	-4106
▁점을	-4107
▁정과	-4108
▁정전	-4109
▁정토	-4110
▁제중	-4111
▁좋을	-4112
▁죄가	-4113
▁즐기	-4114
▁지각	-4115
▁진공	-4116
▁창설	-4117
▁처사	-4118
▁팔조	-4119
▁허무	-4120
▁형식	-4121
▁화두	-4122
▁훨씬	-4123
다든지	-4124
되나니	-4125
산에서	-4126
생활에	-4127
이로다	-4128
인들의	-4129
하소서	-4130
▁48.	-4131
▁50.	-4132
▁51.	-4133
▁52.	-4134
▁54.	-4135
▁57.	-4136
▁가정이	-4137
▁가지는	-4138
▁가지며	-4139
▁강령이	-4140
▁것보다	-4141
▁공중에	-4142
▁관계를	-4143
▁광명이	-4144
▁교단과	-4145
▁교법이	-4146
▁교육의	-4147
▁국가나	-4148
▁그러하	-4149
▁근원을	-4150
▁기르는	-4151
▁길들이	-4152
▁길룡리	-4153
▁나누어	-4154
▁냄이요	-4155
▁도덕이	-4156
▁도로써	-4157
▁만사를	-4158
▁말하지	-4159
▁명예와	-4160
▁무서운	-4161
▁물러나	-4162
▁바탕이	-4163
▁발하여	-4164
▁법이라	-4165
▁본위로	-4166
▁불법의	-4167
▁불전에	-4168
▁비롯한	-4169
▁삼세의	-4170
▁상생의	-4171
▁생사의	-4172
▁선생의	-4173
▁성인은	-4174
▁세계도	-4175
▁소리를	-4176
▁습관이	-4177
▁시방을	-4178
▁아니며	-4179
▁아닐새	-4180
▁없다고	-4181
▁없다면	-4182
▁없어야	-4183
▁연고라	-4184
▁염불의	-4185
▁오로지	-4186
▁원하는	-4187
▁인사를	-4188
▁일시에	-4189
▁자유로	-4190
▁자타의	-4191
▁제도할	-4192
▁조용히	-4193
▁존중히	-4194
▁취사의	-4195
▁태어나	-4196
▁하거늘	-4197
▁하는가	-4198
▁한다는	-4199
▁회상과	-4200
▁가르치고	-4201
▁거룩하신	-4202
▁계속하면	-4203
▁끊임없는	-4204
▁대조하여	-4205
▁대종사님	-4206
▁마음이요	-4207
▁방법으로	-4208
▁불법연구	-4209
▁비하건대	-4210
▁스승님의	-4211
▁아니하나	-4212
▁정진하여	-4213
▁하옵시고	-4214
불법연구회	-4215
시하시기를	-4216
감하시옵소서	-4217
)』	-4218
11	-4219
▁入	-4220
▁吾	-4221
▁用	-4222
▁與	-4223
▁身	-4224
▁냉	-4225
▁늙	-4226
▁짧	-4227
▁틀	-4228
差別	-4229
微塵	-4230
恒河	-4231
自在	-4232
국을	-4233
국이	-4234
기념	-4235
남자	-4236
네가	-4237
년간	-4238
년도	-4239
년의	-4240
등의	-4241
력은	-4242
례는	-4243
리자	-4244
망을	-4245
면에	-4246
목을	-4247
문의	-4248
물에	-4249
방의	-4250
방이	-4251
법과	-4252
부는	-4253
불의	-4254
쁘게	-4255
세히	-4256
시면	-4257
시와	-4258
시킬	-4259
심경	-4260
안이	-4261
오래	-4262
육신	-4263
졌다	-4264
좌선	-4265
추고	-4266
치기	-4267
풍이	-4268
하를	-4269
.[2	-4270
.[3	-4271
▁13	-4272
▁16	-4273
▁47	-4274
▁55	-4275
▁心告	-4276
▁謂之	-4277
▁가령	-4278
▁가면	-4279
▁가볍	-4280
▁각종	-4281
▁감히	-4282
▁갖춘	-4283
▁건강	-4284
▁건네	-4285
▁경험	-4286
▁고등	-4287
▁구름	-4288
▁근심	-4289
▁기성	-4290
▁나쁜	-4291
▁내고	-4292
▁넓고	-4293
▁높고	-4294
▁달라	-4295
▁달려	-4296
▁달이	-4297
▁대적	-4298
▁대회	-4299
▁도구	-4300
▁동할	-4301
▁먹을	-4302
▁모범	-4303
▁무아	-4304
▁민중	-4305
▁바루	-4306
▁배울	-4307
▁배척	-4308
▁보답	-4309
▁보여	-4310
▁보이	-4311
▁복록	-4312
▁부촉	-4313
▁사양	-4314
▁삼는	-4315
▁삼을	-4316
▁상황	-4317
▁새벽	-4318
▁생긴	-4319
▁생생	-4320
▁소홀	-4321
▁송규	-4322
▁수록	-4323
▁알려	-4324
▁앞서	-4325
▁약을	-4326
▁얻기	-4327
▁얻었	-4328
▁역대	-4329
▁역할	-4330
▁올바	-4331
▁유익	-4332
▁의미	-4333
▁이뤄	-4334
▁이야	-4335
▁입묘	-4336
▁입을	-4337
▁적게	-4338
▁점수	-4339
▁정관	-4340
▁정당	-4341
▁정비	-4342
▁정할	-4343
▁주력	-4344
▁죽어	-4345
▁죽은	-4346
▁중심	-4347
▁짐작	-4348
▁집중	-4349
▁창시	-4350
▁출발	-4351
▁태어	-4352
▁편수	-4353
▁편입	-4354
▁폐지	-4355
▁포용	-4356
▁혼인	-4357
作是念	-4358
사오나	-4359
서원문	-4360
인들이	-4361
하기는	-4362
합하여	-4363
▁55.	-4364
▁ᄋᄋ님	-4365
▁거래에	-4366
▁계획을	-4367
▁곳마다	-4368
▁공변된	-4369
▁공사에	-4370
▁공정한	-4371
▁공중의	-4372
▁교리와	-4373
▁교법의	-4374
▁교정원	-4375
▁구하지	-4376
▁권리가	-4377
▁기관의	-4378
▁능력을	-4379
▁당시의	-4380
▁대각전	-4381
▁대도에	-4382
▁대봉도	-4383
▁동하지	-4384
▁두려워	-4385
▁두렷한	-4386
▁면하지	-4387
▁믿으며	-4388
▁발전을	-4389
▁법설을	-4390
▁변화를	-4391
▁보화당	-4392
▁본래의	-4393
▁뵈옵고	-4394
▁불제자	-4395
▁살자는	-4396
▁선남자	-4397
▁성자가	-4398
▁세우는	-4399
▁세월에	-4400
▁심고와	-4401
▁없다는	-4402
▁열반을	-4403
▁열반의	-4404
▁영생의	-4405
▁오늘날	-4406
▁온전한	-4407
▁유무의	-4408
▁의세의	-4409
▁이른바	-4410
▁이처럼	-4411
▁일생에	-4412
▁일심을	-4413
▁일이요	-4414
▁있다가	-4415
▁잊어버	-4416
▁자녀의	-4417
▁자성에	-4418
▁자연의	-4419
▁잘하는	-4420
▁재산을	-4421
▁정성과	-4422
▁정신적	-4423
▁제도가	-4424
▁제생의	-4425
▁종사의	-4426
▁종자를	-4427
▁좌선을	-4428
▁죄복을	-4429
▁주시며	-4430
▁창립의	-4431
▁천지를	-4432
▁충분히	-4433
▁취하여	-4434
▁취하지	-4435
▁하늘과	-4436
▁하므로	-4437
▁하였고	-4438
▁해탈을	-4439
▁화하게	-4440
법강항마	-4441
전무출신	-4442
하옵니다	-4443
▁과거에는	-4444
▁나라에서	-4445
▁대하여는	-4446
▁동지들의	-4447
▁불생불멸	-4448
▁시대에는	-4449
▁어려우나	-4450
▁오래오래	-4451
▁원만하고	-4452
▁정성으로	-4453
▁지성으로	-4454
▁청정하여	-4455
▁표준으로	-4456
▁하는지라	-4457
▁하였으니	-4458
▁활용하여	-4459
▁있사오리까	-4460
▁재계하옵고	-4461
▁이름하나니라	-4462
▁但	-4463
▁永	-4464
▁爾	-4465
▁猶	-4466
▁덮	-4467
▁벽	-4468
▁엿	-4469
▁옹	-4470
▁펼	-4471
▁폭	-4472
▁험	-4473
四生	-4474
女人	-4475
歸依	-4476
見性	-4477
隨相	-4478
감지	-4479
고가	-4480
교당	-4481
군을	-4482
기라	-4483
는지	-4484
두고	-4485
들고	-4486
들여	-4487
로병	-4488
로에	-4489
만은	-4490
물은	-4491
배를	-4492
상히	-4493
성은	-4494
시여	-4495
시켰	-4496
식도	-4497
심히	-4498
열반	-4499
오늘	-4500
욕이	-4501
운동	-4502
위로	-4503
유한	-4504
음과	-4505
이타	-4506
일은	-4507
전주	-4508
점을	-4509
정신	-4510
진화	-4511
천지	-4512
▁1)	-4513
▁21	-4514
▁3)	-4515
▁56	-4516
▁不也	-4517
▁心生	-4518
▁가슴	-4519
▁개편	-4520
▁겨울	-4521
▁고집	-4522
▁관리	-4523
▁구도	-4524
▁구속	-4525
▁국제	-4526
▁기어	-4527
▁까지	-4528
▁농사	-4529
▁단계	-4530
▁대비	-4531
▁대성	-4532
▁도의	-4533
▁돈이	-4534
▁드는	-4535
▁들게	-4536
▁들고	-4537
▁맑고	-4538
▁맡은	-4539
▁멸도	-4540
▁목욕	-4541
▁묘유	-4542
▁무등	-4543
▁문을	-4544
▁물결	-4545
▁미륵	-4546
▁법통	-4547
▁법회	-4548
▁벗어	-4549
▁보존	-4550
▁복락	-4551
▁부활	-4552
▁분의	-4553
▁불사	-4554
▁불상	-4555
▁불쌍	-4556
▁사정	-4557
▁살게	-4558
▁상벌	-4559
▁상장	-4560
▁선포	-4561
▁설한	-4562
▁설할	-4563
▁성업	-4564
▁세운	-4565
▁수레	-4566
▁수자	-4567
▁쉬우	-4568
▁신령	-4569
▁실상	-4570
▁심전	-4571
▁십이	-4572
▁쓰면	-4573
▁아주	-4574
▁안내	-4575
▁알라	-4576
▁앞장	-4577
▁열리	-4578
▁옷을	-4579
▁위패	-4580
▁유일	-4581
▁응접	-4582
▁의세	-4583
▁이때	-4584
▁이하	-4585
▁있은	-4586
▁자료	-4587
▁장례	-4588
▁전주	-4589
▁정녀	-4590
▁정례	-4591
▁제재	-4592
▁주착	-4593
▁죽고	-4594
▁증애	-4595
▁초안	-4596
▁출판	-4597
▁충실	-4598
▁학교	-4599
▁헌배	-4600
一圓相	-4601
阿羅漢	-4602
감지위	-4603
연하여	-4604
으시며	-4605
인지라	-4606
종법사	-4607
취사의	-4608
하려면	-4609
하지는	-4610
함이라	-4611
(191	-4612
▁56.	-4613
▁가르칠	-4614
▁갈수록	-4615
▁강령은	-4616
▁것인바	-4617
▁결과를	-4618
▁경계가	-4619
▁고요한	-4620
▁교당을	-4621
▁교도가	-4622
▁교리를	-4623
▁구족한	-4624
▁국가에	-4625
▁국한을	-4626
▁기운은	-4627
▁기초를	-4628
▁깨닫고	-4629
▁나날이	-4630
▁나라에	-4631
▁넉넉한	-4632
▁노력을	-4633
▁다르나	-4634
▁다르지	-4635
▁당하면	-4636
▁대중과	-4637
▁도학을	-4638
▁동지를	-4639
▁동지와	-4640
▁뜻이니	-4641
▁말씀이	-4642
▁맞추어	-4643
▁명예가	-4644
▁무사한	-4645
▁물질의	-4646
▁믿음을	-4647
▁병이요	-4648
▁본의를	-4649
▁불공을	-4650
▁사리를	-4651
▁사물을	-4652
▁사생의	-4653
▁사업도	-4654
▁사업은	-4655
▁살림을	-4656
▁살아나	-4657
▁삼계의	-4658
▁삼학을	-4659
▁생사가	-4660
▁생사를	-4661
▁설법을	-4662
▁세계와	-4663
▁세력이	-4664
▁소견을	-4665
▁소식을	-4666
▁수행에	-4667
▁실다운	-4668
▁어긋나	-4669
▁억지로	-4670
▁얻어야	-4671
▁여하에	-4672
▁열리게	-4673
▁의례를	-4674
▁이듬해	-4675
▁이에게	-4676
▁이치는	-4677
▁일시적	-4678
▁자신을	-4679
▁잘하면	-4680
▁적공을	-4681
▁전에는	-4682
▁종교와	-4683
▁중에는	-4684
▁지경에	-4685
▁지으면	-4686
▁천지에	-4687
▁천하가	-4688
▁철저한	-4689
▁초월한	-4690
▁축원문	-4691
▁하늘의	-4692
▁하면서	-4693
▁훈련과	-4694
▁힘으로	-4695
▁나아가야	-4696
▁나타나고	-4697
▁내리시니	-4698
▁돌아와서	-4699
▁될지언정	-4700
▁드러나고	-4701
▁바탕으로	-4702
▁불공하는	-4703
▁불보살이	-4704
▁사람들을	-4705
▁사람이나	-4706
▁삼대력을	-4707
▁상대편의	-4708
▁수도하는	-4709
▁스승에게	-4710
▁실행하고	-4711
▁아니리요	-4712
▁어렵나니	-4713
▁여러가지	-4714
▁예로부터	-4715
▁자리이타	-4716
▁제거하고	-4717
▁취사하는	-4718
▁하오리까	-4719
▁하셨느니라	-4720
▁이름하나이다	-4721
)(	-4722
▁令	-4723
▁初	-4724
▁問	-4725
▁後	-4726
▁從	-4727
▁悟	-4728
▁未	-4729
▁甚	-4730
▁꺼	-4731
▁닫	-4732
▁며	-4733
▁옥	-4734
▁윗	-4735
▁측	-4736
主義	-4737
之心	-4738
乙未	-4739
修羅	-4740
修行	-4741
出家	-4742
動靜	-4743
子善	-4744
念念	-4745
所說	-4746
此經	-4747
無不	-4748
無碍	-4749
空寂	-4750
賢聖	-4751
辛亥	-4752
釋迦	-4753
경의	-4754
관이	-4755
기만	-4756
덕이	-4757
되며	-4758
때로	-4759
라한	-4760
란을	-4761
럽고	-4762
림을	-4763
림이	-4764
말로	-4765
무사	-4766
무엇	-4767
물과	-4768
미타	-4769
법에	-4770
보은	-4771
불상	-4772
비는	-4773
산은	-4774
아니	-4775
약이	-4776
연합	-4777
열한	-4778
임이	-4779
잡한	-4780
제로	-4781
주가	-4782
주고	-4783
중히	-4784
체가	-4785
희사	-4786
▁30	-4787
▁46	-4788
▁一圓	-4789
▁是故	-4790
▁見他	-4791
▁간행	-4792
▁거둘	-4793
▁거진	-4794
▁게송	-4795
▁고시	-4796
▁고통	-4797
▁고향	-4798
▁관련	-4799
▁광전	-4800
▁구렁	-4801
▁구비	-4802
▁규칙	-4803
▁기사	-4804
▁나면	-4805
▁나온	-4806
▁내는	-4807
▁내세	-4808
▁냄새	-4809
▁넘어	-4810
▁능력	-4811
▁달게	-4812
▁대지	-4813
▁대천	-4814
▁더러	-4815
▁돌파	-4816
▁동서	-4817
▁드릴	-4818
▁들은	-4819
▁들이	-4820
▁땅이	-4821
▁마디	-4822
▁마라	-4823
▁막히	-4824
▁막힘	-4825
▁만세	-4826
▁많을	-4827
▁매년	-4828
▁명심	-4829
▁명을	-4830
▁모색	-4831
▁몰라	-4832
▁무처	-4833
▁문이	-4834
▁미쳐	-4835
▁믿어	-4836
▁믿을	-4837
▁방심	-4838
▁번거	-4839
▁벌여	-4840
▁베푸	-4841
▁병행	-4842
▁보임	-4843
▁봉축	-4844
▁부르	-4845
▁부자	-4846
▁부정	-4847
▁불을	-4848
▁불평	-4849
▁비방	-4850
▁빛을	-4851
▁사라	-4852
▁살았	-4853
▁삼라	-4854
▁생을	-4855
▁선녀	-4856
▁성의	-4857
▁성질	-4858
▁세속	-4859
▁손을	-4860
▁솔성	-4861
▁송별	-4862
▁수신	-4863
▁수하	-4864
▁수확	-4865
▁슬퍼	-4866
▁시절	-4867
▁식은	-4868
▁신랑	-4869
▁심법	-4870
▁쓰라	-4871
▁아이	-4872
▁악도	-4873
▁알기	-4874
▁약력	-4875
▁역량	-4876
▁영지	-4877
▁외국	-4878
▁원동	-4879
▁원수	-4880
▁유감	-4881
▁의결	-4882
▁임원	-4883
▁입각	-4884
▁입고	-4885
▁잊고	-4886
▁재철	-4887
▁적극	-4888
▁적의	-4889
▁정이	-4890
▁조석	-4891
▁조촐	-4892
▁존재	-4893
▁주가	-4894
▁준공	-4895
▁중이	-4896
▁지부	-4897
▁지식	-4898
▁찬송	-4899
▁찾을	-4900
▁처처	-4901
▁태양	-4902
▁파괴	-4903
▁표창	-4904
▁하려	-4905
▁한반	-4906
▁항시	-4907
▁행복	-4908
▁환희	-4909
▁후원	-4910
▁휴양	-4911
▁흘러	-4912
▁힘입	-4913
男子善	-4914
隨相門	-4915
가에서	-4916
명으로	-4917
사오며	-4918
상이라	-4919
정하고	-4920
지에서	-4921
진하여	-4922
하거든	-4923
▁58.	-4924
▁가정과	-4925
▁가져서	-4926
▁갖추는	-4927
▁결실을	-4928
▁공부인	-4929
▁교중의	-4930
▁교화의	-4931
▁그대는	-4932
▁그들이	-4933
▁깨닫는	-4934
▁깨치는	-4935
▁내역을	-4936
▁넷째는	-4937
▁도리를	-4938
▁동지가	-4939
▁때까지	-4940
▁뜻인가	-4941
▁말로써	-4942
▁목적에	-4943
▁무수한	-4944
▁무시선	-4945
▁물건이	-4946
▁물질을	-4947
▁미치지	-4948
▁바치는	-4949
▁받아야	-4950
▁방식을	-4951
▁버리는	-4952
▁법계에	-4953
▁법륜을	-4954
▁법이니	-4955
▁법통을	-4956
▁변하여	-4957
▁본래에	-4958
▁뿌리가	-4959
▁사람들	-4960
▁살생을	-4961
▁새로이	-4962
▁선업이	-4963
▁세간의	-4964
▁손님이	-4965
▁시간에	-4966
▁시일이	-4967
▁안정을	-4968
▁어른을	-4969
▁얼굴이	-4970
▁업장이	-4971
▁예의를	-4972
▁우연히	-4973
▁의무를	-4974
▁이기는	-4975
▁이루고	-4976
▁이제는	-4977
▁인도를	-4978
▁인지가	-4979
▁일념을	-4980
▁일이니	-4981
▁일체중	-4982
▁자기만	-4983
▁자녀가	-4984
▁자상히	-4985
▁전체가	-4986
▁절차를	-4987
▁정치의	-4988
▁좋으나	-4989
▁주인은	-4990
▁주인의	-4991
▁줌이요	-4992
▁지어서	-4993
▁지옥에	-4994
▁직업을	-4995
▁천지는	-4996
▁총부에	-4997
▁평화의	-4998
▁필경은	-4999
▁하고자	-5000
▁하늘을	-5001
▁하열한	-5002
▁한없는	-5003
▁행사를	-5004
▁현재의	-5005
▁화하고	-5006
하는지라	-5007
하셨나니	-5008
할지라도	-5009
▁1916	-5010
▁건설하는	-5011
▁것으로써	-5012
▁기관으로	-5013
▁다스리고	-5014
▁다음에는	-5015
▁대각여래	-5016
▁대답하되	-5017
▁도인들은	-5018
▁되었나니	-5019
▁되었으나	-5020
▁드러나게	-5021
▁법마상전	-5022
▁벗어나서	-5023
▁사은전에	-5024
▁선녀인이	-5025
▁수위단회	-5026
▁실천하는	-5027
▁있겠는가	-5028
▁있나이다	-5029
▁있는지라	-5030
▁자리에는	-5031
▁주인공이	-5032
▁지도하는	-5033
▁하겠느냐	-5034
▁한결같은	-5035
▁함이니라	-5036
▁훈련으로	-5037
男子善女人	-5038
(1955.	-5039
(1971.	-5040
▁사람들에게	-5041
▁어렵나니라	-5042
▁존령이시여	-5043
▁대종사께서도	-5044
▁방법으로든지	-5045
▁훈시하시기를	-5046
▁아뇩다라삼먁삼보리를	-5047
14	-5048
7]	-5049
ᄋᄋ	-5050
▁任	-5051
▁先	-5052
▁勸	-5053
▁可	-5054
▁感	-5055
▁或	-5056
▁欲	-5057
▁然	-5058
▁願	-5059
▁겉	-5060
▁겪	-5061
▁눕	-5062
▁뉘	-5063
▁돕	-5064
▁뚫	-5065
▁뻗	-5066
▁뽑	-5067
▁앎	-5068
▁옆	-5069
▁잎	-5070
▁짜	-5071
三昧	-5072
其心	-5073
凡夫	-5074
大覺	-5075
大道	-5076
庚戌	-5077
有人	-5078
業故	-5079
正師	-5080
法階	-5081
滅度	-5082
爲道	-5083
牟尼	-5084
知識	-5085
第一	-5086
강을	-5087
개를	-5088
개벽	-5089
개의	-5090
국에	-5091
난을	-5092
남을	-5093
내기	-5094
다른	-5095
독교	-5096
되이	-5097
등한	-5098
법률	-5099
보고	-5100
쁘고	-5101
사요	-5102
상시	-5103
수라	-5104
어든	-5105
업에	-5106
욕과	-5107
용할	-5108
장과	-5109
저는	-5110
총부	-5111
출진	-5112
켜서	-5113
하가	-5114
하듯	-5115
한이	-5116
해도	-5117
혀서	-5118
화와	-5119
~19	-5120
▁24	-5121
▁4)	-5122
▁48	-5123
▁54	-5124
▁不生	-5125
▁不知	-5126
▁卽爲	-5127
▁菩薩	-5128
▁가게	-5129
▁가뭄	-5130
▁갖은	-5131
▁공공	-5132
▁광선	-5133
▁구성	-5134
▁귀를	-5135
▁그때	-5136
▁그만	-5137
▁근로	-5138
▁기능	-5139
▁끊는	-5140
▁끝에	-5141
▁나갈	-5142
▁나지	-5143
▁너희	-5144
▁단정	-5145
▁당일	-5146
▁대승	-5147
▁대재	-5148
▁대정	-5149
▁도성	-5150
▁동기	-5151
▁되니	-5152
▁따른	-5153
▁땅은	-5154
▁때라	-5155
▁마쳤	-5156
▁만생	-5157
▁말도	-5158
▁망녕	-5159
▁멀지	-5160
▁모태	-5161
▁문에	-5162
▁바는	-5163
▁반가	-5164
▁받으	-5165
▁발한	-5166
▁밟아	-5167
▁밥을	-5168
▁백천	-5169
▁법사	-5170
▁보본	-5171
▁봉찬	-5172
▁분은	-5173
▁불이	-5174
▁빌려	-5175
▁빛나	-5176
▁빠른	-5177
▁사방	-5178
▁삼독	-5179
▁서게	-5180
▁서약	-5181
▁선택	-5182
▁시자	-5183
▁신분	-5184
▁실효	-5185
▁쌓는	-5186
▁애를	-5187
▁어지	-5188
▁어진	-5189
▁역사	-5190
▁예문	-5191
▁옮겨	-5192
▁왕래	-5193
▁요구	-5194
▁유의	-5195
▁유혹	-5196
▁윤회	-5197
▁응대	-5198
▁인정	-5199
▁인종	-5200
▁읽고	-5201
▁자본	-5202
▁전국	-5203
▁전라	-5204
▁전재	-5205
▁정남	-5206
▁정리	-5207
▁정을	-5208
▁제창	-5209
▁제출	-5210
▁조각	-5211
▁조성	-5212
▁종파	-5213
▁좋고	-5214
▁주문	-5215
▁주옵	-5216
▁증득	-5217
▁진흥	-5218
▁착이	-5219
▁착한	-5220
▁찾는	-5221
▁최상	-5222
▁축사	-5223
▁키워	-5224
▁평범	-5225
▁평탄	-5226
▁합장	-5227
▁헤매	-5228
▁형편	-5229
▁혜택	-5230
▁후래	-5231
▁후로	-5232
▁후천	-5233
기에서	-5234
냄이요	-5235
되어야	-5236
마음이	-5237
보다는	-5238
사업에	-5239
상에서	-5240
세상에	-5241
았으나	-5242
어져서	-5243
이리오	-5244
지이다	-5245
하도다	-5246
하든지	-5247
하시나	-5248
하옵신	-5249
▁59.	-5250
▁가라앉	-5251
▁가져야	-5252
▁가지의	-5253
▁가치가	-5254
▁가치를	-5255
▁갖추게	-5256
▁건설의	-5257
▁견성을	-5258
▁경륜을	-5259
▁경우가	-5260
▁계율을	-5261
▁고통을	-5262
▁곳으로	-5263
▁공도자	-5264
▁공력을	-5265
▁과목을	-5266
▁교법을	-5267
▁교화가	-5268
▁국민의	-5269
▁그대들	-5270
▁기르고	-5271
▁기어이	-5272
▁길이요	-5273
▁끌리어	-5274
▁나거든	-5275
▁노력할	-5276
▁다하고	-5277
▁당시에	-5278
▁당연한	-5279
▁대각의	-5280
▁대업을	-5281
▁대운을	-5282
▁대하는	-5283
▁대호법	-5284
▁되오니	-5285
▁된다면	-5286
▁됨이요	-5287
▁때때로	-5288
▁마치면	-5289
▁만법을	-5290
▁만법이	-5291
▁말아야	-5292
▁망념이	-5293
▁매사에	-5294
▁모르게	-5295
▁무리가	-5296
▁무자력	-5297
▁미래의	-5298
▁바라는	-5299
▁바람이	-5300
▁바치고	-5301
▁보은이	-5302
▁부당한	-5303
▁비추어	-5304
▁뿌리를	-5305
▁뿐이요	-5306
▁사랑을	-5307
▁사이나	-5308
▁사회가	-5309
▁살아야	-5310
▁생로병	-5311
▁선악의	-5312
▁성리를	-5313
▁세계로	-5314
▁속이지	-5315
▁손님을	-5316
▁신성과	-5317
▁실지로	-5318
▁심고를	-5319
▁심신의	-5320
▁아라한	-5321
▁안에서	-5322
▁약자가	-5323
▁어두워	-5324
▁어린이	-5325
▁업장을	-5326
▁열리는	-5327
▁영지가	-5328
▁오롯이	-5329
▁왔으나	-5330
▁위력이	-5331
▁유무념	-5332
▁의견을	-5333
▁의식을	-5334
▁이치와	-5335
▁인류는	-5336
▁인증을	-5337
▁있듯이	-5338
▁자리로	-5339
▁재주를	-5340
▁적당히	-5341
▁전생에	-5342
▁정관평	-5343
▁정력을	-5344
▁제자의	-5345
▁종사는	-5346
▁죄복의	-5347
▁주시고	-5348
▁주위에	-5349
▁주의를	-5350
▁지혜와	-5351
▁진정한	-5352
▁착심을	-5353
▁찾아서	-5354
▁처하여	-5355
▁천지와	-5356
▁체제를	-5357
▁최초의	-5358
▁통하고	-5359
▁표준이	-5360
▁하거든	-5361
▁하나님	-5362
▁하늘에	-5363
▁한다고	-5364
▁함이니	-5365
▁행동이	-5366
▁행하지	-5367
▁허망한	-5368
▁혜복의	-5369
▁후로는	-5370
釋迦牟尼	-5371
▁以是因緣	-5372
▁것입니다	-5373
▁공부니라	-5374
▁구분하여	-5375
▁노력하라	-5376
▁대상으로	-5377
▁대치하는	-5378
▁못한다면	-5379
▁못할지니	-5380
▁불보살의	-5381
▁사람이니	-5382
▁사람이며	-5383
▁사랑하는	-5384
▁시작하여	-5385
▁싫어하는	-5386
▁인도하는	-5387
▁일어나는	-5388
▁있건마는	-5389
▁저희들의	-5390
▁종법사가	-5391
▁주장하는	-5392
▁준비하는	-5393
▁중생에게	-5394
▁지음이요	-5395
般若波羅蜜	-5396
아니옵니다	-5397
하겠나이다	-5398
▁마음으로써	-5399
▁반야바라밀	-5400
▁부탁하노라	-5401
▁시작하였다	-5402
▁이르기까지	-5403
▁있을지라도	-5404
12	-5405
▁中	-5406
▁信	-5407
▁修	-5408
▁南	-5409
▁又	-5410
▁必	-5411
▁日	-5412
▁明	-5413
▁漸	-5414
▁終	-5415
▁豈	-5416
▁長	-5417
▁값	-5418
▁낼	-5419
▁닮	-5420
▁떼	-5421
▁삶	-5422
▁족	-5423
▁쥐	-5424
▁흠	-5425
》(	-5426
一念	-5427
丁酉	-5428
佛言	-5429
喪葬	-5430
壬寅	-5431
定靜	-5432
後修	-5433
敎規	-5434
會上	-5435
本師	-5436
步步	-5437
比丘	-5438
法者	-5439
色身	-5440
金剛	-5441
가에	-5442
겁을	-5443
고히	-5444
관을	-5445
권을	-5446
그마	-5447
길이	-5448
나무	-5449
년대	-5450
념과	-5451
돌아	-5452
등을	-5453
라면	-5454
락에	-5455
란이	-5456
렸다	-5457
리기	-5458
명은	-5459
모의	-5460
미한	-5461
받을	-5462
병을	-5463
보응	-5464
불급	-5465
서가	-5466
세는	-5467
셨고	-5468
실에	-5469
아무	-5470
아의	-5471
아지	-5472
연과	-5473
옵서	-5474
자나	-5475
장은	-5476
절이	-5477
정사	-5478
지기	-5479
지부	-5480
책을	-5481
천도	-5482
천에	-5483
체는	-5484
침을	-5485
하겠	-5486
학과	-5487
호라	-5488
▁27	-5489
▁不如	-5490
▁不應	-5491
▁是人	-5492
▁爾時	-5493
▁가꾸	-5494
▁가옥	-5495
▁각처	-5496
▁간격	-5497
▁감동	-5498
▁강자	-5499
▁개혁	-5500
▁거교	-5501
▁고난	-5502
▁고쳐	-5503
▁과수	-5504
▁과한	-5505
▁과히	-5506
▁교우	-5507
▁교파	-5508
▁구경	-5509
▁구공	-5510
▁구별	-5511
▁국내	-5512
▁규정	-5513
▁그일	-5514
▁기대	-5515
▁기억	-5516
▁기천	-5517
▁끝나	-5518
▁놀라	-5519
▁뉘우	-5520
▁다녀	-5521
▁다투	-5522
▁대강	-5523
▁대거	-5524
▁더할	-5525
▁도리	-5526
▁동남	-5527
▁되나	-5528
▁땅을	-5529
▁때요	-5530
▁만사	-5531
▁말에	-5532
▁맞추	-5533
▁머리	-5534
▁먹는	-5535
▁면할	-5536
▁명랑	-5537
▁모시	-5538
▁모양	-5539
▁모자	-5540
▁모친	-5541
▁무릇	-5542
▁물어	-5543
▁박람	-5544
▁발행	-5545
▁방황	-5546
▁백지	-5547
▁법연	-5548
▁별로	-5549
▁병든	-5550
▁병들	-5551
▁보관	-5552
▁복의	-5553
▁부여	-5554
▁부친	-5555
▁북돋	-5556
▁불변	-5557
▁불은	-5558
▁불타	-5559
▁삼계	-5560
▁서는	-5561
▁선은	-5562
▁선의	-5563
▁성령	-5564
▁성쇠	-5565
▁소를	-5566
▁수고	-5567
▁수시	-5568
▁수정	-5569
▁식을	-5570
▁신정	-5571
▁신축	-5572
▁아나	-5573
▁약속	-5574
▁양로	-5575
▁어둠	-5576
▁열위	-5577
▁염치	-5578
▁오를	-5579
▁올려	-5580
▁완철	-5581
▁왕이	-5582
▁용맹	-5583
▁우러	-5584
▁우치	-5585
▁울안	-5586
▁원리	-5587
▁위력	-5588
▁의논	-5589
▁인쇄	-5590
▁일정	-5591
▁입게	-5592
▁입선	-5593
▁입장	-5594
▁자립	-5595
▁자택	-5596
▁잡지	-5597
▁적고	-5598
▁전도	-5599
▁전쟁	-5600
▁절대	-5601
▁정교	-5602
▁존경	-5603
▁좁은	-5604
▁주야	-5605
▁줄은	-5606
▁증명	-5607
▁지낸	-5608
▁지출	-5609
▁창조	-5610
▁천명	-5611
▁천신	-5612
▁칠보	-5613
▁칭찬	-5614
▁크다	-5615
▁타고	-5616
▁탁한	-5617
▁통례	-5618
▁편에	-5619
▁포함	-5620
▁풍속	-5621
▁피차	-5622
▁학원	-5623
▁했다	-5624
▁화려	-5625
善知識	-5626
白佛言	-5627
계에서	-5628
그대의	-5629
그러면	-5630
되리라	-5631
려고만	-5632
만유가	-5633
미타불	-5634
보내기	-5635
사께서	-5636
사업을	-5637
시었다	-5638
양하여	-5639
으로나	-5640
음으로	-5641
중에서	-5642
첫째는	-5643
하라는	-5644
하리오	-5645
한지라	-5646
화하는	-5647
▁193	-5648
▁가하여	-5649
▁간소한	-5650
▁강령을	-5651
▁건설에	-5652
▁결과가	-5653
▁경로를	-5654
▁경우와	-5655
▁공중을	-5656
▁과보를	-5657
▁과불급	-5658
▁괴로운	-5659
▁교단적	-5660
▁그치지	-5661
▁근본적	-5662
▁기관은	-5663
▁기운과	-5664
▁깨끗이	-5665
▁깨치고	-5666
▁깨치면	-5667
▁나라가	-5668
▁나라와	-5669
▁나무아	-5670
▁넘치는	-5671
▁다생에	-5672
▁다해야	-5673
▁대의에	-5674
▁대체로	-5675
▁데에만	-5676
▁동지의	-5677
▁동하고	-5678
▁마군을	-5679
▁만고에	-5680
▁만났을	-5681
▁말씀은	-5682
▁목적을	-5683
▁못한다	-5684
▁믿음이	-5685
▁바쳐서	-5686
▁받기가	-5687
▁받드는	-5688
▁범부와	-5689
▁범연히	-5690
▁법계의	-5691
▁보배를	-5692
▁복덕이	-5693
▁본교의	-5694
▁부처로	-5695
▁부처인	-5696
▁부터는	-5697
▁분명히	-5698
▁불과를	-5699
▁불법이	-5700
▁불상을	-5701
▁비컨대	-5702
▁사뢰어	-5703
▁사심이	-5704
▁사이의	-5705
▁삼아야	-5706
▁생기는	-5707
▁생전에	-5708
▁생활은	-5709
▁선근을	-5710
▁선진은	-5711
▁성질이	-5712
▁성품의	-5713
▁성품이	-5714
▁세월이	-5715
▁소소한	-5716
▁송광이	-5717
▁수고를	-5718
▁수상문	-5719
▁수양을	-5720
▁순일한	-5721
▁시대가	-5722
▁시대라	-5723
▁심법을	-5724
▁아니나	-5725
▁아니다	-5726
▁앞두고	-5727
▁어디에	-5728
▁없었다	-5729
▁없을새	-5730
▁여의고	-5731
▁역할을	-5732
▁연구의	-5733
▁연원을	-5734
▁염불과	-5735
▁영광군	-5736
▁예법을	-5737
▁외에는	-5738
▁우리를	-5739
▁위대한	-5740
▁육신이	-5741
▁이루신	-5742
▁인류와	-5743
▁인재를	-5744
▁일에는	-5745
▁자성이	-5746
▁자세히	-5747
▁재미로	-5748
▁저희들	-5749
▁전체를	-5750
▁전체의	-5751
▁전하여	-5752
▁점이다	-5753
▁정사에	-5754
▁정의가	-5755
▁정의에	-5756
▁정하여	-5757
▁제자를	-5758
▁조합원	-5759
▁종교는	-5760
▁중도를	-5761
▁중생도	-5762
▁중앙에	-5763
▁즐거운	-5764
▁진행할	-5765
▁취사를	-5766
▁타자녀	-5767
▁편안히	-5768
▁평등한	-5769
▁하지만	-5770
▁허공에	-5771
▁혜복을	-5772
▁확실히	-5773
一切衆生	-5774
년기에는	-5775
대종사의	-5776
사오리까	-5777
이옵니다	-5778
하였다가	-5779
하였으니	-5780
▁가운데서	-5781
▁개인이나	-5782
▁계교하지	-5783
▁귀의하고	-5784
▁나타나게	-5785
▁도인들이	-5786
▁들어가는	-5787
▁떨어지지	-5788
▁만보살을	-5789
▁무등등한	-5790
▁무엇으로	-5791
▁미워하고	-5792
▁반성하여	-5793
▁보임이요	-5794
▁부끄러운	-5795
▁사사불공	-5796
▁상대하여	-5797
▁수행하는	-5798
▁시자에게	-5799
▁실행하여	-5800
▁심경으로	-5801
▁아니므로	-5802
▁앞에서는	-5803
▁양성하는	-5804
▁운동이니	-5805
▁운전하여	-5806
▁위함이요	-5807
▁일념으로	-5808
▁자기에게	-5809
▁저희들도	-5810
▁정신수양	-5811
▁좋아하고	-5812
▁주옵시고	-5813
▁중생들은	-5814
▁중심으로	-5815
▁지공무사	-5816
▁지금까지	-5817
▁활용하는	-5818
▁흔들리지	-5819
(1957.	-5820
(1970.	-5821
▁공부인에게	-5822
▁기사보내기	-5823
▁수위단회의	-5824
▁전무출신의	-5825
▁종사께서는	-5826
▁하셨나니라	-5827
▁하시었나니	-5828
▁나무아미타불	-5829
▁아뇩다라삼먁삼보리	-5830
25	-5831
4]	-5832
▁依	-5833
▁則	-5834
▁去	-5835
▁夫	-5836
▁尊	-5837
▁成	-5838
▁答	-5839
▁觀	-5840
▁諸	-5841
▁道	-5842
▁還	-5843
▁飯	-5844
▁갊	-5845
▁껍	-5846
▁낸	-5847
▁넣	-5848
▁늦	-5849
▁멈	-5850
▁숯	-5851
▁잇	-5852
▁털	-5853
▁틈	-5854
▁패	-5855
▁홍	-5856
七寶	-5857
三千	-5858
供養	-5859
修道	-5860
報恩	-5861
太山	-5862
庚辰	-5863
我相	-5864
方便	-5865
是非	-5866
正覺	-5867
法門	-5868
無我	-5869
無窮	-5870
神通	-5871
讀誦	-5872
鼎山	-5873
가고	-5874
갔다	-5875
건국	-5876
견성	-5877
교는	-5878
근이	-5879
다니	-5880
당에	-5881
대가	-5882
도덕	-5883
동포	-5884
된다	-5885
래로	-5886
러한	-5887
렀다	-5888
망이	-5889
명과	-5890
명암	-5891
무시	-5892
밀한	-5893
번에	-5894
법어	-5895
보는	-5896
보통	-5897
비가	-5898
서로	-5899
소의	-5900
시킨	-5901
양한	-5902
어떤	-5903
어찌	-5904
었을	-5905
여의	-5906
옛날	-5907
우면	-5908
우의	-5909
위원	-5910
음의	-5911
자연	-5912
져야	-5913
종이	-5914
지면	-5915
처가	-5916
체의	-5917
치의	-5918
컨댄	-5919
태를	-5920
판을	-5921
편집	-5922
품을	-5923
하루	-5924
학원	-5925
학을	-5926
한을	-5927
호가	-5928
화로	-5929
회상	-5930
].’	-5931
▁17	-5932
▁38	-5933
▁39	-5934
▁41	-5935
▁44	-5936
▁52	-5937
▁南無	-5938
▁天下	-5939
▁是爲	-5940
▁가며	-5941
▁감각	-5942
▁감찰	-5943
▁개과	-5944
▁거느	-5945
▁거슬	-5946
▁겁을	-5947
▁계급	-5948
▁고가	-5949
▁고생	-5950
▁공용	-5951
▁공포	-5952
▁과정	-5953
▁교훈	-5954
▁굽히	-5955
▁권리	-5956
▁그치	-5957
▁기반	-5958
▁기업	-5959
▁깊고	-5960
▁꾸미	-5961
▁나올	-5962
▁낙이	-5963
▁날을	-5964
▁너는	-5965
▁넓은	-5966
▁넘나	-5967
▁눈이	-5968
▁다생	-5969
▁도운	-5970
▁동과	-5971
▁동심	-5972
▁되자	-5973
▁등위	-5974
▁땅의	-5975
▁때도	-5976
▁막을	-5977
▁만날	-5978
▁맡아	-5979
▁먹지	-5980
▁무지	-5981
▁묵묵	-5982
▁묻는	-5983
▁바도	-5984
▁바친	-5985
▁법력	-5986
▁법요	-5987
▁보조	-5988
▁복도	-5989
▁복종	-5990
▁봉사	-5991
▁부근	-5992
▁부드	-5993
▁분발	-5994
▁분수	-5995
▁분을	-5996
▁불구	-5997
▁불편	-5998
▁불합	-5999
▁불효	-6000
▁비밀	-6001
▁빠져	-6002
▁뿐만	-6003
▁사귀	-6004
▁사다	-6005
▁사대	-6006
▁사를	-6007
▁사장	-6008
▁상근	-6009
▁생의	-6010
▁성가	-6011
▁성리	-6012
▁성립	-6013
▁성자	-6014
▁성적	-6015
▁소비	-6016
▁쇠약	-6017
▁수를	-6018
▁수습	-6019
▁수지	-6020
▁쉬고	-6021
▁시련	-6022
▁시설	-6023
▁실례	-6024
▁싶은	-6025
▁악은	-6026
▁양이	-6027
▁어릴	-6028
▁얼음	-6029
▁없던	-6030
▁열릴	-6031
▁염려	-6032
▁영결	-6033
▁영을	-6034
▁예시	-6035
▁오른	-6036
▁오면	-6037
▁요건	-6038
▁유명	-6039
▁융통	-6040
▁이사	-6041
▁이참	-6042
▁인생	-6043
▁임명	-6044
▁자는	-6045
▁자만	-6046
▁자지	-6047
▁장의	-6048
▁재래	-6049
▁재를	-6050
▁저녁	-6051
▁적이	-6052
▁적절	-6053
▁전부	-6054
▁전북	-6055
▁전할	-6056
▁전환	-6057
▁젊은	-6058
▁접기	-6059
▁정정	-6060
▁제작	-6061
▁종협	-6062
▁죄는	-6063
▁죄도	-6064
▁주견	-6065
▁주기	-6066
▁지낼	-6067
▁지었	-6068
▁지정	-6069
▁진보	-6070
▁진안	-6071
▁진퇴	-6072
▁짧은	-6073
▁착복	-6074
▁찾게	-6075
▁천리	-6076
▁천진	-6077
▁친지	-6078
▁탄압	-6079
▁태교	-6080
▁태극	-6081
▁퇴굴	-6082
▁팔만	-6083
▁편집	-6084
▁평안	-6085
▁표방	-6086
▁하자	-6087
▁학림	-6088
▁학생	-6089
▁학술	-6090
▁한탄	-6091
▁합일	-6092
▁혁신	-6093
▁혜광	-6094
壽者相	-6095
少太山	-6096
衆生相	-6097
공부의	-6098
그마한	-6099
금강경	-6100
대하는	-6101
랫동안	-6102
불보살	-6103
사옵고	-6104
시니라	-6105
시키기	-6106
야말로	-6107
이것이	-6108
일수록	-6109
장으로	-6110
중하여	-6111
펼치기	-6112
했으나	-6113
화하여	-6114
▁195	-6115
▁60.	-6116
▁가지게	-6117
▁간단히	-6118
▁감사의	-6119
▁갖추고	-6120
▁같으며	-6121
▁개벽의	-6122
▁걱정이	-6123
▁결과는	-6124
▁경전이	-6125
▁고통이	-6126
▁공도에	-6127
▁과거와	-6128
▁교당의	-6129
▁국가를	-6130
▁국한이	-6131
▁권리와	-6132
▁균등의	-6133
▁그런데	-6134
▁그일에	-6135
▁극락을	-6136
▁근기를	-6137
▁근심이	-6138
▁기독교	-6139
▁기술이	-6140
▁나라는	-6141
▁나아갈	-6142
▁나오고	-6143
▁나오는	-6144
▁낙원의	-6145
▁다하면	-6146
▁닦아서	-6147
▁단체나	-6148
▁대도의	-6149
▁도량의	-6150
▁도리가	-6151
▁돌리고	-6152
▁돌리자	-6153
▁동안에	-6154
▁되옵고	-6155
▁된다는	-6156
▁들이지	-6157
▁따르는	-6158
▁떠나는	-6159
▁마지막	-6160
▁만나면	-6161
▁만대의	-6162
▁만들고	-6163
▁만물은	-6164
▁문명의	-6165
▁물들지	-6166
▁미래를	-6167
▁민중의	-6168
▁바로잡	-6169
▁바르지	-6170
▁밖에서	-6171
▁받으며	-6172
▁발심한	-6173
▁범부는	-6174
▁범하지	-6175
▁법이요	-6176
▁병자의	-6177
▁보기를	-6178
▁보리라	-6179
▁보응의	-6180
▁부지중	-6181
▁불교와	-6182
▁사생이	-6183
▁살피고	-6184
▁생각과	-6185
▁생명이	-6186
▁생사는	-6187
▁생활과	-6188
▁성과를	-6189
▁성불의	-6190
▁세계요	-6191
▁소리와	-6192
▁수양의	-6193
▁시국의	-6194
▁시기를	-6195
▁신성을	-6196
▁신용을	-6197
▁실행할	-6198
▁아끼고	-6199
▁아래로	-6200
▁앉아서	-6201
▁않는다	-6202
▁않으며	-6203
▁앞에서	-6204
▁어렵게	-6205
▁얻음이	-6206
▁여섯째	-6207
▁영겁을	-6208
▁영식이	-6209
▁예로써	-6210
▁욕심에	-6211
▁우연한	-6212
▁운동을	-6213
▁원리에	-6214
▁원인이	-6215
▁월명암	-6216
▁위하사	-6217
▁위해서	-6218
▁은혜로	-6219
▁이름은	-6220
▁이름이	-6221
▁이상이	-6222
▁이해가	-6223
▁일이며	-6224
▁자리는	-6225
▁작용할	-6226
▁전일에	-6227
▁정법에	-6228
▁조목을	-6229
▁종교인	-6230
▁주기를	-6231
▁중도에	-6232
▁지내는	-6233
▁지도할	-6234
▁질서를	-6235
▁차이가	-6236
▁창생을	-6237
▁챙겨서	-6238
▁챙기고	-6239
▁처소에	-6240
▁처지를	-6241
▁청년이	-6242
▁청정히	-6243
▁청하여	-6244
▁총부를	-6245
▁총부의	-6246
▁취하고	-6247
▁취하는	-6248
▁타력을	-6249
▁특수한	-6250
▁편안한	-6251
▁하노니	-6252
▁하는데	-6253
▁하늘은	-6254
▁하셨고	-6255
▁한가지	-6256
▁허물이	-6257
▁효과가	-6258
심으로써	-6259
적으로는	-6260
정산종사	-6261
하겠는가	-6262
하더라도	-6263
▁가르쳐서	-6264
▁감사하는	-6265
▁개벽하자	-6266
▁것이라도	-6267
▁것이었다	-6268
▁교당이나	-6269
▁그것으로	-6270
▁그리하여	-6271
▁기운이요	-6272
▁까닭이요	-6273
▁단련하는	-6274
▁대종사가	-6275
▁마음에서	-6276
▁많으므로	-6277
▁명심하여	-6278
▁몸으로써	-6279
▁못하였다	-6280
▁무엇이나	-6281
▁미워하지	-6282
▁바이니라	-6283
▁바입니다	-6284
▁박중빈은	-6285
▁병진하는	-6286
▁불보살은	-6287
▁빠짐없이	-6288
▁사사로운	-6289
▁사업이나	-6290
▁사업하는	-6291
▁생겨나서	-6292
▁서원으로	-6293
▁성심으로	-6294
▁성취하게	-6295
▁세계에서	-6296
▁소태산이	-6297
▁스승으로	-6298
▁실생활에	-6299
▁실행하는	-6300
▁아니시면	-6301
▁알았으나	-6302
▁어긋남이	-6303
▁어른이나	-6304
▁얻나니라	-6305
▁없었으나	-6306
▁영산에서	-6307
▁원불교가	-6308
▁원칙으로	-6309
▁이용하여	-6310
▁일원주의	-6311
▁있는대로	-6312
▁제도하게	-6313
▁조그마한	-6314
▁주로하여	-6315
▁참예하여	-6316
▁처처불상	-6317
▁합심하여	-6318
▁환희심을	-6319
그러하오면	-6320
부처님께서	-6321
(1940.	-6322
(1962.	-6323
▁발표하시니	-6324
▁부처님으로	-6325
▁부처님이나	-6326
▁아니하시고	-6327
▁일어냄이요	-6328
▁하겠나이다	-6329
▁하였사오니	-6330
▁감사하옵나이다	-6331
▁조감하시옵소서	-6332
得阿耨多羅三藐三菩提	-6333
](	-6334
▁因	-6335
▁王	-6336
▁行	-6337
▁譬	-6338
▁둥	-6339
▁몽	-6340
▁뭇	-6341
▁빙	-6342
▁솥	-6343
▁쏟	-6344
▁젖	-6345
▁찍	-6346
▁척	-6347
▁칼	-6348
▁택	-6349
丁卯	-6350
不信	-6351
不見	-6352
世間	-6353
之功	-6354
事業	-6355
人相	-6356
佛道	-6357
光田	-6358
公道	-6359
分上	-6360
十方	-6361
善根	-6362
大師	-6363
如意	-6364
實相	-6365
己酉	-6366
師長	-6367
懺悔	-6368
敎義	-6369
李雲	-6370
法師	-6371
法身	-6372
無念	-6373
率性	-6374
甲子	-6375
甲辰	-6376
結義	-6377
資生	-6378
返照	-6379
那含	-6380
金大	-6381
開闢	-6382
陀洹	-6383
靈山	-6384
首迦	-6385
계는	-6386
귀를	-6387
기한	-6388
끼리	-6389
낱이	-6390
내고	-6391
내어	-6392
단히	-6393
대각	-6394
대중	-6395
독한	-6396
두에	-6397
등은	-6398
락과	-6399
모를	-6400
문과	-6401
문화	-6402
묻되	-6403
미를	-6404
바로	-6405
박을	-6406
보라	-6407
부와	-6408
사장	-6409
산의	-6410
선원	-6411
셨던	-6412
습을	-6413
시사	-6414
영모	-6415
욕의	-6416
음알	-6417
음은	-6418
이자	-6419
임에	-6420
자기	-6421
장한	-6422
재단	-6423
전은	-6424
전히	-6425
절을	-6426
절의	-6427
제에	-6428
치신	-6429
통은	-6430
하러	-6431
하온	-6432
해진	-6433
화에	-6434
www	-6435
▁31	-6436
▁任運	-6437
▁佛說	-6438
▁實無	-6439
▁所以	-6440
▁當知	-6441
▁譬如	-6442
▁가섭	-6443
▁가야	-6444
▁가을	-6445
▁간섭	-6446
▁간척	-6447
▁갊아	-6448
▁감시	-6449
▁강연	-6450
▁개설	-6451
▁개조	-6452
▁개회	-6453
▁걸려	-6454
▁검사	-6455
▁결산	-6456
▁겸손	-6457
▁계합	-6458
▁곳곳	-6459
▁과실	-6460
▁구멍	-6461
▁구현	-6462
▁규율	-6463
▁그칠	-6464
▁근실	-6465
▁글로	-6466
▁급한	-6467
▁급히	-6468
▁기거	-6469
▁기질	-6470
▁기회	-6471
▁끊고	-6472
▁끝이	-6473
▁내용	-6474
▁놀고	-6475
▁느껴	-6476
▁닦을	-6477
▁닦지	-6478
▁단독	-6479
▁담박	-6480
▁답례	-6481
▁답사	-6482
▁대가	-6483
▁대략	-6484
▁대접	-6485
▁데로	-6486
▁도사	-6487
▁도요	-6488
▁도화	-6489
▁돌고	-6490
▁동란	-6491
▁뒤로	-6492
▁뒷날	-6493
▁드물	-6494
▁만년	-6495
▁많지	-6496
▁매입	-6497
▁맺어	-6498
▁명명	-6499
▁명칭	-6500
▁무극	-6501
▁무릅	-6502
▁물과	-6503
▁미한	-6504
▁발생	-6505
▁밭을	-6506
▁버리	-6507
▁버릴	-6508
▁번도	-6509
▁법신	-6510
▁보급	-6511
▁보나	-6512
▁보다	-6513
▁보며	-6514
▁복은	-6515
▁부당	-6516
▁불단	-6517
▁불성	-6518
▁불어	-6519
▁비는	-6520
▁사나	-6521
▁살려	-6522
▁삼강	-6523
▁생에	-6524
▁서양	-6525
▁석존	-6526
▁선이	-6527
▁소자	-6528
▁수만	-6529
▁수생	-6530
▁수천	-6531
▁순경	-6532
▁순순	-6533
▁신설	-6534
▁실력	-6535
▁심어	-6536
▁싹이	-6537
▁쌓아	-6538
▁아득	-6539
▁아랫	-6540
▁악이	-6541
▁앞을	-6542
▁약간	-6543
▁양심	-6544
▁얻으	-6545
▁업이	-6546
▁여성	-6547
▁열고	-6548
▁영근	-6549
▁영령	-6550
▁예도	-6551
▁올릴	-6552
▁옳지	-6553
▁요달	-6554
▁요론	-6555
▁용납	-6556
▁위령	-6557
▁유전	-6558
▁의두	-6559
▁의복	-6560
▁이십	-6561
▁이외	-6562
▁인의	-6563
▁잘한	-6564
▁잠을	-6565
▁잡을	-6566
▁저를	-6567
▁전기	-6568
▁전일	-6569
▁접응	-6570
▁조물	-6571
▁조위	-6572
▁종합	-6573
▁죄고	-6574
▁죄복	-6575
▁주저	-6576
▁중국	-6577
▁중등	-6578
▁즉시	-6579
▁지난	-6580
▁지위	-6581
▁지체	-6582
▁진흙	-6583
▁질투	-6584
▁찬성	-6585
▁찬양	-6586
▁참여	-6587
▁창간	-6588
▁찾고	-6589
▁채택	-6590
▁처소	-6591
▁천어	-6592
▁청렴	-6593
▁청소	-6594
▁촉진	-6595
▁충고	-6596
▁충만	-6597
▁친목	-6598
▁태도	-6599
▁통한	-6600
▁특징	-6601
▁파견	-6602
▁하근	-6603
▁하다	-6604
▁한즉	-6605
▁한참	-6606
▁합치	-6607
▁해도	-6608
▁혈심	-6609
▁호념	-6610
▁호흡	-6611
▁혼란	-6612
▁확인	-6613
▁활발	-6614
▁회규	-6615
▁후생	-6616
▁훈습	-6617
▁힘은	-6618
三十二	-6619
阿修羅	-6620
阿那含	-6621
須陀洹	-6622
간다면	-6623
공부를	-6624
는가를	-6625
되기를	-6626
물질이	-6627
법으로	-6628
사람을	-6629
사온데	-6630
세계를	-6631
셨나니	-6632
아무리	-6633
어지면	-6634
원에서	-6635
이시니	-6636
자로서	-6637
전으로	-6638
정하는	-6639
조조합	-6640
하기만	-6641
하다면	-6642
하더니	-6643
하려고	-6644
하였던	-6645
하였을	-6646
해지고	-6647
행하여	-6648
▁100	-6649
▁61.	-6650
▁가난한	-6651
▁가벼이	-6652
▁가볍고	-6653
▁가시어	-6654
▁가져오	-6655
▁가족의	-6656
▁강급이	-6657
▁강자가	-6658
▁거름을	-6659
▁것인즉	-6660
▁결국은	-6661
▁고개를	-6662
▁곳에는	-6663
▁공부니	-6664
▁공양을	-6665
▁공의를	-6666
▁과정을	-6667
▁교리에	-6668
▁교리의	-6669
▁교서의	-6670
▁교회가	-6671
▁구렁에	-6672
▁구름이	-6673
▁그동안	-6674
▁그러면	-6675
▁그림자	-6676
▁그치고	-6677
▁근기의	-6678
▁근본에	-6679
▁기간을	-6680
▁기관과	-6681
▁기관에	-6682
▁길러야	-6683
▁나오면	-6684
▁나타날	-6685
▁남녀가	-6686
▁낱낱이	-6687
▁내리고	-6688
▁내리는	-6689
▁농사를	-6690
▁누구를	-6691
▁단체의	-6692
▁당인의	-6693
▁당하게	-6694
▁대봉공	-6695
▁대사를	-6696
▁데에서	-6697
▁독실한	-6698
▁동안의	-6699
▁동진화	-6700
▁동포가	-6701
▁드러난	-6702
▁들으시	-6703
▁들이는	-6704
▁등불을	-6705
▁때부터	-6706
▁떠나서	-6707
▁만대에	-6708
▁만법의	-6709
▁말이니	-6710
▁매하지	-6711
▁명함을	-6712
▁못하나	-6713
▁무위이	-6714
▁무한한	-6715
▁문명은	-6716
▁문명을	-6717
▁물질적	-6718
▁미루어	-6719
▁반가이	-6720
▁반대로	-6721
▁발전이	-6722
▁밝히는	-6723
▁방법이	-6724
▁방편이	-6725
▁번거한	-6726
▁법률을	-6727
▁법위를	-6728
▁베푸는	-6729
▁변하는	-6730
▁보고를	-6731
▁보은을	-6732
▁보이는	-6733
▁보조를	-6734
▁본말을	-6735
▁본받아	-6736
▁분수에	-6737
▁불공할	-6738
▁불교가	-6739
▁불교는	-6740
▁비용을	-6741
▁뿌리는	-6742
▁사람에	-6743
▁사생을	-6744
▁사실을	-6745
▁사유를	-6746
▁살리는	-6747
▁삼라만	-6748
▁삼아서	-6749
▁상대가	-6750
▁생각에	-6751
▁생기면	-6752
▁생사에	-6753
▁선원은	-6754
▁선후를	-6755
▁섭섭한	-6756
▁성공이	-6757
▁성공할	-6758
▁성리에	-6759
▁세력을	-6760
▁세월을	-6761
▁소원을	-6762
▁수도의	-6763
▁수양과	-6764
▁수양원	-6765
▁숨어서	-6766
▁쉬우나	-6767
▁실적이	-6768
▁실지에	-6769
▁실지의	-6770
▁실행에	-6771
▁쌓이고	-6772
▁아이가	-6773
▁알았다	-6774
▁어기지	-6775
▁어려서	-6776
▁어려우	-6777
▁얻기가	-6778
▁없고는	-6779
▁없으니	-6780
▁여기는	-6781
▁연고로	-6782
▁연유를	-6783
▁영향을	-6784
▁오시어	-6785
▁온전히	-6786
▁올바른	-6787
▁원인을	-6788
▁육근이	-6789
▁육도와	-6790
▁이대로	-6791
▁이르고	-6792
▁인과가	-6793
▁일동은	-6794
▁일으켜	-6795
▁일정한	-6796
▁잃어버	-6797
▁임시로	-6798
▁있거든	-6799
▁자력과	-6800
▁자리며	-6801
▁잘못이	-6802
▁잘하여	-6803
▁장소에	-6804
▁적의히	-6805
▁정치가	-6806
▁정치와	-6807
▁조직과	-6808
▁종사를	-6809
▁주체를	-6810
▁준비할	-6811
▁중간에	-6812
▁중앙총	-6813
▁즐기는	-6814
▁지견을	-6815
▁지방에	-6816
▁지방의	-6817
▁지식이	-6818
▁지장이	-6819
▁지키며	-6820
▁진실로	-6821
▁진화의	-6822
▁질서가	-6823
▁집에서	-6824
▁착심이	-6825
▁챙기지	-6826
▁초창기	-6827
▁충실히	-6828
▁큰일을	-6829
▁탐착을	-6830
▁평등이	-6831
▁필요가	-6832
▁학인의	-6833
▁해독을	-6834
▁해탈의	-6835
▁행사가	-6836
▁현실의	-6837
▁화하는	-6838
▁후진을	-6839
▁후진이	-6840
三十二相	-6841
受持讀誦	-6842
기관으로	-6843
이어니와	-6844
이지마는	-6845
종법사의	-6846
하시다가	-6847
하심이요	-6848
하지마는	-6849
▁1924	-6850
▁告須菩提	-6851
▁갖추어야	-6852
▁같으니라	-6853
▁개척하자	-6854
▁거기에서	-6855
▁거진출진	-6856
▁것이라고	-6857
▁것이오니	-6858
▁고하시되	-6859
▁공부인이	-6860
▁공부하여	-6861
▁그런고로	-6862
▁근본이요	-6863
▁근원하여	-6864
▁나아가는	-6865
▁나타나서	-6866
▁내리시며	-6867
▁누구든지	-6868
▁도둑질을	-6869
▁밖으로는	-6870
▁방면으로	-6871
▁보아다가	-6872
▁불고하고	-6873
▁불법으로	-6874
▁뿐이니라	-6875
▁사랑하고	-6876
▁살펴보면	-6877
▁삼동윤리	-6878
▁생각하니	-6879
▁석가모니	-6880
▁선지식을	-6881
▁성인들이	-6882
▁성현들은	-6883
▁스승님이	-6884
▁아니한다	-6885
▁아니함이	-6886
▁안으로는	-6887
▁않는다고	-6888
▁연구하여	-6889
▁연마하는	-6890
▁열반하신	-6891
▁영생토록	-6892
▁오랫동안	-6893
▁운용하는	-6894
▁의지하는	-6895
▁이루었다	-6896
▁인과보응	-6897
▁인도하여	-6898
▁일원상과	-6899
▁일이든지	-6900
▁있습니다	-6901
▁자녀에게	-6902
▁잘못하는	-6903
▁잘못하면	-6904
▁저희들은	-6905
▁저희들이	-6906
▁적당하게	-6907
▁조심하여	-6908
▁존령전에	-6909
▁주옵소서	-6910
▁지나니라	-6911
▁지도자가	-6912
▁하심이요	-6913
▁하였는데	-6914
▁하였더니	-6915
▁함으로써	-6916
釋迦牟尼佛	-6917
반야바라밀	-6918
세존이시여	-6919
(1924.	-6920
(1927.	-6921
(1964.	-6922
(1969.	-6923
▁불생불멸의	-6924
▁수보리에게	-6925
▁전무출신을	-6926
▁제생의세의	-6927
▁좋아함이요	-6928
▁중요하나니	-6929
善男子善女人	-6930
▁아니하나니라	-6931
▁어떠하나이까	-6932
▁아니하겠나이다	-6933
):	-6934
1]	-6935
7)	-6936
?”	-6937
er	-6938
on	-6939
▁作	-6940
▁來	-6941
▁及	-6942
▁受	-6943
▁妄	-6944
▁學	-6945
▁師	-6946
▁恩	-6947
▁悉	-6948
▁斷	-6949
▁歸	-6950
▁知	-6951
▁讚	-6952
▁造	-6953
▁꼭	-6954
▁끄	-6955
▁끓	-6956
▁딸	-6957
▁똑	-6958
▁뚜	-6959
▁뺏	-6960
▁섬	-6961
▁쓴	-6962
▁읊	-6963
▁졌	-6964
▁흡	-6965
一如	-6966
一心	-6967
丁未	-6968
不動	-6969
中道	-6970
之所	-6971
之義	-6972
乙巳	-6973
事事	-6974
人所	-6975
人間	-6976
佛事	-6977
信心	-6978
修心	-6979
共珠	-6980
則無	-6981
合相	-6982
四恩	-6983
坐禪	-6984
增上	-6985
大業	-6986
子女	-6987
專務	-6988
己未	-6989
希有	-6990
惡道	-6991
慈父	-6992
所有	-6993
斯陀	-6994
日月	-6995
有一	-6996
李東	-6997
正法	-6998
沙等	-6999
濟衆	-7000
無無	-7001
燈佛	-7002
生死	-7003
癸卯	-7004
等持	-7005
者曰	-7006
莊嚴	-7007
處處	-7008
輕賤	-7009
道德	-7010
邪道	-7011
靈肉	-7012
靷式	-7013
건을	-7014
겁에	-7015
견과	-7016
결한	-7017
곡을	-7018
공을	-7019
교가	-7020
교구	-7021
급한	-7022
남의	-7023
년만	-7024
님은	-7025
답게	-7026
당을	-7027
동지	-7028
들어	-7029
들인	-7030
라리	-7031
락의	-7032
량한	-7033
령은	-7034
령의	-7035
론을	-7036
루가	-7037
망한	-7038
면의	-7039
명에	-7040
목이	-7041
묘한	-7042
무슨	-7043
물의	-7044
민족	-7045
발을	-7046
방언	-7047
보지	-7048
부장	-7049
분의	-7050
불과	-7051
사은	-7052
색을	-7053
셨다	-7054
소성	-7055
스승	-7056
시를	-7057
신앙	-7058
실로	-7059
심도	-7060
십이	-7061
쓰고	-7062
악을	-7063
어느	-7064
어를	-7065
었던	-7066
였고	-7067
영가	-7068
영을	-7069
오매	-7070
요경	-7071
용한	-7072
의는	-7073
이기	-7074
이와	-7075
인도	-7076
인들	-7077
인에	-7078
인즉	-7079
인지	-7080
재가	-7081
재의	-7082
저희	-7083
절은	-7084
정기	-7085
조와	-7086
중앙	-7087
증이	-7088
짐을	-7089
초가	-7090
학생	-7091
했던	-7092
했을	-7093
호의	-7094
회규	-7095
...	-7096
192	-7097
▁14	-7098
▁34	-7099
▁36	-7100
▁51	-7101
▁不爲	-7102
▁不能	-7103
▁定慧	-7104
▁是我	-7105
▁甚多	-7106
▁각지	-7107
▁감수	-7108
▁감싸	-7109
▁감이	-7110
▁감화	-7111
▁갔다	-7112
▁갚을	-7113
▁게으	-7114
▁결단	-7115
▁결코	-7116
▁계문	-7117
▁계산	-7118
▁고금	-7119
▁관청	-7120
▁교강	-7121
▁교구	-7122
▁교세	-7123
▁교중	-7124
▁교통	-7125
▁구내	-7126
▁권세	-7127
▁그래	-7128
▁그럴	-7129
▁그려	-7130
▁기한	-7131
▁깨쳤	-7132
▁나로	-7133
▁나왔	-7134
▁날에	-7135
▁남용	-7136
▁남천	-7137
▁남편	-7138
▁낳고	-7139
▁낳아	-7140
▁넘기	-7141
▁노자	-7142
▁놓을	-7143
▁느낌	-7144
▁닦은	-7145
▁당연	-7146
▁당초	-7147
▁대부	-7148
▁데는	-7149
▁도라	-7150
▁도무	-7151
▁도산	-7152
▁도수	-7153
▁도합	-7154
▁독립	-7155
▁돕고	-7156
▁동산	-7157
▁동화	-7158
▁두렵	-7159
▁둘러	-7160
▁뒤를	-7161
▁떠난	-7162
▁만남	-7163
▁맡기	-7164
▁매월	-7165
▁며칠	-7166
▁면치	-7167
▁몇몇	-7168
▁모로	-7169
▁모신	-7170
▁모으	-7171
▁무거	-7172
▁무난	-7173
▁무루	-7174
▁무리	-7175
▁무명	-7176
▁무방	-7177
▁무성	-7178
▁무의	-7179
▁물에	-7180
▁밀어	-7181
▁바깥	-7182
▁밤에	-7183
▁방지	-7184
▁방탕	-7185
▁백억	-7186
▁버려	-7187
▁벌을	-7188
▁보되	-7189
▁보리	-7190
▁보물	-7191
▁복잡	-7192
▁본연	-7193
▁봉독	-7194
▁봉청	-7195
▁뵈올	-7196
▁부딪	-7197
▁부산	-7198
▁부안	-7199
▁분간	-7200
▁분이	-7201
▁불조	-7202
▁빌고	-7203
▁사로	-7204
▁사참	-7205
▁사통	-7206
▁산에	-7207
▁삼례	-7208
▁삼창	-7209
▁상봉	-7210
▁상통	-7211
▁상하	-7212
▁색을	-7213
▁생략	-7214
▁생일	-7215
▁선서	-7216
▁선양	-7217
▁선전	-7218
▁선조	-7219
▁성탄	-7220
▁소소	-7221
▁소의	-7222
▁손상	-7223
▁수다	-7224
▁수덕	-7225
▁수와	-7226
▁승한	-7227
▁시도	-7228
▁신구	-7229
▁신도	-7230
▁신용	-7231
▁실무	-7232
▁심사	-7233
▁쌓인	-7234
▁써야	-7235
▁아프	-7236
▁애석	-7237
▁억압	-7238
▁언론	-7239
▁여름	-7240
▁연등	-7241
▁연락	-7242
▁연습	-7243
▁영구	-7244
▁영식	-7245
▁영접	-7246
▁예로	-7247
▁오게	-7248
▁오신	-7249
▁오지	-7250
▁오후	-7251
▁올린	-7252
▁옳다	-7253
▁와도	-7254
▁왔다	-7255
▁요약	-7256
▁용이	-7257
▁용화	-7258
▁원적	-7259
▁원평	-7260
▁유교	-7261
▁유사	-7262
▁유여	-7263
▁은부	-7264
▁은연	-7265
▁음광	-7266
▁음식	-7267
▁음양	-7268
▁음이	-7269
▁의한	-7270
▁이들	-7271
▁이생	-7272
▁이유	-7273
▁인식	-7274
▁일일	-7275
▁일천	-7276
▁일합	-7277
▁읽는	-7278
▁자가	-7279
▁자부	-7280
▁잡는	-7281
▁장식	-7282
▁장학	-7283
▁저버	-7284
▁전무	-7285
▁절로	-7286
▁점은	-7287
▁정부	-7288
▁제외	-7289
▁조상	-7290
▁존자	-7291
▁졸업	-7292
▁종류	-7293
▁종법	-7294
▁주변	-7295
▁주최	-7296
▁중의	-7297
▁지게	-7298
▁지구	-7299
▁지라	-7300
▁지우	-7301
▁지자	-7302
▁진정	-7303
▁짐을	-7304
▁집을	-7305
▁찾지	-7306
▁채우	-7307
▁천록	-7308
▁체가	-7309
▁체성	-7310
▁총섭	-7311
▁축생	-7312
▁충의	-7313
▁치사	-7314
▁친우	-7315
▁커서	-7316
▁탐진	-7317
▁토가	-7318
▁통제	-7319
▁퇴치	-7320
▁투쟁	-7321
▁투철	-7322
▁편만	-7323
▁표기	-7324
▁표할	-7325
▁합한	-7326
▁해로	-7327
▁해설	-7328
▁해의	-7329
▁행적	-7330
▁허례	-7331
▁허물	-7332
▁허영	-7333
▁형성	-7334
▁회원	-7335
▁흔적	-7336
▁흩어	-7337
斯陀含	-7338
朴光田	-7339
李共珠	-7340
金大擧	-7341
개벽의	-7342
그것은	-7343
단으로	-7344
대학교	-7345
리거나	-7346
배하며	-7347
선으로	-7348
습니까	-7349
신에게	-7350
어가는	-7351
어떻게	-7352
위에서	-7353
으려고	-7354
으면서	-7355
이시며	-7356
이시요	-7357
입니까	-7358
진리는	-7359
킴이요	-7360
하고는	-7361
하노니	-7362
하심을	-7363
하야는	-7364
하오나	-7365
.[3]	-7366
▁(18	-7367
▁199	-7368
▁200	-7369
▁62.	-7370
▁63.	-7371
▁不如飯	-7372
▁若菩薩	-7373
▁가까이	-7374
▁가나니	-7375
▁가리지	-7376
▁가리키	-7377
▁가지를	-7378
▁가지면	-7379
▁감사를	-7380
▁감사한	-7381
▁거래가	-7382
▁거짓된	-7383
▁걸리고	-7384
▁것같이	-7385
▁것임을	-7386
▁겸하여	-7387
▁경계와	-7388
▁경전은	-7389
▁경지를	-7390
▁고비를	-7391
▁고생이	-7392
▁고행을	-7393
▁공도를	-7394
▁공부법	-7395
▁과보가	-7396
▁관계는	-7397
▁교단에	-7398
▁교당과	-7399
▁교명을	-7400
▁교서를	-7401
▁교의회	-7402
▁교화단	-7403
▁교화와	-7404
▁교회의	-7405
▁구하여	-7406
▁국한된	-7407
▁권위를	-7408
▁그러기	-7409
▁극하면	-7410
▁근기가	-7411
▁근기요	-7412
▁기구를	-7413
▁기다려	-7414
▁기도는	-7415
▁기쁨을	-7416
▁기술을	-7417
▁기초가	-7418
▁길이라	-7419
▁깨달을	-7420
▁깨우쳐	-7421
▁깨치신	-7422
▁나무와	-7423
▁나와서	-7424
▁내거나	-7425
▁넘어서	-7426
▁놓으면	-7427
▁당일의	-7428
▁대도가	-7429
▁대상과	-7430
▁대표가	-7431
▁도둑질	-7432
▁돌리는	-7433
▁돌아와	-7434
▁동지는	-7435
▁되든지	-7436
▁드러날	-7437
▁들이면	-7438
▁등에게	-7439
▁따로이	-7440
▁떨어진	-7441
▁뜻대로	-7442
▁막힘이	-7443
▁만들기	-7444
▁말씀과	-7445
▁말아서	-7446
▁맡기고	-7447
▁명호를	-7448
▁모시는	-7449
▁못함을	-7450
▁무명이	-7451
▁물건은	-7452
▁바라밀	-7453
▁바루고	-7454
▁밖에도	-7455
▁받기를	-7456
▁받았다	-7457
▁발원을	-7458
▁발인식	-7459
▁발전과	-7460
▁방면에	-7461
▁배우며	-7462
▁번뇌로	-7463
▁번뇌를	-7464
▁범부가	-7465
▁범상한	-7466
▁법률과	-7467
▁법률의	-7468
▁법사가	-7469
▁보살의	-7470
▁보아도	-7471
▁복덕을	-7472
▁봉고문	-7473
▁부러워	-7474
▁부모를	-7475
▁불교를	-7476
▁불쌍히	-7477
▁비치는	-7478
▁빠지게	-7479
▁사람만	-7480
▁사뢰니	-7481
▁사무를	-7482
▁사물에	-7483
▁사회를	-7484
▁사회와	-7485
▁삼계를	-7486
▁삼매에	-7487
▁상벌을	-7488
▁생기고	-7489
▁생령의	-7490
▁서원이	-7491
▁선도에	-7492
▁선업을	-7493
▁선행을	-7494
▁성년식	-7495
▁성자의	-7496
▁세계적	-7497
▁세우신	-7498
▁세워야	-7499
▁소유로	-7500
▁속이고	-7501
▁손님의	-7502
▁수도에	-7503
▁수양에	-7504
▁수행은	-7505
▁쉬우며	-7506
▁습관을	-7507
▁시간이	-7508
▁시기에	-7509
▁시일을	-7510
▁시키는	-7511
▁신의를	-7512
▁쌓아야	-7513
▁아는가	-7514
▁아침에	-7515
▁안락한	-7516
▁알음알	-7517
▁앞장서	-7518
▁애착과	-7519
▁약자를	-7520
▁양성의	-7521
▁어디로	-7522
▁어디서	-7523
▁없애는	-7524
▁없은즉	-7525
▁연구를	-7526
▁열리고	-7527
▁영산에	-7528
▁영육쌍	-7529
▁영지를	-7530
▁영향이	-7531
▁예법이	-7532
▁예수의	-7533
▁예의의	-7534
▁오나니	-7535
▁우러러	-7536
▁우주에	-7537
▁원수가	-7538
▁위주로	-7539
▁위하고	-7540
▁유무에	-7541
▁육신은	-7542
▁윤회에	-7543
▁은혜에	-7544
▁이로써	-7545
▁이르게	-7546
▁이름과	-7547
▁이상한	-7548
▁이치의	-7549
▁이해의	-7550
▁인간이	-7551
▁인과는	-7552
▁인물을	-7553
▁있음이	-7554
▁자격을	-7555
▁자기도	-7556
▁자라고	-7557
▁자비와	-7558
▁작업을	-7559
▁작업이	-7560
▁잘하고	-7561
▁잡념이	-7562
▁재물을	-7563
▁재방언	-7564
▁재앙이	-7565
▁재주가	-7566
▁재주와	-7567
▁절대로	-7568
▁정결한	-7569
▁정성에	-7570
▁정의는	-7571
▁정의의	-7572
▁정치를	-7573
▁정하는	-7574
▁제대로	-7575
▁제도와	-7576
▁조심할	-7577
▁종사여	-7578
▁주인을	-7579
▁주장이	-7580
▁중인의	-7581
▁즐거워	-7582
▁지키지	-7583
▁질문에	-7584
▁차라리	-7585
▁착하고	-7586
▁찬송가	-7587
▁참되고	-7588
▁처지와	-7589
▁총지부	-7590
▁출세간	-7591
▁출장소	-7592
▁통달한	-7593
▁편벽된	-7594
▁평생을	-7595
▁평화와	-7596
▁포부를	-7597
▁표어를	-7598
▁피은의	-7599
▁하니라	-7600
▁행복을	-7601
▁헤아릴	-7602
▁현상을	-7603
▁호리도	-7604
▁환경을	-7605
▁회갑식	-7606
▁회상도	-7607
▁효과를	-7608
▁흐르지	-7609
▁흔적이	-7610
三界大師	-7611
四生慈父	-7612
空寂靈知	-7613
과거에는	-7614
불교정전	-7615
영가시여	-7616
을지라도	-7617
하면서도	-7618
하였는데	-7619
(1919	-7620
▁ᄋᄋ님의	-7621
▁是我本師	-7622
▁가정에서	-7623
▁가지고도	-7624
▁가짐이요	-7625
▁개벽되니	-7626
▁공경하지	-7627
▁구하고자	-7628
▁그러기로	-7629
▁기간으로	-7630
▁길들이는	-7631
▁까닭이니	-7632
▁까닭이라	-7633
▁깨달아서	-7634
▁나아가면	-7635
▁누구에게	-7636
▁다르나니	-7637
▁답하기를	-7638
▁돌아오고	-7639
▁동지들을	-7640
▁동포에게	-7641
▁되겠는가	-7642
▁되오리까	-7643
▁마음이니	-7644
▁말씀이요	-7645
▁모르거나	-7646
▁목적하는	-7647
▁무량겁을	-7648
▁무릅쓰고	-7649
▁무상행의	-7650
▁무엇인가	-7651
▁물론하고	-7652
▁물으시니	-7653
▁미워하는	-7654
▁방문하여	-7655
▁방편으로	-7656
▁방향으로	-7657
▁배우기를	-7658
▁법이니라	-7659
▁보호하여	-7660
▁본위하여	-7661
▁부정당한	-7662
▁사리연구	-7663
▁사용하여	-7664
▁선진들의	-7665
▁성인들은	-7666
▁세계주의	-7667
▁세상으로	-7668
▁속에서도	-7669
▁수양력을	-7670
▁신앙하는	-7671
▁싶나이다	-7672
▁쓰시기를	-7673
▁알면서도	-7674
▁없건마는	-7675
▁없사오니	-7676
▁여기에서	-7677
▁열반하시	-7678
▁웃으시며	-7679
▁이루어지	-7680
▁일상생활	-7681
▁일어나서	-7682
▁일원상은	-7683
▁일찍부터	-7684
▁있으리오	-7685
▁저축조합	-7686
▁정산종사	-7687
▁정하시고	-7688
▁제도하기	-7689
▁조직하여	-7690
▁종법사로	-7691
▁좋아하지	-7692
▁좋으니라	-7693
▁주세불이	-7694
▁준비하고	-7695
▁책임지고	-7696
▁통달하여	-7697
▁하셨으니	-7698
▁하시더니	-7699
▁학인에게	-7700
▁해석하여	-7701
(1963.	-7702
(1965.	-7703
(1967.	-7704
▁가운데에도	-7705
▁근본적으로	-7706
▁나타나나니	-7707
▁되었나니라	-7708
▁마음이니라	-7709
▁무엇이리요	-7710
▁봉래산에서	-7711
▁불법연구회	-7712
▁사람이라고	-7713
▁아니한지라	-7714
▁원불교에서	-7715
▁조금이라도	-7716
▁허다하나니	-7717
법강항마위는	-7718
▁南無三界大師	-7719
▁대각여래위는	-7720
▁불법연구회를	-7721
▁아니하오리까	-7722
▁是我本師釋迦牟尼佛	-7723
阿耨多羅三藐三菩提心	-7724
▁南無三界大師四生慈父	-7725
0)	-7726
2]	-7727
▁上	-7728
▁便	-7729
▁勝	-7730
▁各	-7731
▁實	-7732
▁對	-7733
▁常	-7734
▁意	-7735
▁愛	-7736
▁施	-7737
▁照	-7738
▁眞	-7739
▁空	-7740
▁遇	-7741
▁過	-7742
▁隨	-7743
▁離	-7744
▁궤	-7745
▁꺾	-7746
▁낫	-7747
▁닭	-7748
▁닿	-7749
▁돋	-7750
▁리	-7751
▁뱀	-7752
▁왼	-7753
▁즈	-7754
▁촌	-7755
▁춤	-7756
▁코	-7757
▁탓	-7758
▁튼	-7759
▁훼	-7760
▁흰	-7761
一體	-7762
不盡	-7763
丙午	-7764
丙申	-7765
乙亥	-7766
人天	-7767
佛供	-7768
佛性	-7769
佛敎	-7770
作用	-7771
修習	-7772
修養	-7773
倫理	-7774
全飮	-7775
公事	-7776
公心	-7777
劣機	-7778
化身	-7779
句偈	-7780
名譽	-7781
多不	-7782
大千	-7783
大定	-7784
大義	-7785
天報	-7786
如如	-7787
威德	-7788
定力	-7789
將植	-7790
忍辱	-7791
我見	-7792
敎化	-7793
是經	-7794
智慧	-7795
最上	-7796
有法	-7797
正典	-7798
正氣	-7799
正道	-7800
決定	-7801
法界	-7802
淸風	-7803
漸修	-7804
濟生	-7805
無上	-7806
無私	-7807
由文	-7808
癸巳	-7809
硏究	-7810
祝文	-7811
福田	-7812
種種	-7813
端正	-7814
精進	-7815
紀念	-7816
自然	-7817
萬事	-7818
處定	-7819
行施	-7820
言語	-7821
賢者	-7822
辛丑	-7823
連契	-7824
邪見	-7825
醜陋	-7826
醫世	-7827
雙全	-7828
願文	-7829
養性	-7830
각도	-7831
감이	-7832
강연	-7833
개교	-7834
겨야	-7835
계와	-7836
고등	-7837
공사	-7838
공심	-7839
괴공	-7840
교단	-7841
교화	-7842
군이	-7843
권이	-7844
귀의	-7845
금은	-7846
기어	-7847
는다	-7848
능이	-7849
대재	-7850
동에	-7851
동은	-7852
되기	-7853
됨에	-7854
러서	-7855
로대	-7856
마라	-7857
맞은	-7858
멸도	-7859
무에	-7860
미가	-7861
방을	-7862
별한	-7863
병원	-7864
분간	-7865
분을	-7866
분이	-7867
비에	-7868
비한	-7869
삼동	-7870
삼아	-7871
색이	-7872
생각	-7873
서와	-7874
서울	-7875
선이	-7876
성명	-7877
송할	-7878
수로	-7879
시가	-7880
실이	-7881
심고	-7882
아제	-7883
안에	-7884
약한	-7885
어가	-7886
역을	-7887
왕이	-7888
요를	-7889
움과	-7890
월일	-7891
유상	-7892
으매	-7893
이꼬	-7894
이리	-7895
일여	-7896
자인	-7897
재에	-7898
저축	-7899
전한	-7900
조에	-7901
주년	-7902
중을	-7903
지불	-7904
진급	-7905
참회	-7906
처와	-7907
천한	-7908
초대	-7909
치에	-7910
풍을	-7911
학림	-7912
한들	-7913
해질	-7914
행은	-7915
형제	-7916
회장	-7917
회화	-7918
효열	-7919
후의	-7920
▁29	-7921
▁43	-7922
▁45	-7923
▁5)	-7924
▁["	-7925
▁一心	-7926
▁一念	-7927
▁云何	-7928
▁何者	-7929
▁奉請	-7930
▁心不	-7931
▁念念	-7932
▁我今	-7933
▁所謂	-7934
▁於諸	-7935
▁而此	-7936
▁自然	-7937
▁若人	-7938
▁若復	-7939
▁起於	-7940
▁願諸	-7941
▁가감	-7942
▁가려	-7943
▁가례	-7944
▁각오	-7945
▁간사	-7946
▁간이	-7947
▁간혹	-7948
▁갑자	-7949
▁갖게	-7950
▁개의	-7951
▁개칭	-7952
▁건립	-7953
▁건지	-7954
▁게양	-7955
▁격려	-7956
▁결복	-7957
▁고삐	-7958
▁고치	-7959
▁고행	-7960
▁곤충	-7961
▁공개	-7962
▁공로	-7963
▁공명	-7964
▁공손	-7965
▁공은	-7966
▁공인	-7967
▁공전	-7968
▁관찰	-7969
▁관통	-7970
▁교운	-7971
▁굳이	-7972
▁궁금	-7973
▁권모	-7974
▁귀가	-7975
▁귀한	-7976
▁그른	-7977
▁극진	-7978
▁금액	-7979
▁기금	-7980
▁기쁜	-7981
▁기준	-7982
▁길흉	-7983
▁김제	-7984
▁깨칠	-7985
▁낙원	-7986
▁낭독	-7987
▁내빈	-7988
▁내일	-7989
▁노동	-7990
▁녹여	-7991
▁농작	-7992
▁눈에	-7993
▁다닌	-7994
▁다름	-7995
▁단을	-7996
▁단전	-7997
▁달마	-7998
▁달성	-7999
▁달은	-8000
▁답답	-8001
▁대명	-8002
▁대행	-8003
▁도솔	-8004
▁돈공	-8005
▁동리	-8006
▁동척	-8007
▁되옵	-8008
▁될꼬	-8009
▁됨을	-8010
▁두면	-8011
▁듯이	-8012
▁등록	-8013
▁뚜렷	-8014
▁만에	-8015
▁만큼	-8016
▁많게	-8017
▁많다	-8018
▁망극	-8019
▁매각	-8020
▁맺게	-8021
▁머슴	-8022
▁명절	-8023
▁모순	-8024
▁목숨	-8025
▁몸의	-8026
▁묘위	-8027
▁무가	-8028
▁무렵	-8029
▁무식	-8030
▁무심	-8031
▁무애	-8032
▁문제	-8033
▁미국	-8034
▁미운	-8035
▁미치	-8036
▁바뀌	-8037
▁바퀴	-8038
▁밖이	-8039
▁반갑	-8040
▁발령	-8041
▁밭에	-8042
▁백수	-8043
▁벌레	-8044
▁법기	-8045
▁법호	-8046
▁변산	-8047
▁변천	-8048
▁병은	-8049
▁보낼	-8050
▁보람	-8051
▁보를	-8052
▁보신	-8053
▁보전	-8054
▁복제	-8055
▁복혜	-8056
▁본다	-8057
▁봄이	-8058
▁봉건	-8059
▁봉대	-8060
▁분분	-8061
▁불쾌	-8062
▁불퇴	-8063
▁붓을	-8064
▁비가	-8065
▁비결	-8066
▁비판	-8067
▁비할	-8068
▁빙자	-8069
▁빚이	-8070
▁사건	-8071
▁사례	-8072
▁사모	-8073
▁사유	-8074
▁삼으	-8075
▁상당	-8076
▁상에	-8077
▁생길	-8078
▁생애	-8079
▁생장	-8080
▁서가	-8081
▁서고	-8082
▁선과	-8083
▁선법	-8084
▁선임	-8085
▁설교	-8086
▁설위	-8087
▁설혹	-8088
▁성격	-8089
▁성경	-8090
▁성숙	-8091
▁성직	-8092
▁세도	-8093
▁속이	-8094
▁솟고	-8095
▁수계	-8096
▁수수	-8097
▁수승	-8098
▁수월	-8099
▁순종	-8100
▁숨어	-8101
▁슬픔	-8102
▁시켜	-8103
▁식사	-8104
▁신부	-8105
▁실내	-8106
▁싫은	-8107
▁쌓고	-8108
▁쓰게	-8109
▁아껴	-8110
▁안과	-8111
▁안의	-8112
▁앎이	-8113
▁애호	-8114
▁약혼	-8115
▁연화	-8116
▁연회	-8117
▁열려	-8118
▁영도	-8119
▁영세	-8120
▁예감	-8121
▁예배	-8122
▁오백	-8123
▁완비	-8124
▁외정	-8125
▁요지	-8126
▁우마	-8127
▁운행	-8128
▁원근	-8129
▁원성	-8130
▁원진	-8131
▁월간	-8132
▁위문	-8133
▁유가	-8134
▁유로	-8135
▁유와	-8136
▁육성	-8137
▁은의	-8138
▁의례	-8139
▁의혹	-8140
▁이길	-8141
▁이라	-8142
▁이래	-8143
▁인욕	-8144
▁인자	-8145
▁인화	-8146
▁일가	-8147
▁일여	-8148
▁입법	-8149
▁자랑	-8150
▁자칫	-8151
▁작게	-8152
▁작농	-8153
▁작성	-8154
▁장벽	-8155
▁장사	-8156
▁재세	-8157
▁적었	-8158
▁전공	-8159
▁전법	-8160
▁전심	-8161
▁절을	-8162
▁정심	-8163
▁정통	-8164
▁정확	-8165
▁제목	-8166
▁제약	-8167
▁조복	-8168
▁존장	-8169
▁종이	-8170
▁종일	-8171
▁죄와	-8172
▁죄의	-8173
▁주객	-8174
▁주소	-8175
▁주요	-8176
▁줄만	-8177
▁줌이	-8178
▁중단	-8179
▁쥐가	-8180
▁증답	-8181
▁지는	-8182
▁지엽	-8183
▁진작	-8184
▁짓게	-8185
▁차려	-8186
▁찬탄	-8187
▁참아	-8188
▁천인	-8189
▁천주	-8190
▁청춘	-8191
▁체험	-8192
▁총독	-8193
▁취할	-8194
▁치하	-8195
▁친족	-8196
▁탁태	-8197
▁탄탄	-8198
▁탑묘	-8199
▁탑을	-8200
▁털끝	-8201
▁토지	-8202
▁통신	-8203
▁통촉	-8204
▁통치	-8205
▁통칭	-8206
▁튼튼	-8207
▁파란	-8208
▁하던	-8209
▁하매	-8210
▁학설	-8211
▁한때	-8212
▁합심	-8213
▁허락	-8214
▁헛된	-8215
▁혼탁	-8216
▁화장	-8217
▁확정	-8218
▁회향	-8219
▁흐르	-8220
一合相	-8221
全飮光	-8222
四句偈	-8223
微塵衆	-8224
朴將植	-8225
국가가	-8226
국가에	-8227
그대는	-8228
께옵서	-8229
념으로	-8230
대하고	-8231
되므로	-8232
련마는	-8233
리라는	-8234
리라도	-8235
리석은	-8236
리시고	-8237
산이라	-8238
세계에	-8239
셨으며	-8240
수위단	-8241
수하여	-8242
시옵고	-8243
시켜야	-8244
심이니	-8245
어서는	-8246
었는데	-8247
영모전	-8248
으로도	-8249
이니꼬	-8250
인들은	-8251
자들의	-8252
종교의	-8253
주년을	-8254
주의와	-8255
중에는	-8256
지나니	-8257
하다는	-8258
하라고	-8259
하셨고	-8260
하심이	-8261
해져서	-8262
했다는	-8263
화신불	-8264
▁64.	-8265
▁ᄋᄋ의	-8266
▁告祝文	-8267
▁尊者曰	-8268
▁應如是	-8269
▁가까와	-8270
▁가든지	-8271
▁가지지	-8272
▁감정을	-8273
▁개교의	-8274
▁개인에	-8275
▁거울이	-8276
▁것처럼	-8277
▁게송을	-8278
▁결함이	-8279
▁경전의	-8280
▁경지에	-8281
▁고락의	-8282
▁고르게	-8283
▁곡조는	-8284
▁공부도	-8285
▁공심이	-8286
▁공익심	-8287
▁괴롭게	-8288
▁교도는	-8289
▁교육이	-8290
▁교회장	-8291
▁구내에	-8292
▁국토에	-8293
▁권속이	-8294
▁권하여	-8295
▁그대를	-8296
▁그들을	-8297
▁근래에	-8298
▁기념관	-8299
▁기능을	-8300
▁기쁘고	-8301
▁기원문	-8302
▁기천이	-8303
▁기회가	-8304
▁깨치게	-8305
▁깨침이	-8306
▁나무가	-8307
▁나와야	-8308
▁난경을	-8309
▁남녀를	-8310
▁내역과	-8311
▁놓아야	-8312
▁놓으셨	-8313
▁능하지	-8314
▁다니는	-8315
▁단결로	-8316
▁단체로	-8317
▁당국의	-8318
▁당처에	-8319
▁대대로	-8320
▁대도는	-8321
▁대사식	-8322
▁대임을	-8323
▁대적공	-8324
▁대중은	-8325
▁대중적	-8326
▁대지를	-8327
▁대회를	-8328
▁도덕은	-8329
▁도량을	-8330
▁도력을	-8331
▁도인은	-8332
▁동남풍	-8333
▁동하면	-8334
▁되자는	-8335
▁된지라	-8336
▁두마음	-8337
▁두어줄	-8338
▁뒤에야	-8339
▁들어갈	-8340
▁들어야	-8341
▁들었다	-8342
▁등한시	-8343
▁따르고	-8344
▁따르지	-8345
▁뜻이요	-8346
▁마음만	-8347
▁만나지	-8348
▁많아서	-8349
▁말이나	-8350
▁망녕된	-8351
▁매사를	-8352
▁맹세코	-8353
▁머무르	-8354
▁머물러	-8355
▁명복을	-8356
▁명상이	-8357
▁모르나	-8358
▁무념의	-8359
▁물질로	-8360
▁물질이	-8361
▁미래에	-8362
▁민중은	-8363
▁밑에서	-8364
▁바쁘게	-8365
▁받으면	-8366
▁방문할	-8367
▁방향을	-8368
▁법도에	-8369
▁법률은	-8370
▁법은에	-8371
▁변함이	-8372
▁병으로	-8373
▁병이니	-8374
▁보고는	-8375
▁보물을	-8376
▁보살펴	-8377
▁보아야	-8378
▁보화원	-8379
▁본원을	-8380
▁부끄러	-8381
▁부모은	-8382
▁부부가	-8383
▁북돋아	-8384
▁분들이	-8385
▁불도를	-8386
▁불법에	-8387
▁사상이	-8388
▁사실적	-8389
▁사업가	-8390
▁사회나	-8391
▁사회는	-8392
▁산업부	-8393
▁삼세를	-8394
▁삼학의	-8395
▁상대할	-8396
▁새생활	-8397
▁생각은	-8398
▁생멸이	-8399
▁서원은	-8400
▁선악간	-8401
▁선악을	-8402
▁선으로	-8403
▁설하여	-8404
▁성공의	-8405
▁성의가	-8406
▁성취할	-8407
▁세존이	-8408
▁손해를	-8409
▁수행이	-8410
▁순서에	-8411
▁스승은	-8412
▁시대요	-8413
▁신앙은	-8414
▁신앙이	-8415
▁신의는	-8416
▁신자가	-8417
▁신자의	-8418
▁실수가	-8419
▁심고는	-8420
▁심지가	-8421
▁십이인	-8422
▁쌓이게	-8423
▁아끼지	-8424
▁아나니	-8425
▁아래에	-8426
▁않기가	-8427
▁알고도	-8428
▁알리는	-8429
▁앞길을	-8430
▁약자는	-8431
▁양심을	-8432
▁얻도록	-8433
▁얻으면	-8434
▁얻자는	-8435
▁업력을	-8436
▁업보가	-8437
▁없애고	-8438
▁없으시	-8439
▁여래는	-8440
▁역사의	-8441
▁연등불	-8442
▁열반한	-8443
▁염려가	-8444
▁영가가	-8445
▁영가는	-8446
▁영겁의	-8447
▁영지의	-8448
▁영혼이	-8449
▁예회에	-8450
▁오늘에	-8451
▁오늘은	-8452
▁오늘의	-8453
▁오르지	-8454
▁올라가	-8455
▁와서는	-8456
▁요도를	-8457
▁요도와	-8458
▁요소가	-8459
▁요지는	-8460
▁우주만	-8461
▁원리요	-8462
▁원상은	-8463
▁원컨대	-8464
▁위에서	-8465
▁위원회	-8466
▁위의와	-8467
▁위태한	-8468
▁육신에	-8469
▁의리를	-8470
▁이롭게	-8471
▁이루려	-8472
▁이소성	-8473
▁이유를	-8474
▁이해와	-8475
▁이행할	-8476
▁인가를	-8477
▁인간락	-8478
▁인간은	-8479
▁인도에	-8480
▁인종과	-8481
▁인증할	-8482
▁일곱째	-8483
▁일마다	-8484
▁일생의	-8485
▁일이면	-8486
▁일하는	-8487
▁입교한	-8488
▁있었고	-8489
▁자라는	-8490
▁자세를	-8491
▁자신도	-8492
▁작업취	-8493
▁작용을	-8494
▁잘못한	-8495
▁잡아야	-8496
▁재단을	-8497
▁재산이	-8498
▁전부를	-8499
▁절약된	-8500
▁정각을	-8501
▁정견을	-8502
▁정법이	-8503
▁정성껏	-8504
▁제성의	-8505
▁조건이	-8506
▁조금만	-8507
▁조심히	-8508
▁조화가	-8509
▁조화를	-8510
▁종교도	-8511
▁종사와	-8512
▁종재를	-8513
▁좌석을	-8514
▁주례가	-8515
▁주리라	-8516
▁주문을	-8517
▁주의나	-8518
▁주하여	-8519
▁죽어도	-8520
▁죽으면	-8521
▁준하여	-8522
▁중근의	-8523
▁중정의	-8524
▁중학교	-8525
▁지금의	-8526
▁진경에	-8527
▁진급이	-8528
▁진리적	-8529
▁집안을	-8530
▁찾아와	-8531
▁책임은	-8532
▁챙기는	-8533
▁천도의	-8534
▁천성이	-8535
▁천업을	-8536
▁체받아	-8537
▁축하할	-8538
▁출가의	-8539
▁충효열	-8540
▁치료에	-8541
▁친절한	-8542
▁태도로	-8543
▁특신급	-8544
▁티끌이	-8545
▁편리를	-8546
▁평생에	-8547
▁필경에	-8548
▁하기를	-8549
▁하나에	-8550
▁하도록	-8551
▁하려는	-8552
▁하리니	-8553
▁하시어	-8554
▁한가한	-8555
▁한민족	-8556
▁할지니	-8557
▁합니다	-8558
▁행하며	-8559
▁허공을	-8560
▁혁명을	-8561
▁현재에	-8562
▁혜광이	-8563
▁홀연히	-8564
▁화하여	-8565
▁활용할	-8566
▁회원의	-8567
▁후에도	-8568
▁훈련의	-8569
▁흐르고	-8570
大千世界	-8571
濟生醫世	-8572
靈肉雙全	-8573
공부하는	-8574
만으로는	-8575
부처님의	-8576
어리석은	-8577
인으로서	-8578
하려니와	-8579
하시나니	-8580
하시더니	-8581
할지니라	-8582
▁1943	-8583
▁6.25	-8584
▁一圓大道	-8585
▁心生歡喜	-8586
▁若復有人	-8587
▁것이로다	-8588
▁결함됨이	-8589
▁경축하는	-8590
▁계승하여	-8591
▁계시더니	-8592
▁공경하는	-8593
▁공부인은	-8594
▁공심으로	-8595
▁관계인이	-8596
▁구원하는	-8597
▁구하므로	-8598
▁그런다면	-8599
▁기다리는	-8600
▁길이니라	-8601
▁내놓으신	-8602
▁대각하신	-8603
▁대조하고	-8604
▁대종사에	-8605
▁도가에서	-8606
▁도덕으로	-8607
▁돌아가고	-8608
▁되려니와	-8609
▁되었는데	-8610
▁드러나는	-8611
▁드러나서	-8612
▁드러내는	-8613
▁따름이요	-8614
▁떨어져서	-8615
▁떨어지고	-8616
▁떨어지는	-8617
▁마나니라	-8618
▁만나기가	-8619
▁말함이요	-8620
▁못하다가	-8621
▁못하리니	-8622
▁무자력한	-8623
▁미래에는	-8624
▁병상에서	-8625
▁본원이요	-8626
▁봉공하는	-8627
▁부처님도	-8628
▁불변하는	-8629
▁불보살을	-8630
▁비유하여	-8631
▁빙자하여	-8632
▁사람들도	-8633
▁생각하면	-8634
▁선지식의	-8635
▁성불하는	-8636
▁성스러운	-8637
▁성주괴공	-8638
▁세우시고	-8639
▁소태산의	-8640
▁수도인의	-8641
▁수도인이	-8642
▁수용하는	-8643
▁신자들이	-8644
▁아니라고	-8645
▁않겠는가	-8646
▁않나니라	-8647
▁어찌하면	-8648
▁얽매이지	-8649
▁없나이다	-8650
▁없어지는	-8651
▁없어지지	-8652
▁없었노라	-8653
▁없으리요	-8654
▁여러분은	-8655
▁연구력을	-8656
▁염불로써	-8657
▁영육쌍전	-8658
▁예수께서	-8659
▁요란하지	-8660
▁용서하고	-8661
▁운전하는	-8662
▁움직이지	-8663
▁원망하는	-8664
▁원망하지	-8665
▁위원회를	-8666
▁위하여는	-8667
▁음식으로	-8668
▁응용하여	-8669
▁이르기를	-8670
▁이르렀다	-8671
▁이용하면	-8672
▁일어나고	-8673
▁있사오니	-8674
▁있었으며	-8675
▁제자들을	-8676
▁종교연합	-8677
▁종교인이	-8678
▁주의심을	-8679
▁주장하여	-8680
▁중에서도	-8681
▁지극하면	-8682
▁진행하는	-8683
▁참회하여	-8684
▁천상락을	-8685
▁체득하여	-8686
▁추모하는	-8687
▁출가위는	-8688
▁출가하여	-8689
▁친지간에	-8690
▁편으로는	-8691
▁표본으로	-8692
▁필경에는	-8693
▁하지마는	-8694
▁할지언정	-8695
▁합동으로	-8696
▁해탈하는	-8697
▁허망하게	-8698
隨相門定慧	-8699
이라하시니	-8700
하시나니라	-8701
하시었으며	-8702
하심이니라	-8703
하였나니라	-8704
하였느니라	-8705
(1919.	-8706
(1953.	-8707
(1956.	-8708
(1966.	-8709
▁가운데에서	-8710
▁교정원장에	-8711
▁그러하오나	-8712
▁길룡리에서	-8713
▁도가에서는	-8714
▁따름이니라	-8715
▁마음공부를	-8716
▁못하나이다	-8717
▁못할지니라	-8718
▁부처님에게	-8719
▁수도인들은	-8720
▁이루어지는	-8721
▁일반적으로	-8722
▁있어지나니	-8723
▁있었사오며	-8724
▁자리이타로	-8725
▁전무출신은	-8726
▁정성스럽게	-8727
▁정신으로써	-8728
▁주셨느니라	-8729
▁지공무사한	-8730
▁화합하자는	-8731
그러하옵니다	-8732
▁ᄋᄋ영가시여	-8733
▁반야바라밀다	-8734
▁부처님께서도	-8735
▁자유자재하는	-8736
▁해설하시기를	-8737
▁대자대비하옵신	-8738
▁發阿耨多羅三藐三菩提心	-8739
▁아뇩다라삼먁삼보리심을	-8740
(2	-8741
17	-8742
26	-8743
3]	-8744
5]	-8745
6]	-8746
91	-8747
ar	-8748
ng	-8749
▁U	-8750
▁俱	-8751
▁內	-8752
▁取	-8753
▁口	-8754
▁同	-8755
▁圓	-8756
▁已	-8757
▁愼	-8758
▁敎	-8759
▁暫	-8760
▁況	-8761
▁結	-8762
▁說	-8763
▁迷	-8764
▁눌	-8765
▁맨	-8766
▁벼	-8767
▁붕	-8768
▁빨	-8769
▁쉴	-8770
▁쉼	-8771
▁암	-8772
▁엎	-8773
▁쪽	-8774
▁찰	-8775
▁쳐	-8776
▁층	-8777
▁클	-8778
▁푸	-8779
▁혀	-8780
▁횃	-8781
▁횡	-8782
▁휘	-8783
▁흙	-8784
三大	-8785
不二	-8786
不昧	-8787
不滅	-8788
不生	-8789
不知	-8790
世典	-8791
中下	-8792
中和	-8793
中正	-8794
之力	-8795
之寶	-8796
人見	-8797
人道	-8798
他人	-8799
伊麽	-8800
佛像	-8801
佛土	-8802
佛祖	-8803
信義	-8804
兩門	-8805
出身	-8806
勢報	-8807
千萬	-8808
名相	-8809
四大	-8810
圓光	-8811
壬午	-8812
壬辰	-8813
外報	-8814
大全	-8815
大衆	-8816
天人	-8817
姓報	-8818
宋奎	-8819
宋道	-8820
定期	-8821
尊長	-8822
工夫	-8823
己亥	-8824
庚子	-8825
廻光	-8826
往來	-8827
得道	-8828
心身	-8829
思議	-8830
思量	-8831
惺惺	-8832
戊午	-8833
成佛	-8834
戴謝	-8835
是人	-8836
智報	-8837
有爲	-8838
正心	-8839
源道	-8840
無心	-8841
無明	-8842
無時	-8843
甲午	-8844
甲戌	-8845
癸未	-8846
眼不	-8847
經典	-8848
者何	-8849
自力	-8850
自心	-8851
舍衛	-8852
萬法	-8853
虛空	-8854
血印	-8855
行也	-8856
解脫	-8857
諸相	-8858
辛巳	-8859
門中	-8860
開敎	-8861
震華	-8862
靈識	-8863
頓漸	-8864
頓門	-8865
간을	-8866
강점	-8867
겁게	-8868
겨서	-8869
계로	-8870
고는	-8871
고도	-8872
교례	-8873
교무	-8874
교전	-8875
그는	-8876
근히	-8877
기구	-8878
기심	-8879
나라	-8880
날을	-8881
날의	-8882
남녀	-8883
년이	-8884
단체	-8885
단치	-8886
답을	-8887
대거	-8888
대는	-8889
대범	-8890
대인	-8891
대전	-8892
동란	-8893
동정	-8894
두암	-8895
듦이	-8896
등이	-8897
라가	-8898
라사	-8899
력의	-8900
력히	-8901
례에	-8902
롭지	-8903
루한	-8904
리신	-8905
림에	-8906
마저	-8907
만의	-8908
면이	-8909
면한	-8910
모가	-8911
모와	-8912
무릇	-8913
무무	-8914
민의	-8915
밀히	-8916
백여	-8917
보시	-8918
보에	-8919
복덕	-8920
북도	-8921
불조	-8922
비록	-8923
빈곤	-8924
사라	-8925
사상	-8926
산이	-8927
상할	-8928
생어	-8929
서에	-8930
선생	-8931
성리	-8932
성지	-8933
세로	-8934
수고	-8935
수만	-8936
수화	-8937
숙한	-8938
스러	-8939
시다	-8940
시의	-8941
신성	-8942
신여	-8943
실과	-8944
심결	-8945
아를	-8946
아질	-8947
어질	-8948
업은	-8949
연계	-8950
연의	-8951
영산	-8952
영혼	-8953
오달	-8954
요령	-8955
움은	-8956
원도	-8957
육영	-8958
의두	-8959
이신	-8960
일간	-8961
일과	-8962
일기	-8963
일상	-8964
자라	-8965
자면	-8966
저히	-8967
조선	-8968
족의	-8969
지요	-8970
지인	-8971
진리	-8972
집을	-8973
차를	-8974
천하	-8975
천히	-8976
쳐야	-8977
추는	-8978
춰야	-8979
치며	-8980
침에	-8981
탁을	-8982
태와	-8983
토가	-8984
품이	-8985
합력	-8986
해의	-8987
행에	-8988
화할	-8989
후가	-8990
196	-8991
ter	-8992
▁33	-8993
▁37	-8994
▁53	-8995
▁80	-8996
▁亦不	-8997
▁佛告	-8998
▁勸他	-8999
▁十方	-9000
▁感生	-9001
▁我得	-9002
▁是諸	-9003
▁更無	-9004
▁歸家	-9005
▁王曰	-9006
▁衆生	-9007
▁讚歎	-9008
▁가나	-9009
▁간명	-9010
▁간부	-9011
▁간석	-9012
▁갈망	-9013
▁감정	-9014
▁감추	-9015
▁감탄	-9016
▁강을	-9017
▁갖지	-9018
▁객이	-9019
▁거름	-9020
▁거처	-9021
▁거칠	-9022
▁건너	-9023
▁걷는	-9024
▁걸리	-9025
▁걸린	-9026
▁결심	-9027
▁겸전	-9028
▁경과	-9029
▁경에	-9030
▁계룡	-9031
▁곤궁	-9032
▁곳과	-9033
▁곳은	-9034
▁공과	-9035
▁공의	-9036
▁과원	-9037
▁관심	-9038
▁관조	-9039
▁교사	-9040
▁교선	-9041
▁교조	-9042
▁교학	-9043
▁국방	-9044
▁귀일	-9045
▁그간	-9046
▁글에	-9047
▁금산	-9048
▁금수	-9049
▁금을	-9050
▁기연	-9051
▁기점	-9052
▁길게	-9053
▁길고	-9054
▁껍질	-9055
▁꽃을	-9056
▁끌린	-9057
▁끼니	-9058
▁나술	-9059
▁나투	-9060
▁나팔	-9061
▁남도	-9062
▁너그	-9063
▁넘지	-9064
▁넣어	-9065
▁넷은	-9066
▁노는	-9067
▁노릇	-9068
▁농토	-9069
▁놓는	-9070
▁닦되	-9071
▁단장	-9072
▁달로	-9073
▁대수	-9074
▁대전	-9075
▁도탄	-9076
▁독점	-9077
▁동거	-9078
▁따뜻	-9079
▁때니	-9080
▁만든	-9081
▁매우	-9082
▁맥이	-9083
▁면면	-9084
▁명령	-9085
▁명리	-9086
▁명부	-9087
▁명상	-9088
▁명호	-9089
▁모름	-9090
▁모습	-9091
▁묘한	-9092
▁무는	-9093
▁무섭	-9094
▁무수	-9095
▁문의	-9096
▁미칠	-9097
▁믿음	-9098
▁바랄	-9099
▁바위	-9100
▁바칠	-9101
▁반기	-9102
▁받기	-9103
▁발기	-9104
▁발아	-9105
▁밝힐	-9106
▁밟지	-9107
▁방식	-9108
▁방울	-9109
▁방종	-9110
▁배양	-9111
▁배운	-9112
▁백년	-9113
▁버림	-9114
▁범과	-9115
▁법당	-9116
▁벗이	-9117
▁벽조	-9118
▁변함	-9119
▁병환	-9120
▁보림	-9121
▁복표	-9122
▁본관	-9123
▁본성	-9124
▁뵈온	-9125
▁부서	-9126
▁부설	-9127
▁분상	-9128
▁불국	-9129
▁불신	-9130
▁붙잡	-9131
▁비구	-9132
▁비료	-9133
▁비용	-9134
▁빈천	-9135
▁산과	-9136
▁산하	-9137
▁살기	-9138
▁살지	-9139
▁삼게	-9140
▁삼았	-9141
▁상견	-9142
▁상속	-9143
▁상쾌	-9144
▁색신	-9145
▁색에	-9146
▁생육	-9147
▁생전	-9148
▁생존	-9149
▁선거	-9150
▁선성	-9151
▁선에	-9152
▁선차	-9153
▁선행	-9154
▁성냥	-9155
▁성심	-9156
▁세웠	-9157
▁세째	-9158
▁세철	-9159
▁소견	-9160
▁소승	-9161
▁쇠를	-9162
▁수족	-9163
▁수호	-9164
▁순숙	-9165
▁술을	-9166
▁숭상	-9167
▁시끄	-9168
▁신뢰	-9169
▁신룡	-9170
▁신은	-9171
▁신을	-9172
▁실이	-9173
▁실질	-9174
▁심불	-9175
▁심인	-9176
▁심지	-9177
▁심통	-9178
▁심한	-9179
▁십대	-9180
▁쓰되	-9181
▁않겠	-9182
▁않아	-9183
▁알겠	-9184
▁알되	-9185
▁알릴	-9186
▁앞세	-9187
▁양하	-9188
▁어미	-9189
▁업은	-9190
▁없기	-9191
▁없으	-9192
▁여쭈	-9193
▁연결	-9194
▁열람	-9195
▁열이	-9196
▁영과	-9197
▁영송	-9198
▁영영	-9199
▁영위	-9200
▁영천	-9201
▁예법	-9202
▁예와	-9203
▁오시	-9204
▁오십	-9205
▁오욕	-9206
▁옥녀	-9207
▁온다	-9208
▁온통	-9209
▁옳게	-9210
▁옳고	-9211
▁옷이	-9212
▁요긴	-9213
▁요인	-9214
▁용광	-9215
▁울을	-9216
▁원경	-9217
▁원이	-9218
▁원인	-9219
▁위반	-9220
▁위와	-9221
▁유상	-9222
▁육대	-9223
▁육진	-9224
▁음부	-9225
▁의연	-9226
▁이동	-9227
▁이왕	-9228
▁이욕	-9229
▁이전	-9230
▁익힌	-9231
▁인가	-9232
▁인내	-9233
▁인륜	-9234
▁인심	-9235
▁일직	-9236
▁잃게	-9237
▁입관	-9238
▁입문	-9239
▁자체	-9240
▁재촉	-9241
▁저리	-9242
▁저만	-9243
▁전과	-9244
▁전생	-9245
▁점에	-9246
▁정돈	-9247
▁정력	-9248
▁정직	-9249
▁제반	-9250
▁제성	-9251
▁제조	-9252
▁제한	-9253
▁조견	-9254
▁조문	-9255
▁조장	-9256
▁조종	-9257
▁존숭	-9258
▁죄벌	-9259
▁주게	-9260
▁주산	-9261
▁중안	-9262
▁중추	-9263
▁증서	-9264
▁지니	-9265
▁지면	-9266
▁지향	-9267
▁짐승	-9268
▁집이	-9269
▁집주	-9270
▁차서	-9271
▁찬란	-9272
▁천업	-9273
▁천작	-9274
▁천직	-9275
▁철학	-9276
▁체득	-9277
▁체를	-9278
▁초목	-9279
▁초종	-9280
▁총설	-9281
▁총재	-9282
▁추구	-9283
▁추도	-9284
▁출신	-9285
▁크신	-9286
▁큰일	-9287
▁타는	-9288
▁타일	-9289
▁타파	-9290
▁퇴전	-9291
▁편리	-9292
▁편이	-9293
▁평가	-9294
▁폐식	-9295
▁포섭	-9296
▁풍부	-9297
▁피우	-9298
▁함을	-9299
▁함축	-9300
▁항하	-9301
▁해득	-9302
▁해산	-9303
▁행정	-9304
▁허비	-9305
▁현생	-9306
▁혜복	-9307
▁혜시	-9308
▁화강	-9309
▁화신	-9310
▁환경	-9311
▁회고	-9312
▁회장	-9313
▁후계	-9314
▁힘에	-9315
五福德	-9316
人分上	-9317
以具足	-9318
壽者見	-9319
大宗師	-9320
威勢報	-9321
悟後修	-9322
所說義	-9323
族姓報	-9324
李雲捲	-9325
源道理	-9326
用布施	-9327
菩提心	-9328
衆生見	-9329
諸惡業	-9330
資生報	-9331
賢聖所	-9332
門劣機	-9333
공부니	-9334
과대학	-9335
국가의	-9336
기념제	-9337
님께서	-9338
단하고	-9339
되지는	-9340
들께서	-9341
리로다	-9342
무시선	-9343
물질로	-9344
방하여	-9345
사상을	-9346
색으로	-9347
세계가	-9348
수보리	-9349
수양은	-9350
스럽고	-9351
시켰다	-9352
아지고	-9353
에게도	-9354
였으며	-9355
으려는	-9356
으로만	-9357
음이니	-9358
이리요	-9359
이어니	-9360
이제는	-9361
일원상	-9362
일원은	-9363
일진대	-9364
자들을	-9365
장에서	-9366
졌으나	-9367
지금은	-9368
질병을	-9369
천지에	-9370
천하에	-9371
천하의	-9372
판으로	-9373
편으로	-9374
한다고	-9375
함에는	-9376
합니다	-9377
.[7]	-9378
▁65.	-9379
▁66.	-9380
▁ᄋᄋ야	-9381
▁白佛言	-9382
▁見他得	-9383
▁謂之坐	-9384
▁謂之禪	-9385
▁가져다	-9386
▁가지와	-9387
▁간절한	-9388
▁감찰원	-9389
▁강연히	-9390
▁강자는	-9391
▁거두어	-9392
▁거연히	-9393
▁거짓을	-9394
▁거짓이	-9395
▁건설된	-9396
▁건설을	-9397
▁건축을	-9398
▁겁래에	-9399
▁것과도	-9400
▁것인데	-9401
▁견고히	-9402
▁견성한	-9403
▁결혼식	-9404
▁경륜은	-9405
▁경전과	-9406
▁경제적	-9407
▁계속해	-9408
▁고금을	-9409
▁고락과	-9410
▁고락에	-9411
▁고르지	-9412
▁고치는	-9413
▁고치지	-9414
▁공덕은	-9415
▁공부라	-9416
▁공연한	-9417
▁공익의	-9418
▁공하고	-9419
▁과학을	-9420
▁과학의	-9421
▁관하여	-9422
▁교단은	-9423
▁교리가	-9424
▁교무를	-9425
▁교세의	-9426
▁교육과	-9427
▁교육에	-9428
▁교육은	-9429
▁교화는	-9430
▁교화에	-9431
▁교화할	-9432
▁구분이	-9433
▁구원을	-9434
▁구하고	-9435
▁구하기	-9436
▁국민이	-9437
▁귀중한	-9438
▁그래서	-9439
▁근기는	-9440
▁금강경	-9441
▁급하게	-9442
▁기도도	-9443
▁기도에	-9444
▁기반을	-9445
▁긴요한	-9446
▁길러서	-9447
▁깨쳐서	-9448
▁끝나면	-9449
▁끼치신	-9450
▁나보다	-9451
▁나오게	-9452
▁나중에	-9453
▁낙원을	-9454
▁낮에는	-9455
▁내세에	-9456
▁내왕시	-9457
▁내용을	-9458
▁노력한	-9459
▁농사에	-9460
▁누리게	-9461
▁느끼고	-9462
▁다르고	-9463
▁다르며	-9464
▁다스려	-9465
▁다음과	-9466
▁다음에	-9467
▁다함이	-9468
▁단계를	-9469
▁단계요	-9470
▁단정히	-9471
▁당하와	-9472
▁대과를	-9473
▁대기도	-9474
▁대상을	-9475
▁대상이	-9476
▁대세계	-9477
▁대우를	-9478
▁대원을	-9479
▁대정진	-9480
▁대중화	-9481
▁대하면	-9482
▁더하여	-9483
▁도덕에	-9484
▁도량에	-9485
▁도량이	-9486
▁도력이	-9487
▁도문에	-9488
▁도성이	-9489
▁도운이	-9490
▁도인과	-9491
▁도인을	-9492
▁도인의	-9493
▁도저히	-9494
▁돈오와	-9495
▁돌아갈	-9496
▁돌이켜	-9497
▁동포와	-9498
▁동포은	-9499
▁되기도	-9500
▁되려면	-9501
▁되리니	-9502
▁되었을	-9503
▁될지니	-9504
▁드리며	-9505
▁듣느냐	-9506
▁듯하나	-9507
▁등한한	-9508
▁따르게	-9509
▁땅으로	-9510
▁때에나	-9511
▁떨어질	-9512
▁떳떳한	-9513
▁뛰어넘	-9514
▁마시고	-9515
▁막히면	-9516
▁만고의	-9517
▁만나고	-9518
▁많나니	-9519
▁많아야	-9520
▁말자는	-9521
▁말지니	-9522
▁말한다	-9523
▁망념을	-9524
▁면목을	-9525
▁모두를	-9526
▁모범이	-9527
▁모으면	-9528
▁목적이	-9529
▁묘유의	-9530
▁무정한	-9531
▁문로가	-9532
▁문호를	-9533
▁바다에	-9534
▁바람을	-9535
▁바이니	-9536
▁바탕한	-9537
▁반면에	-9538
▁반야의	-9539
▁받들게	-9540
▁받아서	-9541
▁발전은	-9542
▁발전의	-9543
▁발하는	-9544
▁밝아질	-9545
▁밝음을	-9546
▁밤에는	-9547
▁방언공	-9548
▁방편과	-9549
▁배은을	-9550
▁번잡한	-9551
▁범하여	-9552
▁법계가	-9553
▁법계와	-9554
▁법도를	-9555
▁법력을	-9556
▁법문에	-9557
▁법사의	-9558
▁법연을	-9559
▁법연이	-9560
▁법회는	-9561
▁변동이	-9562
▁보고할	-9563
▁보기도	-9564
▁보내는	-9565
▁보배가	-9566
▁보시에	-9567
▁보응을	-9568
▁보통급	-9569
▁복전을	-9570
▁복전이	-9571
▁본성을	-9572
▁본의가	-9573
▁본인의	-9574
▁봉축사	-9575
▁뵈오니	-9576
▁부모전	-9577
▁부분의	-9578
▁부유한	-9579
▁불과한	-9580
▁불단을	-9581
▁불퇴전	-9582
▁비밀을	-9583
▁비치면	-9584
▁사귀게	-9585
▁사리에	-9586
▁사반야	-9587
▁사시화	-9588
▁사실에	-9589
▁사요를	-9590
▁산중에	-9591
▁살다가	-9592
▁살므로	-9593
▁살아갈	-9594
▁살아난	-9595
▁살피는	-9596
▁살피어	-9597
▁삼나니	-9598
▁새롭게	-9599
▁생각도	-9600
▁생생에	-9601
▁생활화	-9602
▁서서히	-9603
▁서울에	-9604
▁선사가	-9605
▁선원에	-9606
▁설립된	-9607
▁성성한	-9608
▁성의를	-9609
▁성지는	-9610
▁세우자	-9611
▁세워서	-9612
▁소용이	-9613
▁소유를	-9614
▁소홀히	-9615
▁솟아나	-9616
▁수도와	-9617
▁수생의	-9618
▁수시로	-9619
▁순서가	-9620
▁숭배를	-9621
▁승급식	-9622
▁시간과	-9623
▁시국에	-9624
▁시대와	-9625
▁시대화	-9626
▁시방에	-9627
▁시설을	-9628
▁시일에	-9629
▁식순에	-9630
▁신성이	-9631
▁신성한	-9632
▁실내에	-9633
▁실력이	-9634
▁십계를	-9635
▁쌍으로	-9636
▁아님도	-9637
▁아님을	-9638
▁아무런	-9639
▁아수라	-9640
▁악도를	-9641
▁않기로	-9642
▁알기가	-9643
▁양로원	-9644
▁어그러	-9645
▁어둡고	-9646
▁어른의	-9647
▁언어와	-9648
▁얻고자	-9649
▁얻으며	-9650
▁없거늘	-9651
▁없었고	-9652
▁없으되	-9653
▁여기서	-9654
▁여부를	-9655
▁역경과	-9656
▁역사가	-9657
▁역사는	-9658
▁연고요	-9659
▁연하여	-9660
▁영광을	-9661
▁영모원	-9662
▁영산회	-9663
▁예로는	-9664
▁오래지	-9665
▁오르게	-9666
▁오호라	-9667
▁올리며	-9668
▁욕망을	-9669
▁욕심과	-9670
▁우주와	-9671
▁우치한	-9672
▁원동력	-9673
▁원성적	-9674
▁위기에	-9675
▁위니라	-9676
▁위패를	-9677
▁윤리를	-9678
▁윤회를	-9679
▁이번에	-9680
▁이상을	-9681
▁이해에	-9682
▁인격은	-9683
▁인도의	-9684
▁일대겁	-9685
▁일동이	-9686
▁일어난	-9687
▁일원대	-9688
▁일월이	-9689
▁일체가	-9690
▁일하고	-9691
▁일하며	-9692
▁임무를	-9693
▁있거나	-9694
▁있든지	-9695
▁있지만	-9696
▁자금을	-9697
▁자기와	-9698
▁자녀로	-9699
▁자료를	-9700
▁자리가	-9701
▁자비가	-9702
▁자비는	-9703
▁자비를	-9704
▁자손이	-9705
▁자신과	-9706
▁자취가	-9707
▁자취를	-9708
▁잘해야	-9709
▁장소로	-9710
▁재래의	-9711
▁재미를	-9712
▁재앙을	-9713
▁전도를	-9714
▁전부터	-9715
▁전하는	-9716
▁절도에	-9717
▁점수문	-9718
▁접응할	-9719
▁정도는	-9720
▁정도로	-9721
▁정사를	-9722
▁정성은	-9723
▁정신행	-9724
▁정하게	-9725
▁제위의	-9726
▁제자는	-9727
▁조사가	-9728
▁조합의	-9729
▁졸지에	-9730
▁종교에	-9731
▁종래의	-9732
▁종전의	-9733
▁죄복은	-9734
▁죄업의	-9735
▁주리니	-9736
▁주시는	-9737
▁주시와	-9738
▁주체로	-9739
▁주하지	-9740
▁준비가	-9741
▁중대한	-9742
▁즉시로	-9743
▁증거라	-9744
▁증애에	-9745
▁지견과	-9746
▁지금에	-9747
▁지나지	-9748
▁지내고	-9749
▁지내면	-9750
▁지방과	-9751
▁지수화	-9752
▁지위가	-9753
▁지으며	-9754
▁지출을	-9755
▁지켜서	-9756
▁지키라	-9757
▁지행이	-9758
▁참회를	-9759
▁창립에	-9760
▁천도재	-9761
▁천지로	-9762
▁천천히	-9763
▁천하게	-9764
▁체받게	-9765
▁초안을	-9766
▁출가를	-9767
▁출가위	-9768
▁출입할	-9769
▁취사는	-9770
▁태도가	-9771
▁태양이	-9772
▁통하는	-9773
▁편수를	-9774
▁표본이	-9775
▁피차가	-9776
▁하기가	-9777
▁하소서	-9778
▁항하사	-9779
▁해롭게	-9780
▁행함이	-9781
▁현묘한	-9782
▁형상도	-9783
▁형편을	-9784
▁혜광을	-9785
▁화려한	-9786
▁화복을	-9787
▁확연히	-9788
▁환경에	-9789
▁활동이	-9790
▁후세에	-9791
▁흩어진	-9792
▁힘써서	-9793
▁힘쓰는	-9794
▁힘쓰면	-9795
動靜一如	-9796
四句偈等	-9797
專務出身	-9798
恒河沙等	-9799
李東震華	-9800
까지라도	-9801
되나니라	-9802
되었으나	-9803
무엇이나	-9804
불조요경	-9805
사업으로	-9806
수도인이	-9807
이라고도	-9808
이오니까	-9809
하옵기를	-9810
할지언정	-9811
▁1891	-9812
▁ᄋᄋ등은	-9813
▁不如飯一	-9814
▁定慧等持	-9815
▁所以者何	-9816
▁가지가지	-9817
▁각성하여	-9818
▁갖추기에	-9819
▁건설하여	-9820
▁것만으로	-9821
▁것이오며	-9822
▁경계하고	-9823
▁경례하고	-9824
▁경영하는	-9825
▁경전들을	-9826
▁경전이라	-9827
▁공경심을	-9828
▁공덕으로	-9829
▁공부심을	-9830
▁공부심이	-9831
▁공부하고	-9832
▁교당으로	-9833
▁구비하여	-9834
▁구애되지	-9835
▁구인제자	-9836
▁구족하고	-9837
▁권함이요	-9838
▁그대들을	-9839
▁그리하면	-9840
▁그림자가	-9841
▁근본하여	-9842
▁기념제를	-9843
▁기념하여	-9844
▁기성조합	-9845
▁기원하는	-9846
▁길이길이	-9847
▁나가자는	-9848
▁나타나지	-9849
▁나타내는	-9850
▁넘나들고	-9851
▁노력하는	-9852
▁노력하면	-9853
▁달하였다	-9854
▁당하든지	-9855
▁당하여도	-9856
▁대답하지	-9857
▁대하여도	-9858
▁도인이라	-9859
▁돌아오지	-9860
▁동지들은	-9861
▁동지들이	-9862
▁드러내고	-9863
▁드러내어	-9864
▁따르도록	-9865
▁많나이다	-9866
▁말지니라	-9867
▁말지어다	-9868
▁말한다면	-9869
▁무엇보다	-9870
▁무위이화	-9871
▁물건이나	-9872
▁물론이요	-9873
▁밝히시고	-9874
▁배출하는	-9875
▁범부들은	-9876
▁법신불을	-9877
▁베풀어서	-9878
▁변화하고	-9879
▁보시하는	-9880
▁보은하는	-9881
▁봉안하는	-9882
▁부끄러워	-9883
▁부탁하여	-9884
▁분석하고	-9885
▁불합리한	-9886
▁사람마다	-9887
▁사리간에	-9888
▁사용하면	-9889
▁사이라도	-9890
▁사통오달	-9891
▁사회에서	-9892
▁상조조합	-9893
▁서로서로	-9894
▁서울에서	-9895
▁설치하여	-9896
▁세계니라	-9897
▁손님에게	-9898
▁숭배하는	-9899
▁쉽나니라	-9900
▁신봉하는	-9901
▁실천으로	-9902
▁실천하여	-9903
▁실현하기	-9904
▁아니고는	-9905
▁아니함을	-9906
▁알았으니	-9907
▁어긋나지	-9908
▁어려우며	-9909
▁없사옵고	-9910
▁여러분과	-9911
▁여러분의	-9912
▁연고니라	-9913
▁연마하고	-9914
▁열반으로	-9915
▁영가시여	-9916
▁영모전에	-9917
▁온전하게	-9918
▁올리오니	-9919
▁운전하고	-9920
▁움직이는	-9921
▁원만하여	-9922
▁유일학림	-9923
▁의심하지	-9924
▁이름이라	-9925
▁이상에는	-9926
▁이해하지	-9927
▁인물들이	-9928
▁일꾼들이	-9929
▁일원세계	-9930
▁일제강점	-9931
▁있거니와	-9932
▁잊으시고	-9933
▁자리니라	-9934
▁자신에게	-9935
▁저희들을	-9936
▁정당하게	-9937
▁제거하는	-9938
▁제생의세	-9939
▁제정하여	-9940
▁조사하여	-9941
▁조석으로	-9942
▁조심하지	-9943
▁종법사를	-9944
▁주셨나니	-9945
▁주셨으니	-9946
▁주시니라	-9947
▁주의하라	-9948
▁주의하여	-9949
▁주재하는	-9950
▁주저하지	-9951
▁증득하여	-9952
▁지나치게	-9953
▁지었도다	-9954
▁진리니라	-9955
▁참석하여	-9956
▁참회하고	-9957
▁천도재를	-9958
▁천지에는	-9959
▁초창기에	-9960
▁치료하는	-9961
▁태어나는	-9962
▁퇴굴심을	-9963
▁특신급은	-9964
▁하거니와	-9965
▁하겠는가	-9966
▁하나님을	-9967
▁호리라도	-9968
▁화합하는	-9969
▁활동하는	-9970
▁회상에서	-9971
▁훈련법은	-9972
법강항마위	-9973
어지나니라	-9974
하시었으나	-9975
(1934.	-9976
(1935.	-9977
(1941.	-9978
(1942.	-9979
(1954.	-9980
(1959.	-9981
(1960.	-9982
(1961.	-9983
▁가르치심을	-9984
▁거행하였다	-9985
▁공자께서는	-9986
▁교화함이니	-9987
▁그러한다면	-9988
▁근본이니라	-9989
▁근원이로다	-9990
▁다를지라도	-9991
▁되겠나이다	-9992
▁되었사오니	-9993
▁말씀이니라	-9994
▁못하였으나	-9995
▁방법이니라	-9996
▁변화시키는	-9997
▁삼동윤리를	-9998
▁삼동윤리의	-9999
▁생각한다면	-10000
▁서가모니불	-10001
▁수위단회를	-10002
▁알음알이를	-10003
▁열반기념제	-10004
▁이름하나니	-10005
▁인연으로써	-10006
▁일체중생의	-10007
▁있겠나이까	-10008
▁잊어버리지	-10009
▁적었음이요	-10010
▁전하였으나	-10011
▁제위께서는	-10012
▁찬성함이요	-10013
▁필요하나니	-10014
▁하셨사오니	-10015
▁하시나이까	-10016
▁하였나니라	-10017
三千大千世界	-10018
般若波羅蜜多	-10019
정산종사법어	-10020
▁ᄋᄋ님이시여	-10021
▁대답하시기를	-10022
▁못하겠나이다	-10023
▁법마상전급은	-10024
▁사람에게라도	-10025
▁수위단회에서	-10026
▁어떠하오리까	-10027
▁원불교에서는	-10028
▁아니하였음이요	-10029
▁하감하시옵소서	-10030
(3	-10031
(4	-10032
0]	-10033
8]	-10034
al	-10035
ew	-10036
ex	-10037
··	-10038
”.	-10039
▁且	-10040
▁切	-10041
▁唯	-10042
▁守	-10043
▁宗	-10044
▁念	-10045
▁惱	-10046
▁慧	-10047
▁持	-10048
▁捨	-10049
▁方	-10050
▁時	-10051
▁普	-10052
▁現	-10053
▁盡	-10054
▁着	-10055
▁視	-10056
▁貪	-10057
▁通	-10058
▁運	-10059
▁遠	-10060
▁굶	-10061
▁났	-10062
▁뇌	-10063
▁던	-10064
▁덩	-10065
▁뜰	-10066
▁띠	-10067
▁메	-10068
▁삭	-10069
▁섞	-10070
▁숲	-10071
▁썩	-10072
▁썼	-10073
▁앙	-10074
▁액	-10075
▁엷	-10076
▁옴	-10077
▁잦	-10078
▁쫓	-10079
▁찌	-10080
▁큼	-10081
▁탕	-10082
▁툭	-10083
▁퍼	-10084
』(	-10085
丁丑	-10086
三學	-10087
不及	-10088
不淨	-10089
丙子	-10090
中國	-10091
中央	-10092
之位	-10093
乾坤	-10094
佛地	-10095
佛塔	-10096
來世	-10097
例會	-10098
俱空	-10099
元經	-10100
先後	-10101
入定	-10102
六根	-10103
六途	-10104
利他	-10105
前世	-10106
十善	-10107
同志	-10108
味觸	-10109
命報	-10110
善法	-10111
喜捨	-10112
四時	-10113
報本	-10114
大寂	-10115
大小	-10116
大山	-10117
大智	-10118
奉公	-10119
婆羅	-10120
宋慧	-10121
定業	-10122
定法	-10123
寂寂	-10124
寂知	-10125
專權	-10126
常轉	-10127
平等	-10128
心師	-10129
性理	-10130
恭敬	-10131
情欲	-10132
惡人	-10133
應用	-10134
我人	-10135
所得	-10136
昏亂	-10137
是故	-10138
是汝	-10139
智者	-10140
本末	-10141
柳虛	-10142
次第	-10143
此而	-10144
法語	-10145
法輪	-10146
涵養	-10147
淨信	-10148
無記	-10149
無邊	-10150
爲人	-10151
畜生	-10152
病報	-10153
發大	-10154
白指	-10155
白雲	-10156
相生	-10157
禪定	-10158
禪法	-10159
禪院	-10160
私利	-10161
章句	-10162
結實	-10163
義備	-10164
而生	-10165
聖聖	-10166
聲香	-10167
自利	-10168
自家	-10169
自由	-10170
萬古	-10171
萬德	-10172
萬里	-10173
萬難	-10174
蓬萊	-10175
要道	-10176
觀空	-10177
語者	-10178
變化	-10179
身相	-10180
輪廻	-10181
辛卯	-10182
辛未	-10183
退屈	-10184
通信	-10185
過去	-10186
道心	-10187
金正	-10188
長者	-10189
雙修	-10190
雨露	-10191
非非	-10192
餓鬼	-10193
가야	-10194
간은	-10195
강에	-10196
것도	-10197
결의	-10198
경전	-10199
계문	-10200
고한	-10201
곳에	-10202
공덕	-10203
과는	-10204
광선	-10205
교간	-10206
교도	-10207
교라	-10208
교사	-10209
구한	-10210
국은	-10211
길로	-10212
김제	-10213
나고	-10214
날에	-10215
내를	-10216
내지	-10217
녀의	-10218
년은	-10219
놓고	-10220
놓은	-10221
님과	-10222
다지	-10223
담을	-10224
대리	-10225
대사	-10226
더냐	-10227
더러	-10228
덕과	-10229
도송	-10230
동의	-10231
들에	-10232
들일	-10233
들지	-10234
라서	-10235
량을	-10236
럽게	-10237
려도	-10238
련한	-10239
례와	-10240
로도	-10241
로이	-10242
류를	-10243
른다	-10244
리되	-10245
마귀	-10246
마침	-10247
만고	-10248
만히	-10249
매한	-10250
먼저	-10251
목에	-10252
무궁	-10253
무념	-10254
무소	-10255
반에	-10256
받침	-10257
방송	-10258
법계	-10259
법문	-10260
병에	-10261
보로	-10262
보와	-10263
봉을	-10264
부여	-10265
부전	-10266
부주	-10267
부활	-10268
삼대	-10269
삼조	-10270
상불	-10271
석에	-10272
석을	-10273
선한	-10274
소로	-10275
소장	-10276
수계	-10277
수와	-10278
수자	-10279
수지	-10280
순한	-10281
시간	-10282
시기	-10283
시아	-10284
시요	-10285
시장	-10286
신흥	-10287
악한	-10288
애가	-10289
양을	-10290
어져	-10291
여서	-10292
염불	-10293
였던	-10294
영지	-10295
영할	-10296
예수	-10297
오가	-10298
왔다	-10299
우주	-10300
운하	-10301
울한	-10302
육원	-10303
으사	-10304
음도	-10305
이던	-10306
이로	-10307
이성	-10308
이제	-10309
이하	-10310
익산	-10311
인데	-10312
일로	-10313
일월	-10314
자도	-10315
재래	-10316
적에	-10317
절에	-10318
정할	-10319
조건	-10320
조차	-10321
조창	-10322
종을	-10323
주소	-10324
주신	-10325
주와	-10326
주지	-10327
줄을	-10328
중도	-10329
진다	-10330
진이	-10331
쪼록	-10332
찮은	-10333
창한	-10334
채를	-10335
천봉	-10336
천여	-10337
철은	-10338
청정	-10339
체라	-10340
쳤다	-10341
초를	-10342
총독	-10343
치라	-10344
치와	-10345
캠퍼	-10346
코자	-10347
판이	-10348
평상	-10349
평의	-10350
평화	-10351
했고	-10352
화는	-10353
화한	-10354
회보	-10355
000	-10356
195	-10357
nal	-10358
won	-10359
▁1,	-10360
▁9)	-10361
▁90	-10362
▁[2	-10363
▁ex	-10364
▁「1	-10365
▁不離	-10366
▁以爲	-10367
▁何因	-10368
▁其福	-10369
▁卽不	-10370
▁卽得	-10371
▁卽是	-10372
▁告辭	-10373
▁學道	-10374
▁對治	-10375
▁布施	-10376
▁師傅	-10377
▁得少	-10378
▁心無	-10379
▁成就	-10380
▁我當	-10381
▁是眞	-10382
▁步步	-10383
▁涅槃	-10384
▁淸淨	-10385
▁生在	-10386
▁生於	-10387
▁結婚	-10388
▁而復	-10389
▁自性	-10390
▁若言	-10391
▁靈知	-10392
▁가니	-10393
▁가로	-10394
▁가사	-10395
▁가치	-10396
▁각성	-10397
▁간소	-10398
▁간의	-10399
▁강습	-10400
▁강이	-10401
▁갖출	-10402
▁같아	-10403
▁개시	-10404
▁거리	-10405
▁거주	-10406
▁건전	-10407
▁걷지	-10408
▁걸릴	-10409
▁검은	-10410
▁게을	-10411
▁겨우	-10412
▁견고	-10413
▁결성	-10414
▁결집	-10415
▁결합	-10416
▁겸행	-10417
▁경상	-10418
▁경외	-10419
▁경은	-10420
▁경의	-10421
▁경절	-10422
▁경치	-10423
▁계를	-10424
▁공급	-10425
▁공식	-10426
▁공장	-10427
▁공정	-10428
▁공회	-10429
▁과도	-10430
▁과를	-10431
▁괴롭	-10432
▁교만	-10433
▁교재	-10434
▁교제	-10435
▁교지	-10436
▁구슬	-10437
▁굴리	-10438
▁궁구	-10439
▁그도	-10440
▁금옥	-10441
▁금전	-10442
▁기러	-10443
▁기위	-10444
▁기존	-10445
▁긴요	-10446
▁길도	-10447
▁깊게	-10448
▁꽃이	-10449
▁끊을	-10450
▁끊일	-10451
▁끓는	-10452
▁끝내	-10453
▁끝마	-10454
▁끼칠	-10455
▁나며	-10456
▁나은	-10457
▁낙도	-10458
▁날뛰	-10459
▁낱이	-10460
▁내다	-10461
▁내생	-10462
▁내장	-10463
▁너를	-10464
▁넘길	-10465
▁년간	-10466
▁년을	-10467
▁노루	-10468
▁노인	-10469
▁누릴	-10470
▁눈과	-10471
▁느낄	-10472
▁늙고	-10473
▁다한	-10474
▁다해	-10475
▁달린	-10476
▁닮아	-10477
▁당대	-10478
▁당부	-10479
▁대덕	-10480
▁대를	-10481
▁대상	-10482
▁대서	-10483
▁대열	-10484
▁대완	-10485
▁대인	-10486
▁대종	-10487
▁대질	-10488
▁더럽	-10489
▁더한	-10490
▁덕화	-10491
▁덮어	-10492
▁데를	-10493
▁데서	-10494
▁도교	-10495
▁도실	-10496
▁도심	-10497
▁도중	-10498
▁독서	-10499
▁독송	-10500
▁독한	-10501
▁돈과	-10502
▁동선	-10503
▁동양	-10504
▁되매	-10505
▁두시	-10506
▁두터	-10507
▁두호	-10508
▁둥글	-10509
▁드리	-10510
▁든든	-10511
▁들었	-10512
▁등도	-10513
▁등불	-10514
▁떠오	-10515
▁막고	-10516
▁막기	-10517
▁막아	-10518
▁만법	-10519
▁말세	-10520
▁맛과	-10521
▁맞고	-10522
▁맡길	-10523
▁매어	-10524
▁맥을	-10525
▁맺은	-10526
▁며느	-10527
▁명백	-10528
▁명의	-10529
▁모를	-10530
▁모셔	-10531
▁모실	-10532
▁모임	-10533
▁목사	-10534
▁몸소	-10535
▁무간	-10536
▁무관	-10537
▁무기	-10538
▁무산	-10539
▁무색	-10540
▁무정	-10541
▁묵상	-10542
▁묻고	-10543
▁묻자	-10544
▁물고	-10545
▁물은	-10546
▁미안	-10547
▁밀려	-10548
▁밑에	-10549
▁바느	-10550
▁바란	-10551
▁바쁜	-10552
▁바쳐	-10553
▁바쳤	-10554
▁박고	-10555
▁박멸	-10556
▁반만	-10557
▁반복	-10558
▁반성	-10559
▁밟게	-10560
▁밟고	-10561
▁버는	-10562
▁번씩	-10563
▁벌써	-10564
▁벌이	-10565
▁법규	-10566
▁법상	-10567
▁벗을	-10568
▁변경	-10569
▁별좌	-10570
▁보기	-10571
▁보류	-10572
▁보잘	-10573
▁보필	-10574
▁본의	-10575
▁봉헌	-10576
▁뵈옵	-10577
▁부려	-10578
▁부속	-10579
▁부질	-10580
▁분과	-10581
▁분담	-10582
▁불민	-10583
▁불일	-10584
▁불지	-10585
▁불행	-10586
▁붓고	-10587
▁붕우	-10588
▁비단	-10589
▁빈곤	-10590
▁빈부	-10591
▁빛날	-10592
▁사과	-10593
▁사마	-10594
▁사바	-10595
▁사세	-10596
▁사십	-10597
▁사오	-10598
▁사의	-10599
▁사중	-10600
▁사후	-10601
▁산동	-10602
▁산실	-10603
▁산은	-10604
▁산의	-10605
▁살면	-10606
▁살필	-10607
▁삶을	-10608
▁삼갈	-10609
▁삼교	-10610
▁삼방	-10611
▁상도	-10612
▁상상	-10613
▁상전	-10614
▁생과	-10615
▁서늘	-10616
▁서무	-10617
▁서야	-10618
▁선근	-10619
▁선기	-10620
▁선비	-10621
▁선언	-10622
▁선업	-10623
▁선용	-10624
▁선인	-10625
▁세배	-10626
▁세울	-10627
▁소독	-10628
▁소와	-10629
▁소원	-10630
▁소인	-10631
▁속을	-10632
▁속일	-10633
▁손은	-10634
▁손해	-10635
▁송도	-10636
▁수라	-10637
▁수립	-10638
▁수십	-10639
▁수의	-10640
▁수준	-10641
▁수효	-10642
▁순간	-10643
▁숨을	-10644
▁숯을	-10645
▁쉬는	-10646
▁쉬울	-10647
▁스님	-10648
▁시급	-10649
▁시찰	-10650
▁식물	-10651
▁신속	-10652
▁실적	-10653
▁심화	-10654
▁십년	-10655
▁싸움	-10656
▁싹을	-10657
▁쏟아	-10658
▁쓰일	-10659
▁씨를	-10660
▁아상	-10661
▁아우	-10662
▁안분	-10663
▁안이	-10664
▁앉은	-10665
▁압박	-10666
▁양계	-10667
▁어렸	-10668
▁어서	-10669
▁업에	-10670
▁여는	-10671
▁여한	-10672
▁연도	-10673
▁연례	-10674
▁열쇠	-10675
▁열에	-10676
▁열을	-10677
▁열의	-10678
▁영문	-10679
▁영전	-10680
▁옆에	-10681
▁예언	-10682
▁예증	-10683
▁오복	-10684
▁오전	-10685
▁올렸	-10686
▁옳을	-10687
▁옹기	-10688
▁옹호	-10689
▁왕궁	-10690
▁외람	-10691
▁외부	-10692
▁용상	-10693
▁용을	-10694
▁우애	-10695
▁우편	-10696
▁원력	-10697
▁원은	-10698
▁원의	-10699
▁원형	-10700
▁위엄	-10701
▁위요	-10702
▁위치	-10703
▁위협	-10704
▁유람	-10705
▁유산	-10706
▁유정	-10707
▁육조	-10708
▁윤리	-10709
▁은자	-10710
▁의사	-10711
▁이념	-10712
▁이론	-10713
▁이백	-10714
▁이요	-10715
▁인권	-10716
▁인명	-10717
▁인보	-10718
▁인상	-10719
▁인을	-10720
▁인한	-10721
▁일년	-10722
▁일단	-10723
▁일분	-10724
▁일치	-10725
▁임금	-10726
▁임기	-10727
▁임야	-10728
▁입등	-10729
▁입지	-10730
▁있삽	-10731
▁잊어	-10732
▁자동	-10733
▁자심	-10734
▁작고	-10735
▁잡았	-10736
▁장양	-10737
▁장을	-10738
▁장한	-10739
▁저는	-10740
▁적벽	-10741
▁적을	-10742
▁전권	-10743
▁전수	-10744
▁전통	-10745
▁전파	-10746
▁정에	-10747
▁제법	-10748
▁제시	-10749
▁제주	-10750
▁조감	-10751
▁존엄	-10752
▁좁고	-10753
▁종종	-10754
▁좌절	-10755
▁죄로	-10756
▁주관	-10757
▁주라	-10758
▁주빈	-10759
▁주었	-10760
▁주워	-10761
▁주위	-10762
▁주택	-10763
▁죽게	-10764
▁중화	-10765
▁증진	-10766
▁지날	-10767
▁지냈	-10768
▁지리	-10769
▁지중	-10770
▁진대	-10771
▁진심	-10772
▁진여	-10773
▁진출	-10774
▁진취	-10775
▁짐짓	-10776
▁착공	-10777
▁착심	-10778
▁착용	-10779
▁찰나	-10780
▁참가	-10781
▁참을	-10782
▁채찍	-10783
▁처지	-10784
▁천년	-10785
▁천불	-10786
▁천사	-10787
▁천심	-10788
▁철석	-10789
▁철이	-10790
▁체제	-10791
▁초재	-10792
▁초조	-10793
▁촉구	-10794
▁총명	-10795
▁추운	-10796
▁추호	-10797
▁춘풍	-10798
▁출석	-10799
▁취침	-10800
▁치고	-10801
▁치재	-10802
▁친애	-10803
▁커진	-10804
▁키우	-10805
▁키울	-10806
▁탈복	-10807
▁터를	-10808
▁통지	-10809
▁통합	-10810
▁퇴임	-10811
▁특등	-10812
▁판이	-10813
▁펴고	-10814
▁펴지	-10815
▁편성	-10816
▁편의	-10817
▁편협	-10818
▁편히	-10819
▁평온	-10820
▁표시	-10821
▁풀며	-10822
▁풀을	-10823
▁풀이	-10824
▁품고	-10825
▁풍랑	-10826
▁피할	-10827
▁하실	-10828
▁하심	-10829
▁학명	-10830
▁학습	-10831
▁한문	-10832
▁함과	-10833
▁항의	-10834
▁해소	-10835
▁해에	-10836
▁해원	-10837
▁허덕	-10838
▁허령	-10839
▁혁명	-10840
▁현성	-10841
▁현하	-10842
▁혈인	-10843
▁협조	-10844
▁혜두	-10845
▁혜환	-10846
▁호소	-10847
▁화목	-10848
▁화육	-10849
▁확대	-10850
▁황도	-10851
▁황홀	-10852
▁효도	-10853
▁훼방	-10854
▁흔히	-10855
▁흠모	-10856
▁흥망	-10857
▁희미	-10858
▁힘들	-10859
一切法	-10860
不可得	-10861
人所生	-10862
同倫理	-10863
味觸法	-10864
大寂光	-10865
宋慧煥	-10866
宋道性	-10867
所說法	-10868
是非相	-10869
曺專權	-10870
柳虛一	-10871
氣連契	-10872
法結義	-10873
波羅密	-10874
無所住	-10875
無爲法	-10876
爲道者	-10877
父母所	-10878
般若智	-10879
色天報	-10880
說法時	-10881
諸菩薩	-10882
超三界	-10883
간으로	-10884
건국론	-10885
걸음이	-10886
겠다고	-10887
견성을	-10888
교단의	-10889
국에서	-10890
그러한	-10891
김없이	-10892
년월일	-10893
님이나	-10894
대회를	-10895
더이다	-10896
되도록	-10897
로서의	-10898
리나니	-10899
리리라	-10900
리하는	-10901
무엇이	-10902
버리는	-10903
법률의	-10904
삼동윤	-10905
생활을	-10906
석으로	-10907
셨으나	-10908
소태산	-10909
스승이	-10910
시키며	-10911
신불은	-10912
실하게	-10913
심하지	-10914
십니까	-10915
어니와	-10916
어진다	-10917
었다는	-10918
에게만	-10919
여래는	-10920
여명의	-10921
였으나	-10922
옵기를	-10923
욕으로	-10924
월부터	-10925
으시나	-10926
음이라	-10927
이거든	-10928
이것은	-10929
이라가	-10930
장에는	-10931
진리를	-10932
참으로	-10933
천지의	-10934
캠퍼스	-10935
하다고	-10936
하듯이	-10937
하시기	-10938
하심에	-10939
학대학	-10940
해지면	-10941
했나니	-10942
▁202	-10943
▁67.	-10944
▁68.	-10945
▁ᄋᄋ와	-10946
▁不應住	-10947
▁其義備	-10948
▁用前世	-10949
▁用是故	-10950
▁發靷式	-10951
▁若有人	-10952
▁가르친	-10953
▁가벼워	-10954
▁가슴에	-10955
▁가시니	-10956
▁가정은	-10957
▁가졌다	-10958
▁각지에	-10959
▁각처의	-10960
▁간다면	-10961
▁감응을	-10962
▁감화를	-10963
▁강약이	-10964
▁강자로	-10965
▁강자와	-10966
▁강자의	-10967
▁갖추면	-10968
▁갖춰야	-10969
▁같음을	-10970
▁개벽을	-10971
▁개인과	-10972
▁개인을	-10973
▁거슬려	-10974
▁건국에	-10975
▁건설할	-10976
▁것이냐	-10977
▁겨울에	-10978
▁결정을	-10979
▁결혼을	-10980
▁경어를	-10981
▁경으로	-10982
▁경제의	-10983
▁계단을	-10984
▁계행을	-10985
▁고치고	-10986
▁고해가	-10987
▁고해에	-10988
▁곡식을	-10989
▁곧바로	-10990
▁공경을	-10991
▁공덕도	-10992
▁공덕에	-10993
▁공덕의	-10994
▁공도의	-10995
▁공력이	-10996
▁공부나	-10997
▁공부며	-10998
▁공사는	-10999
▁공손히	-11000
▁공원을	-11001
▁공이요	-11002
▁공헌한	-11003
▁과거를	-11004
▁과목은	-11005
▁광대한	-11006
▁괴롭고	-11007
▁교도로	-11008
▁교우가	-11009
▁교재를	-11010
▁교통이	-11011
▁교화로	-11012
▁교환할	-11013
▁교훈을	-11014
▁구원할	-11015
▁구제할	-11016
▁구타원	-11017
▁굴리고	-11018
▁굽히어	-11019
▁굽히지	-11020
▁규칙을	-11021
▁그다지	-11022
▁그들은	-11023
▁그름이	-11024
▁극진히	-11025
▁근기에	-11026
▁근심과	-11027
▁근원인	-11028
▁기념문	-11029
▁기본이	-11030
▁기색을	-11031
▁기술은	-11032
▁기운만	-11033
▁기질을	-11034
▁길들여	-11035
▁김대거	-11036
▁까닭은	-11037
▁깨끗한	-11038
▁꽃다운	-11039
▁꾸미는	-11040
▁꾸준한	-11041
▁나무를	-11042
▁나타낸	-11043
▁낙으로	-11044
▁내리게	-11045
▁내리지	-11046
▁냄새와	-11047
▁넓히는	-11048
▁노력이	-11049
▁농부가	-11050
▁놓아도	-11051
▁놓으신	-11052
▁능력과	-11053
▁능이성	-11054
▁다같이	-11055
▁다리를	-11056
▁다양한	-11057
▁다하는	-11058
▁닦으면	-11059
▁단원의	-11060
▁단전에	-11061
▁단체가	-11062
▁단체는	-11063
▁단체를	-11064
▁당년도	-11065
▁당하고	-11066
▁당하였	-11067
▁대단히	-11068
▁대사가	-11069
▁대산은	-11070
▁대액을	-11071
▁대업에	-11072
▁대운이	-11073
▁대원정	-11074
▁대체를	-11075
▁대하되	-11076
▁대회에	-11077
▁더하고	-11078
▁덕으로	-11079
▁덕이라	-11080
▁데까지	-11081
▁도리에	-11082
▁도무지	-11083
▁도사를	-11084
▁도중에	-11085
▁돌리면	-11086
▁동원도	-11087
▁동작이	-11088
▁동정이	-11089
▁동포를	-11090
▁동포의	-11091
▁되는가	-11092
▁되리요	-11093
▁된다고	-11094
▁드리고	-11095
▁드리는	-11096
▁들으면	-11097
▁듯하니	-11098
▁등급을	-11099
▁때로는	-11100
▁뛰어난	-11101
▁만나기	-11102
▁만나는	-11103
▁만나매	-11104
▁만능을	-11105
▁만능이	-11106
▁만덕산	-11107
▁만들며	-11108
▁만유가	-11109
▁만유를	-11110
▁많다고	-11111
▁많았다	-11112
▁말에는	-11113
▁말이요	-11114
▁말하며	-11115
▁말할새	-11116
▁맑히고	-11117
▁망상을	-11118
▁망상이	-11119
▁맞아서	-11120
▁머리에	-11121
▁머물지	-11122
▁멈추고	-11123
▁멸함도	-11124
▁멸함이	-11125
▁명리의	-11126
▁명상에	-11127
▁모두는	-11128
▁모로나	-11129
▁모르면	-11130
▁목표는	-11131
▁무념을	-11132
▁무념할	-11133
▁무루의	-11134
▁무리와	-11135
▁무명의	-11136
▁무서워	-11137
▁무심히	-11138
▁문하에	-11139
▁물들고	-11140
▁물러설	-11141
▁물욕에	-11142
▁뭉쳐서	-11143
▁미신에	-11144
▁미치게	-11145
▁미하고	-11146
▁밑천이	-11147
▁바뀌는	-11148
▁바로서	-11149
▁바르면	-11150
▁박차를	-11151
▁반갑고	-11152
▁받들며	-11153
▁받았고	-11154
▁발견한	-11155
▁발하면	-11156
▁방면의	-11157
▁방법과	-11158
▁방법에	-11159
▁배우지	-11160
▁배워서	-11161
▁백수면	-11162
▁버려야	-11163
▁버리면	-11164
▁번수를	-11165
▁범하고	-11166
▁법맥을	-11167
▁법위등	-11168
▁법위사	-11169
▁법이나	-11170
▁변화는	-11171
▁별다른	-11172
▁병듦이	-11173
▁병이며	-11174
▁보살은	-11175
▁보살을	-11176
▁보시며	-11177
▁복덕의	-11178
▁복록이	-11179
▁복문을	-11180
▁복잡한	-11181
▁본말과	-11182
▁본분을	-11183
▁본성이	-11184
▁본원에	-11185
▁본위의	-11186
▁봉고식	-11187
▁봉래산	-11188
▁부르는	-11189
▁부른다	-11190
▁부부의	-11191
▁부분은	-11192
▁부촉을	-11193
▁분들의	-11194
▁분별에	-11195
▁분야가	-11196
▁불교도	-11197
▁불상이	-11198
▁불의를	-11199
▁불일을	-11200
▁불조의	-11201
▁불평이	-11202
▁불행을	-11203
▁붙이고	-11204
▁비난을	-11205
▁비롯이	-11206
▁비치고	-11207
▁비하여	-11208
▁빛나게	-11209
▁빠지지	-11210
▁사랑과	-11211
▁사로잡	-11212
▁사명을	-11213
▁사사물	-11214
▁사시의	-11215
▁사심을	-11216
▁사요의	-11217
▁사은이	-11218
▁사이가	-11219
▁사정이	-11220
▁사후에	-11221
▁산부처	-11222
▁살아도	-11223
▁살펴야	-11224
▁살피지	-11225
▁삼강령	-11226
▁삼세에	-11227
▁삼으나	-11228
▁삼으며	-11229
▁상대로	-11230
▁새벽에	-11231
▁색신은	-11232
▁색신이	-11233
▁생각의	-11234
▁생기게	-11235
▁생기지	-11236
▁생성의	-11237
▁서약을	-11238
▁서원문	-11239
▁서원한	-11240
▁석두암	-11241
▁선령은	-11242
▁선생을	-11243
▁선이요	-11244
▁선정에	-11245
▁선진과	-11246
▁설립을	-11247
▁설하는	-11248
▁설하신	-11249
▁성공될	-11250
▁성인과	-11251
▁성인을	-11252
▁성자를	-11253
▁성지의	-11254
▁성질에	-11255
▁성질을	-11256
▁성품은	-11257
▁성품자	-11258
▁성현이	-11259
▁소리로	-11260
▁소자녀	-11261
▁소회를	-11262
▁수기를	-11263
▁수다원	-11264
▁수레를	-11265
▁수명이	-11266
▁수용할	-11267
▁수입과	-11268
▁수행도	-11269
▁숙세의	-11270
▁숭배는	-11271
▁습관에	-11272
▁습관은	-11273
▁승려가	-11274
▁시국을	-11275
▁시기가	-11276
▁시작한	-11277
▁시작할	-11278
▁시종이	-11279
▁시행할	-11280
▁식사를	-11281
▁신령한	-11282
▁신망을	-11283
▁신문을	-11284
▁신앙에	-11285
▁신정절	-11286
▁실례를	-11287
▁실지를	-11288
▁실천을	-11289
▁실천의	-11290
▁실행의	-11291
▁실효가	-11292
▁심성이	-11293
▁심신이	-11294
▁심지는	-11295
▁아나함	-11296
▁아득한	-11297
▁아름답	-11298
▁아무야	-11299
▁앉기를	-11300
▁않으나	-11301
▁않으시	-11302
▁알기도	-11303
▁알으셨	-11304
▁알자는	-11305
▁양면을	-11306
▁양방에	-11307
▁양방이	-11308
▁양하운	-11309
▁어둠에	-11310
▁어둡게	-11311
▁어둡지	-11312
▁어렵지	-11313
▁억조창	-11314
▁언어도	-11315
▁엄중히	-11316
▁업력에	-11317
▁업신여	-11318
▁없거나	-11319
▁없거니	-11320
▁없기를	-11321
▁없는가	-11322
▁없어도	-11323
▁여기지	-11324
▁여실히	-11325
▁여전히	-11326
▁여쭈니	-11327
▁역량을	-11328
▁연구는	-11329
▁연하고	-11330
▁열리지	-11331
▁열었다	-11332
▁염원할	-11333
▁영겁에	-11334
▁영근에	-11335
▁영로에	-11336
▁영생에	-11337
▁영통을	-11338
▁영화를	-11339
▁오다가	-11340
▁오롯히	-11341
▁오르면	-11342
▁옥녀봉	-11343
▁올리면	-11344
▁올바로	-11345
▁외경에	-11346
▁요건이	-11347
▁요법을	-11348
▁요법이	-11349
▁욕심은	-11350
▁욕심의	-11351
▁우주는	-11352
▁우주를	-11353
▁원력을	-11354
▁원리는	-11355
▁원리와	-11356
▁원망을	-11357
▁원망이	-11358
▁원망할	-11359
▁원수를	-11360
▁원수의	-11361
▁원하며	-11362
▁원한을	-11363
▁위력과	-11364
▁위신이	-11365
▁위의를	-11366
▁위함이	-11367
▁유공인	-11368
▁유교의	-11369
▁유념할	-11370
▁유무식	-11371
▁유무와	-11372
▁유아의	-11373
▁육영부	-11374
▁은덕을	-11375
▁은혜는	-11376
▁은혜의	-11377
▁응대할	-11378
▁응용에	-11379
▁응용할	-11380
▁응접할	-11381
▁응하는	-11382
▁의견이	-11383
▁의리에	-11384
▁의복을	-11385
▁의식에	-11386
▁의식이	-11387
▁의지를	-11388
▁이같이	-11389
▁이기지	-11390
▁이념을	-11391
▁이니라	-11392
▁이단치	-11393
▁이로운	-11394
▁이루기	-11395
▁이룬다	-11396
▁이르는	-11397
▁이르면	-11398
▁이상된	-11399
▁이상에	-11400
▁이웃을	-11401
▁이익은	-11402
▁이적을	-11403
▁이후로	-11404
▁익산에	-11405
▁익히고	-11406
▁인간에	-11407
▁인과를	-11408
▁인도로	-11409
▁인물로	-11410
▁인심의	-11411
▁인연에	-11412
▁인연은	-11413
▁인연의	-11414
▁인정이	-11415
▁일기법	-11416
▁일반의	-11417
▁일부러	-11418
▁일생은	-11419
▁일생이	-11420
▁일심과	-11421
▁일어날	-11422
▁일어서	-11423
▁일찍이	-11424
▁입각한	-11425
▁있거늘	-11426
▁있기도	-11427
▁있으되	-11428
▁자격이	-11429
▁자녀와	-11430
▁자력이	-11431
▁자리라	-11432
▁자비의	-11433
▁자세에	-11434
▁자연한	-11435
▁자연현	-11436
▁자유가	-11437
▁자유와	-11438
▁자유의	-11439
▁작업에	-11440
▁작용이	-11441
▁잡아서	-11442
▁잡으면	-11443
▁잡초가	-11444
▁장래의	-11445
▁장사를	-11446
▁장소는	-11447
▁장소를	-11448
▁재단의	-11449
▁재래와	-11450
▁재앙의	-11451
▁적절한	-11452
▁전생의	-11453
▁전하게	-11454
▁전후에	-11455
▁절실히	-11456
▁절차에	-11457
▁절차와	-11458
▁절하고	-11459
▁점수의	-11460
▁점차로	-11461
▁정기를	-11462
▁정도가	-11463
▁정법의	-11464
▁정산은	-11465
▁정중한	-11466
▁정진할	-11467
▁정치에	-11468
▁정혜를	-11469
▁제도에	-11470
▁제불제	-11471
▁제자로	-11472
▁제자만	-11473
▁제재를	-11474
▁조금씩	-11475
▁조목에	-11476
▁조용한	-11477
▁조직은	-11478
▁조직을	-11479
▁조촐한	-11480
▁존재를	-11481
▁졸연히	-11482
▁종지를	-11483
▁좋아질	-11484
▁좌선의	-11485
▁죄고에	-11486
▁주기가	-11487
▁주세불	-11488
▁주심을	-11489
▁주어서	-11490
▁주었다	-11491
▁주함이	-11492
▁죽음의	-11493
▁중고등	-11494
▁즐거이	-11495
▁지각이	-11496
▁지게만	-11497
▁지나가	-11498
▁지내지	-11499
▁지식과	-11500
▁지역에	-11501
▁지조를	-11502
▁지중한	-11503
▁직업에	-11504
▁진실히	-11505
▁진심을	-11506
▁집으로	-11507
▁집이요	-11508
▁짓기를	-11509
▁차리어	-11510
▁차이는	-11511
▁착용할	-11512
▁참회문	-11513
▁창립단	-11514
▁창립을	-11515
▁창생의	-11516
▁창시한	-11517
▁찾아온	-11518
▁챙기며	-11519
▁처리할	-11520
▁처소와	-11521
▁처지가	-11522
▁천상락	-11523
▁천주교	-11524
▁천지도	-11525
▁천지은	-11526
▁체성에	-11527
▁초기에	-11528
▁총부로	-11529
▁총회를	-11530
▁춘풍이	-11531
▁출가가	-11532
▁출가한	-11533
▁충분한	-11534
▁키우는	-11535
▁탐심을	-11536
▁탐하여	-11537
▁태어난	-11538
▁터전을	-11539
▁토대를	-11540
▁통하며	-11541
▁판국이	-11542
▁팔조와	-11543
▁평범한	-11544
▁평상의	-11545
▁평화가	-11546
▁평화는	-11547
▁평화한	-11548
▁폐단을	-11549
▁폐지할	-11550
▁풍속에	-11551
▁피하여	-11552
▁하나인	-11553
▁하늘로	-11554
▁하라는	-11555
▁하려고	-11556
▁하셨다	-11557
▁하시는	-11558
▁하여서	-11559
▁하찮은	-11560
▁한량없	-11561
▁한반도	-11562
▁함인가	-11563
▁합력이	-11564
▁합하고	-11565
▁합하면	-11566
▁항마위	-11567
▁해하는	-11568
▁했다는	-11569
▁행동에	-11570
▁행복한	-11571
▁행실을	-11572
▁행하라	-11573
▁향상의	-11574
▁허다한	-11575
▁허리를	-11576
▁헛되이	-11577
▁형상과	-11578
▁형상을	-11579
▁형식은	-11580
▁형식을	-11581
▁혼침과	-11582
▁화두를	-11583
▁환영을	-11584
▁활동할	-11585
▁회갑에	-11586
▁회갑을	-11587
▁회의를	-11588
▁회장에	-11589
▁훈련에	-11590
▁흉복을	-11591
▁흐르는	-11592
▁희미한	-11593
▁희사위	-11594
▁희유한	-11595
▁힘쓰지	-11596
▁힘입어	-11597
不可思議	-11598
事事佛供	-11599
先悟後修	-11600
同源道理	-11601
我人衆生	-11602
我見人見	-11603
神通變化	-11604
處處佛像	-11605
鼎山宗師	-11606
공보다는	-11607
교에서는	-11608
들께서는	-11609
라하시니	-11610
법이니라	-11611
시옵소서	-11612
앞으로는	-11613
예로부터	-11614
으셨나니	-11615
이시니라	-11616
인에게도	-11617
중생들은	-11618
초대원장	-11619
케하소서	-11620
하느니라	-11621
하시도록	-11622
하오리까	-11623
▁4.5)	-11624
▁一圓大業	-11625
▁其人所生	-11626
▁卽是非相	-11627
▁實無有法	-11628
▁感生外報	-11629
▁於父母所	-11630
▁歸家無爲	-11631
▁須菩提言	-11632
▁가득하여	-11633
▁가르치며	-11634
▁가르치지	-11635
▁가르침을	-11636
▁가진다면	-11637
▁같은지라	-11638
▁개척하여	-11639
▁거행하게	-11640
▁건설되는	-11641
▁게송으로	-11642
▁경전으로	-11643
▁계발하는	-11644
▁계속하는	-11645
▁고등학교	-11646
▁고요하고	-11647
▁곳에서나	-11648
▁공변되고	-11649
▁공부로서	-11650
▁공부하면	-11651
▁광대하고	-11652
▁괴로움을	-11653
▁교도들의	-11654
▁교역자를	-11655
▁교역자의	-11656
▁교육기관	-11657
▁귀의하여	-11658
▁기다리고	-11659
▁깨끗하게	-11660
▁깨끗하지	-11661
▁깨달음이	-11662
▁끊어지고	-11663
▁나아가라	-11664
▁나오도록	-11665
▁나중에는	-11666
▁나타내지	-11667
▁너그럽고	-11668
▁넉넉하고	-11669
▁노력하고	-11670
▁노력하여	-11671
▁단원들은	-11672
▁단원들이	-11673
▁담박하고	-11674
▁당하여는	-11675
▁대각개교	-11676
▁대도니라	-11677
▁대조하게	-11678
▁대조하는	-11679
▁대종경을	-11680
▁도모하는	-11681
▁도모하지	-11682
▁돌아다니	-11683
▁돌이켜서	-11684
▁돌파하고	-11685
▁동기연계	-11686
▁동척사업	-11687
▁되는지라	-11688
▁되었느냐	-11689
▁되었는가	-11690
▁되옵나니	-11691
▁따름이니	-11692
▁때문이다	-11693
▁떨어지게	-11694
▁마느니라	-11695
▁마음이라	-11696
▁만들고자	-11697
▁만들기로	-11698
▁만생령을	-11699
▁말이니라	-11700
▁말하였다	-11701
▁말할진대	-11702
▁맞이하여	-11703
▁명심하라	-11704
▁모름지기	-11705
▁못하오니	-11706
▁못한다는	-11707
▁못할지라	-11708
▁무너지고	-11709
▁무상으로	-11710
▁무시하고	-11711
▁무아봉공	-11712
▁박중빈이	-11713
▁반조하는	-11714
▁발견하고	-11715
▁발견하는	-11716
▁발심하여	-11717
▁발전됨을	-11718
▁방문하는	-11719
▁배우고자	-11720
▁배출하여	-11721
▁버리지는	-11722
▁법신불과	-11723
▁병진하여	-11724
▁보겠느냐	-11725
▁보나니라	-11726
▁보내시니	-11727
▁보호하는	-11728
▁부드러운	-11729
▁부득이한	-11730
▁부딪침과	-11731
▁부족함이	-11732
▁부처니라	-11733
▁불구하고	-11734
▁비유컨대	-11735
▁사라지고	-11736
▁사람들로	-11737
▁사람보다	-11738
▁사생으로	-11739
▁사업으로	-11740
▁산업부의	-11741
▁살면서도	-11742
▁살아나야	-11743
▁상대편에	-11744
▁생각에서	-11745
▁생겨나는	-11746
▁생기나니	-11747
▁서면으로	-11748
▁선도자가	-11749
▁선생이라	-11750
▁선원에서	-11751
▁설립하여	-11752
▁성년식을	-11753
▁성령전에	-11754
▁성인에게	-11755
▁성인이라	-11756
▁성품으로	-11757
▁성품이며	-11758
▁성현들의	-11759
▁수행으로	-11760
▁쉬우니라	-11761
▁쉬우므로	-11762
▁스스로를	-11763
▁스승이나	-11764
▁스승이라	-11765
▁승급하여	-11766
▁시간에는	-11767
▁신앙으로	-11768
▁신앙처를	-11769
▁싫어하고	-11770
▁심고하는	-11771
▁아나니라	-11772
▁아름다운	-11773
▁아무러한	-11774
▁아무쪼록	-11775
▁알으시고	-11776
▁어디서나	-11777
▁어려운데	-11778
▁어린이를	-11779
▁어찌할꼬	-11780
▁얻었으나	-11781
▁얻으리요	-11782
▁없었나니	-11783
▁없음이요	-11784
▁없지마는	-11785
▁여래위에	-11786
▁여러분이	-11787
▁연마하여	-11788
▁염불이나	-11789
▁영광에서	-11790
▁온전하고	-11791
▁운영하고	-11792
▁원동력이	-11793
▁원수라도	-11794
▁월명암에	-11795
▁위에다가	-11796
▁위원회가	-11797
▁위원회의	-11798
▁위주하고	-11799
▁유공인은	-11800
▁유공인의	-11801
▁의지하고	-11802
▁이동진화	-11803
▁이러하며	-11804
▁이르도록	-11805
▁이야기를	-11806
▁이외에는	-11807
▁이타로써	-11808
▁이해하기	-11809
▁인류에게	-11810
▁일꾼으로	-11811
▁일어나면	-11812
▁일어내어	-11813
▁일이므로	-11814
▁일이었다	-11815
▁입각하여	-11816
▁입으로만	-11817
▁있사오나	-11818
▁있사온데	-11819
▁있었나니	-11820
▁있지마는	-11821
▁자신이나	-11822
▁자주력을	-11823
▁자진하여	-11824
▁자택에서	-11825
▁작용하는	-11826
▁장려하여	-11827
▁저희들로	-11828
▁전라북도	-11829
▁전진하여	-11830
▁절약하여	-11831
▁접대하는	-11832
▁정법으로	-11833
▁정사에서	-11834
▁정하여도	-11835
▁제일가는	-11836
▁제자로서	-11837
▁제출하여	-11838
▁조건으로	-11839
▁조상으로	-11840
▁조선총독	-11841
▁조심해야	-11842
▁조직하라	-11843
▁존경하는	-11844
▁종교라야	-11845
▁주고받는	-11846
▁주력하고	-11847
▁주력하여	-11848
▁주인이요	-11849
▁준비하여	-11850
▁지도인을	-11851
▁지도인의	-11852
▁지도하실	-11853
▁지수화풍	-11854
▁진급기에	-11855
▁진흥하여	-11856
▁집착하지	-11857
▁처음부터	-11858
▁천도법문	-11859
▁청정하고	-11860
▁체성이며	-11861
▁총부에서	-11862
▁취사력을	-11863
▁치우치지	-11864
▁태어났다	-11865
▁통합하여	-11866
▁판단하는	-11867
▁판단하여	-11868
▁평탄하게	-11869
▁하나라는	-11870
▁하나임을	-11871
▁하셨으나	-11872
▁하옵시와	-11873
▁한다든지	-11874
▁한량없이	-11875
▁한마음이	-11876
▁합력으로	-11877
▁합하도록	-11878
▁현상이라	-11879
▁회상임을	-11880
▁훈련법과	-11881
以三十二相	-11882
聲香味觸法	-11883
般若波羅密	-11884
원광대학교	-11885
하시나이까	-11886
하시는지라	-11887
하시었나니	-11888
(1918.	-11889
(1931.	-11890
(1936.	-11891
(1937.	-11892
(1952.	-11893
ternal	-11894
▁步步超三界	-11895
▁가운데서도	-11896
▁걸음걸음이	-11897
▁계속한다면	-11898
▁공부인으로	-11899
▁교당에서는	-11900
▁교무들에게	-11901
▁귀의하였다	-11902
▁그리하여야	-11903
▁단원들에게	-11904
▁대각전에서	-11905
▁동지들에게	-11906
▁되었으므로	-11907
▁뜻이오니까	-11908
▁말함이니라	-11909
▁맹세하옵고	-11910
▁목욕하오며	-11911
▁물건이라도	-11912
▁발전시키는	-11913
▁법마상전급	-11914
▁보시하기를	-11915
▁불보살들이	-11916
▁사람에게도	-11917
▁사람에게만	-11918
▁사용하여야	-11919
▁설함으로써	-11920
▁수도인들이	-11921
▁수양력으로	-11922
▁수위단회는	-11923
▁아니오니까	-11924
▁아니하고도	-11925
▁아니하는가	-11926
▁아니하므로	-11927
▁않겠나이까	-11928
▁어찌하여야	-11929
▁영가에게는	-11930
▁올리나이다	-11931
▁이르러서는	-11932
▁이르시기를	-11933
▁이상으로써	-11934
▁인과보응의	-11935
▁일제강점기	-11936
▁일체중생을	-11937
▁자동적으로	-11938
▁자연스럽게	-11939
▁작업이었다	-11940
▁제외하고는	-11941
▁조심하여야	-11942
▁주의하여야	-11943
▁주인공들이	-11944
▁지도자들은	-11945
▁하였느니라	-11946
▁후천개벽의	-11947
我人衆生壽者	-11948
衆生相壽者相	-11949
衆生見壽者見	-11950
▁用前世說法時	-11951
▁스승님이시여	-11952
▁아니하였나니	-11953
▁아니하였으나	-11954
▁치사하시기를	-11955
▁이루어지느니라	-11956
▁external	-11957
▁若有善男子善女人	-11958
我見人見衆生見壽者見	-11959
▁得阿耨多羅三藐三菩提	-11960
!’	-11961
(7	-11962
67	-11963
9]	-11964
[3	-11965
ht	-11966
ti	-11967
▁0	-11968
▁A	-11969
▁元	-11970
▁出	-11971
▁前	-11972
▁叉	-11973
▁只	-11974
▁命	-11975
▁均	-11976
▁堅	-11977
▁墮	-11978
▁外	-11979
▁夜	-11980
▁契	-11981
▁子	-11982
▁形	-11983
▁悲	-11984
▁敬	-11985
▁最	-11986
▁業	-11987
▁毁	-11988
▁母	-11989
▁治	-11990
▁深	-11991
▁滿	-11992
▁理	-11993
▁百	-11994
▁祈	-11995
▁膚	-11996
▁解	-11997
▁邪	-11998
▁除	-11999
▁갱	-12000
▁곁	-12001
▁꿀	-12002
▁댓	-12003
▁땀	-12004
▁뜬	-12005
▁뭔	-12006
▁뱃	-12007
▁뼈	-12008
▁삽	-12009
▁쏠	-12010
▁씀	-12011
▁씻	-12012
▁왜	-12013
▁으	-12014
▁을	-12015
▁잔	-12016
▁징	-12017
▁콩	-12018
▁퍽	-12019
▁헐	-12020
一團	-12021
一大	-12022
一貫	-12023
丁巳	-12024
三世	-12025
不作	-12026
不修	-12027
不得	-12028
不樂	-12029
不殺	-12030
不能	-12031
不變	-12032
之大	-12033
之道	-12034
乘者	-12035
乙酉	-12036
事上	-12037
事懺	-12038
事理	-12039
五百	-12040
五蘊	-12041
人生	-12042
人身	-12043
仁義	-12044
佛恩	-12045
佛日	-12046
保任	-12047
保長	-12048
信仰	-12049
値佛	-12050
偸盜	-12051
僧祗	-12052
優婆	-12053
光旋	-12054
入無	-12055
全羅	-12056
兩舌	-12057
兩足	-12058
八條	-12059
公私	-12060
制式	-12061
創立	-12062
北道	-12063
千峰	-12064
卽無	-12065
去來	-12066
合其	-12067
同心	-12068
同拓	-12069
同歸	-12070
吳昌	-12071
命俱	-12072
唯一	-12073
四條	-12074
四相	-12075
四要	-12076
回向	-12077
圓正	-12078
圓滿	-12079
圓相	-12080
執心	-12081
增輝	-12082
多生	-12083
大仁	-12084
大地	-12085
大明	-12086
天下	-12087
天業	-12088
天永	-12089
天眞	-12090
天眼	-12091
奉道	-12092
如之	-12093
妄念	-12094
孤獨	-12095
安樂	-12096
客塵	-12097
宣揚	-12098
寂滅	-12099
富樂	-12100
寧爲	-12101
山童	-12102
崔道	-12103
己丑	-12104
師友	-12105
常時	-12106
常獨	-12107
幾千	-12108
心和	-12109
心心	-12110
心法	-12111
念佛	-12112
怖畏	-12113
怨病	-12114
情曲	-12115
惡行	-12116
愍心	-12117
愚者	-12118
慧眼	-12119
慧門	-12120
戊戌	-12121
戊申	-12122
戊辰	-12123
成聖	-12124
我心	-12125
所行	-12126
持戒	-12127
授記	-12128
揭諦	-12129
摩訶	-12130
於人	-12131
日日	-12132
日記	-12133
是也	-12134
是佛	-12135
智愚	-12136
曠劫	-12137
李載	-12138
果報	-12139
棄捨	-12140
樂園	-12141
樹給	-12142
欲求	-12143
正因	-12144
氣和	-12145
水聲	-12146
法勳	-12147
法印	-12148
法名	-12149
法器	-12150
法認	-12151
法通	-12152
注意	-12153
消滅	-12154
漏智	-12155
火宅	-12156
無德	-12157
無情	-12158
無相	-12159
無礙	-12160
無諍	-12161
無門	-12162
爲主	-12163
爾所	-12164
牧牛	-12165
理事	-12166
生佛	-12167
生心	-12168
生業	-12169
生活	-12170
百億	-12171
皆空	-12172
盡而	-12173
直心	-12174
相傳	-12175
眞空	-12176
瞋心	-12177
知敬	-12178
石頭	-12179
精神	-12180
經綸	-12181
綺語	-12182
總說	-12183
習氣	-12184
者也	-12185
聖經	-12186
聽法	-12187
至善	-12188
致齋	-12189
萬年	-12190
萬能	-12191
蓮花	-12192
薦度	-12193
行道	-12194
要法	-12195
見聞	-12196
觀心	-12197
言說	-12198
訓練	-12199
話頭	-12200
諦聽	-12201
諸聖	-12202
貧苦	-12203
身中	-12204
身心	-12205
迷悟	-12206
進行	-12207
道場	-12208
道斷	-12209
邊地	-12210
那伽	-12211
開悟	-12212
陰陽	-12213
離慾	-12214
靈氣	-12215
非法	-12216
顚倒	-12217
騰騰	-12218
齋主	-12219
齋戒	-12220
龍象	-12221
가서	-12222
가와	-12223
감사	-12224
강급	-12225
강한	-12226
개가	-12227
거진	-12228
건과	-12229
격을	-12230
경과	-12231
고독	-12232
고아	-12233
곡에	-12234
공동	-12235
공영	-12236
공은	-12237
공의	-12238
공중	-12239
과에	-12240
관의	-12241
광전	-12242
구가	-12243
구인	-12244
귀에	-12245
기나	-12246
기업	-12247
기화	-12248
까요	-12249
까운	-12250
나갈	-12251
난한	-12252
남도	-12253
너는	-12254
녕코	-12255
누가	-12256
능을	-12257
단한	-12258
대성	-12259
대저	-12260
대할	-12261
대회	-12262
대히	-12263
덕에	-12264
던가	-12265
데에	-12266
독로	-12267
동학	-12268
드러	-12269
드리	-12270
듣고	-12271
란히	-12272
래가	-12273
래도	-12274
래를	-12275
레를	-12276
령에	-12277
령한	-12278
례로	-12279
류에	-12280
리란	-12281
마을	-12282
만지	-12283
만큼	-12284
말고	-12285
매를	-12286
명한	-12287
모요	-12288
목표	-12289
몸은	-12290
무애	-12291
무한	-12292
문관	-12293
미륵	-12294
바위	-12295
받지	-12296
배은	-12297
배할	-12298
법상	-12299
법위	-12300
법인	-12301
법회	-12302
변을	-12303
변의	-12304
별을	-12305
보며	-12306
보본	-12307
보았	-12308
보장	-12309
복할	-12310
부안	-12311
사리	-12312
사시	-12313
사이	-12314
산과	-12315
산업	-12316
삼가	-12317
상장	-12318
상조	-12319
생사	-12320
선무	-12321
선에	-12322
성불	-12323
성탄	-12324
성품	-12325
소는	-12326
속한	-12327
송옥	-12328
수급	-12329
수성	-12330
수적	-12331
순을	-12332
순의	-12333
시게	-12334
시라	-12335
시킴	-12336
신도	-12337
심한	-12338
아도	-12339
악이	-12340
야흐	-12341
양성	-12342
어니	-12343
여한	-12344
열된	-12345
영과	-12346
영육	-12347
영의	-12348
예술	-12349
왕의	-12350
요론	-12351
요양	-12352
우십	-12353
움도	-12354
움에	-12355
월의	-12356
위국	-12357
유의	-12358
음만	-12359
이미	-12360
이사	-12361
이온	-12362
인류	-12363
인바	-12364
일신	-12365
임할	-12366
입교	-12367
자고	-12368
자성	-12369
자오	-12370
자요	-12371
작업	-12372
작은	-12373
잡이	-12374
장경	-12375
재와	-12376
저녁	-12377
적은	-12378
전문	-12379
전쟁	-12380
점이	-12381
제일	-12382
조사	-12383
족이	-12384
좋은	-12385
죄를	-12386
주로	-12387
주요	-12388
즉시	-12389
증을	-12390
지방	-12391
집한	-12392
쪽이	-12393
차게	-12394
찬송	-12395
참한	-12396
창립	-12397
책에	-12398
초목	-12399
출판	-12400
치원	-12401
패를	-12402
편수	-12403
평한	-12404
포를	-12405
표어	-12406
하살	-12407
학자	-12408
할새	-12409
합기	-12410
항에	-12411
해로	-12412
해리	-12413
해졌	-12414
호되	-12415
혼을	-12416
화합	-12417
활한	-12418
회관	-12419
회와	-12420
효가	-12421
휴암	-12422
(18	-12423
.19	-12424
.」「	-12425
200	-12426
▁2,	-12427
▁23	-12428
▁35	-12429
▁5,	-12430
▁68	-12431
▁一時	-12432
▁不在	-12433
▁不忘	-12434
▁不解	-12435
▁亦復	-12436
▁亦是	-12437
▁亦無	-12438
▁今時	-12439
▁以入	-12440
▁以此	-12441
▁何假	-12442
▁何況	-12443
▁信解	-12444
▁出家	-12445
▁勸人	-12446
▁口行	-12447
▁名爲	-12448
▁均調	-12449
▁夫人	-12450
▁奉告	-12451
▁如我	-12452
▁對曰	-12453
▁形容	-12454
▁得多	-12455
▁得大	-12456
▁得聞	-12457
▁得長	-12458
▁復次	-12459
▁必有	-12460
▁意行	-12461
▁懺悔	-12462
▁所得	-12463
▁所言	-12464
▁於善	-12465
▁於此	-12466
▁於法	-12467
▁日久	-12468
▁是知	-12469
▁有法	-12470
▁本來	-12471
▁欲求	-12472
▁歸依	-12473
▁汝若	-12474
▁漸薰	-12475
▁無有	-12476
▁照鑑	-12477
▁煩惱	-12478
▁爲人	-12479
▁父母	-12480
▁現在	-12481
▁終齋	-12482
▁而不	-12483
▁膚體	-12484
▁見諸	-12485
▁誓願	-12486
▁身行	-12487
▁道場	-12488
▁遠離	-12489
▁雖有	-12490
▁가깝	-12491
▁가끔	-12492
▁가도	-12493
▁가매	-12494
▁가셨	-12495
▁가신	-12496
▁가호	-12497
▁간다	-12498
▁간략	-12499
▁간접	-12500
▁감상	-12501
▁감옥	-12502
▁갑오	-12503
▁값도	-12504
▁강녕	-12505
▁강약	-12506
▁강일	-12507
▁강화	-12508
▁갖고	-12509
▁개가	-12510
▁개발	-12511
▁개원	-12512
▁개폐	-12513
▁거둬	-12514
▁거친	-12515
▁걷혀	-12516
▁겸양	-12517
▁겸한	-12518
▁경강	-12519
▁경동	-12520
▁경편	-12521
▁고는	-12522
▁고대	-12523
▁고혈	-12524
▁공생	-12525
▁공유	-12526
▁공존	-12527
▁공표	-12528
▁과장	-12529
▁교례	-12530
▁구세	-12531
▁구천	-12532
▁구체	-12533
▁군색	-12534
▁굽게	-12535
▁굽어	-12536
▁궁극	-12537
▁궁촌	-12538
▁궤도	-12539
▁귀에	-12540
▁귀천	-12541
▁귀히	-12542
▁그저	-12543
▁그쳐	-12544
▁극할	-12545
▁근면	-12546
▁근신	-12547
▁근처	-12548
▁글귀	-12549
▁금지	-12550
▁기를	-12551
▁기쁘	-12552
▁기약	-12553
▁기지	-12554
▁기침	-12555
▁기특	-12556
▁꽃과	-12557
▁꽃은	-12558
▁꿈에	-12559
▁끊되	-12560
▁끌림	-12561
▁끝을	-12562
▁나뉘	-12563
▁나머	-12564
▁나야	-12565
▁나태	-12566
▁낙망	-12567
▁낙성	-12568
▁난행	-12569
▁날의	-12570
▁남게	-12571
▁남과	-12572
▁낫고	-12573
▁낮과	-12574
▁낳은	-12575
▁너도	-12576
▁너와	-12577
▁넓다	-12578
▁넘치	-12579
▁년의	-12580
▁노예	-12581
▁녹듯	-12582
▁녹아	-12583
▁농업	-12584
▁농원	-12585
▁눕는	-12586
▁눕지	-12587
▁늙은	-12588
▁단기	-12589
▁단의	-12590
▁닫고	-12591
▁달과	-12592
▁달래	-12593
▁달을	-12594
▁담담	-12595
▁닿는	-12596
▁대고	-12597
▁대과	-12598
▁대세	-12599
▁대외	-12600
▁대운	-12601
▁대응	-12602
▁대장	-12603
▁대책	-12604
▁대처	-12605
▁대항	-12606
▁대향	-12607
▁더듬	-12608
▁더디	-12609
▁도래	-12610
▁도우	-12611
▁도착	-12612
▁돌로	-12613
▁돌릴	-12614
▁동고	-12615
▁동국	-12616
▁동네	-12617
▁동문	-12618
▁동방	-12619
▁동생	-12620
▁동참	-12621
▁동풍	-12622
▁되던	-12623
▁될까	-12624
▁두게	-12625
▁두라	-12626
▁두며	-12627
▁두신	-12628
▁둥근	-12629
▁드린	-12630
▁득도	-12631
▁들인	-12632
▁등사	-12633
▁땅도	-12634
▁떠났	-12635
▁뚫어	-12636
▁뜨거	-12637
▁뜨는	-12638
▁마는	-12639
▁만민	-12640
▁만약	-12641
▁만엽	-12642
▁말만	-12643
▁말변	-12644
▁말해	-12645
▁맑아	-12646
▁맛을	-12647
▁망각	-12648
▁망념	-12649
▁망라	-12650
▁망상	-12651
▁맡겨	-12652
▁맡을	-12653
▁매달	-12654
▁맺고	-12655
▁머금	-12656
▁명에	-12657
▁모략	-12658
▁모른	-12659
▁모이	-12660
▁목례	-12661
▁목수	-12662
▁목조	-12663
▁몰두	-12664
▁몰랐	-12665
▁무능	-12666
▁무도	-12667
▁무료	-12668
▁무무	-12669
▁묶인	-12670
▁물소	-12671
▁뭉쳐	-12672
▁뭉치	-12673
▁미개	-12674
▁미주	-12675
▁미타	-12676
▁민주	-12677
▁민첩	-12678
▁반백	-12679
▁반포	-12680
▁받던	-12681
▁발을	-12682
▁밝을	-12683
▁밝지	-12684
▁밝혔	-12685
▁밤을	-12686
▁밥이	-12687
▁배웠	-12688
▁백골	-12689
▁버린	-12690
▁번만	-12691
▁번째	-12692
▁범위	-12693
▁법구	-12694
▁법륜	-12695
▁법칙	-12696
▁변론	-12697
▁변치	-12698
▁변할	-12699
▁변환	-12700
▁별이	-12701
▁병에	-12702
▁보완	-12703
▁복고	-12704
▁복구	-12705
▁본사	-12706
▁본좌	-12707
▁봄에	-12708
▁봉양	-12709
▁봉황	-12710
▁부를	-12711
▁부수	-12712
▁부연	-12713
▁부호	-12714
▁북일	-12715
▁분들	-12716
▁분산	-12717
▁분쟁	-12718
▁분향	-12719
▁불도	-12720
▁불리	-12721
▁불제	-12722
▁불화	-12723
▁붙일	-12724
▁비고	-12725
▁비교	-12726
▁비를	-12727
▁비쳐	-12728
▁비추	-12729
▁비평	-12730
▁빠지	-12731
▁뻗어	-12732
▁사배	-12733
▁사서	-12734
▁사연	-12735
▁사우	-12736
▁사조	-12737
▁사홍	-12738
▁산란	-12739
▁산을	-12740
▁살릴	-12741
▁삼켜	-12742
▁상은	-12743
▁상좌	-12744
▁상화	-12745
▁새겨	-12746
▁새기	-12747
▁새끼	-12748
▁생겼	-12749
▁생성	-12750
▁생이	-12751
▁선각	-12752
▁선교	-12753
▁선량	-12754
▁선방	-12755
▁선사	-12756
▁선천	-12757
▁설계	-12758
▁성도	-12759
▁성사	-12760
▁성섭	-12761
▁성역	-12762
▁성을	-12763
▁성장	-12764
▁성정	-12765
▁성행	-12766
▁세전	-12767
▁세칙	-12768
▁소는	-12769
▁소설	-12770
▁소요	-12771
▁소위	-12772
▁속박	-12773
▁속의	-12774
▁손가	-12775
▁솟게	-12776
▁송광	-12777
▁송주	-12778
▁수기	-12779
▁수련	-12780
▁수백	-12781
▁수선	-12782
▁숙겁	-12783
▁순일	-12784
▁순회	-12785
▁술이	-12786
▁슬픈	-12787
▁승격	-12788
▁시내	-12789
▁시달	-12790
▁시상	-12791
▁시종	-12792
▁시주	-12793
▁시창	-12794
▁식이	-12795
▁신근	-12796
▁신년	-12797
▁신라	-12798
▁신사	-12799
▁신자	-12800
▁실재	-12801
▁심성	-12802
▁심월	-12803
▁심행	-12804
▁십인	-12805
▁싸인	-12806
▁쌓을	-12807
▁쌓이	-12808
▁쓰러	-12809
▁씨가	-12810
▁아만	-12811
▁아심	-12812
▁안보	-12813
▁안아	-12814
▁안주	-12815
▁안창	-12816
▁안타	-12817
▁앉는	-12818
▁않다	-12819
▁않듯	-12820
▁않으	-12821
▁압제	-12822
▁앞의	-12823
▁애국	-12824
▁액을	-12825
▁양방	-12826
▁양양	-12827
▁양육	-12828
▁양주	-12829
▁어리	-12830
▁어울	-12831
▁어제	-12832
▁어짊	-12833
▁억만	-12834
▁언행	-12835
▁얽힌	-12836
▁여길	-12837
▁여김	-12838
▁여일	-12839
▁여하	-12840
▁역순	-12841
▁연계	-12842
▁연기	-12843
▁연꽃	-12844
▁연속	-12845
▁연임	-12846
▁연필	-12847
▁엷은	-12848
▁염라	-12849
▁영단	-12850
▁영역	-12851
▁영은	-12852
▁영이	-12853
▁예산	-12854
▁예상	-12855
▁예전	-12856
▁오던	-12857
▁오매	-12858
▁오실	-12859
▁올챙	-12860
▁옮기	-12861
▁완정	-12862
▁외도	-12863
▁외우	-12864
▁요동	-12865
▁용심	-12866
▁우로	-12867
▁우월	-12868
▁운수	-12869
▁원각	-12870
▁원년	-12871
▁원시	-12872
▁원융	-12873
▁원중	-12874
▁원한	-12875
▁원호	-12876
▁월례	-12877
▁위안	-12878
▁유도	-12879
▁으뜸	-12880
▁은현	-12881
▁응감	-12882
▁응당	-12883
▁의를	-12884
▁의리	-12885
▁이공	-12886
▁이날	-12887
▁이며	-12888
▁이완	-12889
▁익숙	-12890
▁인색	-12891
▁인용	-12892
▁일미	-12893
▁일신	-12894
▁일차	-12895
▁읽게	-12896
▁읽어	-12897
▁잃어	-12898
▁잃은	-12899
▁임의	-12900
▁입어	-12901
▁입태	-12902
▁입혔	-12903
▁잎이	-12904
▁자랄	-12905
▁자루	-12906
▁자포	-12907
▁잠깐	-12908
▁잠이	-12909
▁잡은	-12910
▁잡혀	-12911
▁장난	-12912
▁장년	-12913
▁장로	-12914
▁장에	-12915
▁장이	-12916
▁재겸	-12917
▁재판	-12918
▁저와	-12919
▁적조	-12920
▁적합	-12921
▁전남	-12922
▁전능	-12923
▁전달	-12924
▁전신	-12925
▁전의	-12926
▁전지	-12927
▁전후	-12928
▁절제	-12929
▁정면	-12930
▁정업	-12931
▁정욕	-12932
▁정월	-12933
▁정은	-12934
▁제공	-12935
▁졌다	-12936
▁조객	-12937
▁조단	-12938
▁조절	-12939
▁존속	-12940
▁존야	-12941
▁종성	-12942
▁좋다	-12943
▁죄송	-12944
▁주색	-12945
▁주역	-12946
▁주창	-12947
▁주해	-12948
▁준수	-12949
▁준용	-12950
▁중음	-12951
▁중정	-12952
▁중학	-12953
▁지경	-12954
▁지기	-12955
▁지묵	-12956
▁지속	-12957
▁지지	-12958
▁지킴	-12959
▁직할	-12960
▁직후	-12961
▁질병	-12962
▁집은	-12963
▁집필	-12964
▁집행	-12965
▁짓기	-12966
▁차가	-12967
▁차츰	-12968
▁착의	-12969
▁참례	-12970
▁참배	-12971
▁창도	-12972
▁찾기	-12973
▁찾았	-12974
▁채굴	-12975
▁천연	-12976
▁천의	-12977
▁청산	-12978
▁체요	-12979
▁초가	-12980
▁초당	-12981
▁초래	-12982
▁총무	-12983
▁총서	-12984
▁최도	-12985
▁추가	-12986
▁추어	-12987
▁추원	-12988
▁추측	-12989
▁축전	-12990
▁출역	-12991
▁출중	-12992
▁출진	-12993
▁충돌	-12994
▁치는	-12995
▁친감	-12996
▁침노	-12997
▁침이	-12998
▁큼이	-12999
▁타서	-13000
▁탈선	-13001
▁탐심	-13002
▁탐욕	-13003
▁태연	-13004
▁태워	-13005
▁태평	-13006
▁터득	-13007
▁토양	-13008
▁퇴보	-13009
▁투자	-13010
▁트고	-13011
▁트집	-13012
▁판정	-13013
▁팔고	-13014
▁팔산	-13015
▁펴서	-13016
▁펴신	-13017
▁편은	-13018
▁편을	-13019
▁편지	-13020
▁폐회	-13021
▁풀지	-13022
▁피는	-13023
▁피땀	-13024
▁하감	-13025
▁하사	-13026
▁하섬	-13027
▁학문	-13028
▁학식	-13029
▁한글	-13030
▁한의	-13031
▁한한	-13032
▁함에	-13033
▁함지	-13034
▁해월	-13035
▁행례	-13036
▁향해	-13037
▁허송	-13038
▁허일	-13039
▁헌축	-13040
▁험한	-13041
▁혜가	-13042
▁혜는	-13043
▁호남	-13044
▁호상	-13045
▁호위	-13046
▁혼돈	-13047
▁화복	-13048
▁화상	-13049
▁화재	-13050
▁화한	-13051
▁황등	-13052
▁회광	-13053
▁회의	-13054
▁효가	-13055
▁효의	-13056
▁후나	-13057
▁후세	-13058
▁후의	-13059
▁훈훈	-13060
▁흥왕	-13061
▁희유	-13062
▁힘과	-13063
一圓化	-13064
中下語	-13065
中所有	-13066
乘者說	-13067
亦無無	-13068
他人說	-13069
他子女	-13070
保長生	-13071
千萬億	-13072
吳昌建	-13073
圓佛敎	-13074
報差別	-13075
增上心	-13076
大圓氣	-13077
天永地	-13078
威德業	-13079
婆羅門	-13080
孤獨園	-13081
崔道華	-13082
常獨露	-13083
戴謝式	-13084
摩訶薩	-13085
有衆生	-13086
決定報	-13087
法身佛	-13088
淨信行	-13089
無時禪	-13090
燃燈佛	-13091
紀念祭	-13092
聽水聲	-13093
自性門	-13094
舍衛國	-13095
見如來	-13096
諸善根	-13097
金光旋	-13098
金正勇	-13099
鑑之位	-13100
阿僧祗	-13101
가지로	-13102
경으로	-13103
공부가	-13104
과거의	-13105
귀교의	-13106
그러나	-13107
그렇게	-13108
근래에	-13109
기거나	-13110
기로운	-13111
까지의	-13112
난다면	-13113
년대에	-13114
누구나	-13115
느냐고	-13116
도가의	-13117
도덕의	-13118
되리니	-13119
되어도	-13120
득하고	-13121
들이고	-13122
라고도	-13123
라하니	-13124
라하면	-13125
림이요	-13126
립하여	-13127
마음을	-13128
망하고	-13129
목으로	-13130
무소주	-13131
물이요	-13132
물질의	-13133
밖으로	-13134
방으로	-13135
배은을	-13136
버리고	-13137
버리면	-13138
병으로	-13139
보거나	-13140
보장생	-13141
복덕경	-13142
부에서	-13143
사업회	-13144
사에서	-13145
삽더니	-13146
생각이	-13147
생활의	-13148
세상이	-13149
셨거든	-13150
소리가	-13151
손으로	-13152
수자에	-13153
수행의	-13154
스럽지	-13155
스승과	-13156
승이라	-13157
시켜서	-13158
시하여	-13159
실하여	-13160
심이라	-13161
안으로	-13162
았다는	-13163
야흐로	-13164
어나지	-13165
어지게	-13166
어학원	-13167
여래가	-13168
여래의	-13169
오다가	-13170
옵다가	-13171
위원장	-13172
으시어	-13173
을진대	-13174
이든지	-13175
인이라	-13176
일간의	-13177
일이나	-13178
적이고	-13179
절이온	-13180
종교와	-13181
주의로	-13182
중으로	-13183
지리라	-13184
진리가	-13185
질하는	-13186
천지가	-13187
출가위	-13188
하야도	-13189
하야사	-13190
할지니	-13191
할진대	-13192
해서는	-13193
해지는	-13194
해지며	-13195
해지지	-13196
했는데	-13197
화하고	-13198
,000	-13199
.[2]	-13200
▁197	-13201
▁24)	-13202
▁60)	-13203
▁69.	-13204
▁7.7	-13205
▁70.	-13206
▁71.	-13207
▁72.	-13208
▁73.	-13209
▁不知敬	-13210
▁但伊麽	-13211
▁告由文	-13212
▁善知敬	-13213
▁得端正	-13214
▁結婚式	-13215
▁見他失	-13216
▁觀如來	-13217
▁가다가	-13218
▁가리왕	-13219
▁가마귀	-13220
▁가만히	-13221
▁가볍게	-13222
▁가서는	-13223
▁가시사	-13224
▁가을에	-13225
▁가족을	-13226
▁가지도	-13227
▁가지에	-13228
▁가치는	-13229
▁간격을	-13230
▁간격이	-13231
▁간고한	-13232
▁간음을	-13233
▁감명을	-13234
▁감상을	-13235
▁감수를	-13236
▁강자를	-13237
▁강하고	-13238
▁갖도록	-13239
▁같기도	-13240
▁같도다	-13241
▁같으니	-13242
▁같으면	-13243
▁개요를	-13244
▁거두고	-13245
▁거래를	-13246
▁거래와	-13247
▁거름이	-13248
▁건네고	-13249
▁건지는	-13250
▁걸리어	-13251
▁걸리지	-13252
▁걸인이	-13253
▁것만을	-13254
▁게을리	-13255
▁견성만	-13256
▁견성에	-13257
▁결과에	-13258
▁결실의	-13259
▁결의가	-13260
▁겸해야	-13261
▁경계도	-13262
▁경과를	-13263
▁경의를	-13264
▁경전에	-13265
▁경하게	-13266
▁계문에	-13267
▁계발을	-13268
▁계속할	-13269
▁계시사	-13270
▁계통을	-13271
▁고난과	-13272
▁고난이	-13273
▁고생을	-13274
▁고유의	-13275
▁고장이	-13276
▁고통과	-13277
▁곤란을	-13278
▁공경히	-13279
▁공기를	-13280
▁공로가	-13281
▁공로를	-13282
▁공심을	-13283
▁공의에	-13284
▁공자님	-13285
▁공정을	-13286
▁공하여	-13287
▁공헌을	-13288
▁과학과	-13289
▁과학이	-13290
▁관리라	-13291
▁관리를	-13292
▁관심을	-13293
▁관청에	-13294
▁광경을	-13295
▁광명은	-13296
▁광선이	-13297
▁교도와	-13298
▁교무는	-13299
▁교법에	-13300
▁교세가	-13301
▁교운이	-13302
▁교제의	-13303
▁교헌에	-13304
▁구경에	-13305
▁구멍이	-13306
▁구별이	-13307
▁구속과	-13308
▁구원해	-13309
▁구인의	-13310
▁구하게	-13311
▁구하면	-13312
▁국가가	-13313
▁국가적	-13314
▁국량이	-13315
▁군자의	-13316
▁권능이	-13317
▁권리에	-13318
▁권세를	-13319
▁권장이	-13320
▁귀절을	-13321
▁귀천이	-13322
▁귀하의	-13323
▁규에게	-13324
▁규율을	-13325
▁그러자	-13326
▁그런고	-13327
▁그름을	-13328
▁그릇을	-13329
▁그릇이	-13330
▁그만큼	-13331
▁그에게	-13332
▁극도로	-13333
▁극락에	-13334
▁근거를	-13335
▁근근히	-13336
▁근기도	-13337
▁근본해	-13338
▁글자를	-13339
▁급선무	-13340
▁기간도	-13341
▁기간이	-13342
▁기구가	-13343
▁기념은	-13344
▁기념을	-13345
▁기념이	-13346
▁기다릴	-13347
▁기도와	-13348
▁기쁘게	-13349
▁기사를	-13350
▁기상이	-13351
▁기연이	-13352
▁기원을	-13353
▁기점을	-13354
▁기질이	-13355
▁김광선	-13356
▁깨닫게	-13357
▁깨달은	-13358
▁깨치지	-13359
▁깨침을	-13360
▁끼치지	-13361
▁나무에	-13362
▁나쁘게	-13363
▁나수고	-13364
▁나타낼	-13365
▁낙지에	-13366
▁날이요	-13367
▁남녀의	-13368
▁남들이	-13369
▁내놓은	-13370
▁내생을	-13371
▁내생의	-13372
▁내용은	-13373
▁내지도	-13374
▁냄새도	-13375
▁너그러	-13376
▁너무나	-13377
▁너에게	-13378
▁넘어선	-13379
▁넘치고	-13380
▁노소를	-13381
▁노소의	-13382
▁노승이	-13383
▁녹아서	-13384
▁녹이고	-13385
▁녹이는	-13386
▁놀라게	-13387
▁누리는	-13388
▁눈물을	-13389
▁눈으로	-13390
▁눈이요	-13391
▁느끼지	-13392
▁다니면	-13393
▁다시금	-13394
▁다음은	-13395
▁다하라	-13396
▁닦으며	-13397
▁단단히	-13398
▁단련이	-13399
▁단련한	-13400
▁단번에	-13401
▁단전주	-13402
▁단정한	-13403
▁단합은	-13404
▁달라서	-13405
▁담화를	-13406
▁당면한	-13407
▁당장에	-13408
▁당하매	-13409
▁대개는	-13410
▁대답이	-13411
▁대도라	-13412
▁대도며	-13413
▁대로만	-13414
▁대성지	-13415
▁대승의	-13416
▁대열에	-13417
▁대우가	-13418
▁대인의	-13419
▁대중에	-13420
▁대표적	-13421
▁대학교	-13422
▁대희사	-13423
▁더구나	-13424
▁더러운	-13425
▁더하게	-13426
▁덕송옥	-13427
▁데에나	-13428
▁도덕과	-13429
▁도리만	-13430
▁도솔천	-13431
▁도수요	-13432
▁도와주	-13433
▁도운은	-13434
▁도운을	-13435
▁도인도	-13436
▁도학과	-13437
▁도학의	-13438
▁돈공한	-13439
▁돈오문	-13440
▁돌려서	-13441
▁돌림에	-13442
▁돌아다	-13443
▁돌이키	-13444
▁동작에	-13445
▁동작을	-13446
▁동지요	-13447
▁동포는	-13448
▁동하는	-13449
▁동학의	-13450
▁되기로	-13451
▁되기에	-13452
▁되시어	-13453
▁될는지	-13454
▁될지라	-13455
▁두드러	-13456
▁뒤에도	-13457
▁들어오	-13458
▁들으니	-13459
▁들으며	-13460
▁들이라	-13461
▁등급과	-13462
▁등에서	-13463
▁등한히	-13464
▁따름이	-13465
▁때마침	-13466
▁떠나게	-13467
▁떠오르	-13468
▁떳떳이	-13469
▁마음병	-13470
▁마음속	-13471
▁마장이	-13472
▁마쳤다	-13473
▁마치신	-13474
▁막히고	-13475
▁만나야	-13476
▁만대를	-13477
▁만물도	-13478
▁만상이	-13479
▁만생이	-13480
▁만족한	-13481
▁많으시	-13482
▁망극한	-13483
▁매하여	-13484
▁머리를	-13485
▁면하기	-13486
▁명리가	-13487
▁명리를	-13488
▁명맥을	-13489
▁명명식	-13490
▁명예는	-13491
▁모범적	-13492
▁모으고	-13493
▁모이고	-13494
▁모이는	-13495
▁모자람	-13496
▁목전의	-13497
▁목표를	-13498
▁못하던	-13499
▁못할까	-13500
▁못함이	-13501
▁무거운	-13502
▁무난히	-13503
▁무너질	-13504
▁무문관	-13505
▁무별한	-13506
▁무사히	-13507
▁무상의	-13508
▁무섭게	-13509
▁무수히	-13510
▁묵묵히	-13511
▁문명에	-13512
▁문제를	-13513
▁물건도	-13514
▁물결을	-13515
▁물결이	-13516
▁물러갈	-13517
▁물질과	-13518
▁물질에	-13519
▁미루고	-13520
▁미루지	-13521
▁미워할	-13522
▁미진한	-13523
▁민족의	-13524
▁바꾸어	-13525
▁바꾸지	-13526
▁바라고	-13527
▁바라지	-13528
▁바이다	-13529
▁바이라	-13530
▁바치며	-13531
▁반성이	-13532
▁받기는	-13533
▁받나니	-13534
▁받다가	-13535
▁받았을	-13536
▁발심이	-13537
▁발원과	-13538
▁발원에	-13539
▁발휘할	-13540
▁밝아지	-13541
▁밝으면	-13542
▁밝은가	-13543
▁밝음이	-13544
▁방편은	-13545
▁배경이	-13546
▁배우게	-13547
▁배워야	-13548
▁배은의	-13549
▁배출할	-13550
▁번영을	-13551
▁범인은	-13552
▁법당에	-13553
▁법도가	-13554
▁법맥이	-13555
▁법문은	-13556
▁법연에	-13557
▁법위가	-13558
▁법이며	-13559
▁법인절	-13560
▁법통이	-13561
▁법회를	-13562
▁법회의	-13563
▁법훈을	-13564
▁베풀고	-13565
▁변지에	-13566
▁변태와	-13567
▁변하며	-13568
▁병고가	-13569
▁병중에	-13570
▁보감을	-13571
▁보거나	-13572
▁보기가	-13573
▁보나니	-13574
▁보본의	-13575
▁보은은	-13576
▁보이시	-13577
▁보호를	-13578
▁복락과	-13579
▁복조가	-13580
▁본말이	-13581
▁본문은	-13582
▁본성에	-13583
▁본심을	-13584
▁본의에	-13585
▁봉공은	-13586
▁봉공의	-13587
▁부고를	-13588
▁부귀를	-13589
▁부분을	-13590
▁부자가	-13591
▁부처는	-13592
▁부활의	-13593
▁분들을	-13594
▁분명한	-13595
▁분수를	-13596
▁불공이	-13597
▁불교로	-13598
▁불리는	-13599
▁불멸의	-13600
▁불문에	-13601
▁불사나	-13602
▁불상은	-13603
▁불성을	-13604
▁불지에	-13605
▁불타가	-13606
▁불타의	-13607
▁붓으로	-13608
▁비루가	-13609
▁빛나는	-13610
▁뿐더러	-13611
▁뿐이니	-13612
▁사나운	-13613
▁사다함	-13614
▁사랑할	-13615
▁사량과	-13616
▁사리의	-13617
▁사리자	-13618
▁사면을	-13619
▁사물이	-13620
▁사상과	-13621
▁사시가	-13622
▁사오백	-13623
▁사은에	-13624
▁사장의	-13625
▁사진을	-13626
▁사치를	-13627
▁사항은	-13628
▁사회적	-13629
▁산란을	-13630
▁산모와	-13631
▁산신을	-13632
▁살기로	-13633
▁살도록	-13634
▁살려면	-13635
▁살리고	-13636
▁살면서	-13637
▁살신성	-13638
▁살아가	-13639
▁삼계가	-13640
▁삼으라	-13641
▁삼학은	-13642
▁상견례	-13643
▁상당히	-13644
▁상대를	-13645
▁상세히	-13646
▁상시로	-13647
▁상장에	-13648
▁상징인	-13649
▁상하게	-13650
▁상하를	-13651
▁상하와	-13652
▁색신을	-13653
▁생겨날	-13654
▁생겨서	-13655
▁생령과	-13656
▁생애였	-13657
▁생에는	-13658
▁생활개	-13659
▁서원에	-13660
▁서원의	-13661
▁선법을	-13662
▁선비가	-13663
▁선생님	-13664
▁선생이	-13665
▁선원과	-13666
▁선이라	-13667
▁선진이	-13668
▁설명은	-13669
▁설법은	-13670
▁설법의	-13671
▁성공은	-13672
▁성금을	-13673
▁성리는	-13674
▁성불을	-13675
▁성불제	-13676
▁성쇠가	-13677
▁성지를	-13678
▁성탑을	-13679
▁세가지	-13680
▁세간에	-13681
▁세밀한	-13682
▁세상과	-13683
▁소이가	-13684
▁소중한	-13685
▁손실을	-13686
▁손으로	-13687
▁수록한	-13688
▁수양력	-13689
▁수양은	-13690
▁수없는	-13691
▁수여와	-13692
▁수용품	-13693
▁수행과	-13694
▁수확을	-13695
▁순경을	-13696
▁순리로	-13697
▁순서로	-13698
▁순연히	-13699
▁숭배할	-13700
▁승리는	-13701
▁시국이	-13702
▁시기라	-13703
▁시련을	-13704
▁시방의	-13705
▁시비가	-13706
▁시비는	-13707
▁시험해	-13708
▁신기한	-13709
▁신념과	-13710
▁신념이	-13711
▁신명을	-13712
▁신성의	-13713
▁신용이	-13714
▁신의가	-13715
▁신자는	-13716
▁신중히	-13717
▁신통을	-13718
▁실력에	-13719
▁실상이	-13720
▁실천할	-13721
▁실체를	-13722
▁실패를	-13723
▁실현할	-13724
▁심량이	-13725
▁심법이	-13726
▁심전을	-13727
▁심하여	-13728
▁십계문	-13729
▁십자가	-13730
▁싸우는	-13731
▁쌍전의	-13732
▁쌓으라	-13733
▁쓰므로	-13734
▁쓰이게	-13735
▁쓰자는	-13736
▁아기를	-13737
▁아느냐	-13738
▁아니냐	-13739
▁아름다	-13740
▁아이를	-13741
▁악도의	-13742
▁안정과	-13743
▁않기를	-13744
▁않아야	-13745
▁않음을	-13746
▁알리고	-13747
▁알리어	-13748
▁알으시	-13749
▁압박을	-13750
▁앞세워	-13751
▁애사를	-13752
▁애착이	-13753
▁야단을	-13754
▁약속한	-13755
▁약자의	-13756
▁양성에	-13757
▁양해를	-13758
▁어기고	-13759
▁어려웠	-13760
▁어렵다	-13761
▁어렸을	-13762
▁어른과	-13763
▁어른은	-13764
▁얻기를	-13765
▁얻는다	-13766
▁얻었고	-13767
▁얻으라	-13768
▁얼굴과	-13769
▁얼굴을	-13770
▁얼음이	-13771
▁업무를	-13772
▁업어서	-13773
▁없도다	-13774
▁없어지	-13775
▁없음이	-13776
▁없지도	-13777
▁여기고	-13778
▁여덟째	-13779
▁여래위	-13780
▁역력히	-13781
▁연마와	-13782
▁연회는	-13783
▁열반이	-13784
▁열반인	-13785
▁염두에	-13786
▁영로를	-13787
▁영생이	-13788
▁예의는	-13789
▁예전의	-13790
▁옛날에	-13791
▁옛적에	-13792
▁오늘을	-13793
▁오르고	-13794
▁오르내	-13795
▁오시고	-13796
▁오욕에	-13797
▁옮기지	-13798
▁완철이	-13799
▁외경이	-13800
▁외길로	-13801
▁요긴한	-13802
▁요도는	-13803
▁요도인	-13804
▁요령을	-13805
▁욕됨을	-13806
▁용서해	-13807
▁원대한	-13808
▁원리가	-13809
▁원망과	-13810
▁원수로	-13811
▁원인은	-13812
▁원천이	-13813
▁원칙과	-13814
▁위덕이	-13815
▁위신을	-13816
▁유시로	-13817
▁유용한	-13818
▁유의할	-13819
▁유익을	-13820
▁유전할	-13821
▁육도사	-13822
▁육도의	-13823
▁육신과	-13824
▁육신병	-13825
▁은법형	-13826
▁은연중	-13827
▁음식이	-13828
▁응하게	-13829
▁의뢰를	-13830
▁의복은	-13831
▁의식은	-13832
▁의식의	-13833
▁이기고	-13834
▁이기면	-13835
▁이들이	-13836
▁이때에	-13837
▁이라도	-13838
▁이롭고	-13839
▁이르지	-13840
▁이상과	-13841
▁이었다	-13842
▁이용할	-13843
▁이치도	-13844
▁인과에	-13845
▁인도상	-13846
▁인도할	-13847
▁인쇄에	-13848
▁인연과	-13849
▁인천의	-13850
▁일각도	-13851
▁일관할	-13852
▁일까지	-13853
▁일념에	-13854
▁일념의	-13855
▁일들이	-13856
▁일부를	-13857
▁일부의	-13858
▁일심에	-13859
▁일에만	-13860
▁일원과	-13861
▁일원에	-13862
▁일원은	-13863
▁일월에	-13864
▁일정의	-13865
▁일종의	-13866
▁일체를	-13867
▁입정처	-13868
▁자녀나	-13869
▁자리니	-13870
▁자비로	-13871
▁자손의	-13872
▁자연중	-13873
▁자취는	-13874
▁잘되고	-13875
▁잘되는	-13876
▁잘못은	-13877
▁잡념을	-13878
▁잡으라	-13879
▁장단이	-13880
▁장래가	-13881
▁장래를	-13882
▁장엄을	-13883
▁재주는	-13884
▁재주만	-13885
▁재철이	-13886
▁저에게	-13887
▁적으며	-13888
▁전력을	-13889
▁전일의	-13890
▁전쟁이	-13891
▁절차가	-13892
▁절하는	-13893
▁정결과	-13894
▁정녕코	-13895
▁정사로	-13896
▁정산의	-13897
▁정치는	-13898
▁제기한	-13899
▁제사에	-13900
▁제성이	-13901
▁제주는	-13902
▁제중을	-13903
▁조물주	-13904
▁조직이	-13905
▁존경을	-13906
▁존중한	-13907
▁종교나	-13908
▁종교로	-13909
▁종교적	-13910
▁종부주	-13911
▁종사께	-13912
▁종재의	-13913
▁종통을	-13914
▁좌산은	-13915
▁좌우에	-13916
▁죄고가	-13917
▁죄과를	-13918
▁죄복과	-13919
▁죄복도	-13920
▁죄복이	-13921
▁죄악을	-13922
▁주견을	-13923
▁주나니	-13924
▁주소서	-13925
▁주야를	-13926
▁주의가	-13927
▁주의는	-13928
▁주의와	-13929
▁주의의	-13930
▁주인인	-13931
▁주장과	-13932
▁주장을	-13933
▁죽음을	-13934
▁준다면	-13935
▁중생과	-13936
▁중안이	-13937
▁중앙단	-13938
▁즈음에	-13939
▁지각을	-13940
▁지금도	-13941
▁지도가	-13942
▁지방을	-13943
▁지배를	-13944
▁지배할	-13945
▁지었다	-13946
▁지역의	-13947
▁지위를	-13948
▁지위에	-13949
▁지위와	-13950
▁지으라	-13951
▁지장을	-13952
▁지정한	-13953
▁지키되	-13954
▁지행을	-13955
▁지혜에	-13956
▁직장에	-13957
▁진급의	-13958
▁진리로	-13959
▁진수는	-13960
▁진여의	-13961
▁진화상	-13962
▁짐승이	-13963
▁차등이	-13964
▁차리지	-13965
▁차별과	-13966
▁착심에	-13967
▁참선을	-13968
▁참회라	-13969
▁참회의	-13970
▁창시자	-13971
▁찾아볼	-13972
▁채우려	-13973
▁책임에	-13974
▁챙기어	-13975
▁처사를	-13976
▁처소를	-13977
▁천대를	-13978
▁천조의	-13979
▁철없는	-13980
▁청정해	-13981
▁청풍이	-13982
▁초기의	-13983
▁최고의	-13984
▁최상승	-13985
▁출발을	-13986
▁출생한	-13987
▁충고를	-13988
▁취미를	-13989
▁취사가	-13990
▁치료할	-13991
▁친소와	-13992
▁친절히	-13993
▁친척의	-13994
▁캠퍼스	-13995
▁탐욕과	-13996
▁탐착이	-13997
▁탓하지	-13998
▁태교의	-13999
▁태우는	-14000
▁터이니	-14001
▁터인즉	-14002
▁터전이	-14003
▁통지할	-14004
▁특징을	-14005
▁틀림이	-14006
▁판단해	-14007
▁팔타원	-14008
▁편리한	-14009
▁편안할	-14010
▁편지를	-14011
▁편찬을	-14012
▁편협한	-14013
▁평교간	-14014
▁평탄한	-14015
▁폐단이	-14016
▁포교의	-14017
▁포수가	-14018
▁표본을	-14019
▁표준은	-14020
▁피은이	-14021
▁피차의	-14022
▁피하고	-14023
▁하느냐	-14024
▁하는바	-14025
▁하늘도	-14026
▁하루의	-14027
▁하시와	-14028
▁하오며	-14029
▁하지도	-14030
▁하천한	-14031
▁학문을	-14032
▁학식이	-14033
▁한결같	-14034
▁한마음	-14035
▁한이요	-14036
▁합력해	-14037
▁항하의	-14038
▁해독이	-14039
▁해로운	-14040
▁했는데	-14041
▁행동도	-14042
▁행복과	-14043
▁행실이	-14044
▁행적을	-14045
▁행하게	-14046
▁행하되	-14047
▁행함을	-14048
▁향락을	-14049
▁향상을	-14050
▁허가를	-14051
▁허공이	-14052
▁헌공은	-14053
▁헌신한	-14054
▁헤매는	-14055
▁헤아려	-14056
▁혁명이	-14057
▁혁신론	-14058
▁현실적	-14059
▁현장에	-14060
▁혈성을	-14061
▁형세를	-14062
▁형식에	-14063
▁혜복이	-14064
▁호주의	-14065
▁호흡을	-14066
▁혼인에	-14067
▁혼인이	-14068
▁화합의	-14069
▁환경이	-14070
▁환영과	-14071
▁환자가	-14072
▁활동에	-14073
▁횃불을	-14074
▁회포를	-14075
▁후생에	-14076
▁후원을	-14077
▁후회가	-14078
▁훈련은	-14079
▁훈련이	-14080
▁흘러서	-14081
▁흥하게	-14082
▁희망과	-14083
▁희망을	-14084
三同倫理	-14085
修道之人	-14086
十二因緣	-14087
同拓事業	-14088
同氣連契	-14089
大寂光殿	-14090
寧爲多不	-14091
我相人相	-14092
步步一切	-14093
永天永地	-14094
漸門劣機	-14095
白指血印	-14096
自性定慧	-14097
莊嚴佛土	-14098
說法之人	-14099
阿羅漢道	-14100
首迦長者	-14101
黃淨信行	-14102
것이니라	-14103
계하옵고	-14104
그러므로	-14105
김으로써	-14106
되느니라	-14107
되는지라	-14108
되었다가	-14109
됨으로써	-14110
봉공회는	-14111
생년월일	-14112
서가모니	-14113
세상에서	-14114
셨나이까	-14115
셨느니라	-14116
수급고독	-14117
어찌하여	-14118
었나니라	-14119
었나이다	-14120
었으므로	-14121
에서부터	-14122
우십도송	-14123
원불교는	-14124
응감지위	-14125
인들에게	-14126
인이라도	-14127
일원상을	-14128
지나니라	-14129
하감지위	-14130
하다가도	-14131
하셨으니	-14132
하시므로	-14133
하여야만	-14134
하여지고	-14135
하였는가	-14136
하였다는	-14137
하였더니	-14138
하였도다	-14139
▁2004	-14140
▁2011	-14141
▁上中下語	-14142
▁亦復如是	-14143
▁信解受持	-14144
▁其義備悉	-14145
▁受持讀誦	-14146
▁均調昏亂	-14147
▁夫爲道者	-14148
▁如是如是	-14149
▁於賢聖所	-14150
▁爲他人說	-14151
▁生在人間	-14152
▁生於惡道	-14153
▁能作是念	-14154
▁莫作是念	-14155
▁見他得利	-14156
▁가나니라	-14157
▁가라앉고	-14158
▁가르침이	-14159
▁가운데도	-14160
▁가정이나	-14161
▁가져다가	-14162
▁가지고는	-14163
▁가지시고	-14164
▁간접으로	-14165
▁감사하고	-14166
▁감탄하여	-14167
▁강화하여	-14168
▁갖추어서	-14169
▁갖추자는	-14170
▁개인에게	-14171
▁거교적인	-14172
▁거짓되고	-14173
▁거행하는	-14174
▁건설한다	-14175
▁건성으로	-14176
▁것보다는	-14177
▁견성하는	-14178
▁결제하여	-14179
▁겸손하고	-14180
▁경외심을	-14181
▁경절이니	-14182
▁경절이온	-14183
▁계속되는	-14184
▁계속해서	-14185
▁계시다가	-14186
▁계합하여	-14187
▁고요하게	-14188
▁고유문은	-14189
▁공경하며	-14190
▁공도자가	-14191
▁공동시장	-14192
▁공부길을	-14193
▁과거에도	-14194
▁과목이요	-14195
▁과불급이	-14196
▁과정에서	-14197
▁교단에서	-14198
▁교단으로	-14199
▁교도에게	-14200
▁교육이니	-14201
▁교환하여	-14202
▁구성하여	-14203
▁권면하여	-14204
▁그것이니	-14205
▁그것이요	-14206
▁그들에게	-14207
▁그르치게	-14208
▁극락으로	-14209
▁금액으로	-14210
▁기념하는	-14211
▁기도하는	-14212
▁기록하고	-14213
▁기르자는	-14214
▁기뻐하고	-14215
▁깊어져서	-14216
▁나아가게	-14217
▁나아가서	-14218
▁나오나니	-14219
▁나타났다	-14220
▁나타내어	-14221
▁낙원으로	-14222
▁남김없이	-14223
▁남용하여	-14224
▁너희들이	-14225
▁노력하게	-14226
▁다스림을	-14227
▁다하여야	-14228
▁다하지는	-14229
▁닦음이요	-14230
▁단결이요	-14231
▁대도사요	-14232
▁대자연의	-14233
▁대조하며	-14234
▁대표하와	-14235
▁대해서는	-14236
▁대화하는	-14237
▁데까지는	-14238
▁데리시고	-14239
▁도덕이요	-14240
▁독점하려	-14241
▁돌아오게	-14242
▁돌아오면	-14243
▁동원도리	-14244
▁동작하는	-14245
▁동정일여	-14246
▁동지간에	-14247
▁동하여도	-14248
▁동화병원	-14249
▁되나이다	-14250
▁되었으면	-14251
▁됨으로써	-14252
▁두렷하고	-14253
▁드러나면	-14254
▁들어가면	-14255
▁들으소서	-14256
▁들으시매	-14257
▁마음공부	-14258
▁마음에는	-14259
▁마음이며	-14260
▁마치시고	-14261
▁막힘없이	-14262
▁만남이요	-14263
▁만들어야	-14264
▁만보살의	-14265
▁만보살이	-14266
▁만엽으로	-14267
▁만족하지	-14268
▁많았으나	-14269
▁많을수록	-14270
▁말씀하셨	-14271
▁말씀하지	-14272
▁말하리라	-14273
▁망각하고	-14274
▁망라하여	-14275
▁맞이하와	-14276
▁맞추어서	-14277
▁명절대재	-14278
▁모르나니	-14279
▁모르는가	-14280
▁모르는데	-14281
▁못하거늘	-14282
▁못하거든	-14283
▁못하니라	-14284
▁못하면서	-14285
▁못함이니	-14286
▁무량세계	-14287
▁무자력할	-14288
▁물건으로	-14289
▁물들지도	-14290
▁물러나지	-14291
▁바야흐로	-14292
▁박람회를	-14293
▁받았으니	-14294
▁받았으며	-14295
▁받으리라	-14296
▁발견하지	-14297
▁발달됨에	-14298
▁발족되고	-14299
▁발하시고	-14300
▁발휘하지	-14301
▁밝아져서	-14302
▁밝히시니	-14303
▁방법에는	-14304
▁방법이니	-14305
▁방심하면	-14306
▁방지하고	-14307
▁방해하는	-14308
▁방황하는	-14309
▁법문으로	-14310
▁법회에는	-14311
▁벗어나는	-14312
▁병진하게	-14313
▁병행하는	-14314
▁보내시며	-14315
▁보리심을	-14316
▁보시하여	-14317
▁보오리까	-14318
▁보응되는	-14319
▁복잡하고	-14320
▁볼지라도	-14321
▁봉안하여	-14322
▁부합되는	-14323
▁분간하지	-14324
▁분명하고	-14325
▁분석하여	-14326
▁불과하나	-14327
▁비방하고	-14328
▁사람이면	-14329
▁사방에서	-14330
▁사용하되	-14331
▁사이에도	-14332
▁사회에는	-14333
▁산신에게	-14334
▁삼대력이	-14335
▁삼독심을	-14336
▁삼학이요	-14337
▁상대되는	-14338
▁상대편을	-14339
▁상대하는	-14340
▁상상하지	-14341
▁상통하여	-14342
▁생각하라	-14343
▁생각하며	-14344
▁생각한즉	-14345
▁서울회관	-14346
▁서원하고	-14347
▁서원하는	-14348
▁석존성탄	-14349
▁선사께서	-14350
▁선원으로	-14351
▁설명하여	-14352
▁설치하고	-14353
▁성공하는	-14354
▁성취하는	-14355
▁성취하여	-14356
▁성현들도	-14357
▁성현들이	-14358
▁세상이라	-14359
▁세존께서	-14360
▁소개하는	-14361
▁소멸되어	-14362
▁소멸하여	-14363
▁소유하는	-14364
▁소홀함이	-14365
▁수도인은	-14366
▁수용하나	-14367
▁수위단원	-14368
▁수위단이	-14369
▁수자상이	-14370
▁수준이요	-14371
▁수행하면	-14372
▁수행하여	-14373
▁쉬었다가	-14374
▁스승님께	-14375
▁스승님을	-14376
▁시기하고	-14377
▁시작되는	-14378
▁시작하신	-14379
▁시행되는	-14380
▁식사하는	-14381
▁신성으로	-14382
▁실시하여	-14383
▁실천해야	-14384
▁실행으로	-14385
▁실행하지	-14386
▁심행처가	-14387
▁아니로다	-14388
▁아니하게	-14389
▁아래에서	-14390
▁아무것도	-14391
▁아이에게	-14392
▁안심하고	-14393
▁않는다는	-14394
▁않사오니	-14395
▁않았으나	-14396
▁않으리라	-14397
▁않음이요	-14398
▁알겠는가	-14399
▁알겠도다	-14400
▁알뜰하고	-14401
▁알았다고	-14402
▁양보하는	-14403
▁어려움을	-14404
▁어려움이	-14405
▁언제든지	-14406
▁얻어지고	-14407
▁없나이까	-14408
▁없어서는	-14409
▁없었는가	-14410
▁없었으며	-14411
▁없으시고	-14412
▁여기시어	-14413
▁연결되어	-14414
▁연구하고	-14415
▁열반인을	-14416
▁영천영지	-14417
▁예회에서	-14418
▁오나니라	-14419
▁요란하게	-14420
▁용맹심을	-14421
▁우리들은	-14422
▁우리들의	-14423
▁운행하는	-14424
▁원망하고	-14425
▁원으로써	-14426
▁원평에서	-14427
▁유공인이	-14428
▁은법결의	-14429
▁은의로써	-14430
▁이로부터	-14431
▁이루나니	-14432
▁이르러야	-14433
▁인증하게	-14434
▁일어서서	-14435
▁일으키고	-14436
▁일으키는	-14437
▁일이거든	-14438
▁입교하여	-14439
▁있겠느냐	-14440
▁있는가를	-14441
▁있습니까	-14442
▁있었는가	-14443
▁자리로서	-14444
▁자유하는	-14445
▁자지하여	-14446
▁작업으로	-14447
▁잘못으로	-14448
▁전라남도	-14449
▁전력하라	-14450
▁전일하여	-14451
▁정식으로	-14452
▁정신에는	-14453
▁정으로써	-14454
▁정진하고	-14455
▁정진하는	-14456
▁제도하고	-14457
▁제자들은	-14458
▁제중하는	-14459
▁조상에게	-14460
▁조심하고	-14461
▁종법사와	-14462
▁종법사인	-14463
▁종사하는	-14464
▁종재식을	-14465
▁좋아하나	-14466
▁주로하고	-14467
▁주심이요	-14468
▁주의하며	-14469
▁주장하고	-14470
▁주장한다	-14471
▁중생으로	-14472
▁중생이나	-14473
▁중앙교의	-14474
▁즐겨하고	-14475
▁즐겨하여	-14476
▁증정하는	-14477
▁지내다가	-14478
▁지도자의	-14479
▁지역에서	-14480
▁직접으로	-14481
▁진급으로	-14482
▁진대지가	-14483
▁진실하여	-14484
▁진심으로	-14485
▁집안사람	-14486
▁집착하는	-14487
▁차별이요	-14488
▁차지하고	-14489
▁차지하는	-14490
▁착복하는	-14491
▁착수하여	-14492
▁참사람을	-14493
▁처리하는	-14494
▁처리하라	-14495
▁처리해야	-14496
▁처소에서	-14497
▁처지에서	-14498
▁천심으로	-14499
▁천지에게	-14500
▁청정하게	-14501
▁청정하면	-14502
▁초월하고	-14503
▁초창기의	-14504
▁총명하고	-14505
▁추대하고	-14506
▁추호라도	-14507
▁축하하는	-14508
▁출가위에	-14509
▁출입하되	-14510
▁충분하지	-14511
▁치성하여	-14512
▁타락하는	-14513
▁태중에서	-14514
▁털끝만한	-14515
▁통일하기	-14516
▁퇴전하지	-14517
▁파괴하는	-14518
▁편벽되게	-14519
▁편안하고	-14520
▁편화신불	-14521
▁평소부터	-14522
▁포용하는	-14523
▁표준하여	-14524
▁표현되어	-14525
▁하나이까	-14526
▁하나하나	-14527
▁하늘이요	-14528
▁한국전쟁	-14529
▁한반도의	-14530
▁할지니라	-14531
▁함양하여	-14532
▁합력하여	-14533
▁합일하여	-14534
▁해결하여	-14535
▁해당하는	-14536
▁해석으로	-14537
▁해석하고	-14538
▁행하여야	-14539
▁허공같이	-14540
▁헤아리지	-14541
▁혜택으로	-14542
▁확립하고	-14543
▁확립하며	-14544
▁확립하여	-14545
▁환영하는	-14546
▁활용하고	-14547
▁활용하면	-14548
▁활용하지	-14549
▁회복하는	-14550
▁회상으로	-14551
▁회상이라	-14552
▁후원으로	-14553
▁훈련법을	-14554
▁훈련하는	-14555
▁흔들림이	-14556
▁흩어지는	-14557
▁희사하여	-14558
▁힘으로써	-14559
恒河沙等身	-14560
樹給孤獨園	-14561
涵養大圓氣	-14562
불보살들은	-14563
원불교예전	-14564
주시옵소서	-14565
하겠사오니	-14566
하셨나이다	-14567
하였사오니	-14568
(1917.	-14569
(1928.	-14570
(1943.	-14571
(1945.	-14572
(1949.	-14573
(1951.	-14574
(1958.	-14575
(1968.	-14576
▁復次須菩提	-14577
▁涅槃紀念祭	-14578
▁가리키시며	-14579
▁가지가지의	-14580
▁간척사업을	-14581
▁것이오니까	-14582
▁것이옵니다	-14583
▁것이지마는	-14584
▁경전이니라	-14585
▁공경함이요	-14586
▁공공사업에	-14587
▁교단적으로	-14588
▁교역자들의	-14589
▁귀의한다는	-14590
▁기념하자는	-14591
▁기재시키는	-14592
▁나아간다면	-14593
▁노력하여야	-14594
▁당하였으나	-14595
▁대봉공인이	-14596
▁대자대비로	-14597
▁대종사님과	-14598
▁대종사님의	-14599
▁대할지라도	-14600
▁되겠나이까	-14601
▁되옵나이다	-14602
▁드러나기를	-14603
▁맞이하오니	-14604
▁못하느니라	-14605
▁못하였는가	-14606
▁무념으로써	-14607
▁무아봉공의	-14608
▁미치는대로	-14609
▁믿음으로써	-14610
▁발인식에서	-14611
▁법강항마위	-14612
▁법력으로써	-14613
▁보내시기를	-14614
▁봉축하옵고	-14615
▁부처님이다	-14616
▁불과하나니	-14617
▁사실적으로	-14618
▁사업가들이	-14619
▁삼라만상이	-14620
▁생각하오면	-14621
▁생로병사에	-14622
▁생로병사와	-14623
▁세상에서는	-14624
▁세세생생에	-14625
▁스승님들의	-14626
▁신종법사의	-14627
▁실질적으로	-14628
▁심법이니라	-14629
▁십이인연을	-14630
▁아니지마는	-14631
▁아니하고는	-14632
▁아닐지라도	-14633
▁안정시키고	-14634
▁않사오리까	-14635
▁어떠하더냐	-14636
▁어려서부터	-14637
▁어려울지라	-14638
▁억조창생의	-14639
▁업어서라도	-14640
▁열반하시면	-14641
▁예증함이요	-14642
▁올리는지라	-14643
▁위하여서는	-14644
▁위함이니라	-14645
▁융창하옵고	-14646
▁이루어지고	-14647
▁이루어지지	-14648
▁일어나거든	-14649
▁잃어버리고	-14650
▁있었사오니	-14651
▁있을지언정	-14652
▁저축조합을	-14653
▁전무출신이	-14654
▁전종법사의	-14655
▁정성스럽고	-14656
▁제도하기가	-14657
▁조합원들은	-14658
▁종교인들이	-14659
▁주세불이신	-14660
▁중고등학교	-14661
▁중앙총부를	-14662
▁지도하기가	-14663
▁처사함이요	-14664
▁출현하시와	-14665
▁평상심이니	-14666
▁하겠습니다	-14667
▁하셨으므로	-14668
▁하여지이다	-14669
▁하였건마는	-14670
▁한편에서는	-14671
▁현실적으로	-14672
▁힘쓸지어다	-14673
반야바라밀다	-14674
▁何因說法之人	-14675
▁善男子善女人	-14676
▁願諸修道之人	-14677
▁놓으셨나니라	-14678
▁대종사께옵서	-14679
▁멀어지나니라	-14680
▁무엇이오니까	-14681
▁발표하시었다	-14682
▁법강항마위는	-14683
▁법강항마위에	-14684
▁사람일지라도	-14685
▁사용할지라도	-14686
▁아니하시니라	-14687
▁아니함이니라	-14688
▁원동력이니라	-14689
▁이루어지나니	-14690
▁인과보응되는	-14691
▁조선총독부의	-14692
▁편지하시기를	-14693
▁허다하나니라	-14694
着我人衆生壽者	-14695
▁若善男子善女人	-14696
▁복고하옵나이다	-14697
▁수위단회에서는	-14698
▁아니하였으므로	-14699
▁예상하옵나이다	-14700
▁통촉하시옵소서	-14701
뇩다라삼먁삼보리	-14702
▁아니하였음이니라	-14703
我相人相衆生相壽者相	-14704
▁發阿耨多羅三藐三菩提心者	-14705
!]	-14706
(5	-14707
)'	-14708
.(	-14709
//	-14710
2,	-14711
29	-14712
44	-14713
62	-14714
95	-14715
96	-14716
[2	-14717
ac	-14718
cm	-14719
co	-14720
en	-14721
hi	-14722
kr	-14723
ni	-14724
ps	-14725
▁<	-14726
▁?	-14727
▁W	-14728
▁世	-14729
▁儀	-14730
▁判	-14731
▁加	-14732
▁勿	-14733
▁化	-14734
▁千	-14735
▁反	-14736
▁好	-14737
▁定	-14738
▁居	-14739
▁度	-14740
▁廣	-14741
▁彼	-14742
▁忘	-14743
▁恒	-14744
▁手	-14745
▁收	-14746
▁放	-14747
▁歷	-14748
▁比	-14749
▁求	-14750
▁河	-14751
▁洪	-14752
▁焉	-14753
▁熾	-14754
▁父	-14755
▁甘	-14756
▁略	-14757
▁眼	-14758
▁石	-14759
▁祝	-14760
▁老	-14761
▁聖	-14762
▁聽	-14763
▁至	-14764
▁色	-14765
▁處	-14766
▁被	-14767
▁親	-14768
▁證	-14769
▁識	-14770
▁護	-14771
▁貧	-14772
▁趣	-14773
▁輕	-14774
▁返	-14775
▁退	-14776
▁都	-14777
▁釋	-14778
▁障	-14779
▁須	-14780
▁頓	-14781
▁頗	-14782
▁곱	-14783
▁곽	-14784
▁굉	-14785
▁궐	-14786
▁꼬	-14787
▁꾀	-14788
▁꿇	-14789
▁꿋	-14790
▁꿰	-14791
▁냈	-14792
▁덥	-14793
▁딴	-14794
▁떡	-14795
▁똥	-14796
▁뜯	-14797
▁띄	-14798
▁맥	-14799
▁몫	-14800
▁밉	-14801
▁뵙	-14802
▁빗	-14803
▁뿔	-14804
▁셈	-14805
▁숫	-14806
▁쌀	-14807
▁씌	-14808
▁얘	-14809
▁웅	-14810
▁져	-14811
▁찢	-14812
▁카	-14813
▁캐	-14814
▁테	-14815
▁프	-14816
▁핵	-14817
▁헒	-14818
▁혐	-14819
▁휩	-14820
》.	-14821
」「	-14822
』,	-14823
一人	-14824
一家	-14825
一時	-14826
一炷	-14827
一聲	-14828
一食	-14829
丁光	-14830
丈夫	-14831
三寶	-14832
三敎	-14833
三昌	-14834
上時	-14835
不休	-14836
不善	-14837
不增	-14838
不忘	-14839
不打	-14840
不放	-14841
不減	-14842
不盜	-14843
不離	-14844
世月	-14845
丙寅	-14846
丙辰	-14847
中尊	-14848
中心	-14849
中陰	-14850
丹田	-14851
之下	-14852
之事	-14853
之則	-14854
之患	-14855
之想	-14856
之氣	-14857
之用	-14858
之者	-14859
之處	-14860
之謂	-14861
九天	-14862
事必	-14863
二門	-14864
五十	-14865
亦善	-14866
人趣	-14867
人類	-14868
今生	-14869
代明	-14870
令聞	-14871
任運	-14872
休休	-14873
休大	-14874
何處	-14875
佛仙	-14876
佛佛	-14877
佛無	-14878
作對	-14879
作業	-14880
修無	-14881
修身	-14882
偈頌	-14883
傳心	-14884
僧衆	-14885
元氣	-14886
元石	-14887
先以	-14888
先依	-14889
先進	-14890
光澤	-14891
兜率	-14892
內外	-14893
全八	-14894
八山	-14895
公衆	-14896
六塵	-14897
六趣	-14898
共傳	-14899
其道	-14900
出塵	-14901
出現	-14902
分義	-14903
初終	-14904
初齋	-14905
勇猛	-14906
務本	-14907
勝報	-14908
勤實	-14909
勸導	-14910
十事	-14911
十圖	-14912
卽是	-14913
卽非	-14914
原始	-14915
去心	-14916
反本	-14917
受敎	-14918
口意	-14919
古今	-14920
古聖	-14921
同樂	-14922
同胞	-14923
命終	-14924
和尙	-14925
哀樂	-14926
單傳	-14927
四果	-14928
回甲	-14929
圓機	-14930
圓紀	-14931
在家	-14932
在意	-14933
地天	-14934
坦坦	-14935
境界	-14936
夏雲	-14937
外惡	-14938
外道	-14939
大宗	-14940
大悲	-14941
大成	-14942
大海	-14943
大疑	-14944
大身	-14945
大通	-14946
大體	-14947
天師	-14948
天意	-14949
天理	-14950
天祿	-14951
天道	-14952
太極	-14953
妙有	-14954
妙用	-14955
嫉妬	-14956
學人	-14957
學園	-14958
學道	-14959
宋萬	-14960
完喆	-14961
宗泰	-14962
定礎	-14963
家禮	-14964
宿命	-14965
寂照	-14966
富而	-14967
富饒	-14968
居喪	-14969
崇拜	-14970
左右	-14971
師傅	-14972
平安	-14973
年式	-14974
幻化	-14975
幾間	-14976
序編	-14977
庚寅	-14978
庚申	-14979
弟子	-14980
彌山	-14981
後樂	-14982
後苦	-14983
德化	-14984
心不	-14985
心佛	-14986
心力	-14987
心告	-14988
心地	-14989
心眼	-14990
心經	-14991
心靈	-14992
忘緣	-14993
恩錫	-14994
悟前	-14995
悟時	-14996
悟而	-14997
惡口	-14998
惡心	-14999
惡趣	-15000
想行	-15001
意義	-15002
意識	-15003
愛欲	-15004
慈悲	-15005
慙愧	-15006
慧命	-15007
應機	-15008
戊子	-15009
戊寅	-15010
成人	-15011
成大	-15012
我得	-15013
戒業	-15014
或喜	-15015
所現	-15016
所謂	-15017
扶安	-15018
捨捐	-15019
敎制	-15020
敎務	-15021
敎團	-15022
敎學	-15023
敎旨	-15024
敎正	-15025
敎育	-15026
敎選	-15027
敬信	-15028
敬禮	-15029
文東	-15030
新龍	-15031
斷滅	-15032
日分	-15033
旬旬	-15034
昇火	-15035
明心	-15036
明月	-15037
是禍	-15038
時中	-15039
時時	-15040
智以	-15041
曺頌	-15042
會報	-15043
會話	-15044
月日	-15045
月末	-15046
月深	-15047
有情	-15048
有我	-15049
有礙	-15050
朝鮮	-15051
本位	-15052
本經	-15053
朴濟	-15054
李正	-15055
李空	-15056
李靑	-15057
東局	-15058
東方	-15059
果不	-15060
染淨	-15061
根機	-15062
業部	-15063
機關	-15064
正行	-15065
正體	-15066
此心	-15067
此是	-15068
殊妙	-15069
殺盜	-15070
永信	-15071
汝意	-15072
沙數	-15073
法位	-15074
法可	-15075
法義	-15076
洪哲	-15077
消息	-15078
淨心	-15079
渡水	-15080
滄海	-15081
炬火	-15082
無作	-15083
無功	-15084
無始	-15085
無數	-15086
無疑	-15087
無盡	-15088
無等	-15089
無處	-15090
然後	-15091
爲寶	-15092
爲行	-15093
牧童	-15094
狐疑	-15095
玉女	-15096
理懺	-15097
甑山	-15098
生於	-15099
生生	-15100
生疑	-15101
用之	-15102
由他	-15103
疑情	-15104
疑頭	-15105
癸酉	-15106
百年	-15107
皎皎	-15108
益山	-15109
相克	-15110
相勝	-15111
眞僞	-15112
眞如	-15113
眞我	-15114
祈禱	-15115
祖宗	-15116
祖師	-15117
神師	-15118
福慧	-15119
禪員	-15120
禪費	-15121
禮典	-15122
禮文	-15123
種性	-15124
究竟	-15125
空中	-15126
竝行	-15127
符經	-15128
箇者	-15129
精舍	-15130
老死	-15131
而化	-15132
而行	-15133
聖業	-15134
聖胎	-15135
聖骸	-15136
聰明	-15137
聲聞	-15138
肉眼	-15139
背恩	-15140
臭穢	-15141
至公	-15142
與我	-15143
芒繩	-15144
芳草	-15145
苦戰	-15146
苦樂	-15147
苦行	-15148
草木	-15149
萬世	-15150
萬和	-15151
萬方	-15152
萬智	-15153
萬水	-15154
萬物	-15155
蘭那	-15156
衆人	-15157
行空	-15158
要論	-15159
覺道	-15160
解佛	-15161
言之	-15162
說偈	-15163
諸法	-15164
財團	-15165
身佛	-15166
軌轍	-15167
退轉	-15168
道氣	-15169
道通	-15170
遠近	-15171
遣蕩	-15172
邊山	-15173
邪魔	-15174
醫王	-15175
重彬	-15176
金泰	-15177
鎭安	-15178
長存	-15179
防堰	-15180
降服	-15181
降魔	-15182
霜雪	-15183
靈丹	-15184
靈光	-15185
靈根	-15186
非常	-15187
非有	-15188
願相	-15189
風雲	-15190
飮食	-15191
養成	-15192
養空	-15193
體性	-15194
가게	-15195
가례	-15196
가며	-15197
가장	-15198
갈아	-15199
거로	-15200
건곤	-15201
건만	-15202
것을	-15203
게가	-15204
게송	-15205
결이	-15206
겼다	-15207
경남	-15208
경력	-15209
경제	-15210
계발	-15211
고유	-15212
공도	-15213
공이	-15214
공익	-15215
광정	-15216
광주	-15217
교감	-15218
교한	-15219
교헌	-15220
구족	-15221
굴의	-15222
그저	-15223
근본	-15224
근은	-15225
급을	-15226
기니	-15227
기반	-15228
기술	-15229
기요	-15230
기원	-15231
기위	-15232
기점	-15233
김이	-15234
깨친	-15235
꺼이	-15236
나들	-15237
나면	-15238
남북	-15239
냄이	-15240
너무	-15241
너희	-15242
녀가	-15243
녀야	-15244
노마	-15245
능한	-15246
님께	-15247
다대	-15248
단기	-15249
당은	-15250
대신	-15251
대와	-15252
대원	-15253
대자	-15254
대호	-15255
던바	-15256
데이	-15257
동락	-15258
동산	-15259
동양	-15260
되자	-15261
두면	-15262
드렸	-15263
든가	-15264
들께	-15265
땅이	-15266
때가	-15267
때에	-15268
락이	-15269
랑의	-15270
래와	-15271
량에	-15272
량의	-15273
러야	-15274
력도	-15275
령과	-15276
로애	-15277
론은	-15278
료를	-15279
류가	-15280
류병	-15281
르며	-15282
립할	-15283
마당	-15284
만년	-15285
만방	-15286
만여	-15287
만원	-15288
맑은	-15289
명도	-15290
명인	-15291
목과	-15292
목은	-15293
무상	-15294
무의	-15295
무장	-15296
무총	-15297
문사	-15298
미산	-15299
미암	-15300
미촉	-15301
박한	-15302
박해	-15303
밖에	-15304
받은	-15305
밭재	-15306
배와	-15307
벌을	-15308
범부	-15309
범이	-15310
법규	-15311
벽의	-15312
벽한	-15313
변이	-15314
별경	-15315
별의	-15316
별히	-15317
보나	-15318
보도	-15319
보차	-15320
본위	-15321
부도	-15322
부부	-15323
부좌	-15324
분과	-15325
분에	-15326
분한	-15327
불가	-15328
비로	-15329
비비	-15330
비설	-15331
비역	-15332
사망	-15333
산한	-15334
삼매	-15335
삼세	-15336
삼학	-15337
상전	-15338
색채	-15339
서기	-15340
석이	-15341
선다	-15342
선진	-15343
선천	-15344
설에	-15345
성향	-15346
세전	-15347
소도	-15348
소작	-15349
속은	-15350
속히	-15351
송별	-15352
수일	-15353
수할	-15354
수행	-15355
숭아	-15356
습에	-15357
습은	-15358
승의	-15359
시오	-15360
신상	-15361
신용	-15362
실은	-15363
씩을	-15364
아닌	-15365
아침	-15366
압이	-15367
았고	-15368
야만	-15369
야의	-15370
약을	-15371
약존	-15372
양로	-15373
어디	-15374
어라	-15375
어린	-15376
어앉	-15377
업과	-15378
에나	-15379
여시	-15380
역할	-15381
연원	-15382
연화	-15383
영광	-15384
오온	-15385
오직	-15386
오한	-15387
올지	-15388
옵신	-15389
외다	-15390
용맹	-15391
용신	-15392
워야	-15393
원회	-15394
월보	-15395
월호	-15396
웠다	-15397
유아	-15398
유일	-15399
육축	-15400
을을	-15401
응접	-15402
이러	-15403
이런	-15404
이백	-15405
이에	-15406
이여	-15407
인간	-15408
인다	-15409
인듯	-15410
인연	-15411
인한	-15412
일까	-15413
일단	-15414
일만	-15415
일반	-15416
일보	-15417
일시	-15418
일심	-15419
일합	-15420
있게	-15421
있다	-15422
자리	-15423
자선	-15424
장성	-15425
장차	-15426
재는	-15427
저의	-15428
적과	-15429
전과	-15430
전도	-15431
절한	-15432
점은	-15433
정남	-15434
정녀	-15435
정법	-15436
정치	-15437
제사	-15438
조행	-15439
존령	-15440
주간	-15441
주어	-15442
주에	-15443
죽은	-15444
중용	-15445
중이	-15446
지나	-15447
지장	-15448
지혜	-15449
지화	-15450
진영	-15451
진의	-15452
짐이	-15453
집게	-15454
짚신	-15455
차돈	-15456
차의	-15457
참의	-15458
참할	-15459
처음	-15460
척법	-15461
천만	-15462
청풍	-15463
체로	-15464
체와	-15465
체인	-15466
초량	-15467
추에	-15468
축을	-15469
춘천	-15470
출세	-15471
출을	-15472
출해	-15473
층의	-15474
치도	-15475
치려	-15476
치로	-15477
카락	-15478
켰다	-15479
크게	-15480
탄생	-15481
태가	-15482
태는	-15483
태인	-15484
테크	-15485
통된	-15486
통에	-15487
특별	-15488
특신	-15489
팔조	-15490
편의	-15491
폈다	-15492
평등	-15493
폐를	-15494
표가	-15495
프다	-15496
필귀	-15497
하처	-15498
학력	-15499
학이	-15500
한국	-15501
할만	-15502
함만	-15503
항복	-15504
항상	-15505
항의	-15506
해당	-15507
해룡	-15508
행식	-15509
혁신	-15510
현하	-15511
협의	-15512
혼경	-15513
화해	-15514
회갑	-15515
회계	-15516
회사	-15517
후원	-15518
히어	-15519
히지	-15520
(1)	-15521
(2)	-15522
(3.	-15523
).」	-15524
10.	-15525
10]	-15526
11]	-15527
18]	-15528
19)	-15529
193	-15530
194	-15531
28)	-15532
://	-15533
[4]	-15534
ews	-15535
htt	-15536
▁57	-15537
▁6)	-15538
▁70	-15539
▁73	-15540
▁UN	-15541
▁不住	-15542
▁不斷	-15543
▁不落	-15544
▁不見	-15545
▁不識	-15546
▁世世	-15547
▁人不	-15548
▁人命	-15549
▁令汝	-15550
▁令諸	-15551
▁任意	-15552
▁何如	-15553
▁何故	-15554
▁例會	-15555
▁內外	-15556
▁凡夫	-15557
▁切須	-15558
▁初時	-15559
▁勝彼	-15560
▁取其	-15561
▁吾何	-15562
▁喜捨	-15563
▁四大	-15564
▁在於	-15565
▁墮於	-15566
▁大道	-15567
▁天地	-15568
▁如云	-15569
▁如何	-15570
▁居塵	-15571
▁已於	-15572
▁後還	-15573
▁得福	-15574
▁心大	-15575
▁心心	-15576
▁忍辱	-15577
▁悉知	-15578
▁悟後	-15579
▁惱亂	-15580
▁愛欲	-15581
▁愼無	-15582
▁應現	-15583
▁我於	-15584
▁我等	-15585
▁敎徒	-15586
▁旣得	-15587
▁明月	-15588
▁是也	-15589
▁是卽	-15590
▁是經	-15591
▁更不	-15592
▁更爲	-15593
▁有人	-15594
▁未免	-15595
▁本空	-15596
▁本自	-15597
▁此是	-15598
▁汝於	-15599
▁汝須	-15600
▁河海	-15601
▁法說	-15602
▁法輪	-15603
▁洪恩	-15604
▁無始	-15605
▁無我	-15606
▁無相	-15607
▁無量	-15608
▁生死	-15609
▁皆得	-15610
▁皆從	-15611
▁皆應	-15612
▁皆爲	-15613
▁自生	-15614
▁萬一	-15615
▁萬劫	-15616
▁言語	-15617
▁諸根	-15618
▁諸法	-15619
▁豈有	-15620
▁豈能	-15621
▁起破	-15622
▁還有	-15623
▁頓悟	-15624
▁가늘	-15625
▁가다	-15626
▁가두	-15627
▁가린	-15628
▁가문	-15629
▁가중	-15630
▁가할	-15631
▁각급	-15632
▁각등	-15633
▁각파	-15634
▁간직	-15635
▁간판	-15636
▁갈고	-15637
▁감독	-15638
▁감복	-15639
▁감소	-15640
▁감을	-15641
▁강제	-15642
▁갖는	-15643
▁갖다	-15644
▁갖춤	-15645
▁갚는	-15646
▁갚지	-15647
▁개간	-15648
▁개명	-15649
▁개탄	-15650
▁개학	-15651
▁객실	-15652
▁거년	-15653
▁거사	-15654
▁거상	-15655
▁거절	-15656
▁건물	-15657
▁걸고	-15658
▁걸렸	-15659
▁걸식	-15660
▁걸어	-15661
▁걸을	-15662
▁걸지	-15663
▁검소	-15664
▁겨를	-15665
▁겪게	-15666
▁견문	-15667
▁겸비	-15668
▁경난	-15669
▁경력	-15670
▁경문	-15671
▁경북	-15672
▁경사	-15673
▁경산	-15674
▁경애	-15675
▁경이	-15676
▁경찰	-15677
▁경책	-15678
▁경하	-15679
▁경한	-15680
▁경향	-15681
▁계미	-15682
▁계법	-15683
▁계열	-15684
▁고도	-15685
▁고민	-15686
▁고비	-15687
▁고아	-15688
▁고이	-15689
▁고전	-15690
▁고취	-15691
▁곧은	-15692
▁골짜	-15693
▁공금	-15694
▁공론	-15695
▁공물	-15696
▁공민	-15697
▁공산	-15698
▁공영	-15699
▁공원	-15700
▁공화	-15701
▁관공	-15702
▁관대	-15703
▁관헌	-15704
▁광채	-15705
▁교기	-15706
▁교복	-15707
▁교섭	-15708
▁교악	-15709
▁구미	-15710
▁구송	-15711
▁구전	-15712
▁구태	-15713
▁국운	-15714
▁국집	-15715
▁굽은	-15716
▁굽혀	-15717
▁궁굴	-15718
▁권태	-15719
▁권할	-15720
▁귀와	-15721
▁귀환	-15722
▁규는	-15723
▁균등	-15724
▁균형	-15725
▁그냥	-15726
▁그늘	-15727
▁그름	-15728
▁그중	-15729
▁근동	-15730
▁근래	-15731
▁금년	-15732
▁금은	-15733
▁급무	-15734
▁기계	-15735
▁기둥	-15736
▁기름	-15737
▁기여	-15738
▁기차	-15739
▁기필	-15740
▁기혈	-15741
▁깨어	-15742
▁꺼버	-15743
▁꿀을	-15744
▁꿈과	-15745
▁꿈꾸	-15746
▁꿋꿋	-15747
▁꿰뚫	-15748
▁끊지	-15749
▁끌릴	-15750
▁끌어	-15751
▁끝난	-15752
▁끝날	-15753
▁끼쳐	-15754
▁끼친	-15755
▁나만	-15756
▁나신	-15757
▁나열	-15758
▁나이	-15759
▁나툰	-15760
▁낙에	-15761
▁낙은	-15762
▁난처	-15763
▁날카	-15764
▁남는	-15765
▁남성	-15766
▁남았	-15767
▁남원	-15768
▁남음	-15769
▁남지	-15770
▁내걸	-15771
▁내린	-15772
▁내며	-15773
▁내부	-15774
▁내에	-15775
▁너로	-15776
▁넘는	-15777
▁넘쳐	-15778
▁넣고	-15779
▁네나	-15780
▁노닐	-15781
▁노소	-15782
▁노쇠	-15783
▁노혼	-15784
▁논을	-15785
▁농민	-15786
▁높여	-15787
▁눈앞	-15788
▁눈은	-15789
▁느낀	-15790
▁늘어	-15791
▁늦게	-15792
▁다닐	-15793
▁다루	-15794
▁다소	-15795
▁다지	-15796
▁단속	-15797
▁단행	-15798
▁달기	-15799
▁달본	-15800
▁달사	-15801
▁달아	-15802
▁달에	-15803
▁닭이	-15804
▁담임	-15805
▁당년	-15806
▁당사	-15807
▁당신	-15808
▁대국	-15809
▁대기	-15810
▁대독	-15811
▁대례	-15812
▁대륙	-15813
▁대립	-15814
▁대불	-15815
▁대안	-15816
▁대와	-15817
▁대요	-15818
▁대저	-15819
▁대통	-15820
▁대폭	-15821
▁대희	-15822
▁더운	-15823
▁더해	-15824
▁덕무	-15825
▁덕의	-15826
▁덥고	-15827
▁덩어	-15828
▁데도	-15829
▁데와	-15830
▁도달	-15831
▁도력	-15832
▁도명	-15833
▁도미	-15834
▁도서	-15835
▁도시	-15836
▁도울	-15837
▁도장	-15838
▁독선	-15839
▁독신	-15840
▁독특	-15841
▁돋아	-15842
▁돌리	-15843
▁돌매	-15844
▁돌면	-15845
▁돕는	-15846
▁동귀	-15847
▁동등	-15848
▁동물	-15849
▁동석	-15850
▁동하	-15851
▁되겠	-15852
▁될만	-15853
▁두가	-15854
▁두는	-15855
▁두되	-15856
▁두텁	-15857
▁둘을	-15858
▁뒤따	-15859
▁드실	-15860
▁들기	-15861
▁들며	-15862
▁딸은	-15863
▁땅과	-15864
▁때만	-15865
▁떠들	-15866
▁떠올	-15867
▁떡을	-15868
▁떼는	-15869
▁뜨면	-15870
▁뜯어	-15871
▁뜻과	-15872
▁뜻인	-15873
▁라고	-15874
▁마구	-15875
▁마다	-15876
▁마당	-15877
▁마르	-15878
▁마른	-15879
▁마장	-15880
▁마칠	-15881
▁막심	-15882
▁막힌	-15883
▁만리	-15884
▁만상	-15885
▁만지	-15886
▁만화	-15887
▁많아	-15888
▁많았	-15889
▁말게	-15890
▁말법	-15891
▁맛보	-15892
▁맛이	-15893
▁망동	-15894
▁망할	-15895
▁맞다	-15896
▁맞은	-15897
▁맡긴	-15898
▁매대	-15899
▁매인	-15900
▁매장	-15901
▁매진	-15902
▁멀고	-15903
▁면회	-15904
▁멸한	-15905
▁명이	-15906
▁명첩	-15907
▁명훈	-15908
▁모은	-15909
▁몰아	-15910
▁못해	-15911
▁묘우	-15912
▁무덕	-15913
▁무로	-15914
▁무릎	-15915
▁무마	-15916
▁무언	-15917
▁무에	-15918
▁무주	-15919
▁묵어	-15920
▁문고	-15921
▁문답	-15922
▁문맹	-15923
▁문서	-15924
▁문은	-15925
▁문자	-15926
▁문총	-15927
▁묻어	-15928
▁물색	-15929
▁물심	-15930
▁미미	-15931
▁바뀐	-15932
▁바쁘	-15933
▁바삐	-15934
▁바요	-15935
▁박길	-15936
▁박애	-15937
▁받드	-15938
▁발명	-15939
▁발송	-15940
▁밝다	-15941
▁밟는	-15942
▁밟을	-15943
▁밤낮	-15944
▁밤이	-15945
▁방금	-15946
▁방에	-15947
▁방침	-15948
▁배가	-15949
▁배나	-15950
▁배는	-15951
▁배를	-15952
▁백일	-15953
▁백절	-15954
▁버티	-15955
▁번에	-15956
▁번을	-15957
▁벌어	-15958
▁벌은	-15959
▁범연	-15960
▁법맥	-15961
▁법명	-15962
▁법보	-15963
▁법종	-15964
▁법치	-15965
▁베푼	-15966
▁변동	-15967
▁변명	-15968
▁변해	-15969
▁병도	-15970
▁병설	-15971
▁병원	-15972
▁병의	-15973
▁보감	-15974
▁보낸	-15975
▁보던	-15976
▁보도	-15977
▁보보	-15978
▁보자	-15979
▁보좌	-15980
▁보증	-15981
▁보충	-15982
▁보험	-15983
▁복된	-15984
▁복만	-15985
▁본격	-15986
▁본문	-15987
▁본받	-15988
▁봄을	-15989
▁부릴	-15990
▁부와	-15991
▁부유	-15992
▁부의	-15993
▁부채	-15994
▁분도	-15995
▁분립	-15996
▁분만	-15997
▁분한	-15998
▁불살	-15999
▁불야	-16000
▁불에	-16001
▁붙여	-16002
▁비근	-16003
▁비난	-16004
▁비슷	-16005
▁비웃	-16006
▁비춰	-16007
▁비행	-16008
▁빈궁	-16009
▁빌어	-16010
▁빠진	-16011
▁빨리	-16012
▁사견	-16013
▁사망	-16014
▁사명	-16015
▁사색	-16016
▁사전	-16017
▁사지	-16018
▁사천	-16019
▁사체	-16020
▁산골	-16021
▁산돼	-16022
▁산이	-16023
▁살다	-16024
▁살던	-16025
▁살되	-16026
▁삼기	-16027
▁삼보	-16028
▁삼산	-16029
▁삼삼	-16030
▁삼업	-16031
▁삼위	-16032
▁상사	-16033
▁상서	-16034
▁상설	-16035
▁상여	-16036
▁상종	-16037
▁새해	-16038
▁색과	-16039
▁색이	-16040
▁생은	-16041
▁서당	-16042
▁서두	-16043
▁서북	-16044
▁서신	-16045
▁서에	-16046
▁서정	-16047
▁서투	-16048
▁석가	-16049
▁선보	-16050
▁선연	-16051
▁설령	-16052
▁설정	-16053
▁설해	-16054
▁성과	-16055
▁성구	-16056
▁성원	-16057
▁성조	-16058
▁성편	-16059
▁성할	-16060
▁성해	-16061
▁세신	-16062
▁소금	-16063
▁소당	-16064
▁소득	-16065
▁소모	-16066
▁소용	-16067
▁소중	-16068
▁소집	-16069
▁소통	-16070
▁속여	-16071
▁속인	-16072
▁손수	-16073
▁손에	-16074
▁손이	-16075
▁송경	-16076
▁쇠가	-16077
▁쇠퇴	-16078
▁수단	-16079
▁수업	-16080
▁수염	-16081
▁수익	-16082
▁수증	-16083
▁수탈	-16084
▁숙남	-16085
▁순사	-16086
▁순을	-16087
▁숭덕	-16088
▁스무	-16089
▁슬그	-16090
▁승진	-16091
▁시각	-16092
▁시시	-16093
▁시용	-16094
▁시탕	-16095
▁식당	-16096
▁식량	-16097
▁신경	-16098
▁신과	-16099
▁신기	-16100
▁신념	-16101
▁신문	-16102
▁신보	-16103
▁신비	-16104
▁신이	-16105
▁신중	-16106
▁신해	-16107
▁실망	-16108
▁실습	-16109
▁실어	-16110
▁실제	-16111
▁심력	-16112
▁심심	-16113
▁심안	-16114
▁심은	-16115
▁심을	-16116
▁심천	-16117
▁심판	-16118
▁십부	-16119
▁싸우	-16120
▁쌓여	-16121
▁쓰며	-16122
▁쓸데	-16123
▁씀에	-16124
▁아견	-16125
▁아귀	-16126
▁아마	-16127
▁아승	-16128
▁아파	-16129
▁아픈	-16130
▁악수	-16131
▁악의	-16132
▁안고	-16133
▁안녕	-16134
▁안을	-16135
▁앉았	-16136
▁않기	-16137
▁않던	-16138
▁알을	-16139
▁앎을	-16140
▁앞두	-16141
▁애경	-16142
▁야위	-16143
▁야학	-16144
▁약조	-16145
▁약할	-16146
▁양대	-16147
▁어깨	-16148
▁어둔	-16149
▁어질	-16150
▁어쩔	-16151
▁언답	-16152
▁얽혀	-16153
▁엄격	-16154
▁업의	-16155
▁없앨	-16156
▁여겨	-16157
▁여읜	-16158
▁여행	-16159
▁연관	-16160
▁연설	-16161
▁연중	-16162
▁연차	-16163
▁열게	-16164
▁열두	-16165
▁영통	-16166
▁영험	-16167
▁예견	-16168
▁예술	-16169
▁오도	-16170
▁오라	-16171
▁오손	-16172
▁오해	-16173
▁온몸	-16174
▁완고	-16175
▁왕생	-16176
▁외면	-16177
▁외모	-16178
▁외치	-16179
▁요소	-16180
▁요행	-16181
▁우는	-16182
▁우담	-16183
▁우열	-16184
▁운권	-16185
▁울고	-16186
▁원과	-16187
▁원천	-16188
▁원탑	-16189
▁위가	-16190
▁위는	-16191
▁위대	-16192
▁위생	-16193
▁위신	-16194
▁위의	-16195
▁위인	-16196
▁위임	-16197
▁위촉	-16198
▁유를	-16199
▁유에	-16200
▁유연	-16201
▁유용	-16202
▁유족	-16203
▁유촉	-16204
▁육안	-16205
▁육의	-16206
▁육일	-16207
▁윤활	-16208
▁은모	-16209
▁은사	-16210
▁은산	-16211
▁읊어	-16212
▁의문	-16213
▁의와	-16214
▁의용	-16215
▁의의	-16216
▁이곳	-16217
▁이나	-16218
▁이럴	-16219
▁이렇	-16220
▁이룸	-16221
▁이바	-16222
▁이산	-16223
▁이슬	-16224
▁이운	-16225
▁이원	-16226
▁이인	-16227
▁이정	-16228
▁이흥	-16229
▁익어	-16230
▁인공	-16231
▁인근	-16232
▁인작	-16233
▁일거	-16234
▁일률	-16235
▁일면	-16236
▁일언	-16237
▁일요	-16238
▁일용	-16239
▁일종	-16240
▁일컬	-16241
▁읽을	-16242
▁임종	-16243
▁입과	-16244
▁입는	-16245
▁입단	-16246
▁입신	-16247
▁잇고	-16248
▁잊었	-16249
▁잊은	-16250
▁잊을	-16251
▁잎은	-16252
▁자고	-16253
▁자란	-16254
▁자문	-16255
▁자산	-16256
▁자약	-16257
▁자와	-16258
▁자존	-16259
▁자칭	-16260
▁잘된	-16261
▁잠잘	-16262
▁잡게	-16263
▁잡념	-16264
▁잡철	-16265
▁장녀	-16266
▁장마	-16267
▁장수	-16268
▁재물	-16269
▁재풍	-16270
▁재해	-16271
▁저도	-16272
▁전담	-16273
▁전래	-16274
▁전반	-16275
▁전서	-16276
▁전성	-16277
▁전염	-16278
▁전임	-16279
▁절에	-16280
▁점진	-16281
▁접촉	-16282
▁정계	-16283
▁정곡	-16284
▁정금	-16285
▁정맥	-16286
▁정수	-16287
▁정숙	-16288
▁정읍	-16289
▁정인	-16290
▁정중	-16291
▁정천	-16292
▁정초	-16293
▁정히	-16294
▁제막	-16295
▁제언	-16296
▁져서	-16297
▁조급	-16298
▁조부	-16299
▁조소	-16300
▁조전	-16301
▁종래	-16302
▁종지	-16303
▁좌산	-16304
▁좌포	-16305
▁죄악	-16306
▁주도	-16307
▁주되	-16308
▁주막	-16309
▁주물	-16310
▁주민	-16311
▁주악	-16312
▁주유	-16313
▁주자	-16314
▁주한	-16315
▁죽순	-16316
▁죽지	-16317
▁줄기	-16318
▁줄어	-16319
▁중간	-16320
▁중순	-16321
▁중지	-16322
▁즐길	-16323
▁증여	-16324
▁증정	-16325
▁증참	-16326
▁증험	-16327
▁지가	-16328
▁지남	-16329
▁지선	-16330
▁지시	-16331
▁지원	-16332
▁지척	-16333
▁지친	-16334
▁진경	-16335
▁진설	-16336
▁진언	-16337
▁진위	-16338
▁진철	-16339
▁집무	-16340
▁집심	-16341
▁집의	-16342
▁집집	-16343
▁집회	-16344
▁짓되	-16345
▁짜야	-16346
▁차를	-16347
▁차와	-16348
▁차이	-16349
▁창교	-16350
▁창황	-16351
▁채포	-16352
▁책을	-16353
▁처한	-16354
▁천안	-16355
▁천한	-16356
▁청결	-16357
▁청풍	-16358
▁체와	-16359
▁초범	-16360
▁초보	-16361
▁초청	-16362
▁초학	-16363
▁총관	-16364
▁총괄	-16365
▁총론	-16366
▁총선	-16367
▁총칙	-16368
▁최근	-16369
▁최제	-16370
▁최종	-16371
▁추방	-16372
▁추존	-16373
▁축제	-16374
▁출품	-16375
▁취지	-16376
▁측근	-16377
▁측면	-16378
▁치며	-16379
▁친구	-16380
▁친선	-16381
▁친제	-16382
▁친필	-16383
▁침략	-16384
▁침범	-16385
▁침중	-16386
▁칼로	-16387
▁타게	-16388
▁타이	-16389
▁터서	-16390
▁토스	-16391
▁토플	-16392
▁통할	-16393
▁틀림	-16394
▁틈을	-16395
▁파도	-16396
▁파멸	-16397
▁파악	-16398
▁팔을	-16399
▁편달	-16400
▁편술	-16401
▁펼치	-16402
▁평거	-16403
▁평을	-16404
▁포양	-16405
▁포장	-16406
▁품을	-16407
▁풍수	-16408
▁풍파	-16409
▁피곤	-16410
▁피어	-16411
▁피임	-16412
▁하느	-16413
▁하듯	-16414
▁하룻	-16415
▁하운	-16416
▁학벌	-16417
▁학위	-16418
▁한남	-16419
▁한낱	-16420
▁한석	-16421
▁한시	-16422
▁한울	-16423
▁함양	-16424
▁해서	-16425
▁해와	-16426
▁해인	-16427
▁해주	-16428
▁행주	-16429
▁향한	-16430
▁허실	-16431
▁허용	-16432
▁헌거	-16433
▁헤쳐	-16434
▁협의	-16435
▁형이	-16436
▁형형	-16437
▁혜명	-16438
▁혜문	-16439
▁혜의	-16440
▁호대	-16441
▁호령	-16442
▁호를	-16443
▁호장	-16444
▁혼잡	-16445
▁화답	-16446
▁화를	-16447
▁화택	-16448
▁확보	-16449
▁확충	-16450
▁활선	-16451
▁활짝	-16452
▁회계	-16453
▁회사	-16454
▁회합	-16455
▁회화	-16456
▁효를	-16457
▁효에	-16458
▁후심	-16459
▁후인	-16460
▁후회	-16461
▁훈계	-16462
▁훈사	-16463
▁휩쓸	-16464
▁휴간	-16465
▁휴대	-16466
▁흉을	-16467
▁흐를	-16468
▁흔한	-16469
▁흘린	-16470
▁흙과	-16471
▁흥분	-16472
▁힘쓴	-16473
一直心	-16474
丁光薰	-16475
三大力	-16476
中惡業	-16477
九陀圓	-16478
事必歸	-16479
亦非非	-16480
人趣報	-16481
休休庵	-16482
休大歇	-16483
佛兩足	-16484
佛法僧	-16485
佛無殊	-16486
作是言	-16487
修心訣	-16488
修無證	-16489
値佛世	-16490
儒佛仙	-16491
先頓悟	-16492
全八根	-16493
公道者	-16494
十圖頌	-16495
受天地	-16496
受福德	-16497
同一體	-16498
告由文	-16499
四時華	-16500
地獄業	-16501
坐禪文	-16502
外勝報	-16503
外惡報	-16504
大宗經	-16505
大聖經	-16506
大通門	-16507
如之何	-16508
宋萬京	-16509
富饒財	-16510
張寂照	-16511
徐大仁	-16512
微惡業	-16513
念過去	-16514
悟而修	-16515
想行識	-16516
慈愍心	-16517
文東賢	-16518
於此經	-16519
昇火降	-16520
是佛法	-16521
曺頌廣	-16522
月上時	-16523
有差別	-16524
本無碍	-16525
朴元石	-16526
李完喆	-16527
李恩錫	-16528
李旬旬	-16529
李空田	-16530
李載喆	-16531
李雲外	-16532
李靑春	-16533
正智報	-16534
此法門	-16535
此經中	-16536
涅槃相	-16537
無不我	-16538
無所得	-16539
無窮花	-16540
父母及	-16541
生歡喜	-16542
發靷式	-16543
相布施	-16544
福德多	-16545
空圓正	-16546
自然明	-16547
與天地	-16548
蘭那行	-16549
語亦善	-16550
輕惡業	-16551
邪智報	-16552
鄭世月	-16553
醜陋報	-16554
重惡業	-16555
金剛經	-16556
金幾千	-16557
金永信	-16558
金洪哲	-16559
須彌山	-16560
香一炷	-16561
갈수록	-16562
개하여	-16563
거리고	-16564
것이니	-16565
것이요	-16566
겠다는	-16567
결하여	-16568
계천에	-16569
고락을	-16570
고락의	-16571
고유문	-16572
관에는	-16573
교도는	-16574
교육의	-16575
교화의	-16576
금으로	-16577
기고자	-16578
기니라	-16579
기도를	-16580
기로는	-16581
기로서	-16582
나가는	-16583
나가야	-16584
나라는	-16585
남에게	-16586
남으로	-16587
났으나	-16588
났으며	-16589
년만에	-16590
년부터	-16591
년으로	-16592
노마켓	-16593
다보면	-16594
대봉도	-16595
덕으로	-16596
도덕을	-16597
독교의	-16598
동하여	-16599
되면서	-16600
되어서	-16601
되었던	-16602
등으로	-16603
락으로	-16604
랐나니	-16605
량하지	-16606
려가니	-16607
려거든	-16608
류병덕	-16609
리리오	-16610
리시는	-16611
마음의	-16612
마하살	-16613
만물이	-16614
매하여	-16615
머니를	-16616
무량한	-16617
문명과	-16618
미륵불	-16619
박하고	-16620
반백년	-16621
범상한	-16622
보리가	-16623
보신불	-16624
본교는	-16625
본다면	-16626
봉공회	-16627
부모도	-16628
불교화	-16629
사람은	-16630
사업의	-16631
사자가	-16632
사회에	-16633
삼대력	-16634
삼아서	-16635
삽기로	-16636
생어은	-16637
생활이	-16638
서원은	-16639
석에서	-16640
성리를	-16641
성이란	-16642
세부터	-16643
세상의	-16644
셨으니	-16645
속에서	-16646
수하고	-16647
시고자	-16648
시리요	-16649
시므로	-16650
시키면	-16651
식에는	-16652
신앙의	-16653
신통은	-16654
십시오	-16655
아니라	-16656
아지며	-16657
았다고	-16658
액이나	-16659
어지기	-16660
어지니	-16661
어지며	-16662
언마는	-16663
었도다	-16664
었으되	-16665
여명이	-16666
역무무	-16667
연구의	-16668
옵기로	-16669
옵서는	-16670
왔으니	-16671
요사이	-16672
용하는	-16673
우주의	-16674
운동을	-16675
월상시	-16676
으리오	-16677
으셨고	-16678
으오나	-16679
음에도	-16680
이더라	-16681
이라면	-16682
이러라	-16683
이러한	-16684
이사장	-16685
이어다	-16686
이어든	-16687
인가를	-16688
인간의	-16689
인생의	-16690
인이나	-16691
일원의	-16692
자격을	-16693
자기가	-16694
자기를	-16695
자선의	-16696
자연명	-16697
정당한	-16698
정신은	-16699
제보살	-16700
졌으며	-16701
조하여	-16702
종교계	-16703
종교에	-16704
종으로	-16705
좌선문	-16706
중생은	-16707
중생을	-16708
중희사	-16709
지부를	-16710
진다는	-16711
쪽으로	-16712
착하고	-16713
찬란한	-16714
찬송을	-16715
참다운	-16716
참회문	-16717
층으로	-16718
친자녀	-16719
케하는	-16720
하더라	-16721
하루는	-16722
하시게	-16723
하오매	-16724
할수록	-16725
함인가	-16726
했으며	-16727
활동을	-16728
후무한	-16729
휴휴암	-16730
(3.7	-16731
.192	-16732
.[6]	-16733
news	-16734
▁(19	-16735
▁...	-16736
▁180	-16737
▁29)	-16738
▁33)	-16739
▁38)	-16740
▁39)	-16741
▁4.5	-16742
▁46)	-16743
▁47)	-16744
▁48)	-16745
▁52)	-16746
▁htt	-16747
▁ᄋᄋ가	-16748
▁不可得	-16749
▁不在於	-16750
▁在幾間	-16751
▁大宗師	-16752
▁如來有	-16753
▁宗法師	-16754
▁對治功	-16755
▁師傅前	-16756
▁必得道	-16757
▁念非常	-16758
▁成年式	-16759
▁所行也	-16760
▁斯陀含	-16761
▁是名業	-16762
▁無人相	-16763
▁無我相	-16764
▁無漏智	-16765
▁父母前	-16766
▁祝願文	-16767
▁見怨病	-16768
▁過一切	-16769
▁阿那含	-16770
▁가난에	-16771
▁가르쳤	-16772
▁가리어	-16773
▁가리울	-16774
▁가뭄을	-16775
▁가뭄이	-16776
▁가벼운	-16777
▁가섭이	-16778
▁가슴과	-16779
▁가시밭	-16780
▁가옥을	-16781
▁가짐에	-16782
▁각계의	-16783
▁각국에	-16784
▁각별히	-16785
▁각성을	-16786
▁각성이	-16787
▁각지를	-16788
▁각지의	-16789
▁간다고	-16790
▁간석지	-16791
▁갈래로	-16792
▁감동이	-16793
▁감사문	-16794
▁감싸고	-16795
▁감응이	-16796
▁감정이	-16797
▁감추고	-16798
▁갔다가	-16799
▁갖추라	-16800
▁같다고	-16801
▁같다는	-16802
▁같사와	-16803
▁개인이	-16804
▁개정판	-16805
▁개척해	-16806
▁개혁을	-16807
▁갱생을	-16808
▁거교적	-16809
▁거대한	-16810
▁거래의	-16811
▁거리가	-16812
▁거리는	-16813
▁거만을	-16814
▁거만한	-16815
▁거울을	-16816
▁거짓과	-16817
▁거쳐서	-16818
▁걱정은	-16819
▁걱정할	-16820
▁건강이	-16821
▁건국을	-16822
▁건국이	-16823
▁건물을	-16824
▁검소한	-16825
▁겁래로	-16826
▁것만은	-16827
▁것이고	-16828
▁것인지	-16829
▁게양할	-16830
▁견문과	-16831
▁견문이	-16832
▁견성도	-16833
▁견성은	-16834
▁견성의	-16835
▁결의서	-16836
▁결정이	-16837
▁결정한	-16838
▁결제식	-16839
▁경계요	-16840
▁경계의	-16841
▁경관이	-16842
▁경례로	-16843
▁경로는	-16844
▁경륜과	-16845
▁경전도	-16846
▁경제가	-16847
▁경지가	-16848
▁경지로	-16849
▁계교가	-16850
▁계급을	-16851
▁계룡산	-16852
▁계승한	-16853
▁계시는	-16854
▁계시며	-16855
▁계율과	-16856
▁계한이	-16857
▁계획이	-16858
▁고금에	-16859
▁고기를	-16860
▁고락이	-16861
▁고비가	-16862
▁고비는	-16863
▁고비에	-16864
▁고삐를	-16865
▁고액을	-16866
▁고역을	-16867
▁고집을	-16868
▁고쳐서	-16869
▁고하를	-16870
▁고향을	-16871
▁고향인	-16872
▁고혈마	-16873
▁곡식이	-16874
▁곤란한	-16875
▁골라서	-16876
▁곳곳에	-16877
▁공간을	-16878
▁공경과	-16879
▁공덕과	-16880
▁공들인	-16881
▁공력은	-16882
▁공명을	-16883
▁공부한	-16884
▁공부해	-16885
▁공사가	-16886
▁공심과	-16887
▁공으로	-16888
▁공익을	-16889
▁공적이	-16890
▁공적인	-16891
▁공적한	-16892
▁공중이	-16893
▁공효가	-16894
▁과도한	-16895
▁과수원	-16896
▁과실을	-16897
▁과오가	-16898
▁과원을	-16899
▁과일을	-16900
▁과하면	-16901
▁과하지	-16902
▁관계에	-16903
▁관련이	-16904
▁관례와	-16905
▁관청과	-16906
▁관하는	-16907
▁광활한	-16908
▁교단도	-16909
▁교당은	-16910
▁교리는	-16911
▁교무로	-16912
▁교무의	-16913
▁교문을	-16914
▁교복과	-16915
▁교서로	-16916
▁교의가	-16917
▁교의를	-16918
▁교의의	-16919
▁교전의	-16920
▁교제에	-16921
▁교중에	-16922
▁교파가	-16923
▁교학과	-16924
▁교헌을	-16925
▁구도의	-16926
▁구속을	-16927
▁구습은	-16928
▁구원겁	-16929
▁구하며	-16930
▁구해야	-16931
▁구호소	-16932
▁국가는	-16933
▁국가도	-16934
▁국민을	-16935
▁국제에	-16936
▁국토를	-16937
▁굴리는	-16938
▁굽히는	-16939
▁궁벽한	-16940
▁권두에	-16941
▁권세가	-16942
▁권유를	-16943
▁권하는	-16944
▁권하지	-16945
▁궐위로	-16946
▁귀의승	-16947
▁귀천과	-16948
▁귀하게	-16949
▁규정을	-16950
▁규정한	-16951
▁규칙과	-16952
▁그대도	-16953
▁그러니	-16954
▁그러던	-16955
▁그러지	-16956
▁그런가	-16957
▁그르고	-16958
▁그르다	-16959
▁그릇은	-16960
▁그치게	-16961
▁그치라	-16962
▁극락이	-16963
▁근거가	-16964
▁근기니	-16965
▁근성이	-16966
▁근심을	-16967
▁근원의	-16968
▁글귀를	-16969
▁글자는	-16970
▁금사망	-16971
▁금전을	-16972
▁금하지	-16973
▁급이요	-16974
▁급하여	-16975
▁기구에	-16976
▁기꺼이	-16977
▁기념할	-16978
▁기도로	-16979
▁기도문	-16980
▁기러기	-16981
▁기르되	-16982
▁기르며	-16983
▁기쁘며	-16984
▁기약이	-16985
▁기연을	-16986
▁기운도	-16987
▁기운의	-16988
▁기울게	-16989
▁기화가	-16990
▁기회에	-16991
▁길이니	-16992
▁길흉화	-16993
▁깊어서	-16994
▁깊으신	-16995
▁까닭에	-16996
▁깨닫지	-16997
▁깨쳐야	-16998
▁꺼리어	-16999
▁꺾어버	-17000
▁꾸미지	-17001
▁꾸짖고	-17002
▁꾸짖어	-17003
▁꿇어앉	-17004
▁꿈으로	-17005
▁끊어졌	-17006
▁끊으며	-17007
▁끊임이	-17008
▁끌리고	-17009
▁끝나기	-17010
▁끝마칠	-17011
▁끼니를	-17012
▁끼치게	-17013
▁나가면	-17014
▁나가지	-17015
▁나머지	-17016
▁나서서	-17017
▁나시기	-17018
▁나오며	-17019
▁나오지	-17020
▁나이가	-17021
▁나팔이	-17022
▁낙원이	-17023
▁난경에	-17024
▁날뛰는	-17025
▁남기지	-17026
▁남녀와	-17027
▁남다른	-17028
▁남도에	-17029
▁남이나	-17030
▁남천이	-17031
▁낭독할	-17032
▁낭비는	-17033
▁낭비를	-17034
▁낳으사	-17035
▁내생에	-17036
▁내실을	-17037
▁내심에	-17038
▁내외의	-17039
▁냉하게	-17040
▁넉넉히	-17041
▁넘겨야	-17042
▁넘으면	-17043
▁노력과	-17044
▁노력의	-17045
▁노루목	-17046
▁노릇을	-17047
▁노소와	-17048
▁녹여버	-17049
▁녹히고	-17050
▁논하는	-17051
▁농민의	-17052
▁농부의	-17053
▁놓고도	-17054
▁놓아버	-17055
▁놓았다	-17056
▁놓치고	-17057
▁느껴야	-17058
▁느낌이	-17059
▁다니시	-17060
▁다닌다	-17061
▁다르게	-17062
▁다르다	-17063
▁다섯은	-17064
▁다스릴	-17065
▁다시는	-17066
▁다졌다	-17067
▁다하기	-17068
▁다하며	-17069
▁단결을	-17070
▁단결의	-17071
▁단결이	-17072
▁단계가	-17073
▁단계로	-17074
▁단련을	-17075
▁단순한	-17076
▁단원이	-17077
▁단체에	-17078
▁단합이	-17079
▁닫히고	-17080
▁달성에	-17081
▁담배를	-17082
▁답답한	-17083
▁답장을	-17084
▁당국에	-17085
▁당연히	-17086
▁당인에	-17087
▁당하기	-17088
▁대권을	-17089
▁대답을	-17090
▁대도로	-17091
▁대도와	-17092
▁대례는	-17093
▁대서원	-17094
▁대성경	-17095
▁대세가	-17096
▁대세는	-17097
▁대신사	-17098
▁대원경	-17099
▁대원이	-17100
▁대의가	-17101
▁대의는	-17102
▁대자유	-17103
▁대재의	-17104
▁대조케	-17105
▁대중만	-17106
▁대체에	-17107
▁대표의	-17108
▁대하라	-17109
▁대하지	-17110
▁대학의	-17111
▁대화할	-17112
▁대회가	-17113
▁더듬어	-17114
▁더럽고	-17115
▁더욱이	-17116
▁덕행을	-17117
▁덕화가	-17118
▁도가에	-17119
▁도구는	-17120
▁도둑맞	-17121
▁도둑은	-17122
▁도리의	-17123
▁도문을	-17124
▁도사가	-17125
▁도실에	-17126
▁도심이	-17127
▁도에는	-17128
▁도탄이	-17129
▁도통을	-17130
▁돌려야	-17131
▁돌보지	-17132
▁돌아간	-17133
▁돌아서	-17134
▁돌아올	-17135
▁동기는	-17136
▁동기로	-17137
▁동력을	-17138
▁동력이	-17139
▁동방에	-17140
▁동안이	-17141
▁동일체	-17142
▁동일한	-17143
▁동정간	-17144
▁동지님	-17145
▁동지들	-17146
▁동지로	-17147
▁동포인	-17148
▁되기가	-17149
▁되소서	-17150
▁두가지	-17151
▁두렵게	-17152
▁두렵지	-17153
▁두어야	-17154
▁두터워	-17155
▁뒤이어	-17156
▁뒷받침	-17157
▁드나들	-17158
▁드러낼	-17159
▁드리면	-17160
▁드리지	-17161
▁득도의	-17162
▁들리지	-17163
▁들어온	-17164
▁들어와	-17165
▁들여서	-17166
▁들여야	-17167
▁들으려	-17168
▁들이고	-17169
▁등급은	-17170
▁등급의	-17171
▁등록을	-17172
▁등상불	-17173
▁등위만	-17174
▁등이요	-17175
▁등지고	-17176
▁등지를	-17177
▁땅에서	-17178
▁땅이요	-17179
▁때니라	-17180
▁때든지	-17181
▁때라도	-17182
▁때리지	-17183
▁때에만	-17184
▁때이나	-17185
▁때이니	-17186
▁똑같이	-17187
▁뚜렷이	-17188
▁마땅한	-17189
▁마련해	-17190
▁마을의	-17191
▁마장을	-17192
▁막았다	-17193
▁막히게	-17194
▁막히는	-17195
▁만겁에	-17196
▁만경의	-17197
▁만고가	-17198
▁만고와	-17199
▁만나게	-17200
▁만나시	-17201
▁만년을	-17202
▁만덕을	-17203
▁만들면	-17204
▁만사가	-17205
▁만상을	-17206
▁만생령	-17207
▁만세를	-17208
▁만유와	-17209
▁만족을	-17210
▁많으면	-17211
▁말라는	-17212
▁말미암	-17213
▁말세가	-17214
▁말세에	-17215
▁말씀도	-17216
▁말이라	-17217
▁말인가	-17218
▁맑아지	-17219
▁맑으며	-17220
▁망하게	-17221
▁맞추는	-17222
▁머리가	-17223
▁머슴의	-17224
▁먹이는	-17225
▁면에서	-17226
▁면하고	-17227
▁멸하지	-17228
▁명리에	-17229
▁명리와	-17230
▁명성이	-17231
▁명예로	-17232
▁명예에	-17233
▁명지장	-17234
▁명하여	-17235
▁모두의	-17236
▁모래를	-17237
▁모르며	-17238
▁모순된	-17239
▁모습을	-17240
▁모시게	-17241
▁모아서	-17242
▁모양은	-17243
▁모양을	-17244
▁모양이	-17245
▁모이어	-17246
▁모임을	-17247
▁모친의	-17248
▁목동은	-17249
▁목동이	-17250
▁목적과	-17251
▁목표에	-17252
▁몸이니	-17253
▁몸이요	-17254
▁몸임을	-17255
▁못하겠	-17256
▁못하니	-17257
▁못하다	-17258
▁못함에	-17259
▁몽매한	-17260
▁무게가	-17261
▁무결한	-17262
▁무너진	-17263
▁무념이	-17264
▁무상대	-17265
▁무상이	-17266
▁무시광	-17267
▁무식한	-17268
▁무아의	-17269
▁무엇에	-17270
▁무용한	-17271
▁무정과	-17272
▁무조건	-17273
▁무지와	-17274
▁무처선	-17275
▁묶이지	-17276
▁문로를	-17277
▁문명과	-17278
▁문명한	-17279
▁문서를	-17280
▁문자에	-17281
▁문화를	-17282
▁묻기에	-17283
▁묻히고	-17284
▁물건에	-17285
▁물품도	-17286
▁물품은	-17287
▁물품이	-17288
▁미움을	-17289
▁미진들	-17290
▁미하여	-17291
▁민망한	-17292
▁민중이	-17293
▁믿으면	-17294
▁바꾸는	-17295
▁바다를	-17296
▁바다의	-17297
▁바라며	-17298
▁바람과	-17299
▁바람에	-17300
▁바람은	-17301
▁바쁘고	-17302
▁바에는	-17303
▁바치면	-17304
▁바치지	-17305
▁박사시	-17306
▁박해를	-17307
▁받기도	-17308
▁받도록	-17309
▁받음이	-17310
▁받쳐서	-17311
▁발간과	-17312
▁발간한	-17313
▁발달을	-17314
▁발심을	-17315
▁발원문	-17316
▁발전할	-17317
▁발족한	-17318
▁발하게	-17319
▁밝아서	-17320
▁밝으매	-17321
▁밝혀서	-17322
▁밝혔다	-17323
▁밝히면	-17324
▁밝히신	-17325
▁방송을	-17326
▁방식도	-17327
▁방안을	-17328
▁방탕한	-17329
▁방해가	-17330
▁방해될	-17331
▁밭에는	-17332
▁백년을	-17333
▁백지혈	-17334
▁번갈아	-17335
▁번뇌에	-17336
▁번뇌와	-17337
▁번이나	-17338
▁벌이고	-17339
▁벌이는	-17340
▁범연한	-17341
▁범위가	-17342
▁범위에	-17343
▁법계장	-17344
▁법공의	-17345
▁법규를	-17346
▁법대로	-17347
▁법도와	-17348
▁법력과	-17349
▁법률에	-17350
▁법명을	-17351
▁법문이	-17352
▁법받아	-17353
▁법어로	-17354
▁법어를	-17355
▁법위에	-17356
▁법위의	-17357
▁법인성	-17358
▁법통과	-17359
▁법통은	-17360
▁법통의	-17361
▁법회가	-17362
▁법회나	-17363
▁법회에	-17364
▁벗어날	-17365
▁병들고	-17366
▁병원에	-17367
▁병자가	-17368
▁보기로	-17369
▁보다가	-17370
▁보답할	-17371
▁보리를	-17372
▁보물은	-17373
▁보므로	-17374
▁보배는	-17375
▁보시니	-17376
▁보았다	-17377
▁보육원	-17378
▁보은할	-17379
▁보응이	-17380
▁보이고	-17381
▁보필의	-17382
▁복락의	-17383
▁복록을	-17384
▁복록의	-17385
▁복문이	-17386
▁복숭아	-17387
▁본래를	-17388
▁본래와	-17389
▁본명은	-17390
▁본사로	-17391
▁본의는	-17392
▁본인이	-17393
▁본체는	-17394
▁본체를	-17395
▁봉공을	-17396
▁봉안문	-17397
▁봉안소	-17398
▁봉안한	-17399
▁뵈오면	-17400
▁부귀와	-17401
▁부르고	-17402
▁부리고	-17403
▁부리어	-17404
▁부모나	-17405
▁부분도	-17406
▁부서져	-17407
▁부임할	-17408
▁부정한	-17409
▁부족을	-17410
▁부처요	-17411
▁북일면	-17412
▁분기점	-17413
▁분발할	-17414
▁분상에	-17415
▁분야를	-17416
▁분에게	-17417
▁분이라	-17418
▁불공은	-17419
▁불공의	-17420
▁불공한	-17421
▁불과할	-17422
▁불교에	-17423
▁불법은	-17424
▁불성의	-17425
▁불신과	-17426
▁불어나	-17427
▁불연과	-17428
▁불의는	-17429
▁불의와	-17430
▁불의한	-17431
▁불이라	-17432
▁불토를	-17433
▁불토에	-17434
▁비구니	-17435
▁비비역	-17436
▁비상한	-17437
▁빈곤과	-17438
▁빈부귀	-17439
▁빌기를	-17440
▁빌려서	-17441
▁빠지기	-17442
▁빠지는	-17443
▁뿌리에	-17444
▁뿌리요	-17445
▁뿐이다	-17446
▁사가로	-17447
▁사가의	-17448
▁사견을	-17449
▁사고로	-17450
▁사도가	-17451
▁사뢰자	-17452
▁사무소	-17453
▁사물의	-17454
▁사방에	-17455
▁사부전	-17456
▁사사한	-17457
▁사요와	-17458
▁사욕이	-17459
▁사위국	-17460
▁사정에	-17461
▁사정을	-17462
▁사제의	-17463
▁사지를	-17464
▁사표가	-17465
▁사항과	-17466
▁사항을	-17467
▁산란한	-17468
▁산신은	-17469
▁산아의	-17470
▁산이나	-17471
▁살리라	-17472
▁살림과	-17473
▁살림이	-17474
▁살생과	-17475
▁살피나	-17476
▁살피며	-17477
▁삼가며	-17478
▁삼기도	-17479
▁삼매화	-17480
▁삼으시	-17481
▁삼재에	-17482
▁삼타원	-17483
▁삽삼조	-17484
▁삿되고	-17485
▁상주가	-17486
▁상태를	-17487
▁상하가	-17488
▁상황은	-17489
▁새롭고	-17490
▁색으로	-17491
▁생각만	-17492
▁생각한	-17493
▁생명과	-17494
▁생사라	-17495
▁생사문	-17496
▁생산과	-17497
▁생산의	-17498
▁생에서	-17499
▁생자녀	-17500
▁생함도	-17501
▁생활도	-17502
▁생활만	-17503
▁생활시	-17504
▁생활할	-17505
▁서원함	-17506
▁석벽의	-17507
▁섞이지	-17508
▁선각자	-17509
▁선도는	-17510
▁선량한	-17511
▁선령을	-17512
▁선생은	-17513
▁선서문	-17514
▁선연을	-17515
▁선인이	-17516
▁선지식	-17517
▁선진을	-17518
▁선포와	-17519
▁설립이	-17520
▁설법도	-17521
▁설하되	-17522
▁성가를	-17523
▁성경신	-17524
▁성공에	-17525
▁성과가	-17526
▁성대히	-17527
▁성명을	-17528
▁성불은	-17529
▁성불할	-17530
▁성소작	-17531
▁성의껏	-17532
▁성의와	-17533
▁성인들	-17534
▁성자와	-17535
▁성적을	-17536
▁성질은	-17537
▁성취를	-17538
▁성취의	-17539
▁성탑에	-17540
▁성품과	-17541
▁성품인	-17542
▁성현을	-17543
▁세력에	-17544
▁세세에	-17545
▁세속에	-17546
▁세속을	-17547
▁세신이	-17548
▁세욕을	-17549
▁세우기	-17550
▁세우라	-17551
▁세우며	-17552
▁세우지	-17553
▁세운다	-17554
▁세워져	-17555
▁세탁을	-17556
▁셋이라	-17557
▁소감을	-17558
▁소개는	-17559
▁소개할	-17560
▁소득이	-17561
▁소례는	-17562
▁소리도	-17563
▁소에게	-17564
▁소유가	-17565
▁소유인	-17566
▁소유한	-17567
▁소임을	-17568
▁소정의	-17569
▁소지가	-17570
▁소홀한	-17571
▁속박을	-17572
▁속임이	-17573
▁손실이	-17574
▁손안에	-17575
▁솟아올	-17576
▁송경을	-17577
▁송규가	-17578
▁수계농	-17579
▁수단을	-17580
▁수덕호	-17581
▁수도를	-17582
▁수도문	-17583
▁수레가	-17584
▁수레의	-17585
▁수명과	-17586
▁수명은	-17587
▁수명을	-17588
▁수미산	-17589
▁수심결	-17590
▁수없이	-17591
▁수입이	-17592
▁수천만	-17593
▁수행문	-17594
▁수효도	-17595
▁숙겁의	-17596
▁숙세에	-17597
▁순수의	-17598
▁순순히	-17599
▁순응할	-17600
▁순전히	-17601
▁순하게	-17602
▁술수로	-17603
▁숭배의	-17604
▁슬픔을	-17605
▁승려와	-17606
▁승하고	-17607
▁시간은	-17608
▁시기와	-17609
▁시봉을	-17610
▁시비와	-17611
▁시절에	-17612
▁시체를	-17613
▁시켜서	-17614
▁시키면	-17615
▁시험에	-17616
▁시험을	-17617
▁식물이	-17618
▁식순은	-17619
▁식이며	-17620
▁신념을	-17621
▁신도안	-17622
▁신룡리	-17623
▁신명이	-17624
▁신의와	-17625
▁신이요	-17626
▁신자로	-17627
▁신통이	-17628
▁신혼경	-17629
▁실답게	-17630
▁실상사	-17631
▁실시할	-17632
▁실적을	-17633
▁실제로	-17634
▁실패할	-17635
▁실행은	-17636
▁심경은	-17637
▁심계를	-17638
▁심고할	-17639
▁심인을	-17640
▁심지어	-17641
▁십타원	-17642
▁싸움을	-17643
▁쌓아서	-17644
▁쌓으며	-17645
▁쌓이는	-17646
▁쏟아져	-17647
▁쓰나니	-17648
▁아닌데	-17649
▁아들로	-17650
▁아래를	-17651
▁아무도	-17652
▁아상과	-17653
▁아상이	-17654
▁아이의	-17655
▁아프고	-17656
▁악도는	-17657
▁악업이	-17658
▁안락을	-17659
▁안심을	-17660
▁안일과	-17661
▁안일을	-17662
▁앉으며	-17663
▁앉히고	-17664
▁않다고	-17665
▁않다는	-17666
▁않았고	-17667
▁않았다	-17668
▁않으셨	-17669
▁않음만	-17670
▁알려진	-17671
▁알맞은	-17672
▁알면서	-17673
▁알므로	-17674
▁알으신	-17675
▁앞날을	-17676
▁앞서서	-17677
▁애욕을	-17678
▁애욕이	-17679
▁야회를	-17680
▁약속을	-17681
▁양성을	-17682
▁양심상	-17683
▁양심에	-17684
▁양심이	-17685
▁양양한	-17686
▁양의가	-17687
▁어둠을	-17688
▁어둠이	-17689
▁어디를	-17690
▁어리고	-17691
▁어리어	-17692
▁어짊과	-17693
▁어찌될	-17694
▁얼굴로	-17695
▁얼굴에	-17696
▁얼마를	-17697
▁얼음을	-17698
▁엄연히	-17699
▁업무에	-17700
▁업보에	-17701
▁없는데	-17702
▁없애려	-17703
▁없으신	-17704
▁없음에	-17705
▁없이는	-17706
▁여래라	-17707
▁여래요	-17708
▁여여한	-17709
▁여여히	-17710
▁여유가	-17711
▁여유를	-17712
▁여의면	-17713
▁여자가	-17714
▁여자는	-17715
▁여자의	-17716
▁여주의	-17717
▁여하를	-17718
▁여한이	-17719
▁역량이	-17720
▁역부여	-17721
▁역사적	-17722
▁연고가	-17723
▁연구력	-17724
▁연구해	-17725
▁연원이	-17726
▁연합장	-17727
▁연후에	-17728
▁열가지	-17729
▁열려면	-17730
▁열리어	-17731
▁열린다	-17732
▁열매를	-17733
▁열반과	-17734
▁열반식	-17735
▁열위의	-17736
▁염불을	-17737
▁영가를	-17738
▁영결사	-17739
▁영광에	-17740
▁영령한	-17741
▁영리한	-17742
▁영육을	-17743
▁영육이	-17744
▁영전에	-17745
▁영혼은	-17746
▁영혼을	-17747
▁예문은	-17748
▁예배를	-17749
▁예법은	-17750
▁예법의	-17751
▁예의가	-17752
▁예전을	-17753
▁예하고	-17754
▁예회를	-17755
▁오늘도	-17756
▁오래고	-17757
▁오롯한	-17758
▁오욕을	-17759
▁온다고	-17760
▁온다는	-17761
▁온화한	-17762
▁올챙이	-17763
▁옳으나	-17764
▁완강한	-17765
▁완성을	-17766
▁완연히	-17767
▁왔으며	-17768
▁왕왕이	-17769
▁외부에	-17770
▁외워서	-17771
▁외화로	-17772
▁요양원	-17773
▁용지불	-17774
▁우대를	-17775
▁우주가	-17776
▁운동과	-17777
▁운수니	-17778
▁운영과	-17779
▁운영의	-17780
▁운전해	-17781
▁원광사	-17782
▁원근이	-17783
▁원리니	-17784
▁원상이	-17785
▁원이요	-17786
▁원하나	-17787
▁원형이	-17788
▁위기를	-17789
▁위령문	-17790
▁위생에	-17791
▁위원을	-17792
▁위의가	-17793
▁위험과	-17794
▁위험한	-17795
▁유가의	-17796
▁유감이	-17797
▁유념과	-17798
▁유념의	-17799
▁유명한	-17800
▁유익한	-17801
▁유치원	-17802
▁유혹이	-17803
▁육도로	-17804
▁육도를	-17805
▁육성에	-17806
▁육타원	-17807
▁윤리의	-17808
▁융통을	-17809
▁은밀한	-17810
▁은부모	-17811
▁은생어	-17812
▁은의로	-17813
▁음성은	-17814
▁음조와	-17815
▁응대의	-17816
▁응분의	-17817
▁응하고	-17818
▁의논을	-17819
▁의리와	-17820
▁의문을	-17821
▁의의는	-17822
▁의자에	-17823
▁의지가	-17824
▁의혹이	-17825
▁이광정	-17826
▁이끌고	-17827
▁이념과	-17828
▁이동을	-17829
▁이때가	-17830
▁이론이	-17831
▁이루며	-17832
▁이룩할	-17833
▁이르기	-17834
▁이름도	-17835
▁이리에	-17836
▁이상은	-17837
▁이상히	-17838
▁이어져	-17839
▁이완철	-17840
▁이외에	-17841
▁이욕에	-17842
▁이유가	-17843
▁이으신	-17844
▁이익될	-17845
▁이차돈	-17846
▁이치라	-17847
▁이치로	-17848
▁이치인	-17849
▁이타로	-17850
▁이행자	-17851
▁인간과	-17852
▁인격도	-17853
▁인격의	-17854
▁인격이	-17855
▁인공을	-17856
▁인력이	-17857
▁인상과	-17858
▁인심에	-17859
▁인의가	-17860
▁인의화	-17861
▁인정과	-17862
▁인품을	-17863
▁일가의	-17864
▁일기는	-17865
▁일꾼이	-17866
▁일대의	-17867
▁일반이	-17868
▁일본의	-17869
▁일부에	-17870
▁일생뿐	-17871
▁일성이	-17872
▁일신의	-17873
▁일에도	-17874
▁일원을	-17875
▁일원화	-17876
▁일월은	-17877
▁일월의	-17878
▁일일시	-17879
▁일임을	-17880
▁일자를	-17881
▁일전에	-17882
▁일정에	-17883
▁일정을	-17884
▁일제가	-17885
▁일제의	-17886
▁일직심	-17887
▁일호의	-17888
▁잃으매	-17889
▁임무에	-17890
▁입등자	-17891
▁입어서	-17892
▁있는바	-17893
▁있었을	-17894
▁있을까	-17895
▁자각이	-17896
▁자금의	-17897
▁자녀는	-17898
▁자라난	-17899
▁자로다	-17900
▁자로서	-17901
▁자본을	-17902
▁자비에	-17903
▁자산을	-17904
▁자선의	-17905
▁자성문	-17906
▁자손을	-17907
▁자식을	-17908
▁자식이	-17909
▁자연을	-17910
▁자연적	-17911
▁자연화	-17912
▁자유에	-17913
▁자재한	-17914
▁자재할	-17915
▁자주의	-17916
▁자지를	-17917
▁자체에	-17918
▁자타가	-17919
▁작성할	-17920
▁작용의	-17921
▁작용적	-17922
▁잠시도	-17923
▁잡아도	-17924
▁장내를	-17925
▁장려한	-17926
▁장례니	-17927
▁장소가	-17928
▁장소나	-17929
▁장애가	-17930
▁장엄이	-17931
▁장자가	-17932
▁장학회	-17933
▁장해가	-17934
▁재단이	-17935
▁재미가	-17936
▁저녁에	-17937
▁저렇게	-17938
▁저력을	-17939
▁저축이	-17940
▁적공이	-17941
▁적다고	-17942
▁적멸도	-17943
▁적멸을	-17944
▁적멸의	-17945
▁적으나	-17946
▁전도에	-17947
▁전도와	-17948
▁전라도	-17949
▁전송할	-17950
▁전일한	-17951
▁전정을	-17952
▁전진이	-17953
▁전하기	-17954
▁전하지	-17955
▁절약과	-17956
▁절약만	-17957
▁절약을	-17958
▁점에서	-17959
▁접하고	-17960
▁정경을	-17961
▁정도의	-17962
▁정법은	-17963
▁정부나	-17964
▁정부의	-17965
▁정성의	-17966
▁정세가	-17967
▁정심재	-17968
▁정이며	-17969
▁정이요	-17970
▁정전에	-17971
▁정전을	-17972
▁정조를	-17973
▁정중히	-17974
▁정진을	-17975
▁정해진	-17976
▁정화사	-17977
▁제도나	-17978
▁제도는	-17979
▁제사를	-17980
▁제성을	-17981
▁제약사	-17982
▁제일대	-17983
▁제자와	-17984
▁제정한	-17985
▁제초를	-17986
▁조건을	-17987
▁조목과	-17988
▁조사는	-17989
▁조사며	-17990
▁조상이	-17991
▁조서를	-17992
▁조선에	-17993
▁조선이	-17994
▁조성한	-17995
▁조성할	-17996
▁조신의	-17997
▁조항은	-17998
▁조화는	-17999
▁존모를	-18000
▁존장을	-18001
▁종교계	-18002
▁종교라	-18003
▁종교윤	-18004
▁종기가	-18005
▁종류도	-18006
▁종자의	-18007
▁종족의	-18008
▁종종의	-18009
▁종지로	-18010
▁종파가	-18011
▁종파의	-18012
▁좋아만	-18013
▁좋으니	-18014
▁좋으며	-18015
▁좋을까	-18016
▁좌석은	-18017
▁좌선은	-18018
▁죄고를	-18019
▁죄고의	-18020
▁죄벌이	-18021
▁죄복에	-18022
▁주객을	-18023
▁주객이	-18024
▁주거나	-18025
▁주교가	-18026
▁주기도	-18027
▁주례의	-18028
▁주봉을	-18029
▁주셨고	-18030
▁주어도	-18031
▁주어진	-18032
▁주인될	-18033
▁주장은	-18034
▁주장할	-18035
▁주지요	-18036
▁주택을	-18037
▁죽어서	-18038
▁죽었고	-18039
▁준공한	-18040
▁준다는	-18041
▁준비로	-18042
▁준비해	-18043
▁중생상	-18044
▁중앙봉	-18045
▁중앙을	-18046
▁중앙이	-18047
▁중이던	-18048
▁중죄를	-18049
▁중천에	-18050
▁중추의	-18051
▁중타원	-18052
▁중하게	-18053
▁중하매	-18054
▁즐겁게	-18055
▁증거가	-18056
▁증거는	-18057
▁증산교	-18058
▁증세는	-18059
▁지견에	-18060
▁지견이	-18061
▁지경을	-18062
▁지나간	-18063
▁지나면	-18064
▁지내며	-18065
▁지내서	-18066
▁지내야	-18067
▁지니고	-18068
▁지리산	-18069
▁지시에	-18070
▁지어도	-18071
▁지어야	-18072
▁지역을	-18073
▁지옥을	-18074
▁지옵고	-18075
▁지위나	-18076
▁지참할	-18077
▁지침이	-18078
▁지켜야	-18079
▁직업도	-18080
▁직업은	-18081
▁진강급	-18082
▁진리도	-18083
▁진면을	-18084
▁진보가	-18085
▁진성을	-18086
▁진실과	-18087
▁진실은	-18088
▁진정을	-18089
▁진퇴의	-18090
▁짐승을	-18091
▁짓기는	-18092
▁짓기에	-18093
▁짓도록	-18094
▁쪽으로	-18095
▁차례에	-18096
▁차리는	-18097
▁차서를	-18098
▁착수한	-18099
▁참회게	-18100
▁창립한	-18101
▁창조적	-18102
▁찾으며	-18103
▁찾으셨	-18104
▁찾으시	-18105
▁채찍질	-18106
▁책임질	-18107
▁챙겨야	-18108
▁처리한	-18109
▁처지는	-18110
▁처하면	-18111
▁천도가	-18112
▁천도교	-18113
▁천리를	-18114
▁천명을	-18115
▁천심을	-18116
▁천의를	-18117
▁천추에	-18118
▁철주의	-18119
▁청소를	-18120
▁청정주	-18121
▁청컨대	-18122
▁체제는	-18123
▁초월의	-18124
▁초하루	-18125
▁총독부	-18126
▁총서편	-18127
▁총회에	-18128
▁최령의	-18129
▁최령한	-18130
▁최상의	-18131
▁추구해	-18132
▁추대사	-18133
▁추모의	-18134
▁추위를	-18135
▁추진해	-18136
▁축사에	-18137
▁축원을	-18138
▁출생후	-18139
▁충의의	-18140
▁취임사	-18141
▁취지를	-18142
▁취함이	-18143
▁치교의	-18144
▁치료는	-18145
▁치료법	-18146
▁치료의	-18147
▁치료해	-18148
▁치심의	-18149
▁칠보를	-18150
▁칠보화	-18151
▁칭찬을	-18152
▁커져서	-18153
▁크도다	-18154
▁크리라	-18155
▁크옵신	-18156
▁큰마음	-18157
▁타력은	-18158
▁타력의	-18159
▁타력이	-18160
▁탄압과	-18161
▁탄탄한	-18162
▁탈복의	-18163
▁탐하는	-18164
▁태도에	-18165
▁태산이	-18166
▁태아의	-18167
▁태연히	-18168
▁태우고	-18169
▁택하여	-18170
▁토대가	-18171
▁통교의	-18172
▁통례에	-18173
▁통하지	-18174
▁통해서	-18175
▁트집이	-18176
▁파당을	-18177
▁팔조로	-18178
▁팔조목	-18179
▁편수의	-18180
▁편제로	-18181
▁편찬된	-18182
▁편하지	-18183
▁평등과	-18184
▁평안히	-18185
▁폐물이	-18186
▁표어로	-18187
▁표정을	-18188
▁표준할	-18189
▁표하는	-18190
▁표현한	-18191
▁풍부한	-18192
▁풍속이	-18193
▁필요에	-18194
▁하기도	-18195
▁하기에	-18196
▁하나만	-18197
▁하나요	-18198
▁하더라	-18199
▁하든지	-18200
▁하듯이	-18201
▁하에서	-18202
▁하이고	-18203
▁하자고	-18204
▁하자면	-18205
▁하지는	-18206
▁학문과	-18207
▁학문의	-18208
▁한국의	-18209
▁한없이	-18210
▁합일한	-18211
▁항마를	-18212
▁해당한	-18213
▁해독은	-18214
▁해마다	-18215
▁해방을	-18216
▁해서도	-18217
▁해석이	-18218
▁해석해	-18219
▁해탈과	-18220
▁행동과	-18221
▁행복이	-18222
▁행사는	-18223
▁행적과	-18224
▁행적은	-18225
▁행정의	-18226
▁행한즉	-18227
▁향락에	-18228
▁향례를	-18229
▁향상될	-18230
▁향상에	-18231
▁향하는	-18232
▁허공과	-18233
▁허공은	-18234
▁허령이	-18235
▁허망히	-18236
▁허무와	-18237
▁허위와	-18238
▁험난한	-18239
▁헤매던	-18240
▁현상에	-18241
▁현실에	-18242
▁현재와	-18243
▁혈연과	-18244
▁혈인이	-18245
▁협력할	-18246
▁형상이	-18247
▁형식만	-18248
▁형식의	-18249
▁형식이	-18250
▁형제는	-18251
▁형제와	-18252
▁형제의	-18253
▁형체를	-18254
▁형편이	-18255
▁혜두를	-18256
▁혜명을	-18257
▁혜안이	-18258
▁혜택을	-18259
▁혜택이	-18260
▁혼란한	-18261
▁혼인을	-18262
▁혼자만	-18263
▁혼자서	-18264
▁혼침에	-18265
▁화기가	-18266
▁화두와	-18267
▁화신을	-18268
▁화장이	-18269
▁화하며	-18270
▁화합은	-18271
▁화합을	-18272
▁확인함	-18273
▁확장을	-18274
▁활동은	-18275
▁활동의	-18276
▁활불이	-18277
▁활용해	-18278
▁회규를	-18279
▁회무총	-18280
▁회복을	-18281
▁후진의	-18282
▁훈련법	-18283
▁휴양의	-18284
▁흉년을	-18285
▁흐르게	-18286
▁흔연히	-18287
▁흥망이	-18288
▁희로애	-18289
▁희망이	-18290
▁희사가	-18291
▁희사한	-18292
一念而生	-18293
三世諸佛	-18294
上族姓報	-18295
下族姓報	-18296
世界七寶	-18297
世界主義	-18298
世間天人	-18299
五福德經	-18300
令聞法者	-18301
佛兩足尊	-18302
僧衆中尊	-18303
全羅北道	-18304
具足色身	-18305
原始反本	-18306
去來覺道	-18307
受天地之	-18308
報差別經	-18309
大休大歇	-18310
大圓正覺	-18311
宣揚無窮	-18312
對治之功	-18313
應用無念	-18314
成佛濟衆	-18315
智愚差別	-18316
智者本位	-18317
月末通信	-18318
朴四時華	-18319
水昇火降	-18320
無爲而化	-18321
無色天報	-18322
無諍三昧	-18323
理事竝行	-18324
百億化身	-18325
第一希有	-18326
聰明大智	-18327
自利利他	-18328
至公無私	-18329
舍衛國祗	-18330
萬世滅度	-18331
說法聽法	-18332
那伽大定	-18333
阿蘭那行	-18334
降服其心	-18335
陰陽相勝	-18336
靈山會上	-18337
頓悟漸修	-18338
頓門箇者	-18339
龍象大定	-18340
거진출진	-18341
그러하고	-18342
대종사를	-18343
대종사와	-18344
대학원과	-18345
대학으로	-18346
동정간에	-18347
동하여도	-18348
력으로도	-18349
로소이다	-18350
리시었다	-18351
명이었다	-18352
법의대전	-18353
보차별경	-18354
부처님은	-18355
비설신의	-18356
상조조합	-18357
선생님의	-18358
성향미촉	-18359
셨으므로	-18360
수도하는	-18361
시킴이요	-18362
십이장경	-18363
어지옵고	-18364
어찌하면	-18365
었나이까	-18366
에게라도	-18367
으셨으나	-18368
으시니라	-18369
으시더니	-18370
으오리까	-18371
이니이꼬	-18372
이라하니	-18373
이라하면	-18374
이라하야	-18375
이시라면	-18376
인듯하야	-18377
일원상과	-18378
일원상의	-18379
자에게는	-18380
저녁으로	-18381
저축조합	-18382
조선불교	-18383
지도자의	-18384
출가위는	-18385
하거니와	-18386
하겠다는	-18387
하기로만	-18388
하기로써	-18389
하사오니	-18390
하셨다가	-18391
하셨으며	-18392
하심이여	-18393
하였거든	-18394
하였다면	-18395
하옵는데	-18396
하옵시고	-18397
항복기심	-18398
해지나니	-18399
회에서는	-18400
1925)	-18401
▁(188	-18402
▁1919	-18403
▁1935	-18404
▁1940	-18405
▁1945	-18406
▁1951	-18407
▁1953	-18408
▁ᄋᄋ지방	-18409
▁不應住色	-18410
▁不生不滅	-18411
▁不生輕賤	-18412
▁以用布施	-18413
▁任運雙修	-18414
▁依悟而修	-18415
▁切須在意	-18416
▁墮於地獄	-18417
▁如來說非	-18418
▁如我解佛	-18419
▁寧爲多不	-18420
▁專務出身	-18421
▁居塵出塵	-18422
▁已於無量	-18423
▁得聞是經	-18424
▁恩法結義	-18425
▁所得功德	-18426
▁持用布施	-18427
▁於此經中	-18428
▁日久月深	-18429
▁是諸衆生	-18430
▁法輪常轉	-18431
▁無壽者相	-18432
▁無衆生相	-18433
▁發菩提心	-18434
▁與佛無殊	-18435
▁言語道斷	-18436
▁起破戒業	-18437
▁起諸惡業	-18438
▁造地獄業	-18439
▁가꾸어야	-18440
▁가나이다	-18441
▁가더라도	-18442
▁가르치기	-18443
▁가면서도	-18444
▁가뭄이라	-18445
▁가셨다가	-18446
▁가운데는	-18447
▁가운데를	-18448
▁가졌으나	-18449
▁가졌으며	-18450
▁가지라는	-18451
▁가지라도	-18452
▁각득하여	-18453
▁간단하게	-18454
▁간석지를	-18455
▁갈망하는	-18456
▁감동시킬	-18457
▁감동하여	-18458
▁감정으로	-18459
▁갔으므로	-18460
▁강급으로	-18461
▁강연회를	-18462
▁강일순의	-18463
▁갖추려면	-18464
▁같아서는	-18465
▁개과하여	-18466
▁개설하고	-18467
▁개척하는	-18468
▁개최하는	-18469
▁개최하여	-18470
▁개칭하고	-18471
▁거래하는	-18472
▁거름하는	-18473
▁거짓으로	-18474
▁거행하고	-18475
▁거행하여	-18476
▁걱정이요	-18477
▁건설이니	-18478
▁건설하기	-18479
▁건설하실	-18480
▁건설하자	-18481
▁건설하지	-18482
▁걸었다가	-18483
▁것인가를	-18484
▁게으름을	-18485
▁격려하고	-18486
▁견지에서	-18487
▁결산하고	-18488
▁결정보를	-18489
▁결제식에	-18490
▁경계에도	-18491
▁경계해야	-18492
▁경우에도	-18493
▁경전이요	-18494
▁계발하고	-18495
▁계속하게	-18496
▁계속하다	-18497
▁계시오며	-18498
▁계십니까	-18499
▁계획으로	-18500
▁고락으로	-18501
▁고생하는	-18502
▁고집하는	-18503
▁고치기에	-18504
▁곳곳마다	-18505
▁곳에서는	-18506
▁공덕이라	-18507
▁공덕이여	-18508
▁공동체를	-18509
▁공부법이	-18510
▁공부해야	-18511
▁공사에만	-18512
▁공식으로	-18513
▁공양하고	-18514
▁공익심이	-18515
▁공정하고	-18516
▁공중에게	-18517
▁공헌함은	-18518
▁공회당을	-18519
▁과목으로	-18520
▁과수원을	-18521
▁관리하는	-18522
▁관조하고	-18523
▁괴로움과	-18524
▁괴로움이	-18525
▁교단이나	-18526
▁교만하고	-18527
▁교역자가	-18528
▁교화하여	-18529
▁교환하며	-18530
▁구경처에	-18531
▁구렁으로	-18532
▁구분하는	-18533
▁구슬같이	-18534
▁구애되어	-18535
▁구제하는	-18536
▁구족하다	-18537
▁구하여도	-18538
▁궁금증이	-18539
▁권면하고	-18540
▁권장하고	-18541
▁권장하는	-18542
▁귀의하는	-18543
▁그것이나	-18544
▁그러하다	-18545
▁그르치기	-18546
▁그르치는	-18547
▁그르침이	-18548
▁근본이니	-18549
▁근본이라	-18550
▁근원이요	-18551
▁금강경을	-18552
▁금강산은	-18553
▁금강산이	-18554
▁금전이나	-18555
▁기관에서	-18556
▁기념대회	-18557
▁기념식에	-18558
▁기대하기	-18559
▁기도에는	-18560
▁기도하여	-18561
▁기록하여	-18562
▁기뻐하여	-18563
▁기쁨으로	-18564
▁기연이다	-18565
▁기원문을	-18566
▁기원하며	-18567
▁기재하는	-18568
▁기재하되	-18569
▁까닭이며	-18570
▁까지라도	-18571
▁깨달으신	-18572
▁깨달음과	-18573
▁깨달음에	-18574
▁끊어지면	-18575
[...]
