{"<unk>":0,"\n":1,"\r":2,"!":3,"\"":4,"#":5,"%":6,"'":7,"(":8,")":9,"+":10,",":11,"-":12,".":13,"/":14,"0":15,"1":16,"2":17,"3":18,"4":19,"5":20,"6":21,"7":22,"8":23,"9":24,":":25,"<":26,"=":27,">":28,"?":29,"A":30,"B":31,"C":32,"D":33,"E":34,"G":35,"H":36,"L":37,"M":38,"N":39,"O":40,"P":41,"R":42,"S":43,"T":44,"U":45,"V":46,"W":47,"[":48,"]":49,"_":50,"a":51,"b":52,"c":53,"d":54,"e":55,"f":56,"g":57,"h":58,"i":59,"k":60,"l":61,"m":62,"n":63,"o":64,"p":65,"r":66,"s":67,"t":68,"u":69,"v":70,"w":71,"x":72,"y":73,"z":74,"{":75,"}":76,"~":77,"·":78,"ᄋ":79,"‘":80,"’":81,"“":82,"”":83,"•":84,"∼":85,"▁":86,"○":87,"《":88,"》":89,"「":90,"」":91,"『":92,"』":93,"一":94,"丁":95,"七":96,"丈":97,"三":98,"上":99,"下":100,"不":101,"丑":102,"且":103,"世":104,"丘":105,"丙":106,"並":107,"中":108,"丹":109,"主":110,"乃":111,"久":112,"之":113,"乎":114,"乘":115,"乙":116,"九":117,"乞":118,"也":119,"乾":120,"亂":121,"了":122,"事":123,"二":124,"于":125,"云":126,"互":127,"五":128,"井":129,"亘":130,"亡":131,"亢":132,"交":133,"亥":134,"亦":135,"亨":136,"享":137,"京":138,"人":139,"什":140,"仁":141,"今":142,"介":143,"他":144,"付":145,"仙":146,"代":147,"令":148,"以":149,"仰":150,"仲":151,"件":152,"任":153,"伊":154,"伏":155,"休":156,"伯":157,"似":158,"伽":159,"但":160,"位":161,"住":162,"佐":163,"何":164,"余":165,"佛":166,"作":167,"佩":168,"佳":169,"使":170,"來":171,"例":172,"侍":173,"供":174,"依":175,"侵":176,"便":177,"係":178,"俊":179,"俗":180,"保":181,"信":182,"修":183,"俱":184,"倂":185,"個":186,"倍":187,"倒":188,"候":189,"倚":190,"借":191,"値":192,"倫":193,"假":194,"偈":195,"偏":196,"停":197,"健":198,"偶":199,"偸":200,"傅":201,"備":202,"傳":203,"傾":204,"像":205,"僑":206,"僞":207,"僧":208,"價":209,"儀":210,"億":211,"儉":212,"儒":213,"償":214,"優":215,"兀":216,"允":217,"元":218,"兄":219,"充":220,"兆":221,"先":222,"光":223,"克":224,"兌":225,"免":226,"兎":227,"兒":228,"兜":229,"兢":230,"入":231,"內":232,"全":233,"兩":234,"八":235,"公":236,"六":237,"兮":238,"共":239,"兵":240,"其":241,"具":242,"典":243,"兼":244,"再":245,"冠":246,"冤":247,"冥":248,"冬":249,"冶":250,"冷":251,"准":252,"凝":253,"凡":254,"凶":255,"出":256,"刀":257,"刃":258,"分":259,"切":260,"刊":261,"列":262,"初":263,"判":264,"別":265,"利":266,"到":267,"制":268,"刷":269,"券":270,"刺":271,"刻":272,"則":273,"前":274,"剛":275,"副":276,"割":277,"創":278,"劉":279,"力":280,"功":281,"加":282,"劣":283,"助":284,"劫":285,"勅":286,"勇":287,"勒":288,"動":289,"務":290,"勝":291,"勞":292,"募":293,"勢":294,"勤":295,"勳":296,"勵":297,"勸":298,"勿":299,"包":300,"化":301,"北":302,"匙":303,"匠":304,"十":305,"千":306,"卅":307,"午":308,"半":309,"卑":310,"卒":311,"協":312,"南":313,"博":314,"卦":315,"卯":316,"印":317,"危":318,"却":319,"卵":320,"卷":321,"卽":322,"厄":323,"厚":324,"原":325,"厥":326,"厭":327,"去":328,"參":329,"又":330,"叉":331,"及":332,"友":333,"反":334,"取":335,"受":336,"叙":337,"叢":338,"口":339,"古":340,"句":341,"只":342,"可":343,"史":344,"右":345,"各":346,"合":347,"吉":348,"同":349,"名":350,"吐":351,"向":352,"君":353,"否":354,"含":355,"吳":356,"吸":357,"吼":358,"吾":359,"呂":360,"呈":361,"告":362,"呑":363,"周":364,"呪":365,"味":366,"呵":367,"呼":368,"命":369,"咆":370,"和":371,"咎":372,"咫":373,"咳":374,"哀":375,"品":376,"哉":377,"員":378,"哭":379,"哮":380,"哲":381,"唐":382,"唯":383,"唱":384,"唾":385,"商":386,"問":387,"啓":388,"啞":389,"啻":390,"啼":391,"喃":392,"善":393,"喆":394,"喚":395,"喜":396,"喩":397,"喪":398,"喫":399,"喬":400,"單":401,"嗔":402,"嗚":403,"嗟":404,"嗽":405,"嘆":406,"嘉":407,"嘗":408,"嘯":409,"器":410,"噪":411,"嚴":412,"囊":413,"囑":414,"四":415,"回":416,"因":417,"固":418,"圃":419,"國":420,"圍":421,"園":422,"圓":423,"圖":424,"團":425,"土":426,"在":427,"圭":428,"地":429,"均":430,"坋":431,"坎":432,"坐":433,"坤":434,"坦":435,"坪":436,"型":437,"垢":438,"埃":439,"城":440,"埵":441,"執":442,"基":443,"堂":444,"堅":445,"堤":446,"堪":447,"堰":448,"報":449,"場":450,"塊":451,"塔":452,"塗":453,"塞":454,"塵":455,"境":456,"墓":457,"墜":458,"增":459,"墨":460,"墮":461,"墳":462,"墻":463,"壁":464,"壇":465,"壑":466,"壓":467,"壞":468,"士":469,"壬":470,"壯":471,"壽":472,"夏":473,"夕":474,"外":475,"夙":476,"多":477,"夜":478,"夢":479,"大":480,"天":481,"太":482,"夫":483,"夭":484,"央":485,"失":486,"夷":487,"奇":488,"奈":489,"奉":490,"奎":491,"奏":492,"契":493,"奔":494,"奚":495,"奢":496,"奪":497,"奮":498,"女":499,"奸":500,"好":501,"如":502,"妄":503,"妖":504,"妙":505,"妨":506,"妬":507,"妹":508,"妻":509,"姉":510,"始":511,"姑":512,"姓":513,"委":514,"姙":515,"姜":516,"姦":517,"姻":518,"威":519,"娑":520,"婁":521,"婆":522,"婚":523,"婦":524,"媱":525,"嫁":526,"嫉":527,"嫌":528,"嫡":529,"嬴":530,"子":531,"孔":532,"字":533,"存":534,"孝":535,"季":536,"孤":537,"孩":538,"孫":539,"學":540,"宅":541,"宇":542,"守":543,"安":544,"宋":545,"完":546,"宗":547,"官":548,"宙":549,"定":550,"宛":551,"宜":552,"客":553,"宣":554,"室":555,"宮":556,"宰":557,"害":558,"家":559,"容":560,"宿":561,"寂":562,"寃":563,"寅":564,"密":565,"富":566,"寐":567,"寒":568,"察":569,"寢":570,"寥":571,"實":572,"寧":573,"審":574,"寫":575,"寬":576,"寶":577,"寺":578,"射":579,"將":580,"專":581,"尊":582,"尋":583,"對":584,"導":585,"小":586,"少":587,"尖":588,"尙":589,"尤":590,"就":591,"尸":592,"尹":593,"尺":594,"尼":595,"尾":596,"尿":597,"局":598,"居":599,"屆":600,"屈":601,"屍":602,"屎":603,"展":604,"屙":605,"屠":606,"履":607,"屬":608,"山":609,"岫":610,"岳":611,"岸":612,"峨":613,"峰":614,"島":615,"峻":616,"崇":617,"崑":618,"崔":619,"崖":620,"崙":621,"崩":622,"嵯":623,"嶂":624,"嶺":625,"嶽":626,"巍":627,"巒":628,"巖":629,"川":630,"州":631,"工":632,"左":633,"巧":634,"巨":635,"差":636,"己":637,"已":638,"巳":639,"巽":640,"巾":641,"市":642,"布":643,"帆":644,"希":645,"帖":646,"帛":647,"帝":648,"帥":649,"師":650,"席":651,"帶":652,"常":653,"幀":654,"幕":655,"干":656,"平":657,"年":658,"幸":659,"幹":660,"幻":661,"幼":662,"幽":663,"幾":664,"床":665,"序":666,"底":667,"庚":668,"府":669,"度":670,"座":671,"庫":672,"庭":673,"庵":674,"庶":675,"康":676,"庸":677,"廉":678,"廟":679,"廣":680,"廳":681,"延":682,"建":683,"廻":684,"弊":685,"式":686,"弓":687,"弔":688,"引":689,"弘":690,"弟":691,"弱":692,"張":693,"强":694,"彈":695,"彌":696,"形":697,"彩":698,"彫":699,"彬":700,"影":701,"役":702,"彼":703,"往":704,"待":705,"律":706,"後":707,"徐":708,"徑":709,"徒":710,"得":711,"從":712,"徧":713,"復":714,"循":715,"微":716,"德":717,"徹":718,"心":719,"必":720,"忉":721,"忌":722,"忍":723,"志":724,"忘":725,"忠":726,"快":727,"念":728,"忽":729,"忿":730,"怒":731,"怕":732,"怖":733,"思":734,"怠":735,"急":736,"性":737,"怨":738,"怪":739,"怯":740,"恐":741,"恒":742,"恚":743,"恢":744,"恣":745,"恥":746,"恨":747,"恩":748,"恬":749,"恭":750,"息":751,"恰":752,"悅":753,"悉":754,"悌":755,"悔":756,"悖":757,"悟":758,"患":759,"悲":760,"情":761,"惑":762,"惜":763,"惟":764,"惠":765,"惡":766,"惱":767,"想":768,"惶":769,"惺":770,"愈":771,"愍":772,"意":773,"愚":774,"愛":775,"感":776,"愧":777,"愼":778,"慈":779,"態":780,"慕":781,"慙":782,"慢":783,"慧":784,"慮":785,"慰":786,"慳":787,"慶":788,"慾":789,"憂":790,"憎":791,"憐":792,"憑":793,"憲":794,"懈":795,"應":796,"懶":797,"懷":798,"懸":799,"懺":800,"懼":801,"戊":802,"戌":803,"成":804,"我":805,"戒":806,"或":807,"截":808,"戰":809,"戲":810,"戴":811,"戶":812,"房":813,"所":814,"手":815,"才":816,"打":817,"托":818,"扶":819,"承":820,"技":821,"把":822,"投":823,"抱":824,"抵":825,"拈":826,"拍":827,"拓":828,"拔":829,"拘":830,"拙":831,"招":832,"拜":833,"括":834,"持":835,"指":836,"振":837,"挽":838,"捉":839,"捐":840,"捕":841,"捨":842,"捲":843,"捺":844,"掃":845,"授":846,"掉":847,"掌":848,"掛":849,"採":850,"接":851,"推":852,"提":853,"揚":854,"換":855,"揭":856,"揮":857,"援":858,"揷":859,"損":860,"搖":861,"搬":862,"摩":863,"撓":864,"撤":865,"撥":866,"撫":867,"撼":868,"擇":869,"操":870,"擔":871,"據":872,"擧":873,"攀":874,"攝":875,"攪":876,"支":877,"收":878,"攸":879,"改":880,"放":881,"政":882,"故":883,"敎":884,"救":885,"敗":886,"敞":887,"敢":888,"散":889,"敬":890,"敲":891,"整":892,"敵":893,"敷":894,"數":895,"文":896,"斗":897,"斛":898,"斧":899,"斯":900,"新":901,"斷":902,"方":903,"於":904,"施":905,"旋":906,"族":907,"旗":908,"旣":909,"日":910,"旨":911,"早":912,"旬":913,"旴":914,"旺":915,"昇":916,"昊":917,"昌":918,"明":919,"昏":920,"易":921,"昔":922,"星":923,"春":924,"昧":925,"昭":926,"是":927,"昴":928,"時":929,"晋":930,"晝":931,"晦":932,"晨":933,"晩":934,"普":935,"景":936,"智":937,"暗":938,"暢":939,"暫":940,"暮":941,"暴":942,"暿":943,"曆":944,"曉":945,"曠":946,"曰":947,"曲":948,"更":949,"曷":950,"書":951,"曹":952,"曺":953,"曾":954,"最":955,"會":956,"月":957,"有":958,"朋":959,"服":960,"朔":961,"朗":962,"望":963,"朝":964,"期":965,"木":966,"未":967,"末":968,"本":969,"朱":970,"朴":971,"李":972,"材":973,"村":974,"杖":975,"杜":976,"東":977,"杲":978,"杳":979,"杷":980,"松":981,"板":982,"枕":983,"林":984,"枚":985,"果":986,"某":987,"染":988,"柔":989,"柱":990,"柳":991,"柴":992,"査":993,"栗":994,"校":995,"株":996,"根":997,"格":998,"桀":999,"桃":1000,"案":1001,"桐":1002,"梁":1003,"條":1004,"梧":1005,"梭":1006,"梯":1007,"梵":1008,"棄":1009,"棘":1010,"棟":1011,"棲":1012,"棹":1013,"棺":1014,"植":1015,"楊":1016,"楚":1017,"楣":1018,"業":1019,"極":1020,"榮":1021,"槃":1022,"槨":1023,"樂":1024,"樓":1025,"標":1026,"樞":1027,"模":1028,"樹":1029,"機":1030,"橫":1031,"欄":1032,"權":1033,"次":1034,"欲":1035,"欺":1036,"歇":1037,"歌":1038,"歎":1039,"歐":1040,"歟":1041,"歡":1042,"止":1043,"正":1044,"此":1045,"步":1046,"武":1047,"歲":1048,"歷":1049,"歸":1050,"死":1051,"殃":1052,"殉":1053,"殊":1054,"殘":1055,"段":1056,"殷":1057,"殺":1058,"殼":1059,"殿":1060,"毁":1061,"毅":1062,"母":1063,"每":1064,"毒":1065,"比":1066,"毘":1067,"毛":1068,"毫":1069,"氏":1070,"氐":1071,"民":1072,"氣":1073,"水":1074,"氷":1075,"永":1076,"汁":1077,"求":1078,"汚":1079,"汝":1080,"江":1081,"池":1082,"汪":1083,"決":1084,"沈":1085,"沓":1086,"沙":1087,"河":1088,"沸":1089,"治":1090,"況":1091,"泉":1092,"法":1093,"泡":1094,"波":1095,"泣":1096,"泥":1097,"注":1098,"泯":1099,"泰":1100,"洄":1101,"洋":1102,"洗":1103,"洙":1104,"洛":1105,"洞":1106,"津":1107,"洪":1108,"洹":1109,"活":1110,"洽":1111,"流":1112,"浦":1113,"浩":1114,"浪":1115,"浮":1116,"浴":1117,"海":1118,"涅":1119,"消":1120,"涕":1121,"液":1122,"涵":1123,"淑":1124,"淚":1125,"淡":1126,"淤":1127,"淨":1128,"淪":1129,"淫":1130,"深":1131,"淳":1132,"淵":1133,"淸":1134,"淹":1135,"淺":1136,"減":1137,"渡":1138,"測":1139,"渭":1140,"渴":1141,"湖":1142,"湧":1143,"湯":1144,"源":1145,"準":1146,"溥":1147,"溪":1148,"滄":1149,"滅":1150,"滌":1151,"滛":1152,"滿":1153,"漏":1154,"漑":1155,"演":1156,"漢":1157,"漸":1158,"潁":1159,"潛":1160,"潟":1161,"潤":1162,"潦":1163,"潰":1164,"澁":1165,"澈":1166,"澤":1167,"濁":1168,"濃":1169,"濕":1170,"濛":1171,"濟":1172,"濫":1173,"瀾":1174,"灑":1175,"火":1176,"災":1177,"炎":1178,"炬":1179,"炭":1180,"炯":1181,"炳":1182,"炷":1183,"烈":1184,"烝":1185,"烟":1186,"焉":1187,"焚":1188,"無":1189,"然":1190,"煙":1191,"煜":1192,"煥":1193,"照":1194,"煩":1195,"熏":1196,"熙":1197,"熟":1198,"熱":1199,"熾":1200,"燃":1201,"燈":1202,"燒":1203,"營":1204,"燭":1205,"燮":1206,"爛":1207,"爭":1208,"爲":1209,"爵":1210,"父":1211,"爾":1212,"片":1213,"版":1214,"牌":1215,"牛":1216,"牟":1217,"牢":1218,"牧":1219,"物":1220,"特":1221,"牽":1222,"犇":1223,"犯":1224,"狀":1225,"狂":1226,"狐":1227,"猛":1228,"猜":1229,"猶":1230,"獄":1231,"獅":1232,"獐":1233,"獨":1234,"獰":1235,"獲":1236,"獻":1237,"玄":1238,"率":1239,"玉":1240,"王":1241,"珍":1242,"珠":1243,"班":1244,"現":1245,"理":1246,"琴":1247,"瑕":1248,"瑞":1249,"環":1250,"瓦":1251,"甑":1252,"甘":1253,"甚":1254,"甛":1255,"生":1256,"産":1257,"用":1258,"田":1259,"由":1260,"甲":1261,"申":1262,"男":1263,"町":1264,"界":1265,"畏":1266,"畔":1267,"留":1268,"畜":1269,"畝":1270,"畢":1271,"略":1272,"異":1273,"當":1274,"疆":1275,"疎":1276,"疑":1277,"疲":1278,"疾":1279,"病":1280,"症":1281,"痕":1282,"痛":1283,"痴":1284,"癡":1285,"癪":1286,"癸":1287,"登":1288,"發":1289,"白":1290,"百":1291,"的":1292,"皆":1293,"皇":1294,"皎":1295,"皓":1296,"皮":1297,"盂":1298,"益":1299,"盒":1300,"盖":1301,"盛":1302,"盜":1303,"盡":1304,"監":1305,"盤":1306,"盧":1307,"目":1308,"盲":1309,"直":1310,"相":1311,"省":1312,"看":1313,"眞":1314,"眷":1315,"眼":1316,"着":1317,"睡":1318,"瞋":1319,"瞻":1320,"矜":1321,"矢":1322,"矣":1323,"知":1324,"短":1325,"石":1326,"破":1327,"硏":1328,"碍":1329,"碎":1330,"碑":1331,"碧":1332,"碩":1333,"確":1334,"磊":1335,"磨":1336,"礎":1337,"礙":1338,"礫":1339,"示":1340,"社":1341,"祀":1342,"祇":1343,"祈":1344,"祖":1345,"祗":1346,"祚":1347,"祝":1348,"神":1349,"祠":1350,"祥":1351,"票":1352,"祭":1353,"祿":1354,"禁":1355,"禍":1356,"福":1357,"禪":1358,"禮":1359,"禱":1360,"禹":1361,"离":1362,"秀":1363,"私":1364,"秉":1365,"秋":1366,"科":1367,"秘":1368,"租":1369,"移":1370,"程":1371,"稟":1372,"稠":1373,"種":1374,"稱":1375,"稼":1376,"稽":1377,"穀":1378,"積":1379,"穡":1380,"穢":1381,"穩":1382,"穴":1383,"究":1384,"空":1385,"穿":1386,"窮":1387,"窺":1388,"竊":1389,"立":1390,"竝":1391,"竟":1392,"章":1393,"童":1394,"竪":1395,"竭":1396,"端":1397,"競":1398,"竹":1399,"竿":1400,"笑":1401,"符":1402,"第":1403,"筆":1404,"等":1405,"筍":1406,"筏":1407,"答":1408,"策":1409,"箇":1410,"箕":1411,"算":1412,"節":1413,"範":1414,"篇":1415,"篤":1416,"簡":1417,"簿":1418,"籠":1419,"米":1420,"粒":1421,"精":1422,"糊":1423,"系":1424,"紀":1425,"紂":1426,"約":1427,"紅":1428,"紈":1429,"納":1430,"純":1431,"紙":1432,"級":1433,"素":1434,"紮":1435,"累":1436,"細":1437,"紹":1438,"終":1439,"絃":1440,"組":1441,"結":1442,"絡":1443,"給":1444,"統":1445,"絲":1446,"絶":1447,"經":1448,"綠":1449,"維":1450,"綱":1451,"網":1452,"綸":1453,"綺":1454,"綿":1455,"緊":1456,"線":1457,"緣":1458,"編":1459,"緩":1460,"練":1461,"縛":1462,"縟":1463,"縮":1464,"縱":1465,"總":1466,"繁":1467,"織":1468,"繞":1469,"繩":1470,"繫":1471,"繼":1472,"續":1473,"纖":1474,"缺":1475,"罔":1476,"罣":1477,"罪":1478,"置":1479,"罵":1480,"罷":1481,"羅":1482,"美":1483,"群":1484,"義":1485,"翁":1486,"習":1487,"翰":1488,"翳":1489,"翼":1490,"耀":1491,"老":1492,"考":1493,"者":1494,"而":1495,"耕":1496,"耨":1497,"耳":1498,"耶":1499,"聊":1500,"聖":1501,"聚":1502,"聞":1503,"聯":1504,"聰":1505,"聲":1506,"職":1507,"聽":1508,"聾":1509,"肇":1510,"肉":1511,"肢":1512,"肩":1513,"肯":1514,"育":1515,"胃":1516,"背":1517,"胎":1518,"胞":1519,"胸":1520,"能":1521,"脈":1522,"脫":1523,"腐":1524,"腰":1525,"腹":1526,"膏":1527,"膚":1528,"膝":1529,"膽":1530,"臂":1531,"臣":1532,"臥":1533,"臨":1534,"自":1535,"臭":1536,"至":1537,"致":1538,"臺":1539,"臾":1540,"與":1541,"興":1542,"舊":1543,"舌":1544,"舍":1545,"舒":1546,"舜":1547,"舟":1548,"般":1549,"船":1550,"艮":1551,"良":1552,"艱":1553,"色":1554,"芒":1555,"芝":1556,"芥":1557,"芰":1558,"花":1559,"芳":1560,"芽":1561,"苑":1562,"苗":1563,"若":1564,"苦":1565,"英":1566,"茶":1567,"茸":1568,"草":1569,"荷":1570,"莊":1571,"莫":1572,"菜":1573,"菩":1574,"華":1575,"菲":1576,"萊":1577,"萬":1578,"落":1579,"葉":1580,"著":1581,"董":1582,"葬":1583,"蒐":1584,"蒼":1585,"蓄":1586,"蓋":1587,"蓬":1588,"蓮":1589,"蔘":1590,"蔭":1591,"蔽":1592,"蕩":1593,"薄":1594,"薦":1595,"薩":1596,"薪":1597,"薰":1598,"藍":1599,"藏":1600,"藐":1601,"藥":1602,"藺":1603,"蘇":1604,"蘊":1605,"蘭":1606,"蘿":1607,"虎":1608,"處":1609,"虛":1610,"虞":1611,"號":1612,"蛙":1613,"蜉":1614,"蜜":1615,"蝗":1616,"蝣":1617,"融":1618,"蟲":1619,"蠻":1620,"血":1621,"衆":1622,"行":1623,"衍":1624,"術":1625,"衛":1626,"衡":1627,"衣":1628,"表":1629,"衰":1630,"衾":1631,"袒":1632,"被":1633,"裏":1634,"裕":1635,"裡":1636,"製":1637,"襚":1638,"西":1639,"要":1640,"覆":1641,"覇":1642,"見":1643,"規":1644,"覓":1645,"視":1646,"覩":1647,"親":1648,"覺":1649,"覽":1650,"觀":1651,"角":1652,"觜":1653,"解":1654,"觸":1655,"言":1656,"計":1657,"訓":1658,"訖":1659,"記":1660,"訟":1661,"訣":1662,"訥":1663,"訪":1664,"設":1665,"許":1666,"訶":1667,"註":1668,"詐":1669,"詔":1670,"詞":1671,"試":1672,"詩":1673,"詰":1674,"話":1675,"該":1676,"詳":1677,"認":1678,"誑":1679,"誓":1680,"誕":1681,"語":1682,"誠":1683,"誡":1684,"誤":1685,"誥":1686,"誦":1687,"誨":1688,"說":1689,"誰":1690,"課":1691,"誼":1692,"調":1693,"談":1694,"請":1695,"諍":1696,"論":1697,"諦":1698,"諫":1699,"諮":1700,"諸":1701,"謀":1702,"謁":1703,"謂":1704,"謗":1705,"謙":1706,"講":1707,"謝":1708,"謹":1709,"謾":1710,"證":1711,"譏":1712,"識":1713,"譜":1714,"警":1715,"譬":1716,"譯":1717,"議":1718,"護":1719,"譽":1720,"讀":1721,"變":1722,"讖":1723,"讚":1724,"谷":1725,"豈":1726,"豊":1727,"象":1728,"豪":1729,"豫":1730,"貌":1731,"貞":1732,"負":1733,"財":1734,"貢":1735,"貧":1736,"貨":1737,"貪":1738,"貫":1739,"責":1740,"貳":1741,"貴":1742,"費":1743,"賀":1744,"賃":1745,"資":1746,"賊":1747,"賓":1748,"賞":1749,"賢":1750,"賣":1751,"賤":1752,"質":1753,"賴":1754,"贈":1755,"贊":1756,"赤":1757,"赦":1758,"赫":1759,"走":1760,"赴":1761,"起":1762,"超":1763,"趙":1764,"趣":1765,"足":1766,"趺":1767,"跋":1768,"距":1769,"跡":1770,"跣":1771,"路":1772,"踏":1773,"踐":1774,"蹟":1775,"蹤":1776,"躁":1777,"躍":1778,"身":1779,"軀":1780,"車":1781,"軌":1782,"軍":1783,"軫":1784,"軸":1785,"載":1786,"輔":1787,"輕":1788,"輝":1789,"輩":1790,"輪":1791,"轉":1792,"轍":1793,"辛":1794,"辜":1795,"辟":1796,"辨":1797,"辭":1798,"辰":1799,"辱":1800,"農":1801,"迅":1802,"迎":1803,"近":1804,"返":1805,"迦":1806,"迷":1807,"迹":1808,"追":1809,"退":1810,"送":1811,"逆":1812,"逈":1813,"透":1814,"逐":1815,"途":1816,"逗":1817,"這":1818,"通":1819,"速":1820,"造":1821,"逢":1822,"連":1823,"逮":1824,"週":1825,"進":1826,"逸":1827,"逼":1828,"逾":1829,"遂":1830,"遇":1831,"遊":1832,"運":1833,"遍":1834,"過":1835,"道":1836,"達":1837,"違":1838,"遙":1839,"遠":1840,"遣":1841,"適":1842,"遮":1843,"遲":1844,"遵":1845,"遷":1846,"選":1847,"遺":1848,"還":1849,"邊":1850,"邑":1851,"那":1852,"邪":1853,"郡":1854,"部":1855,"都":1856,"鄕":1857,"鄭":1858,"酉":1859,"酒":1860,"酸":1861,"醍":1862,"醐":1863,"醜":1864,"醫":1865,"釀":1866,"采":1867,"釋":1868,"里":1869,"重":1870,"野":1871,"量":1872,"釐":1873,"金":1874,"釜":1875,"鉀":1876,"鉉":1877,"鉢":1878,"銀":1879,"銓":1880,"銘":1881,"銳":1882,"錄":1883,"錚":1884,"錢":1885,"錫":1886,"錯":1887,"鍊":1888,"鍛":1889,"鍵":1890,"鍼":1891,"鍾":1892,"鎔":1893,"鎬":1894,"鎭":1895,"鏟":1896,"鏡":1897,"鐵":1898,"鑑":1899,"鑛":1900,"鑿":1901,"長":1902,"門":1903,"開":1904,"閑":1905,"閒":1906,"間":1907,"閔":1908,"閣":1909,"閻":1910,"闇":1911,"闊":1912,"闕":1913,"關":1914,"闢":1915,"阪":1916,"防":1917,"阻":1918,"阿":1919,"陀":1920,"附":1921,"陋":1922,"降":1923,"限":1924,"院":1925,"除":1926,"陰":1927,"陵":1928,"陶":1929,"陸":1930,"陽":1931,"隍":1932,"階":1933,"隔":1934,"隙":1935,"際":1936,"障":1937,"隨":1938,"險":1939,"隱":1940,"雄":1941,"集":1942,"雖":1943,"雙":1944,"雜":1945,"離":1946,"難":1947,"雨":1948,"雪":1949,"雲":1950,"雷":1951,"雹":1952,"電":1953,"霄":1954,"震":1955,"霜":1956,"霧":1957,"露":1958,"霽":1959,"靈":1960,"靑":1961,"靖":1962,"靜":1963,"非":1964,"面":1965,"革":1966,"靷":1967,"鞭":1968,"韓":1969,"韜":1970,"音":1971,"韶":1972,"韻":1973,"響":1974,"頂":1975,"頃":1976,"項":1977,"順":1978,"須":1979,"頌":1980,"頑":1981,"頓":1982,"頗":1983,"領":1984,"頭":1985,"題":1986,"額":1987,"顔":1988,"願":1989,"顚":1990,"類":1991,"顧":1992,"顯":1993,"風":1994,"飄":1995,"飛":1996,"食":1997,"飡":1998,"飢":1999,"飮":2000,"飯":2001,"飴":2002,"飾":2003,"養":2004,"餓":2005,"餘":2006,"饉":2007,"饍":2008,"饑":2009,"饒":2010,"首":2011,"香":2012,"馬":2013,"馮":2014,"馳":2015,"馴":2016,"駕":2017,"騎":2018,"騰":2019,"驀":2020,"驕":2021,"驗":2022,"驚":2023,"驛":2024,"驪":2025,"骨":2026,"骸":2027,"髓":2028,"體":2029,"高":2030,"髣":2031,"髮":2032,"髴":2033,"鬚":2034,"鬪":2035,"鬱":2036,"鬼":2037,"魂":2038,"魔":2039,"魚":2040,"鮮":2041,"鳥":2042,"鳳":2043,"鳴":2044,"鴉":2045,"鵲":2046,"鶴":2047,"鷄":2048,"鹵":2049,"鹹":2050,"鹿":2051,"麽":2052,"黃":2053,"黎":2054,"黑":2055,"默":2056,"黙":2057,"點":2058,"鼎":2059,"鼻":2060,"齊":2061,"齋":2062,"龍":2063,"龜":2064,"가":2065,"각":2066,"간":2067,"갈":2068,"갊":2069,"감":2070,"갑":2071,"값":2072,"갓":2073,"갔":2074,"강":2075,"갖":2076,"같":2077,"갚":2078,"개":2079,"객":2080,"갯":2081,"갱":2082,"걀":2083,"거":2084,"걱":2085,"건":2086,"걷":2087,"걸":2088,"검":2089,"겁":2090,"것":2091,"겉":2092,"게":2093,"겠":2094,"겨":2095,"격":2096,"겪":2097,"견":2098,"결":2099,"겸":2100,"겼":2101,"경":2102,"곁":2103,"계":2104,"고":2105,"곡":2106,"곤":2107,"곧":2108,"골":2109,"곱":2110,"곳":2111,"공":2112,"과":2113,"곽":2114,"관":2115,"괄":2116,"광":2117,"괘":2118,"괭":2119,"괴":2120,"괵":2121,"굉":2122,"교":2123,"구":2124,"국":2125,"군":2126,"굳":2127,"굴":2128,"굶":2129,"굼":2130,"굽":2131,"굿":2132,"궁":2133,"궂":2134,"궈":2135,"권":2136,"궐":2137,"궤":2138,"귀":2139,"귐":2140,"규":2141,"균":2142,"그":2143,"극":2144,"근":2145,"글":2146,"긁":2147,"금":2148,"급":2149,"긋":2150,"긍":2151,"기":2152,"긴":2153,"긷":2154,"길":2155,"김":2156,"깃":2157,"깊":2158,"까":2159,"깎":2160,"깐":2161,"깔":2162,"깜":2163,"깝":2164,"깥":2165,"깨":2166,"깰":2167,"깼":2168,"꺼":2169,"꺽":2170,"꺾":2171,"껄":2172,"껍":2173,"껏":2174,"께":2175,"껴":2176,"꼈":2177,"꼬":2178,"꼭":2179,"꼼":2180,"꽂":2181,"꽃":2182,"꽉":2183,"꾀":2184,"꾸":2185,"꾼":2186,"꿀":2187,"꿇":2188,"꿈":2189,"꿋":2190,"꿔":2191,"꿨":2192,"꿩":2193,"꿰":2194,"뀌":2195,"뀐":2196,"끄":2197,"끈":2198,"끊":2199,"끌":2200,"끓":2201,"끔":2202,"끗":2203,"끝":2204,"끼":2205,"낀":2206,"낄":2207,"낌":2208,"나":2209,"낙":2210,"난":2211,"날":2212,"낡":2213,"남":2214,"납":2215,"낫":2216,"났":2217,"낭":2218,"낮":2219,"낯":2220,"낱":2221,"낳":2222,"내":2223,"낸":2224,"낼":2225,"냄":2226,"냇":2227,"냈":2228,"냉":2229,"냐":2230,"냥":2231,"너":2232,"넉":2233,"넌":2234,"널":2235,"넓":2236,"넘":2237,"넜":2238,"넝":2239,"넣":2240,"네":2241,"넨":2242,"넬":2243,"넷":2244,"녀":2245,"녁":2246,"년":2247,"념":2248,"녔":2249,"녕":2250,"녘":2251,"노":2252,"녹":2253,"논":2254,"놀":2255,"농":2256,"높":2257,"놓":2258,"뇌":2259,"뇩":2260,"누":2261,"눈":2262,"눌":2263,"눕":2264,"눠":2265,"뉘":2266,"뉜":2267,"뉴":2268,"느":2269,"는":2270,"늘":2271,"늙":2272,"늠":2273,"능":2274,"늦":2275,"니":2276,"닌":2277,"닐":2278,"님":2279,"다":2280,"닥":2281,"닦":2282,"단":2283,"닫":2284,"달":2285,"닭":2286,"닮":2287,"닳":2288,"담":2289,"답":2290,"닷":2291,"당":2292,"닿":2293,"대":2294,"댁":2295,"댄":2296,"댈":2297,"댓":2298,"더":2299,"덕":2300,"던":2301,"덜":2302,"덟":2303,"덤":2304,"덥":2305,"덧":2306,"덩":2307,"덮":2308,"데":2309,"덴":2310,"도":2311,"독":2312,"돈":2313,"돋":2314,"돌":2315,"돕":2316,"돗":2317,"동":2318,"돼":2319,"됐":2320,"되":2321,"된":2322,"될":2323,"됨":2324,"됩":2325,"두":2326,"둑":2327,"둔":2328,"둘":2329,"둠":2330,"둡":2331,"둥":2332,"둬":2333,"뒤":2334,"뒷":2335,"듀":2336,"드":2337,"득":2338,"든":2339,"듣":2340,"들":2341,"듦":2342,"듬":2343,"듭":2344,"듯":2345,"등":2346,"디":2347,"딛":2348,"딤":2349,"딧":2350,"딪":2351,"따":2352,"딴":2353,"딸":2354,"땀":2355,"땅":2356,"때":2357,"땔":2358,"떠":2359,"떡":2360,"떤":2361,"떨":2362,"떫":2363,"떳":2364,"떻":2365,"떼":2366,"뗀":2367,"또":2368,"똑":2369,"똥":2370,"뚜":2371,"뚝":2372,"뚫":2373,"뚱":2374,"뛰":2375,"뜨":2376,"뜬":2377,"뜯":2378,"뜰":2379,"뜸":2380,"뜻":2381,"띄":2382,"띠":2383,"라":2384,"락":2385,"란":2386,"랄":2387,"람":2388,"랍":2389,"랐":2390,"랑":2391,"래":2392,"랜":2393,"램":2394,"랩":2395,"랫":2396,"랴":2397,"략":2398,"량":2399,"러":2400,"럭":2401,"런":2402,"럴":2403,"럼":2404,"럽":2405,"렀":2406,"렁":2407,"렇":2408,"레":2409,"려":2410,"력":2411,"련":2412,"렬":2413,"렴":2414,"렵":2415,"렷":2416,"렸":2417,"령":2418,"례":2419,"로":2420,"록":2421,"론":2422,"롭":2423,"롯":2424,"롱":2425,"뢰":2426,"료":2427,"룡":2428,"루":2429,"룩":2430,"룬":2431,"룰":2432,"룸":2433,"룻":2434,"뤄":2435,"류":2436,"륙":2437,"륜":2438,"률":2439,"륭":2440,"르":2441,"륵":2442,"른":2443,"를":2444,"름":2445,"릅":2446,"릇":2447,"릉":2448,"릎":2449,"리":2450,"릭":2451,"린":2452,"릴":2453,"림":2454,"립":2455,"릿":2456,"링":2457,"마":2458,"막":2459,"만":2460,"많":2461,"말":2462,"맑":2463,"맘":2464,"맙":2465,"맛":2466,"망":2467,"맞":2468,"맡":2469,"매":2470,"맥":2471,"맨":2472,"맷":2473,"맹":2474,"맺":2475,"먁":2476,"머":2477,"먹":2478,"먼":2479,"멀":2480,"멈":2481,"멍":2482,"메":2483,"며":2484,"면":2485,"멸":2486,"명":2487,"몇":2488,"모":2489,"목":2490,"몫":2491,"몰":2492,"몸":2493,"몹":2494,"못":2495,"몽":2496,"뫼":2497,"묘":2498,"무":2499,"묵":2500,"묶":2501,"문":2502,"묻":2503,"물":2504,"뭄":2505,"뭇":2506,"뭉":2507,"뭔":2508,"뮤":2509,"므":2510,"믐":2511,"미":2512,"민":2513,"믿":2514,"밀":2515,"밈":2516,"밉":2517,"및":2518,"밑":2519,"바":2520,"박":2521,"밖":2522,"반":2523,"받":2524,"발":2525,"밝":2526,"밟":2527,"밤":2528,"밥":2529,"방":2530,"밭":2531,"배":2532,"백":2533,"밴":2534,"뱀":2535,"뱃":2536,"뱉":2537,"버":2538,"벅":2539,"번":2540,"벌":2541,"범":2542,"법":2543,"벗":2544,"벚":2545,"벛":2546,"베":2547,"벨":2548,"벵":2549,"벼":2550,"벽":2551,"변":2552,"별":2553,"볍":2554,"병":2555,"보":2556,"복":2557,"본":2558,"볼":2559,"봄":2560,"봉":2561,"봐":2562,"뵈":2563,"뵙":2564,"부":2565,"북":2566,"분":2567,"불":2568,"붉":2569,"붓":2570,"붕":2571,"붙":2572,"블":2573,"비":2574,"빈":2575,"빌":2576,"빗":2577,"빙":2578,"빚":2579,"빛":2580,"빠":2581,"빨":2582,"빼":2583,"빽":2584,"뺏":2585,"뺨":2586,"뻐":2587,"뻔":2588,"뻗":2589,"뼈":2590,"뼉":2591,"뽑":2592,"뾰":2593,"뿌":2594,"뿐":2595,"뿔":2596,"쁘":2597,"쁜":2598,"쁠":2599,"쁨":2600,"삐":2601,"사":2602,"삭":2603,"삯":2604,"산":2605,"살":2606,"삶":2607,"삼":2608,"삽":2609,"삿":2610,"샀":2611,"상":2612,"샅":2613,"새":2614,"색":2615,"샐":2616,"샘":2617,"생":2618,"서":2619,"석":2620,"섞":2621,"선":2622,"설":2623,"섬":2624,"섭":2625,"섯":2626,"섰":2627,"성":2628,"섶":2629,"세":2630,"센":2631,"셈":2632,"셋":2633,"셔":2634,"션":2635,"셨":2636,"소":2637,"속":2638,"손":2639,"솔":2640,"솜":2641,"솟":2642,"송":2643,"솥":2644,"쇄":2645,"쇠":2646,"숍":2647,"수":2648,"숙":2649,"순":2650,"술":2651,"숨":2652,"숫":2653,"숭":2654,"숯":2655,"숱":2656,"숲":2657,"쉬":2658,"쉰":2659,"쉴":2660,"쉼":2661,"쉽":2662,"스":2663,"슨":2664,"슬":2665,"슭":2666,"슴":2667,"습":2668,"슷":2669,"승":2670,"시":2671,"식":2672,"신":2673,"싣":2674,"실":2675,"싫":2676,"심":2677,"십":2678,"싶":2679,"싸":2680,"싹":2681,"싼":2682,"쌀":2683,"쌍":2684,"쌓":2685,"써":2686,"썩":2687,"썰":2688,"썼":2689,"쏘":2690,"쏜":2691,"쏟":2692,"쏠":2693,"쓰":2694,"쓴":2695,"쓸":2696,"씀":2697,"씁":2698,"씌":2699,"씨":2700,"씩":2701,"씬":2702,"씹":2703,"씻":2704,"아":2705,"악":2706,"안":2707,"앉":2708,"않":2709,"알":2710,"앎":2711,"앓":2712,"암":2713,"압":2714,"앗":2715,"았":2716,"앙":2717,"앞":2718,"애":2719,"액":2720,"앨":2721,"앰":2722,"앱":2723,"야":2724,"약":2725,"얌":2726,"양":2727,"얕":2728,"얘":2729,"어":2730,"억":2731,"언":2732,"얻":2733,"얼":2734,"얽":2735,"엄":2736,"업":2737,"없":2738,"엇":2739,"었":2740,"엉":2741,"엎":2742,"에":2743,"엔":2744,"여":2745,"역":2746,"엮":2747,"연":2748,"열":2749,"엷":2750,"염":2751,"엽":2752,"엾":2753,"엿":2754,"였":2755,"영":2756,"옆":2757,"예":2758,"옛":2759,"오":2760,"옥":2761,"온":2762,"올":2763,"옮":2764,"옳":2765,"옴":2766,"옵":2767,"옷":2768,"옹":2769,"와":2770,"완":2771,"왈":2772,"왔":2773,"왕":2774,"왜":2775,"외":2776,"왼":2777,"욀":2778,"요":2779,"욕":2780,"용":2781,"우":2782,"욱":2783,"운":2784,"울":2785,"움":2786,"웁":2787,"웃":2788,"웅":2789,"워":2790,"원":2791,"월":2792,"웠":2793,"웨":2794,"웬":2795,"웹":2796,"위":2797,"윗":2798,"유":2799,"육":2800,"윤":2801,"율":2802,"융":2803,"으":2804,"윽":2805,"은":2806,"을":2807,"읊":2808,"음":2809,"읍":2810,"응":2811,"의":2812,"읜":2813,"이":2814,"익":2815,"인":2816,"일":2817,"읽":2818,"잃":2819,"임":2820,"입":2821,"잇":2822,"있":2823,"잉":2824,"잊":2825,"잎":2826,"자":2827,"작":2828,"잔":2829,"잖":2830,"잘":2831,"잠":2832,"잡":2833,"잣":2834,"잤":2835,"장":2836,"잦":2837,"재":2838,"잿":2839,"쟁":2840,"저":2841,"적":2842,"전":2843,"절":2844,"젊":2845,"점":2846,"접":2847,"젓":2848,"정":2849,"젖":2850,"제":2851,"젯":2852,"져":2853,"졌":2854,"조":2855,"족":2856,"존":2857,"졸":2858,"좀":2859,"좁":2860,"종":2861,"좇":2862,"좋":2863,"좌":2864,"죄":2865,"주":2866,"죽":2867,"준":2868,"줄":2869,"줌":2870,"줍":2871,"중":2872,"줘":2873,"쥐":2874,"즈":2875,"즉":2876,"즐":2877,"즘":2878,"즙":2879,"증":2880,"지":2881,"직":2882,"진":2883,"질":2884,"짊":2885,"짐":2886,"집":2887,"짓":2888,"징":2889,"짖":2890,"짙":2891,"짚":2892,"짜":2893,"짝":2894,"짠":2895,"짧":2896,"째":2897,"쩌":2898,"쩔":2899,"쪄":2900,"쪼":2901,"쪽":2902,"쫓":2903,"쭈":2904,"쭐":2905,"쭙":2906,"쭝":2907,"쯤":2908,"찌":2909,"찍":2910,"찔":2911,"찢":2912,"찧":2913,"차":2914,"착":2915,"찬":2916,"찮":2917,"찰":2918,"참":2919,"찼":2920,"창":2921,"찾":2922,"채":2923,"책":2924,"챙":2925,"챠":2926,"챤":2927,"처":2928,"척":2929,"천":2930,"철":2931,"첨":2932,"첩":2933,"첫":2934,"청":2935,"체":2936,"쳇":2937,"쳐":2938,"쳤":2939,"초":2940,"촉":2941,"촌":2942,"촐":2943,"총":2944,"촬":2945,"최":2946,"추":2947,"축":2948,"춘":2949,"출":2950,"춤":2951,"충":2952,"춰":2953,"췄":2954,"취":2955,"측":2956,"츰":2957,"층":2958,"치":2959,"칙":2960,"친":2961,"칠":2962,"침":2963,"칫":2964,"칭":2965,"카":2966,"칸":2967,"칼":2968,"캐":2969,"캠":2970,"커":2971,"컨":2972,"컫":2973,"컬":2974,"컸":2975,"케":2976,"켓":2977,"켜":2978,"켰":2979,"코":2980,"콩":2981,"쾌":2982,"쿨":2983,"퀴":2984,"크":2985,"큰":2986,"클":2987,"큼":2988,"키":2989,"킨":2990,"킬":2991,"킴":2992,"킹":2993,"타":2994,"탁":2995,"탄":2996,"탈":2997,"탐":2998,"탑":2999,"탓":3000,"탕":3001,"태":3002,"택":3003,"탱":3004,"터":3005,"턱":3006,"털":3007,"텁":3008,"텄":3009,"텅":3010,"테":3011,"텐":3012,"템":3013,"토":3014,"톡":3015,"톨":3016,"톱":3017,"통":3018,"퇴":3019,"투":3020,"툭":3021,"툰":3022,"툼":3023,"튀":3024,"트":3025,"특":3026,"튼":3027,"튿":3028,"틀":3029,"틈":3030,"틔":3031,"티":3032,"팀":3033,"파":3034,"팎":3035,"판":3036,"팔":3037,"팥":3038,"패":3039,"퍼":3040,"퍽":3041,"펄":3042,"페":3043,"펴":3044,"편":3045,"펼":3046,"폈":3047,"평":3048,"폐":3049,"포":3050,"폭":3051,"표":3052,"푸":3053,"푼":3054,"풀":3055,"품":3056,"풍":3057,"프":3058,"픈":3059,"플":3060,"픔":3061,"피":3062,"핀":3063,"필":3064,"핌":3065,"핍":3066,"핏":3067,"핑":3068,"하":3069,"학":3070,"한":3071,"할":3072,"함":3073,"합":3074,"항":3075,"해":3076,"핵":3077,"햇":3078,"했":3079,"행":3080,"향":3081,"허":3082,"헌":3083,"헐":3084,"헒":3085,"험":3086,"헛":3087,"헤":3088,"혀":3089,"혁":3090,"현":3091,"혈":3092,"혐":3093,"협":3094,"혔":3095,"형":3096,"혜":3097,"호":3098,"혹":3099,"혼":3100,"홀":3101,"홉":3102,"홍":3103,"화":3104,"확":3105,"환":3106,"활":3107,"황":3108,"횃":3109,"회":3110,"획":3111,"횟":3112,"횡":3113,"효":3114,"후":3115,"훈":3116,"훌":3117,"훑":3118,"훔":3119,"훗":3120,"훙":3121,"훤":3122,"훨":3123,"훼":3124,"휘":3125,"휩":3126,"휴":3127,"흉":3128,"흐":3129,"흑":3130,"흔":3131,"흘":3132,"흙":3133,"흠":3134,"흡":3135,"흥":3136,"흩":3137,"희":3138,"흰":3139,"히":3140,"힌":3141,"힐":3142,"힘":3143,"힙":3144,"\r\n":3145,"▁\r\n":3146,"▁이":3147,"▁것":3148,"▁하":3149,"▁그":3150,"▁사":3151,"▁대":3152,"라.":3153,"▁것이":3154,"▁말":3155,"으로":3156,"▁일":3157,"하여":3158,"▁있":3159,"기를":3160,"하시":3161,"니라.":3162,"▁가":3163,"▁아":3164,"▁[":3165,"종사":3166,"니,":3167,"▁없":3168,"▁사람":3169,"▁정":3170,"하고":3171,"▁자":3172,"▁공":3173,"▁되":3174,"▁말씀":3175,"▁마":3176,"▁다":3177,"하는":3178,"▁수":3179,"하시기를":3180,"▁세":3181,"▁말씀하시기를":3182,"▁교":3183,"다.":3184,"▁지":3185,"▁한":3186,"▁보":3187,"▁어":3188,"▁법":3189,"며,":3190,"▁모":3191,"▁주":3192,"▁생":3193,"▁마음":3194,"▁나":3195,"▁기":3196,"▁부":3197,"▁제":3198,"요,":3199,"▁1":3200,"▁도":3201,"▁때":3202,"▁아니":3203,"▁인":3204,"▁바":3205,"▁원":3206,"에는":3207,"]\r\n":3208,"고,":3209,"▁만":3210,"에서":3211,"▁못":3212,"▁성":3213,"▁불":3214,"▁무":3215,"▁중":3216,"▁2":3217,"▁우":3218,"▁또":3219,"▁여":3220,"에게":3221,"나니,":3222,"▁모든":3223,"▁천":3224,"▁대종사":3225,"이라":3226,"▁같":3227,"▁시":3228,"▁위":3229,"▁동":3230,"▁할":3231,"▁오":3232,"▁경":3233,"▁알":3234,"▁전":3235,"▁공부":3236,"▁선":3237,"▁받":3238,"▁3":3239,"▁영":3240,"▁종사":3241,"▁서":3242,"▁내":3243,"▁신":3244,"므로":3245,"▁고":3246,"니라.]\r\n":3247,"▁큰":3248,"▁조":3249,"▁진":3250,"▁우리":3251,"▁잘":3252,"▁세상":3253,"▁4":3254,"▁삼":3255,"▁않":3256,"▁것이요,":3257,"▁「":3258,"▁사람이":3259,"하면":3260,"하지":3261,"▁회":3262,"▁의":3263,"▁얻":3264,"▁대산":3265,"▁실":3266,"」\r\n":3267,"▁해":3268,"▁상":3269,"▁따":3270,"▁구":3271,"▁그러":3272,"하게":3273,"▁하는":3274,"▁종":3275,"▁후":3276,"▁소":3277,"▁없는":3278,"▁더":3279,"이요":3280,"▁발":3281,"▁등":3282,"▁비":3283,"▁곧":3284,"▁거":3285,"▁있는":3286,"▁길":3287,"▁열":3288,"나,":3289,"하였":3290,"▁가지":3291,"▁들":3292,"▁개":3293,"▁부처":3294,"▁새":3295,"▁세계":3296,"▁행":3297,"▁생각":3298,"▁5":3299,"▁각":3300,"▁근":3301,"째는":3302,"▁하나":3303,"▁본":3304,"▁회상":3305,"▁참":3306,"▁연":3307,"▁하여":3308,"▁유":3309,"▁물":3310,"▁심":3311,"▁많":3312,"▁따라":3313,"▁살":3314,"니라.」\r\n":3315,"▁정신":3316,"▁있으":3317,"▁두":3318,"▁남":3319,"이요,":3320,"▁예":3321,"께서":3322,"▁당":3323,"▁계":3324,"▁방":3325,"이나":3326,"▁같이":3327,"리를":3328,"▁것은":3329,"▁것이요":3330,"들이":3331,"지라":3332,"▁미":3333,"▁사업":3334,"▁스":3335,"▁장":3336,"▁또한":3337,"▁안":3338,"▁과":3339,"나이":3340,"▁마음을":3341,"대종사":3342,"어서":3343,"▁힘":3344,"운데":3345,"▁돌":3346,"▁뜻":3347,"▁재":3348,"▁함":3349,"▁그대":3350,"▁복":3351,"▁저":3352,"▁가운데":3353,")을":3354,")이":3355,"니라.\r\n":3356,"▁때에":3357,"▁혹":3358,"들은":3359,"하야":3360,"▁데":3361,"▁부처님":3362,"▁생활":3363,"▁반":3364,"▁좋":3365,"▁항":3366,".]":3367,"▁결":3368,"나니라.]\r\n":3369,"▁것이요\r\n":3370,"▁것을":3371,"하며":3372,"19":3373,"리라.":3374,"▁일을":3375,"▁처":3376,"▁것이며,":3377,"▁설":3378,"▁자기":3379,"▁서로":3380,"▁될":3381,")의":3382,"▁단":3383,"▁통":3384,"▁분":3385,"▁사람은":3386,"▁어찌":3387,"나니":3388,"▁6":3389,"▁평":3390,"다.\r\n":3391,"▁때에는":3392,"▁교단":3393,"▁적":3394,"도록":3395,"▁그러므로":3396,".대종사":3397,"▁깨":3398,"▁밝":3399,"▁중생":3400,"▁명":3401,"▁대중":3402,"▁국":3403,"▁일이":3404,"▁하고":3405,"▁하시":3406,"▁먼":3407,"아서":3408,"▁다시":3409,"▁몸":3410,"▁입":3411,"▁편":3412,"다면":3413,"▁차":3414,"▁감":3415,"심을":3416,"▁일원":3417,"▁앞":3418,"▁관":3419,"자는":3420,"▁마음이":3421,"심이":3422,"하기":3423,"▁이는":3424,"(19":3425,"▁병":3426,"▁육":3427,"느니라.」\r\n":3428,"▁것이니,":3429,"으로써":3430,"▁없이":3431,"도를":3432,"으며,":3433,"▁먼저":3434,"▁문":3435,"▁또는":3436,"▁배":3437,"▁크":3438,"인이":3439,"7.":3440,"▁강":3441,"▁출":3442,")를":3443,"▁능":3444,"년(19":3445,"▁줄":3446,"▁항상":3447,"▁죄":3448,"리는":3449,"▁더욱":3450,"▁간":3451,"▁허":3452,"▁봉":3453,"이니,":3454,"▁화":3455,"▁은":3456,"라,":3457,"▁양":3458,")에":3459,"▁건":3460,"력을":3461,"▁사람의":3462,"▁만일":3463,"▁둘":3464,"▁제자":3465,"▁노":3466,"▁되어":3467,"▁총":3468,"▁천지":3469,"▁드":3470,"▁순":3471,"者는":3472,"들의":3473,"하고,":3474,"▁요":3475,"▁종교":3476,"▁청":3477,"이니":3478,"▁초":3479,"다가":3480,"▁2.":3481,"까지":3482,"▁되는":3483,"▁1.":3484,"▁집":3485,"나니라.":3486,"▁어떠":3487,"▁하면":3488,"▁하였":3489,"▁번":3490,"▁작":3491,"8.":3492,"▁이루":3493,"▁권":3494,"불교":3495,"사를":3496,"▁되었":3497,"▁법을":3498,"▁특":3499,"▁놓":3500,"으나":3501,"▁근본":3502,"▁형":3503,"▁3.":3504,"9.":3505,"▁악":3506,"▁일체":3507,"0.":3508,"▁여러":3509,"▁창":3510,"▁학":3511,"▁세상에":3512,"▁훈":3513,"▁이름":3514,"것이":3515,"▁스승":3516,"▁돌아":3517,")\r\n":3518,"▁\"":3519,"▁못하":3520,"▁위하여":3521,"나이다.":3522,"▁종사,":3523,"까.]":3524,"에도":3525,"으면":3526,"▁이치":3527,"이라,":3528,"1.":3529,"다는":3530,"▁표":3531,"인의":3532,"▁있나니,":3533,"▁매":3534,"부터":3535,"▁자리":3536,"성을":3537,"자의":3538,"▁원기":3539,"▁경계":3540,"로써":3541,"다.\n":3542,"▁열반":3543,"▁변":3544,"지라도":3545,"▁부모":3546,"▁길이":3547,"▁기운":3548,"▁취":3549,"▁不":3550,"▁날":3551,"어지":3552,"으시":3553,"라도":3554,"▁나타":3555,"▁도를":3556,"▁맞":3557,"하여,":3558,"▁산":3559,"이시":3560,"▁준":3561,"자가":3562,"하되":3563,"▁없고":3564,"▁진리":3565,"▁있어서":3566,"▁\n":3567,"▁‘":3568,"기에":3569,"하신":3570,"▁[그":3571,"▁다른":3572,"▁수도":3573,"▁교화":3574,"▁제도":3575,"▁오직":3576,"▁4.":3577,"▁이를":3578,"▁곳":3579,"▁태":3580,"▁합":3581,"▁들어":3582,"2.":3583,"▁믿":3584,"스로":3585,"▁어느":3586,"리요":3587,"하며,":3588,"▁많이":3589,"▁스스로":3590,"▁쓰":3591,"연히":3592,"▁ᄋ":3593,"▁운":3594,"▁것이니라.\r\n":3595,"▁크게":3596,"리고":3597,"함이":3598,"▁달":3599,"▁공부를":3600,"4.":3601,"▁사람을":3602,"▁지도":3603,"▁원만":3604,"▁역":3605,"▁온":3606,"▁첫":3607,"▁수행":3608,"3.":3609,"▁약":3610,"▁되고":3611,"▁훈련":3612,"▁친":3613,"든지":3614,"▁끊":3615,"▁닦":3616,"어야":3617,"▁죽":3618,"▁능히":3619,"▁금":3620,"상을":3621,"▁어떠한":3622,"▁않는":3623,"▁속":3624,"리라.]\r\n":3625,"시에":3626,"▁시대":3627,"신불":3628,"▁말고":3629,"▁활":3630,"▁점":3631,"▁인연":3632,"▁사회":3633,"▁가르":3634,"5.":3635,"▁외":3636,"菩提":3637,"▁보고":3638,"▁도덕":3639,"▁은혜":3640,"▁갖":3641,"느니라.":3642,"원을":3643,"▁아무":3644,"▁좋은":3645,"▁귀":3646,"▁막":3647,"▁경우":3648,"▁네":3649,"생의":3650,"▁보면":3651,"▁올":3652,"▁짓":3653,"법을":3654,"▁하지":3655,"▁교당":3656,"▁원불교":3657,"▁무슨":3658,"▁같은":3659,"▁직":3660,"리가":3661,"▁아니하고":3662,"▁광":3663,"▁잡":3664,"식을":3665,"▁아는":3666,"▁찾":3667,"▁바로":3668,"▁대종사께서":3669,"▁동지":3670,"▁우리의":3671,"▁정신을":3672,"6.":3673,"▁듣":3674,"다고":3675,"드시":3676,"▁정산":3677,"▁모르":3678,"▁아니하":3679,"▁그러므로,":3680,"▁박":3681,"기가":3682,"▁혜":3683,"가.":3684,"되는":3685,"하여야":3686,"▁여래":3687,"▁천하":3688,"▁신앙":3689,"▁착":3690,"▁현":3691,"▁우리는":3692,"▁비록":3693,"▁5.":3694,"▁반드시":3695,"이시여":3696,"▁떠":3697,"보리":3698,"▁이르":3699,"리요.":3700,"마는":3701,"▁영원":3702,"▁목":3703,"▁많은":3704,"▁누":3705,"생을":3706,"의를":3707,"▁7":3708,"▁치":3709,"어나":3710,"▁것과":3711,"▁사은":3712,"▁끌":3713,"▁범":3714,"▁못한":3715,"▁과거":3716,"대로":3717,"▁내가":3718,"▁실행":3719,"▁덕":3720,"▁응":3721,"▁체":3722,"▁추":3723,"들을":3724,"법사":3725,"아야":3726,"▁염":3727,"▁있고":3728,"▁여쭙":3729,"리지":3730,"▁못할":3731,"▁여쭙기를":3732,"▁존":3733,"거나":3734,"하옵":3735,"함을":3736,"▁이것이":3737,"▁못하고":3738,"▁버":3739,"도에":3740,"으나,":3741,"에서는":3742,"▁증":3743,"보살":3744,"치는":3745,"▁가정":3746,"{附":3747,"}\r\n":3748,"▁{附":3749,"文}\r\n":3750,"漢文}\r\n":3751,"사(":3752,".漢文}\r\n":3753,"▁걸":3754,"▁깊":3755,"오니":3756,"▁드러":3757,"▁{附.漢文}\r\n":3758,"▁절":3759,"▁혹은":3760,"衆生":3761,"당한":3762,"▁6.":3763,"▁승":3764,"▁교육":3765,"▁어려":3766,"▁뜻을":3767,"▁자기의":3768,"▁如":3769,"라.]\r\n":3770,"▁기관":3771,"이라도":3772,"▁받는":3773,"▁몇":3774,"들에게":3775,"업을":3776,"이니라.":3777,"▁주시":3778,"▁나의":3779,"▁기념":3780,"▁너":3781,"되어":3782,"▁하며,":3783,"▁법신불":3784,"▁동안":3785,"월에":3786,"▁하고,":3787,"▁수양":3788,"▁아니라":3789,"▁밖":3790,"▁최":3791,"▁타":3792,"▁종법사":3793,"▁된":3794,"▁손":3795,"▁있을":3796,"▁않고":3797,"▁是":3798,"음을":3799,"▁자신":3800,"▁나라":3801,"지라,":3802,"▁뒤":3803,"▁송":3804,"▁알지":3805,"▁임":3806,"▁확":3807,"須菩提":3808,"사람":3809,"▁대한":3810,"▁국가":3811,"▁若":3812,"기로":3813,"▁것도":3814,"▁대종사의":3815,"▁본래":3816,"▁데에":3817,"▁생활을":3818,"▁청정":3819,"력이":3820,"▁그것":3821,"▁인류":3822,"▁알고":3823,"▁좌":3824,"▁책":3825,"리어":3826,"▁지금":3827,"▁모두":3828,"▁계속":3829,"▁쉬":3830,"▁얼":3831,"▁음":3832,"하사":3833,"▁하늘":3834,"▁주의":3835,"▁특별":3836,"▁언":3837,"▁대하여":3838,"▁공덕":3839,"▁세상을":3840,"▁축":3841,"▁교도":3842,"▁발전":3843,"▁건설":3844,"▁ᄋᄋ":3845,")가":3846,"▁묻":3847,"기도":3848,"지는":3849,"▁그대들은":3850,"사에":3851,"▁주는":3852,"▁우주":3853,"▁각각":3854,")과":3855,"▁낙":3856,"거든":3857,"나는":3858,"성이":3859,"시고":3860,"해야":3861,"▁이러":3862,"▁지혜":3863,"▁진리를":3864,"▁완":3865,"▁용":3866,"적으로":3867,"▁총부":3868,"기는":3869,"지를":3870,"하기를":3871,"▁하나니,":3872,"▁보은":3873,"▁동시에":3874,"되었":3875,"명을":3876,"▁연구":3877,"▁욕":3878,"소서":3879,"임을":3880,"▁19":3881,"▁관계":3882,"▁7.":3883,"라는":3884,"문을":3885,"▁사뢰":3886,"▁말을":3887,"▁가히":3888,"▁마음에":3889,"▁경전":3890,"▁힘을":3891,"▁앞으로":3892,"▁피":3893,"이니라.]\r\n":3894,"회를":3895,"▁이와":3896,"▁무엇":3897,"▁조금":3898,").":3899,"▁업":3900,"▁충":3901,"▁대각":3902,"하자":3903,"▁서원":3904,"▁각자의":3905,"▁회상의":3906,"▁뿐":3907,"▁되나니,":3908,"▁마땅":3909,"▁마음으로":3910,"▁받들":3911,"▁처음":3912,"▁육신":3913,"으며":3914,"▁법이":3915,"▁바가":3916,"▁사업을":3917,")은":3918,"▁글":3919,"▁쌓":3920,"▁須菩提":3921,"▁이에":3922,"▁어렵":3923,"▁우리가":3924,"▁자유":3925,"▁함께":3926,"사의":3927,"서는":3928,"출신":3929,"▁것이니":3930,"▁창립":3931,"무출신":3932,"▁사이":3933,"▁땅":3934,"▁하느니라.」\r\n":3935,"▁10":3936,"▁위해":3937,"▁심고":3938,"▁無":3939,"▁끝":3940,"▁백":3941,"▁식":3942,"보다":3943,"일에":3944,"▁사람에게":3945,"▁만물":3946,"▁길을":3947,"나이까.]":3948,"▁노력":3949,"다운":3950,"▁것이니라.":3951,"▁마땅히":3952,"▁희":3953,"법이":3954,"▁나는":3955,"▁제일":3956,"▁새로":3957,"▁부처님의":3958,")으로":3959,"상이":3960,"태산":3961,"▁이어":3962,"▁있었":3963,"▁받아":3964,"▁회상을":3965,"▁이러한":3966,"가는":3967,"▁그런":3968,"▁마치":3969,"▁불교":3970,"▁등을":3971,"▁견":3972,"▁널":3973,"▁셋":3974,"▁환":3975,"▁일에":3976,"▁보시":3977,"▁잘못":3978,"(大":3979,"사가":3980,"▁세우":3981,"▁불보살":3982,"▁함은":3983,"▁둘째는":3984,"▁갖추":3985,"▁널리":3986,"▁以":3987,"▁및":3988,"▁포":3989,"▁필":3990,"간의":3991,"니라":3992,"이다.":3993,"▁중앙":3994,"▁중생이":3995,")로":3996,"▁망":3997,"▁잊":3998,"▁향":3999,"▁호":4000,"▁8.":4001,"심으로":4002,"▁이제":4003,"▁하셨":4004,"▁사용":4005,"▁소태산":4006,"▁그대로":4007,"▁통하여":4008,"▁아무리":4009,"▁9":4010,"▁규":4011,"▁넘":4012,"▁혼":4013,"상의":4014,"으니":4015,"▁이익":4016,"▁천만":4017,"▁상대":4018,"(法":4019,"▁애":4020,"니다.":4021,"라고":4022,"음이":4023,"▁연고":4024,"▁이치를":4025,"▁것이니라.」\r\n":4026,"▁성품":4027,"▁떠나":4028,"보리야":4029,"▁답":4030,"▁먹":4031,"▁일반":4032,"▁있어":4033,"▁자성":4034,"▁다음":4035,"▁만나":4036,"▁불공":4037,"▁알아":4038,"▁준비":4039,"생에":4040,"와,":4041,"지에":4042,"▁정성을":4043,"▁성공":4044,"▁오래":4045,"▁전무출신":4046,"▁물질":4047,"께서는":4048,"▁복을":4049,"나이다.]":4050,"▁·":4051,"▁佛":4052,"▁떨":4053,"▁면":4054,"▁철":4055,"으므로":4056,"▁이해":4057,"▁것으로":4058,"▁도가":4059,"▁깨달":4060,"▁출가":4061,"▁[그대":4062,"▁독":4063,"▁잃":4064,"시키":4065,"인은":4066,"▁이미":4067,"▁자연":4068,"▁자연히":4069,"▁되나니라.]\r\n":4070,"▁인도":4071,"▁바,":4072,"▁좋아":4073,"▁영원한":4074,"▁須菩提야":4075,"▁농":4076,"▁돈":4077,"느냐":4078,"전에":4079,"▁인과":4080,"▁시방":4081,"▁할지라도":4082,"▁오늘":4083,"▁알아서":4084,"▁작은":4085,"▁사뢰기를":4086,"▁得":4087,"거늘":4088,"로서":4089,"사오":4090,"상(":4091,"원(":4092,"▁것이니라.]\r\n":4093,"▁받을":4094,"▁그러나,":4095,"▁생각이":4096,"▁있으며,":4097,"▁9.":4098,"▁대도":4099,"▁교단의":4100,"▁배우":4101,"▁가장":4102,"▁자녀":4103,"▁바르":4104,")는":4105,"▁於":4106,"▁벗":4107,"었다.\r\n":4108,"▁일은":4109,"▁[사람":4110,"▁나아":4111,"▁받게":4112,"▁얻어":4113,"▁거행":4114,"▁평화":4115,"▁몸을":4116,"▁극":4117,"▁즐":4118,"래에":4119,"리에":4120,"예문":4121,"▁자리를":4122,"▁마음의":4123,"▁동포":4124,"▁경계를":4125,"▁탐":4126,"▁폐":4127,"는데":4128,"지가":4129,"▁지키":4130,"▁세계를":4131,"▁돌아오":4132,"▁기운이":4133,"),":4134,"▁卽":4135,"▁김":4136,"▁방법":4137,"▁책임":4138,"▁묻기를":4139,"명이":4140,"은,":4141,"하나니":4142,"▁있고,":4143,"▁있어야":4144,"▁바른":4145,"▁못하는":4146,"▁가지고":4147,"소서.":4148,"▁一":4149,"었다.":4150,"하라.":4151,"▁시작":4152,"▁개인":4153,"▁활용":4154,")와":4155,"▁눈":4156,"심(":4157,"주의":4158,"▁바라":4159,"▁만들":4160,"▁8":4161,"▁잠":4162,"▁헌":4163,"론하고":4164,"문에":4165,"이다":4166,"하오":4167,"한다면":4168,"▁이것":4169,"▁아닌":4170,"▁기도":4171,"▁표준":4172,"▁첫째는":4173,"▁듣고":4174,"▁조금도":4175,"▁높":4176,"▁늘":4177,"▁쉽":4178,"같이":4179,"경을":4180,"문(":4181,"자를":4182,"하나니,":4183,"▁[이":4184,"▁도리어":4185,"▁얻게":4186,"▁머":4187,"면서":4188,"하려":4189,"▁있게":4190,"▁되지":4191,"▁지내":4192,"▁삼학":4193,"▁남의":4194,"떻게":4195,"물을":4196,"없는":4197,"이지":4198,"하나":4199,"▁것인":4200,"▁사람들이":4201,"▁마침":4202,"▁보살":4203,"▁제1":4204,"▁것이요,\r\n":4205,"▁밝히":4206,"▁염불":4207,"▁민":4208,"계를":4209,"이며":4210,"함이요":4211,"▁대로":4212,"▁정성":4213,"▁공을":4214,"▁다섯":4215,"▁영가":4216,"▁세상의":4217,"▁얻을":4218,"▁유무":4219,"▁허공":4220,"▁꾸":4221,"▁벌":4222,"▁옛":4223,"▁익":4224,"위단":4225,"정을":4226,"▁이가":4227,"하시고":4228,"▁불법":4229,"▁있으나":4230,"▁있으면":4231,"▁차차":4232,"▁강령":4233,"▁나타나":4234,"▁원만한":4235,"간에":4236,"교의":4237,"내가":4238,"락을":4239,"와서":4240,"하리":4241,"하자는":4242,"▁말이":4243,"▁되고,":4244,"▁수가":4245,"▁어른":4246,"▁조직":4247,"하였다.":4248,"▁물건":4249,"▁명예":4250,"(無":4251,"▁볼":4252,"과를":4253,"인을":4254,"하니":4255,"▁이상":4256,"▁없을":4257,"▁얻는":4258,"▁안으로":4259,"▁은혜를":4260,"▁직접":4261,"▁何":4262,"▁까":4263,"故로":4264,"는가":4265,"라]":4266,"으니,":4267,"▁가는":4268,"▁주신":4269,"▁나를":4270,"▁10.":4271,"▁바탕":4272,"▁성현":4273,"▁실천":4274,"▁해야":4275,"▁정신이":4276,"▁막론하고":4277,"▁갈":4278,"정(":4279,"▁하게":4280,"▁공경":4281,"▁다만":4282,"▁원광":4283,"▁참다운":4284,"▁하시고,":4285,"년(196":4286,"▁빠":4287,"▁십":4288,"▁팔":4289,"져서":4290,"▁사랑":4291,"▁정진":4292,"▁자비":4293,"▁무량":4294,"▁시비":4295,"▁고로":4296,"▁참으로":4297,"▁두루":4298,"▁사업에":4299,"▁뜻이":4300,"▁누구":4301,"衆生이":4302,"▁얼마":4303,"▁맡":4304,"▁묘":4305,"▁숭":4306,"들도":4307,"부처":4308,"세의":4309,"없이":4310,"요한":4311,"정한":4312,"▁하되":4313,"▁말며,":4314,"▁일어나":4315,"하여도":4316,"▁[우":4317,"▁어떻게":4318,"▁생령":4319,"▁나오":4320,"▁후에":4321,"▁남녀":4322,"▁찾아":4323,"▁난":4324,"더라도":4325,"되고":4326,"복을":4327,"의(":4328,"▁사실":4329,"▁대해":4330,"▁아래":4331,"▁수위단":4332,"▁그러한":4333,"▁미리":4334,"▁장차":4335,"▁모르는":4336,"▁“":4337,"▁챙":4338,"마다":4339,"연구":4340,"월에는":4341,"이며,":4342,"적인":4343,"화(":4344,"하시되":4345,"▁행동":4346,"▁생각을":4347,"▁살아":4348,"▁설법":4349,"▁心":4350,"▁색":4351,"▁앉":4352,"대학":4353,"부로":4354,"장이":4355,"▁세째는":4356,"▁성취":4357,"▁근원":4358,"▁대중의":4359,"▁차별":4360,"▁매양":4361,"▁마침내":4362,"▁까닭":4363,"▁써":4364,"人이":4365,"리의":4366,"사는":4367,"식이":4368,"▁하라.":4369,"▁것이라,":4370,"▁지방":4371,"▁오는":4372,"▁대중에게":4373,"가(":4374,"가지":4375,"더니,":4376,"리석":4377,"리까.]":4378,"이고":4379,"진대":4380,"▁하느니라.":4381,"▁대조":4382,"▁공중":4383,"▁남을":4384,"▁있어서는":4385,"▁뒤에":4386,"▁뿌":4387,"▁찬":4388,"▁풀":4389,"리시":4390,"심과":4391,"전(":4392,"치고":4393,"함은":4394,"▁있느니라.」\r\n":4395,"▁정치":4396,"▁지극":4397,"▁천도":4398,"▁대종사,":4399,"하였다.\r\n":4400,"▁양성":4401,"▁끊임":4402,")이라":4403,"▁빈":4404,"▁옳":4405,"리와":4406,"수록":4407,"하므로":4408,"▁그리":4409,"▁없게":4410,"▁사람도":4411,"▁주로":4412,"▁11.":4413,"▁때는":4414,"▁성불":4415,"▁행하는":4416,"▁저희":4417,"▁평등":4418,"년(195":4419,"▁놓고":4420,"▁如來":4421,"▁완전":4422,"▁받들어":4423,"부를":4424,"신을":4425,"위에":4426,"으로는":4427,"▁없었":4428,"▁보통":4429,"▁선원":4430,"▁의지":4431,"▁예를":4432,"이시여!":4433,"▁목적":4434,"▁겸":4435,"▁베":4436,"▁빛":4437,"경(":4438,"노라.":4439,"식의":4440,"지마는":4441,"호대":4442,"▁아직":4443,"▁사람들은":4444,"▁정당한":4445,"▁다르":4446,"▁인하여":4447,"▁못하면":4448,"▁선을":4449,"▁진실":4450,"▁따라서":4451,"▁나아가":4452,"▁별":4453,"▁윤":4454,"▁효":4455,"▁흔":4456,"어,":4457,"옵소서.":4458,"▁하자는":4459,"▁시간":4460,"▁의무":4461,"▁해탈":4462,"▁국한":4463,"▁일원의":4464,"▁스승님":4465,"▁천하의":4466,"(敎":4467,"▁파":4468,"르는":4469,"성(":4470,"지도":4471,"행을":4472,"▁정법":4473,"▁법은":4474,"▁인간":4475,"▁인격":4476,"▁영산":4477,"▁후,":4478,"▁중생을":4479,"하기로":4480,"▁드러나":4481,"부처님":4482,"▁질":4483,"리오":4484,"부의":4485,"울러":4486,"이는":4487,"하셨":4488,"화를":4489,"회의":4490,"▁하며":4491,"▁말라.":4492,"▁수용":4493,"▁어리석":4494,"▁주인":4495,"▁12":4496,"▁아니하면":4497,"▁원망":4498,"▁조심":4499,"▁「대종사":4500,"▁하여금":4501,"▁단련":4502,"▁감사":4503,"하되,":4504,"▁닦는":4505,"▁활동":4506,")·":4507,"▁담":4508,"▁멀":4509,"▁판":4510,"로는":4511,"옵고":4512,"장을":4513,"▁그것이":4514,"▁가져":4515,"▁아울러":4516,"▁자력":4517,"▁되리라.]\r\n":4518,"▁보는":4519,"▁어린":4520,"▁공부가":4521,"▁힘쓰":4522,"▁힘이":4523,"▁함부로":4524,"▁밝은":4525,"▁대중을":4526,"▁復":4527,"경에":4528,"다\"":4529,"물이":4530,"성가":4531,"에만":4532,"치지":4533,"함이요,":4534,"▁같아서":4535,"▁전체":4536,"▁받은":4537,"▁얻지":4538,"▁세계에":4539,"▁부처님께서":4540,"▁날로":4541,"▁어려운":4542,"하사대":4543,"▁能":4544,"▁듯":4545,"▁묵":4546,"▁풍":4547,"世尊":4548,"도다.":4549,"서를":4550,"움을":4551,"의가":4552,"▁없고,":4553,"▁보지":4554,"▁법계":4555,"▁주고":4556,"▁주인이":4557,"▁12.":4558,"▁성인":4559,"▁공부와":4560,"▁공부의":4561,"▁선진":4562,"▁내지":4563,"▁발견":4564,"하였으며,":4565,"▁세계의":4566,"▁회상이":4567,"▁당시":4568,"▁처리":4569,"▁밝혀":4570,"▁경우에는":4571,"▁짓는":4572,"▁숭배":4573,"상과":4574,"업이":4575,"▁하루":4576,"▁하오":4577,"▁되면":4578,"▁되며,":4579,"▁다스":4580,"▁수보리야":4581,"▁20":4582,"▁개벽":4583,"▁세계가":4584,"▁단체":4585,"▁줄을":4586,"▁천지의":4587,"▁그것을":4588,"▁바르게":4589,".」\r\n":4590,"▁걱":4591,"▁굳":4592,"▁토":4593,"여래":4594,"월,":4595,"지고":4596,"하도록":4597,"▁하신":4598,"▁가진":4599,"▁되나니라.":4600,"▁교무":4601,"▁법률":4602,"▁나무":4603,"▁부터":4604,"▁중에":4605,"▁서울":4606,"므로,":4607,"하면서":4608,"▁하나는":4609,"▁점점":4610,"▁인연을":4611,"니라\r\n":4612,"▁見":4613,"▁급":4614,"▁녹":4615,"▁맑":4616,"▁습":4617,"는가.":4618,"세계":4619,"소에":4620,"일이":4621,"쳐서":4622,"하나니라.]\r\n":4623,"▁그렇":4624,"▁없으면":4625,"▁말씀하시되":4626,"▁나에게":4627,"▁11":4628,"▁여기":4629,"▁행할":4630,"▁살펴":4631,"▁남에게":4632,"▁일원상을":4633,"▁둘째":4634,"▁벗어나":4635,"▁[사람이":4636,".\r\n":4637,"▁『":4638,"▁년":4639,"▁왔":4640,"과,":4641,"도(":4642,"름이":4643,"생활":4644,"세에":4645,"으신":4646,"통을":4647,"회가":4648,"▁하겠":4649,"▁대표":4650,"으로서":4651,"▁세존":4652,"▁도인":4653,"▁아니할":4654,"에서도":4655,"▁위한":4656,"▁영광":4657,"▁진행":4658,"▁비롯":4659,"▁개척":4660,"▁하여야":4661,"▁방편":4662,"▁재주":4663,"▁설립":4664,"▁되어야":4665,"▁초월":4666,"▁집안":4667,"▁어떠하":4668,"▁좌선":4669,"▁특별한":4670,"▁새로운":4671,"▁걱정":4672,"▁낮":4673,"거나,":4674,"로운":4675,"만을":4676,"어진":4677,"위를":4678,"▁것이나,":4679,"▁일어":4680,"▁있다":4681,"▁자주":4682,"▁지은":4683,"▁한결":4684,"▁주장":4685,"▁도량":4686,"▁받지":4687,"▁않을":4688,"▁후에는":4689,"하였고,":4690,"▁특히":4691,"▁자리에":4692,"▁첫째":4693,"▁금강":4694,"▁범부":4695,"▁깊이":4696,"하자면":4697,"▁사이에":4698,"▁얼마나":4699,"▁世尊":4700,"기(":4701,"으려":4702,"인(":4703,"즉,":4704,"▁것이다.":4705,"▁일제":4706,"▁[수":4707,"▁어디":4708,"▁나가":4709,"▁13.":4710,"▁하나니라.]\r\n":4711,"▁참회":4712,"▁당하여":4713,"▁미래":4714,"▁결과":4715,"▁결국":4716,"▁화합":4717,"이니라":4718,"▁훈련을":4719,"▁경우에":4720,"▁영원히":4721,"▁끌리지":4722,"▁復有":4723,"’에":4724,"▁괴":4725,"견을":4726,"나니라.\r\n":4727,"도가":4728,"로부터":4729,"상에":4730,"중의":4731,"지의":4732,"▁사는":4733,"▁말하기를":4734,"▁있다.":4735,"하시고,":4736,"▁공도":4737,"▁세워":4738,"▁14.":4739,"▁아니라,":4740,"▁원래":4741,"▁알게":4742,"▁알아야":4743,"▁얻은":4744,"▁거기에":4745,"▁회상에":4746,"▁크고":4747,"▁귀의":4748,"▁글을":4749,"業하야":4750,"단을":4751,"생이":4752,"식에":4753,"언정":4754,"장에":4755,"재를":4756,"족한":4757,"지(":4758,"▁가족":4759,"▁어떤":4760,"▁아니하여":4761,"▁무념":4762,"▁알뜰":4763,"▁않은":4764,"▁소유":4765,"▁하여,":4766,"▁종교의":4767,"▁집착":4768,"▁번뇌":4769,"으시고":4770,"▁밖으로":4771,"▁견성":4772,"▁떠나지":4773,"▁답하시기를":4774,"],":4775,"▁(":4776,"▁빌":4777,"거니":4778,"러운":4779,"수를":4780,"어도":4781,"의에":4782,"이어":4783,"일을":4784,"지언정":4785,"해서":4786,"▁이른":4787,"▁그가":4788,"▁마음은":4789,"▁전에":4790,"▁삼가":4791,"▁구하는":4792,"▁거짓":4793,"▁열어":4794,"▁당할":4795,"▁뜻에":4796,"▁대중이":4797,"▁앞에":4798,"▁육근":4799,"▁봉안":4800,"▁악한":4801,"▁경계에":4802,"▁믿고":4803,"▁도덕의":4804,"▁有":4805,"▁넓":4806,"▁느":4807,"▁숨":4808,"음이요":4809,"▁이용":4810,"▁일과":4811,"▁없으":4812,"▁법의":4813,"▁무궁":4814,"▁여섯":4815,"이라고":4816,"▁공부는":4817,"▁공부에":4818,"▁않게":4819,"▁의하여":4820,"▁길러":4821,"▁하나의":4822,"▁때에도":4823,"▁자기가":4824,"▁편안":4825,"▁병이":4826,"어지고":4827,"▁곳에":4828,"▁네째는":4829,"▁대종사께서는":4830,"▁응용":4831,"▁청정한":4832,"▁언제":4833,"▁익산":4834,"▁멸":4835,"▁터":4836,"가를":4837,"건마는":4838,"려서":4839,"전을":4840,"하다":4841,"하거나":4842,"▁일심":4843,"▁가까":4844,"▁공익":4845,"▁보내":4846,"▁마음과":4847,"▁공부하는":4848,"▁선악":4849,"▁따로":4850,"▁참된":4851,"▁연마":4852,"▁힘써":4853,"▁저축":4854,"▁중생의":4855,"▁작용":4856,"▁형상":4857,"▁쓰는":4858,"▁버리고":4859,"▁드러내":4860,"▁셋째":4861,"▁이것을":4862,")한":4863,"▁골":4864,"▁넷":4865,"▁채":4866,"▁탄":4867,"▁와서":4868,"까.":4869,"노라.]\r\n":4870,"세를":4871,"원불교":4872,"인에게":4873,"회에":4874,"▁하옵":4875,"▁대개":4876,"▁[내가":4877,"▁없지":4878,"▁한량":4879,"▁보호":4880,"▁생사":4881,"▁여의":4882,"▁세상이":4883,"▁해석":4884,"▁방면":4885,"▁반조":4886,"▁형제":4887,"▁학인이":4888,"▁치료":4889,"하옵나이다.":4890,"▁승급":4891,"▁습관":4892,"(金":4893,")하는":4894,")에게":4895,"▁其":4896,"▁맺":4897,"▁싫":4898,"▁왕":4899,"기지":4900,"되지":4901,"사업":4902,"산을":4903,"상으로":4904,"움이":4905,"원의":4906,"회는":4907,"▁공동":4908,"▁보아":4909,"▁부지":4910,"▁바를":4911,"▁못하게":4912,"▁대종사를":4913,"▁세상은":4914,"▁의식":4915,"▁복이":4916,"▁적공":4917,"▁입정":4918,"▁기운을":4919,"▁취사":4920,"▁[그러":4921,"▁현재":4922,"▁사은의":4923,"▁깊은":4924,"▁너무":4925,"▁축원":4926,"▁꾸준":4927,"▁뵈":4928,"▁짐":4929,"르고":4930,"만한":4931,"명,":4932,"원기":4933,"일새":4934,"장(":4935,"중에":4936,"처럼":4937,"하라":4938,"▁그에":4939,"▁사무":4940,"▁있나니":4941,"▁[어":4942,"▁[저":4943,"▁되게":4944,"▁아니면":4945,"▁공부요,":4946,"▁서원을":4947,"▁있으므로":4948,"▁분별":4949,"▁국민":4950,"▁몸이":4951,"다가,":4952,"▁들어가":4953,"▁확립":4954,"▁佛言":4955,"▁철저":4956,"▁어리석은":4957,"▁世尊이시여":4958,"(三":4959,"▁밤":4960,"▁석":4961,"▁억":4962,"▁읽":4963,"년에":4964,"법(":4965,"제를":4966,"지로":4967,"하던":4968,"▁대답":4969,"▁일곱":4970,"▁17.":4971,"▁아니한":4972,"이라는":4973,"▁위에":4974,"▁받고":4975,"▁조목":4976,"▁삼대":4977,"▁구분":4978,"▁소개":4979,"▁거룩":4980,"▁미워":4981,"▁하시고":4982,"▁육도":4983,"▁문명":4984,"나니라.]":4985,"▁날이":4986,"▁운전":4987,"▁대하여\r\n":4988,"▁공덕이":4989,"시키는":4990,"거늘,":4991,"▁게":4992,"▁융":4993,"겠는가.":4994,"념을":4995,"드는":4996,"려면":4997,"법의":4998,"불어":4999,"상은":5000,"원이":5001,"의로":5002,"정이":5003,"하실":5004,"▁사사":5005,"▁일도":5006,"▁일생을":5007,"▁법에":5008,"▁생겨":5009,"▁기타":5010,"▁제거":5011,"▁15.":5012,"▁16.":5013,"▁알았":5014,"▁얻었":5015,"▁더불어":5016,"▁개교":5017,"▁물으시":5018,"▁안에":5019,"나이다.\r\n":5020,"▁생활에":5021,"▁놓지":5022,"▁근본을":5023,"▁여래가":5024,"▁是名":5025,"▁그것은":5026,"▁어렵고":5027,"▁다섯째는":5028,"(天":5029,")]":5030,"▁궁":5031,"▁밟":5032,"▁쓸":5033,"▁즉":5034,"菩薩":5035,"기고":5036,"로다.":5037,"르지":5038,"사오니":5039,"소를":5040,"으셨":5041,"인댄":5042,"장.":5043,"편에":5044,"▁것만":5045,"▁말한":5046,"▁말할":5047,"▁정기":5048,"▁공양":5049,"▁되느니라.」\r\n":5050,"▁지어":5051,"▁법위":5052,"▁제불":5053,"▁때를":5054,"▁만한":5055,"▁영모":5056,"▁신성":5057,"▁후진":5058,"▁등이":5059,"▁살림":5060,"▁살피":5061,"▁계획":5062,"▁돌려":5063,"▁설명":5064,"▁어찌한":5065,"▁깨치":5066,"▁죄를":5067,"▁근본이":5068,"▁운영":5069,"▁덕을":5070,"▁손님":5071,"문(예문":5072,"▁而":5073,"▁슬":5074,"▁퇴":5075,"▁혈":5076,"▁협":5077,"▁흐":5078,"令衆生이":5079,"데,":5080,"듯이":5081,"라\"":5082,"신이":5083,"원으로":5084,"인가":5085,"자녀":5086,"자와":5087,"체를":5088,"화의":5089,"히려":5090,"라.]":5091,"▁[세":5092,"▁없나니라.]\r\n":5093,"▁법설":5094,"▁기술":5095,"▁18.":5096,"▁도와":5097,"▁21.":5098,"▁천도를":5099,"▁영겁":5100,"▁얻으":5101,"▁실로":5102,"▁재가":5103,"▁차례":5104,"▁되었다.":5105,"▁운동":5106,"하옵고":5107,"▁若有":5108,"▁필요":5109,"▁소태산은":5110,"▁이익을":5111,"▁떨어지":5112,"▁잃지":5113,"느냐.]":5114,"▁베풀":5115,"▁能令衆生이":5116,"▁꾸준히":5117,"(一":5118,"0년":5119,"▁我":5120,"▁끼":5121,"▁빚":5122,"▁황":5123,"山)":5124,"故오":5125,"가모":5126,"고를":5127,"들과":5128,"롭게":5129,"복의":5130,"신의":5131,"자로":5132,"▁말하자면":5133,"▁없어서":5134,"▁세세":5135,"▁교역":5136,"▁한다":5137,"▁어두":5138,"▁법문":5139,"▁제2":5140,"▁바람":5141,"▁위력을":5142,"▁고락":5143,"▁않도록":5144,"▁상시":5145,"▁발간":5146,"▁가지가":5147,"▁물품":5148,"▁사업의":5149,"▁교단을":5150,"▁병진":5151,"년(194":5152,"▁봉래":5153,"▁변화":5154,"▁진리의":5155,"▁온전":5156,"(心":5157,"(李":5158,".사":5159,"]\n":5160,"].」\r\n":5161,"▁접":5162,"▁키":5163,"以故오":5164,"니이다":5165,"리게":5166,"시어":5167,"일한":5168,"지어":5169,"함으로써":5170,"항마":5171,"▁있나니라.]\r\n":5172,"▁되리라.":5173,"▁수보리":5174,"▁지나":5175,"▁주지":5176,"▁기원":5177,"▁19.":5178,"▁만유":5179,"▁20.":5180,"에게는":5181,"▁오히려":5182,"▁그러나":5183,"▁발원":5184,"▁거래":5185,"이요,\r\n":5186,"▁예의":5187,"▁데에도":5188,"▁결혼":5189,"▁봉공":5190,"▁초대":5191,"▁듣는":5192,"▁위해서는":5193,"▁以是":5194,"▁잊지":5195,"▁떨어":5196,"▁何以故오":5197,"▁누구나":5198,"가(성가":5199,"▁세존이시여":5200,"가모니":5201,"(佛":5202,"▁亦":5203,"▁엄":5204,"▁헤":5205,"云何":5206,"과거":5207,"되,":5208,"또한":5209,"산(":5210,"중빈":5211,"▁하기":5212,"▁그는":5213,"▁사리":5214,"▁대소":5215,"▁것이며":5216,"▁아홉":5217,"▁교정":5218,"▁기다":5219,"▁못하였":5220,"▁23.":5221,"▁삼아":5222,"▁회갑":5223,"▁있으나,":5224,"▁계시":5225,"▁과목":5226,"▁과학":5227,"▁하시니,":5228,"7.丁":5229,"▁출생":5230,"▁둘이":5231,"▁청년":5232,"이니이다":5233,"▁작업":5234,"▁부모의":5235,"▁진리와":5236,"▁수행의":5237,"▁광명":5238,"▁박중빈":5239,"▁체받":5240,"▁걸림":5241,"▁공덕을":5242,"▁욕심":5243,"▁언제나":5244,"▁빼":5245,"▁솟":5246,"世界":5247,"如是":5248,"되고,":5249,"리니,":5250,"백년":5251,"수가":5252,"실을":5253,"어버":5254,"위는":5255,"이가":5256,"이면":5257,"자(":5258,"▁그의":5259,"▁대자":5260,"라.\r\n":5261,"▁일이나":5262,"▁주셨":5263,"▁제도를":5264,"▁아니요":5265,"▁인증":5266,"▁인생의":5267,"▁26.":5268,"▁여덟":5269,"▁대종사와":5270,"이라야":5271,"▁시행":5272,"▁고루":5273,"▁실현":5274,"▁발표":5275,"▁등의":5276,"▁등으로":5277,"▁예수":5278,"▁적당한":5279,"▁제자가":5280,"1.辛":5281,"▁친척":5282,"▁도덕을":5283,"▁짓지":5284,"▁원불교의":5285,"▁좌우":5286,"▁돌아오는":5287,"▁所":5288,"▁갚":5289,"▁옷":5290,"▁울":5291,"가의":5292,"강항마":5293,"고자":5294,"금을":5295,"수(":5296,"시고,":5297,"연한":5298,"전의":5299,"하에":5300,"▁대학":5301,"으로든지":5302,"하시니,":5303,"▁없나니,":5304,"▁사람과":5305,"▁아니하였":5306,"▁원리를":5307,"▁무상":5308,"▁29.":5309,"▁24.":5310,"▁경제":5311,"▁실시":5312,"▁해를":5313,"▁과보":5314,"▁생활이":5315,"▁배출":5316,"년(192":5317,"▁간절":5318,"▁봉고":5319,"▁이루어":5320,"0.庚":5321,"▁돌아가":5322,"▁못하나니,":5323,"▁나타나는":5324,"▁가르쳐":5325,"▁모르고":5326,"▁사은이시여!":5327,"▁세우고":5328,"는데,":5329,"(道":5330,")라":5331,")하여":5332,"▁붙":5333,"▁쇠":5334,"▁커":5335,"一切":5336,"如來":5337,"未)":5338,"공(":5339,"기의":5340,"대의":5341,"도의":5342,"려고":5343,"력으로":5344,"리로":5345,"리면":5346,"사와":5347,"성으로":5348,"시켜":5349,"원.":5350,"지만":5351,"한다":5352,"▁이후":5353,"▁일러":5354,"▁[불":5355,"▁없으며":5356,"▁법문을":5357,"▁부탁":5358,"▁인간의":5359,"▁중요":5360,"▁중요한":5361,"▁26":5362,"▁전문":5363,"▁영생을":5364,"▁삼동":5365,"▁구원":5366,"▁생각하여":5367,"▁회상은":5368,"▁하여도":5369,"▁물러":5370,"▁있으니,":5371,"▁분명":5372,"▁깨닫":5373,"▁관한":5374,"년(193":5375,"▁순서":5376,"▁속에":5377,"▁속에서":5378,"▁여래의":5379,"▁현실":5380,"리요.]\r\n":5381,"오니까.]":5382,"▁주시옵소서.":5383,"▁최후":5384,"▁자신의":5385,"▁얼굴":5386,"▁우주의":5387,"▁깨달아":5388,"▁쉽게":5389,"▁佛言-":5390,"(四":5391,"(禪":5392,")도":5393,")에는":5394,"▁굴":5395,"▁쌍":5396,"▁침":5397,"는,":5398,"다라":5399,"됨이":5400,"례를":5401,"리니":5402,"매,":5403,"명(":5404,"사로":5405,"용을":5406,"원에":5407,"종경":5408,"지니,":5409,"천이":5410,"치를":5411,"타원":5412,"호를":5413,"화가":5414,"히고":5415,"▁이웃":5416,"▁대우":5417,"으로,":5418,"▁가로":5419,"▁[선":5420,"하고자":5421,"▁되도록":5422,"▁마음대로":5423,"▁나서":5424,"▁나와":5425,"▁기간":5426,"▁제위":5427,"▁15":5428,"▁22.":5429,"▁25.":5430,"▁대종사께":5431,"▁받았":5432,"▁30.":5433,"▁31.":5434,"▁조항":5435,"▁진급":5436,"▁하나를":5437,"▁본위":5438,"▁함이":5439,"▁단결":5440,"▁통달":5441,"▁몸에":5442,"▁둘은":5443,"▁번역":5444,"▁놓아":5445,"▁산업":5446,"▁인연이":5447,"▁가르치는":5448,"▁이르시":5449,"▁누가":5450,"▁자신이":5451,"▁무엇을":5452,"▁환영":5453,"▁애착":5454,"▁자성의":5455,"▁싫어":5456,"[또한":5457,"▁겁":5458,"▁곡":5459,"▁긴":5460,"▁꽃":5461,"▁놀":5462,"▁숙":5463,"▁펴":5464,"▁했":5465,"▁흥":5466,"多羅":5467,"국의":5468,"뇩다라":5469,"대를":5470,"먁삼":5471,"모든":5472,"삼먁삼":5473,"신(":5474,"실히":5475,"원은":5476,"유를":5477,"전]":5478,"하겠":5479,"하라.]\r\n":5480,"회(":5481,"▁이리":5482,"▁그를":5483,"▁그릇":5484,"▁대할":5485,"▁일의":5486,"▁있다.\n":5487,"▁자손":5488,"▁자성을":5489,"▁교서":5490,"▁교헌":5491,"▁한갓":5492,"▁법도":5493,"▁도둑":5494,"▁때문":5495,"▁무시":5496,"▁32.":5497,"▁내리시":5498,"▁우리도":5499,"▁세상에서":5500,"이요.":5501,"▁발족":5502,"▁같이,":5503,"하기가":5504,"▁자리에서":5505,"▁맞도록":5506,"▁진리가":5507,"▁시대의":5508,"5.乙":5509,"▁네가":5510,"▁존중":5511,"▁앞으로는":5512,"▁육신을":5513,"▁땅에":5514,"▁끝까지":5515,"▁그런즉,":5516,"▁사용할":5517,"사오니,":5518,"▁즐거":5519,"▁흔들":5520,"▁어떠하냐":5521,"▁일제히":5522,"뇩다라삼먁삼":5523,"(靈":5524,")이요,":5525,"6년":5526,"▁爲":5527,"時에":5528,"自性":5529,"경은":5530,"계의":5531,"공부":5532,"니와":5533,"대한":5534,"도로":5535,"동안":5536,"렇게":5537,"력과":5538,"로.":5539,"로를":5540,"바,":5541,"별록":5542,"수한":5543,"정의":5544,"▁이런":5545,"▁하더라도":5546,"▁사요":5547,"▁대신":5548,"▁말은":5549,"▁일으":5550,"▁가고":5551,"▁없애":5552,"▁자기를":5553,"▁세간":5554,"▁지옥":5555,"▁보배":5556,"▁법으로":5557,"▁기본":5558,"▁부분":5559,"▁때와":5560,"▁불과":5561,"▁28":5562,"▁28.":5563,"▁위원":5564,"▁경축":5565,"▁고유":5566,"▁세상에는":5567,"▁삼고":5568,"▁「우":5569,"▁해결":5570,"▁유지":5571,"▁그대들의":5572,"▁복덕":5573,"▁반백년":5574,"▁통해":5575,"▁입교":5576,"▁일원상":5577,"▁순으로":5578,"▁놓은":5579,"▁ᄋ월":5580,"4.甲":5581,"▁가르치":5582,"▁추진":5583,"▁인류의":5584,"▁처음에는":5585,"▁배우는":5586,"▁헌공":5587,"는가.]":5588,"▁빼앗":5589,"▁굽":5590,"▁냄":5591,"▁혁":5592,"三菩提":5593,"福德":5594,"륜을":5595,"습니다.":5596,"식.":5597,"심은":5598,"입니다.":5599,"자에게":5600,"조합":5601,"종교":5602,"질을":5603,"추어":5604,"▁사항":5605,"▁것이다.\n":5606,"▁일동":5607,"▁일생":5608,"▁있도록":5609,"▁있느니라.":5610,"▁가난":5611,"▁[무":5612,"▁정의":5613,"▁자타":5614,"▁다니":5615,"다.[":5616,"▁한다면":5617,"▁제정":5618,"▁도학":5619,"▁27.":5620,"▁공부로":5621,"▁선지":5622,"▁33.":5623,"▁4월":5624,"▁힘쓸":5625,"▁데에는":5626,"▁적당":5627,"▁배워":5628,"▁허망":5629,"까지도":5630,"▁학인":5631,"▁이름이니,":5632,"▁스승의":5633,"▁이치가":5634,"▁나타난":5635,"▁사회에":5636,"▁직업":5637,"▁끌려":5638,"▁절약":5639,"▁어려우":5640,"▁쉬우":5641,"▁언어":5642,"▁욕심을":5643,"▁희사":5644,"느냐.":5645,"▁높은":5646,"▁의지하여":5647,"▁멀리":5648,"▁하오면":5649,"▁그렇지":5650,"▁골라":5651,"▁부지런":5652,"▁번역하면":5653,"多羅三":5654,"(예문":5655,"▁三":5656,"▁검":5657,"▁낳":5658,"▁넉":5659,"▁밑":5660,"▁삿":5661,"▁싸":5662,"不아":5663,"意云何":5664,"文\r\n":5665,"耨多羅三":5666,"藐三菩提":5667,"阿耨多羅三":5668,"더니":5669,"도는":5670,"르게":5671,"마음":5672,"성의":5673,"심이요,":5674,"으라.":5675,"재(":5676,"질이":5677,"컨대":5678,"하리라.":5679,"함에":5680,"▁이행":5681,"▁것이라":5682,"▁것이므로":5683,"▁가시":5684,"▁[정":5685,"▁[과거":5686,"▁정성이":5687,"▁마을":5688,"▁보아서":5689,"▁어긋":5690,"▁법인":5691,"▁생기":5692,"▁나도":5693,"▁기도를":5694,"▁못하여":5695,"▁2)":5696,"▁여기에":5697,"▁동정":5698,"▁내역":5699,"▁고백":5700,"▁실력을":5701,"▁상(":5702,"▁등급":5703,"▁개식":5704,"▁개인의":5705,"▁생각으로":5706,"▁하나가":5707,"▁하나로":5708,"▁하나니라.":5709,"▁있으니":5710,"▁있으리요.":5711,"▁방해":5712,"▁깨끗":5713,"▁밝아":5714,"▁배은":5715,"▁스승을":5716,"▁매일":5717,"▁부모가":5718,"어지는":5719,"▁ᄋ일에":5720,"▁짓고":5721,"▁이르러":5722,"▁과거의":5723,"▁교육을":5724,"▁타력":5725,"▁임시":5726,"▁책임을":5727,"▁특별히":5728,"▁축하":5729,"▁ᄋᄋ년":5730,"▁보은의":5731,"▁於意云何":5732,"▁거행할":5733,"▁여섯째는":5734,"▁물으시기를":5735,"▁넉넉":5736,"阿耨多羅三藐三菩提":5737,"▁於意云何오":5738,"(圓":5739,")’":5740,"▁四":5741,"▁곤":5742,"▁논":5743,"▁맹":5744,"▁몰":5745,"▁밭":5746,"▁월":5747,"▁탁":5748,"▁품":5749,"▁휴":5750,"布施":5751,"기관":5752,"디어":5753,"러라.\r\n":5754,"려는":5755,"머니":5756,"문은":5757,"스럽":5758,"시며":5759,"식으로":5760,"심하여":5761,"인고":5762,"일,":5763,"적이":5764,"주.":5765,"침이":5766,"회에서":5767,"히는":5768,"▁하니":5769,"▁대의를":5770,"▁말로":5771,"▁일념":5772,"▁일상":5773,"▁있지":5774,"하시며":5775,"▁아님":5776,"▁아뇩다라삼먁삼":5777,"▁[일":5778,"▁없나니":5779,"▁없도록":5780,"▁사람이라도":5781,"▁되나니":5782,"▁말씀하신":5783,"▁지배":5784,"▁보응":5785,"▁생멸":5786,"▁기초":5787,"▁아니니,":5788,"▁아니하는":5789,"▁아니함이요":5790,"▁인물":5791,"▁만고":5792,"▁22":5793,"▁25":5794,"▁여자":5795,"▁고축":5796,"▁조사":5797,"▁49":5798,"▁삼천":5799,"▁상을":5800,"▁들으시고":5801,"▁생각할":5802,"▁유공":5803,"▁두고":5804,"▁두어":5805,"▁재미":5806,"▁설사":5807,"▁적지":5808,"▁문득":5809,"▁형편에":5810,"▁나타내":5811,"▁인연으로":5812,"▁잡아":5813,"▁혜를":5814,"▁절차":5815,"▁주시니":5816,"▁쉬지":5817,"▁낙을":5818,"▁향상":5819,"▁폐식의":5820,"▁민족":5821,"▁원광대학":5822,"▁인격을":5823,"▁일곱째는":5824,"▁가로되":5825,"(定":5826,"(원기":5827,"3.대종사":5828,"▁在":5829,"▁겨":5830,"▁군":5831,"▁밥":5832,"▁싶":5833,"▁야":5834,"▁얽":5835,"▁옮":5836,"▁칠":5837,"▁탑":5838,"▁흩":5839,"定慧":5840,"淸淨":5841,"기와":5842,"득이":5843,"봉공":5844,"불을":5845,"성에":5846,"성하여":5847,"시며,":5848,"오리까.]":5849,"이란":5850,"제자":5851,"찌기":5852,"치게":5853,"함이니,":5854,"회.":5855,"▁그와":5856,"▁대사":5857,"▁일시":5858,"▁일심으로":5859,"▁일찌기":5860,"하시는":5861,"▁[대":5862,"▁사람으로":5863,"▁교환":5864,"▁보게":5865,"▁보화":5866,"▁법과":5867,"▁모시고":5868,"▁제생":5869,"▁18":5870,"▁도에":5871,"▁때가":5872,"▁때의":5873,"▁아니요,":5874,"▁성년":5875,"▁경례":5876,"▁34.":5877,"▁35.":5878,"▁서서":5879,"▁신심이":5880,"▁40":5881,"▁의심":5882,"▁상극":5883,"▁구족":5884,"▁연원":5885,"▁유념":5886,"▁심히":5887,"▁사업이":5888,"▁장엄":5889,"▁안정":5890,"▁가운데에":5891,"▁통일":5892,"▁몸과":5893,"▁일원상의":5894,"▁병을":5895,"▁건국":5896,"▁여러분":5897,"▁죽는":5898,"▁신앙의":5899,"▁지금은":5900,"▁지혜를":5901,"▁동시에,":5902,"▁경전을":5903,"▁자유를":5904,"▁만물의":5905,"이다.]":5906,"▁지키는":5907,"▁영가에게":5908,"▁지극히":5909,"▁완전한":5910,"▁판단":5911,"▁하루는":5912,"지어다.":5913,"▁아홉째는":5914,"▁여덟째는":5915,".로.":5916,"▁十":5917,"▁告":5918,"▁大":5919,"▁汝":5920,"▁生":5921,"▁됨":5922,"▁뒷":5923,"▁움":5924,"▁투":5925,"▁홀":5926,"▁훌":5927,"言하사대":5928,"노니,":5929,"님의":5930,"선(":5931,"소한":5932,"식(":5933,"심에":5934,"었으며,":5935,"우는":5936,"지지":5937,"행(":5938,"▁이끌":5939,"▁이로":5940,"▁이룩":5941,"▁대체":5942,"▁대도를":5943,"▁일일이":5944,"▁있음을":5945,"하시며,":5946,"▁가득":5947,"▁아닐":5948,"▁[천":5949,"▁없으며,":5950,"▁없으나":5951,"▁사람들의":5952,"▁마친":5953,"▁교리":5954,"다.’":5955,"▁지으시":5956,"▁생명을":5957,"▁기록":5958,"▁부족":5959,"▁도인이":5960,"▁오고":5961,"▁조합":5962,"▁의심이":5963,"▁실지":5964,"▁정신의":5965,"▁계교":5966,"▁계승":5967,"▁방문":5968,"▁방언":5969,"▁미치는":5970,"▁재계":5971,"▁부처님과":5972,"▁감응":5973,"▁집에":5974,"▁권속":5975,"▁악을":5976,"▁악도에":5977,"▁이름을":5978,"▁열반인의":5979,"▁교화를":5980,"▁은혜와":5981,"▁기관이":5982,"▁밖에":5983,"▁최고":5984,"▁타락":5985,"▁확장":5986,"▁쉬운":5987,"▁지혜의":5988,"▁관계가":5989,"▁피은":5990,"▁무엇이":5991,"▁셋째는":5992,"▁이해를":5993,"▁[그대들이":5994,"하리니":5995,"▁성현의":5996,"▁말며,\r\n":5997,"▁생령을":5998,"▁힘써야":5999,"▁훌륭":6000,")하고":6001,"▁當":6002,"▁갑":6003,"▁솔":6004,"般若":6005,"酉)":6006,"陀圓":6007,"같은":6008,"년을":6009,"념이":6010,"단의":6011,"대에":6012,"로소":6013,"부가":6014,"불이":6015,"수의":6016,"신은":6017,"어늘":6018,"여!":6019,"이를":6020,"일(":6021,"자들이":6022,"주를":6023,"중한":6024,"지금":6025,"토록":6026,"학교":6027,"훈련":6028,"▁하나,":6029,"▁말과":6030,"▁있다면":6031,"▁[법":6032,"▁[예":6033,"▁없나니라.":6034,"▁공적":6035,"▁공헌":6036,"▁말씀에":6037,"▁세월":6038,"▁지공":6039,"▁주어":6040,"▁나누":6041,"▁16":6042,"▁때문에":6043,"▁같지":6044,"▁위로":6045,"▁고하시기를":6046,"▁삼세":6047,"▁얻고":6048,"▁해당":6049,"▁비유":6050,"▁열째는":6051,"▁행사":6052,"▁심신을":6053,"▁장소":6054,"▁부처님을":6055,"▁좋게":6056,"▁몸으로":6057,"▁강급":6058,"▁죄업이":6059,"▁노래":6060,"▁드디어":6061,"▁종교가":6062,"▁스승이":6063,"▁열반에":6064,"▁맞이":6065,"2.壬":6066,"▁운용":6067,"▁닦아":6068,"▁시대에":6069,"▁사회의":6070,"▁올리":6071,"▁교당에서":6072,"6.丙":6073,"▁증거":6074,"▁사용하는":6075,"▁책임이":6076,"▁이것은":6077,"면서도":6078,"▁묵은":6079,"▁낮은":6080,"▁復有業하야":6081,"▁무궁한":6082,"▁가까운":6083,"▁넷째":6084,"▁반조하여":6085,"▁삼동윤":6086,"▁이르시되":6087,"(公":6088,"7.대종사":6089,"▁起":6090,"▁뛰":6091,"具足":6092,"波羅":6093,"辰)":6094,"경이":6095,"들로":6096,"리(":6097,"바라":6098,"부모":6099,"비를":6100,"심의":6101,"었고,":6102,"의와":6103,"이니라.」\r\n":6104,"인가.":6105,"자에":6106,"전이":6107,"제의":6108,"처를":6109,"치가":6110,"하와":6111,"하다가":6112,"함과":6113,"해를":6114,"▁하심이":6115,"▁사량":6116,"▁말고,":6117,"▁있던":6118,"▁가리":6119,"▁[한":6120,"▁[모든":6121,"▁자라":6122,"▁공변":6123,"▁지켜":6124,"▁보았":6125,"▁주례":6126,"▁주세":6127,"▁부득이":6128,"▁아니하고,":6129,"▁원을":6130,"▁만드는":6131,"▁우선":6132,"▁같나니라.]\r\n":6133,"▁시기":6134,"▁할진대":6135,"▁전개":6136,"▁37.":6137,"▁36.":6138,"▁서가모니":6139,"▁않았":6140,"▁않으면":6141,"▁「정":6142,"하면,":6143,"▁상이":6144,"▁구인":6145,"▁등에":6146,"▁길에":6147,"▁열린":6148,"▁들어서":6149,"▁부처가":6150,"▁생각하고":6151,"▁두렷":6152,"▁남이":6153,"나이까.":6154,"▁그대들이":6155,"▁결의":6156,"▁단원":6157,"▁교단이":6158,"년(197":6159,"▁제자에게":6160,"▁초창":6161,"▁근본되는":6162,"▁악업을":6163,"▁변하지":6164,"▁진리에":6165,"▁곳이":6166,"▁합동":6167,"▁합하여":6168,"▁역사를":6169,"▁약간의":6170,"▁덕이":6171,"▁추모":6172,"▁존령":6173,"▁너른":6174,"▁종법사의":6175,"사람이":6176,"▁인류가":6177,"▁주의할":6178,"▁교도의":6179,"▁만물을":6180,"▁셋은":6181,"▁보시를":6182,"▁포교":6183,"▁이익이":6184,"▁시비를":6185,"▁완전히":6186,"▁「대종사께서":6187,"▁빚을":6188,"▁부지런히":6189,"▁삿된":6190,"▁맹세":6191,"▁움직":6192,"▁지으시니":6193,"(正":6194,".공":6195,".법":6196,"00":6197,"1년":6198,"3년":6199,"▁'":6200,"▁二":6201,"▁六":6202,"▁걷":6203,"▁든":6204,"▁와":6205,"▁흉":6206,"報하나니":6207,"子)":6208,"說法":6209,"건대":6210,"도와":6211,"롭고":6212,"복은":6213,"사한":6214,"산에":6215,"식에서":6216,"었다":6217,"었나니,":6218,"연을":6219,"위(":6220,"자.":6221,"정에":6222,"정으로":6223,"조(":6224,"통이":6225,"하의":6226,"한다는":6227,"▁이듬":6228,"▁그르":6229,"▁대범":6230,"▁대원":6231,"▁대치":6232,"▁일관":6233,"▁일대":6234,"하시니":6235,"▁가졌":6236,"▁정한":6237,"▁공이":6238,"▁공한":6239,"▁되므로":6240,"▁말씀을":6241,"▁다행":6242,"▁다름이":6243,"▁교의":6244,"▁교회":6245,"▁지킬":6246,"▁한국":6247,"▁법\r\n":6248,"▁기르":6249,"▁부끄":6250,"▁제3":6251,"▁제가":6252,"▁무서":6253,"▁같고":6254,"▁위를":6255,"▁동작":6256,"▁오랜":6257,"▁영혼":6258,"▁고요":6259,"▁조선":6260,"▁조용":6261,"▁진리는":6262,"▁4월에":6263,"▁삼매":6264,"▁「첫":6265,"▁의견":6266,"▁실패":6267,"▁등한":6268,"▁부처를":6269,"▁부처와":6270,"▁남아":6271,"▁뜻은":6272,"▁그대들도":6273,"▁반야":6274,"▁결정":6275,"▁처지에":6276,"▁깨쳐":6277,"▁몸은":6278,"▁편,":6279,"▁간단":6280,"▁요양":6281,"▁이루는":6282,"▁이루지":6283,"▁근본은":6284,"▁있어서도":6285,"▁믿는":6286,"▁원만히":6287,"▁목표":6288,"▁치우":6289,"▁국가의":6290,"▁지혜가":6291,"되었다.":6292,"▁관계로":6293,"▁충분":6294,"▁만물이":6295,"▁보살이":6296,"▁불법연구":6297,"하리라":6298,"▁[우리":6299,"▁차별이":6300,"옵소서.\r\n":6301,"▁살펴서":6302,"▁차례로":6303,"▁若有衆生이":6304,")에서":6305,"18":6306,"4년":6307,"▁《":6308,"▁乃":6309,"▁人":6310,"▁皆":6311,"▁雖":6312,"▁북":6313,"▁촉":6314,"▁흘":6315,"一圓":6316,"不可":6317,"壽者":6318,"心)을":6319,"業으로":6320,"業이요":6321,"고로":6322,"기에는":6323,"니다":6324,"다든지":6325,"덕을":6326,"반야":6327,"방에":6328,"보면":6329,"복이":6330,"부(":6331,"선을":6332,"식은":6333,"안을":6334,"욕을":6335,"용이":6336,"위와":6337,"의는":6338,"인과":6339,"재하는":6340,"제가":6341,"조는":6342,"조를":6343,"편(":6344,"하나,":6345,"▁그림":6346,"▁말하면":6347,"▁일로":6348,"▁일만":6349,"▁[아":6350,"▁[옛":6351,"▁다하여":6352,"▁모여":6353,"▁주체":6354,"▁기구":6355,"▁부족한":6356,"▁도움을":6357,"▁때마다":6358,"▁바다":6359,"▁성인이":6360,"▁불고":6361,"▁중에도":6362,"▁24":6363,"▁위주":6364,"▁38.":6365,"▁영육":6366,"▁영향":6367,"▁종사께서":6368,"▁내왕":6369,"▁42":6370,"▁40.":6371,"하지도":6372,"▁해외":6373,"▁종재":6374,"▁발달":6375,"▁거듭":6376,"▁가지로":6377,"▁개최":6378,"▁세계,":6379,"▁행을":6380,"▁생각하는":6381,"▁하나도":6382,"▁정신은":6383,"▁정신으로":6384,"▁계발":6385,"▁방향":6386,"▁과연":6387,"▁재산":6388,"▁저의":6389,"▁부처님이":6390,"▁결함":6391,"▁깨친":6392,"▁중생은":6393,"▁줄도":6394,"▁봉불":6395,"▁요란":6396,"8.戊":6397,"▁권장":6398,"▁권리를":6399,"▁이치에":6400,"▁맞게":6401,"▁수도인":6402,"▁제도의":6403,"▁곳을":6404,"3.癸":6405,"▁시대를":6406,"▁경우를":6407,"▁광대":6408,"▁천하를":6409,"▁천하에":6410,"▁이르되":6411,"▁종법사는":6412,"▁나라의":6413,"▁임의로":6414,"하자.":6415,"▁식순":6416,"▁사람에게는":6417,"▁연고인고":6418,"으므로,":6419,"▁평화를":6420,"▁극락":6421,"▁만들어":6422,"▁잠간":6423,"▁영가의":6424,"▁하되,":6425,"▁행동을":6426,"▁근원이":6427,"▁지극한":6428,"▁끊임없이":6429,"▁如來說":6430,"▁진실한":6431,"▁의무와":6432,"▁발견하여":6433,"▁굳게":6434,"▁금강산":6435,"▁[수보리야":6436,"▁알뜰한":6437,"▁여의지":6438,"▁세존이시여.":6439,"▁훌륭한":6440,".이":6441,"▁云":6442,"▁天":6443,"▁밀":6444,"▁섭":6445,"▁술":6446,"▁싹":6447,"▁좇":6448,"▁줌":6449,"▁업을":6450,"十業하야":6451,"因緣":6452,"巳)":6453,"감하시":6454,"개소":6455,"교육":6456,"래의":6457,"려가":6458,"리도":6459,"만이":6460,"문이":6461,"보를":6462,"서도":6463,"서원":6464,"수양":6465,"스러운":6466,"시기를":6467,"양이":6468,"었으나,":6469,"일의":6470,"일체":6471,"정은":6472,"주는":6473,"중생":6474,"지와":6475,"처에":6476,"하매":6477,"하리라.]\r\n":6478,"해가":6479,"▁이기":6480,"▁이렇게":6481,"▁사심":6482,"▁말하되":6483,"▁있사오":6484,"하시어,":6485,"▁[오":6486,"▁[원불교":6487,"▁정규":6488,"▁정화":6489,"▁자각":6490,"▁자력을":6491,"▁되나이까.]":6492,"▁말씀하되":6493,"▁수입":6494,"▁교법":6495,"▁지역":6496,"▁보이지":6497,"▁생명":6498,"▁나가는":6499,"▁기틀":6500,"▁도는":6501,"▁인심이":6502,"▁인물이":6503,"▁원칙":6504,"▁만능":6505,"▁불생":6506,"▁무위":6507,"▁중에서":6508,"▁여여":6509,"▁시국":6510,"▁오롯":6511,"▁전진":6512,"▁선도":6513,"▁39.":6514,"▁조건":6515,"▁회복":6516,"▁해가":6517,"▁상생":6518,"▁상주":6519,"▁따르":6520,"▁비옵":6521,"▁비로소":6522,"하였다.\n":6523,"▁들이":6524,"▁개선":6525,"▁세계는":6526,"▁각기":6527,"▁참석":6528,"▁살고":6529,"▁미루":6530,"▁돌이":6531,"▁뜻으로":6532,"▁항마":6533,"▁밝힌":6534,"▁입으로":6535,"▁출입":6536,"▁능력이":6537,"▁줄로":6538,"▁되어,":6539,"▁하였다.":6540,"▁되었다.\r\n":6541,"▁일체의":6542,"▁스승과":6543,"▁표어":6544,"▁기운으로":6545,"▁不可":6546,"▁곳에서":6547,"▁믿지":6548,"▁쓰지":6549,"▁수행을":6550,"▁죽기":6551,"▁죽을":6552,"▁광명을":6553,"▁신앙을":6554,"▁어려울":6555,"▁如是":6556,"▁기관을":6557,"▁발전에":6558,"소서.]":6559,"▁대각을":6560,"▁받들고":6561,"▁혼자":6562,"▁성공을":6563,"▁[그대가":6564,"▁돈오":6565,"▁인과의":6566,"▁즐겨":6567,"▁탐착":6568,"▁후에야":6569,"▁챙겨":6570,"▁주인공":6571,"▁단련하여":6572,"▁다스리는":6573,"▁復有十業하야":6574,"▁번뇌가":6575,"▁영모전":6576,"▁체받아서":6577,"▁간절히":6578,"▁학인들에게":6579,"▁고백하옵나이다.":6580,"▁섭섭":6581,"(人":6582,"(萬":6583,"▁-":6584,"▁五":6585,"▁應":6586,"▁更":6587,"▁發":6588,"▁自":6589,"▁객":6590,"▁격":6591,"▁낱":6592,"▁뜨":6593,"▁졸":6594,"▁좀":6595,"▁좁":6596,"▁티":6597,"中에":6598,"午)":6599,"歡喜":6600,"編)\r\n":6601,"가에":6602,"가.]":6603,"개월":6604,"광이":6605,"단이":6606,"대비":6607,"동이":6608,"력에":6609,"복과":6610,"송을":6611,"수는":6612,"시는":6613,"식과":6614,"연이":6615,"오니,":6616,"운을":6617,"유가":6618,"인으로":6619,"있는":6620,"장의":6621,"조로":6622,"조의":6623,"하나니라.":6624,"하오니":6625,"행이":6626,"▁이룰":6627,"▁것에":6628,"▁하다가":6629,"▁대동":6630,"▁일기":6631,"▁일꾼":6632,"▁일본":6633,"▁일월":6634,"▁일터":6635,"▁아침":6636,"▁[삼":6637,"▁[큰":6638,"▁[대종사":6639,"▁없다":6640,"▁사람으로서":6641,"▁정의를":6642,"▁자선":6643,"▁자취":6644,"▁되느니라.":6645,"▁한이":6646,"▁어둡":6647,"▁어머니":6648,"▁법강항마":6649,"▁주옵":6650,"▁나리시":6651,"▁부귀":6652,"▁도움이":6653,"▁아니하며":6654,"▁만났":6655,"▁만족":6656,"▁못하며":6657,"▁성주":6658,"▁무너":6659,"▁무형":6660,"▁대종사는":6661,"▁위하는":6662,"▁선생":6663,"▁선후":6664,"▁3월에":6665,"▁내놓":6666,"▁신심을":6667,"▁우리에게":6668,"▁의심을":6669,"▁얻어서":6670,"▁구호":6671,"▁종자가":6672,"▁발심":6673,"하였으나":6674,"▁부처의":6675,"▁생각하지":6676,"▁본다면":6677,"▁참고":6678,"▁물을":6679,"▁정신에":6680,"▁두려":6681,"▁계율":6682,"▁재앙":6683,"▁그대들에게":6684,"▁생활하는":6685,"▁분야":6686,"▁평소":6687,"▁하시니라.\r\n":6688,"▁하시었다.\r\n":6689,"▁출세":6690,"▁죄업을":6691,"▁간에":6692,"▁천지가":6693,"▁되었으며,":6694,"9.己":6695,"▁창건":6696,"▁이름이요,":6697,"▁표본":6698,"▁제도하는":6699,"▁합력":6700,"▁친히":6701,"▁끊어진":6702,"▁닦고":6703,"▁점이":6704,"▁실행을":6705,"▁실행이":6706,"▁밖의":6707,"▁용서":6708,"▁서원과":6709,"▁육신의":6710,"▁하셨나니,":6711,"▁성품을":6712,"▁좋아하는":6713,"▁一者는":6714,"▁눈을":6715,"하오면":6716,"▁머물":6717,"▁옛날":6718,"▁어른이":6719,"▁생령이":6720,"▁설법하시기를":6721,"▁앉아":6722,"▁써서":6723,"▁시간을":6724,"이니라\r\n":6725,"▁괴로":6726,"▁느끼":6727,"▁거룩한":6728,"▁세세생":6729,"▁교역자":6730,"▁어두운":6731,"▁三者는":6732,"▁四者는":6733,"바라밀":6734,"▁하심이러라.\r\n":6735,"▁二者는":6736,"(朴":6737,")\"":6738,")로써":6739,"..":6740,".진":6741,"▁七":6742,"▁九":6743,"▁八":6744,"▁善":6745,"▁本":6746,"▁此":6747,"▁꿈":6748,"▁봄":6749,"▁춘":6750,"▁칭":6751,"▁헛":6752,"亥)":6753,"作是":6754,"十業으로":6755,"報니라\r\n":6756,"戌)":6757,"父母":6758,"而不":6759,"靈知":6760,"겠나이까.]":6761,"교(":6762,"근을":6763,"기까지":6764,"떠한":6765,"란한":6766,"령을":6767,"로가":6768,"름을":6769,"많은":6770,"맥을":6771,"명의":6772,"부에":6773,"상한":6774,"세가":6775,"소가":6776,"수에":6777,"수보리야":6778,"시로":6779,"운이":6780,"위의":6781,"음에":6782,"절로":6783,"제(":6784,"제는":6785,"지게":6786,"지니라.":6787,"지니라.]\r\n":6788,"하건대":6789,"해지":6790,"화·":6791,"▁이타":6792,"▁이상의":6793,"▁하물":6794,"▁사(":6795,"▁사상을":6796,"하시와":6797,"▁가질":6798,"▁아끼":6799,"▁[나":6800,"▁[사":6801,"▁없어지":6802,"▁정식":6803,"▁정도를":6804,"▁정도에":6805,"▁자격":6806,"▁마련":6807,"▁지고":6808,"▁지을":6809,"▁지도를":6810,"▁한가":6811,"▁한번":6812,"▁법어":6813,"▁모래":6814,"▁모인":6815,"▁주면":6816,"▁나고":6817,"▁기뻐":6818,"▁도\r\n":6819,"▁인사":6820,"▁바에":6821,"▁시키":6822,"▁오르":6823,"▁선(禪":6824,"▁3대":6825,"▁내어":6826,"▁신봉":6827,"▁신심":6828,"▁사람이요,":6829,"▁해독":6830,"▁따름":6831,"▁거두":6832,"▁거울":6833,"▁길룡":6834,"▁들여":6835,"▁들지":6836,"▁행사에":6837,"▁각자":6838,"▁각자가":6839,"▁본교":6840,"▁본말":6841,"▁물들":6842,"▁심경":6843,"▁정신과":6844,"▁두지":6845,"▁예가":6846,"▁예회":6847,"▁당한":6848,"▁장래에":6849,"▁안락":6850,"▁그대의":6851,"▁가운데에는":6852,"▁부처님께":6853,"▁항복":6854,"▁결실":6855,"▁설치":6856,"▁평상":6857,"▁평소에":6858,"▁때에는,":6859,"▁깨우":6860,"▁입은":6861,"▁차지":6862,"하기에":6863,"▁출현":6864,"▁종교를":6865,"▁초기":6866,"까지는":6867,"▁하였으며,":6868,"▁이루게":6869,"▁맞는":6870,"▁맞아":6871,"▁맞지":6872,"▁온갖":6873,"▁친근":6874,"▁점차":6875,"▁올라":6876,"▁신앙과":6877,"▁추대":6878,"▁버리지":6879,"▁가정에":6880,"▁나라를":6881,"▁알고자":6882,"되었으며,":6883,"▁욕심이":6884,"▁처음으로":6885,"▁심고(예문":6886,"▁희망":6887,"▁상대편":6888,"▁준비를":6889,"▁佛이":6890,"▁잃고":6891,"▁잠시":6892,"▁공경하고":6893,"▁사실로":6894,"▁챙기":6895,"▁평등하게":6896,"▁맑은":6897,"▁탄생":6898,"▁철저히":6899,"▁以是十業으로":6900,"▁상극의":6901,"▁十者는":6902,"▁六者는":6903,"▁五者는":6904,"▁七者는":6905,"▁九者는":6906,"▁八者는":6907,"(信":6908,"(全":6909,"(自":6910,")인":6911,".식.":6912,"▁奉":6913,"▁聞":6914,"▁갔":6915,"▁뭉":6916,"▁붓":6917,"心)":6918,"所에":6919,"沙門":6920,"涅槃":6921,"義)":6922,"諸佛":6923,"가에서":6924,"구나":6925,"급은":6926,"길을":6927,"까?":6928,"령이":6929,"면으로":6930,"방(":6931,"사,":6932,"실한":6933,"앞으로":6934,"양의":6935,"옵니다.":6936,"욕에":6937,"이게":6938,"이므로":6939,"적을":6940,"지니":6941,"한즉":6942,"▁이번":6943,"▁이의":6944,"▁그만한":6945,"▁사시":6946,"▁말하여":6947,"▁말하는":6948,"▁일찍":6949,"▁일심이":6950,"▁일이라도":6951,"▁있다는":6952,"▁[영":6953,"▁정각":6954,"▁정결":6955,"▁자재":6956,"▁자행":6957,"▁수여":6958,"▁수운":6959,"▁교전":6960,"▁지식을":6961,"▁법마":6962,"▁생산":6963,"▁부동":6964,"▁제중의":6965,"▁때,":6966,"▁때나":6967,"▁인심을":6968,"▁만보살":6969,"▁성성":6970,"▁성인의":6971,"▁중히":6972,"▁같으나":6973,"▁경륜":6974,"▁38":6975,"▁영생":6976,"▁내려":6977,"▁신통":6978,"▁신흥":6979,"▁44.":6980,"▁않나니,":6981,"▁의뢰":6982,"▁해방":6983,"▁구제":6984,"▁소리":6985,"▁소리가":6986,"▁발인":6987,"▁거쳐":6988,"▁길로":6989,"▁길은":6990,"▁개정":6991,"▁근검":6992,"▁하나니":6993,"▁하나이다.]":6994,"▁물론":6995,"▁물이":6996,"▁남자":6997,"▁방법을":6998,"▁미혹":6999,"▁장려":7000,"▁안심":7001,"▁그대가":7002,"▁좋지":7003,"▁어찌하여":7004,"▁편벽":7005,"하기도":7006,"▁허다":7007,"▁은법":7008,"▁양보":7009,"▁제자들이":7010,"▁순서를":7011,"▁하였나니,":7012,"▁특신":7013,"▁못하므로":7014,"▁취임":7015,"▁태도를":7016,"▁친절":7017,"▁끊어":7018,"▁금생에":7019,"▁교당이":7020,"▁듣지":7021,"▁아니하나니,":7022,"▁여래께서":7023,"▁착수":7024,"▁가정을":7025,"▁걸음":7026,"이니라.]":7027,"▁법신불의":7028,"▁최초":7029,"▁계속하여":7030,"▁194":7031,"▁잘못을":7032,"▁불보살들은":7033,"▁갖추어":7034,"▁필경":7035,"▁돈을":7036,"▁자녀를":7037,"▁방법은":7038,"▁바라노라.":7039,"하려는":7040,"▁유무를":7041,"▁바탕하여":7042,"▁무량한":7043,"▁[우리가":7044,"▁뿌리":7045,"▁아직도":7046,"▁힘쓰라.":7047,"▁비롯하여":7048,"▁방편을":7049,"인(별록":7050,"▁나가야":7051,"▁알뜰히":7052,"▁집착하여":7053,"▁분별이":7054,"▁생겨나":7055,"▁물품을":7056,"▁떨어져":7057,"▁일으키":7058,"▁원광대학교":7059,"▁뛰어":7060,"▁대범,":7061,"▁죽기로써":7062,"▁티끌":7063,"▁하물며":7064,")라,":7065,"1.대종사":7066,"5년":7067,"ww":7068,"▁名":7069,"▁낭":7070,"▁떳":7071,"▁탈":7072,"▁텅":7073,"▁故로":7074,"三界":7075,"功德":7076,"地獄":7077,"宗師":7078,"實無":7079,"無量":7080,"難이요.":7081,"계가":7082,"계에":7083,"과의":7084,"내는":7085,"다[":7086,"동을":7087,"되게":7088,"득하여":7089,"라야":7090,"러워":7091,"로,":7092,"맥이":7093,"면을":7094,"무를":7095,"받는":7096,"받아":7097,"법은":7098,"사.":7099,"설을":7100,"성과":7101,"속을":7102,"신.":7103,"연(":7104,"원과":7105,"이니라.\r\n":7106,"일에는":7107,"일지라도":7108,"천의":7109,"침과":7110,"함도":7111,"▁이어서":7112,"▁그리고":7113,"▁대호":7114,"▁있다고":7115,"▁가라":7116,"▁[교":7117,"▁정의(":7118,"▁공사를":7119,"▁되기":7120,"하는데":7121,"▁교가(성가":7122,"▁보시고":7123,"▁보라.]":7124,"▁주어야":7125,"▁마음도":7126,"▁나게":7127,"▁기울":7128,"▁기회를":7129,"▁바치":7130,"▁원래에":7131,"▁불러":7132,"▁불안":7133,"▁중근":7134,"▁중심이":7135,"▁천여래":7136,"▁시험":7137,"▁동원":7138,"▁전해":7139,"▁공부할":7140,"▁고를":7141,"▁고락을":7142,"▁41.":7143,"▁의(":7144,"▁의.식.":7145,"▁해제":7146,"▁상당한":7147,"▁구애":7148,"▁발휘":7149,"▁비치":7150,"▁들을":7151,"▁행하여":7152,"▁행하면":7153,"▁생각해":7154,"▁유일한":7155,"▁예에":7156,"▁미신":7157,"▁안다":7158,"▁돌리":7159,"▁재색":7160,"▁복과":7161,"▁복락을":7162,"▁부처님은":7163,"▁부처님께서는":7164,"▁생활의":7165,"▁결제":7166,"▁분석":7167,"▁어찌할":7168,"▁적멸":7169,"▁밝고":7170,"▁편착":7171,"▁편찬":7172,"▁관리":7173,"▁문명이":7174,"▁제자들에게":7175,"▁요법":7176,"▁하였다.\r\n":7177,"▁되었고,":7178,"▁표현":7179,"부터는":7180,"함이니라.]\r\n":7181,"▁지도에":7182,"▁지도자":7183,"▁원만하게":7184,"▁시대는":7185,"▁올리는":7186,"▁원불교는":7187,"▁뒤에는":7188,"▁인류를":7189,"되었고,":7190,"▁192":7191,"▁깨달음을":7192,"▁[사람의":7193,"▁높이":7194,"▁머무":7195,"▁명예를":7196,"▁풀어":7197,"▁옳은":7198,"리오.":7199,"▁「대종사께서는":7200,"▁그렇게":7201,"▁벗어나지":7202,"거니와":7203,"▁당할지라도":7204,"▁육근을":7205,"▁방면으로든지":7206,"▁공양하는":7207,"▁협력":7208,"▁헤아":7209,"▁광명과":7210,"▁걸림이":7211,"▁솟아":7212,"▁대자대비":7213,"▁이끌어":7214,"波羅蜜":7215,"▁다행히":7216,"▁좇아":7217,"▁기틀을":7218,"▁무형한":7219,"(修":7220,"(성가":7221,"[수보리야":7222,"]라":7223,"]를":7224,"▁旣":7225,"▁法":7226,"▁非":7227,"▁균":7228,"▁둔":7229,"▁맛":7230,"▁씨":7231,"▁웃":7232,"▁트":7233,"人은":7234,"十二":7235,"受持":7236,"天地":7237,"情誼":7238,"無爲":7239,"煩惱":7240,"羅漢":7241,"誓願":7242,"가정":7243,"감을":7244,"겠나이다.]":7245,"계(":7246,"과가":7247,"금강":7248,"날이":7249,"내에":7250,"단에":7251,"더라.":7252,"동(":7253,"됨을":7254,"로지":7255,"리까.":7256,"만으로":7257,"명·":7258,"불멸":7259,"상도":7260,"상에서":7261,"선의":7262,"성.":7263,"성할":7264,"세(":7265,"소와":7266,"시니":7267,"액을":7268,"오.":7269,"원광":7270,"종의":7271,"천을":7272,"하나이다.]":7273,"행의":7274,"▁이룬":7275,"▁하라.]\r\n":7276,"▁하기로":7277,"▁하려면":7278,"▁그들의":7279,"▁대종경":7280,"▁것이나":7281,"▁것이어늘":7282,"▁말며":7283,"으로부터":7284,"니라.]":7285,"▁가벼":7286,"▁가짐":7287,"▁[지금":7288,"▁없어":7289,"▁없음을":7290,"▁없으므로":7291,"▁사람이라야":7292,"▁정혜":7293,"▁정법을":7294,"▁공주":7295,"▁공연히":7296,"▁되시":7297,"▁되기를":7298,"▁마지":7299,"▁다할":7300,"▁수상":7301,"▁수많은":7302,"▁지견":7303,"▁한편":7304,"▁한다.":7305,"▁법계를":7306,"▁모아":7307,"▁기재":7308,"▁부부":7309,"▁제4":7310,"▁아니고":7311,"▁아니하며,":7312,"▁아니하여야":7313,"▁아니하여도":7314,"▁인재":7315,"▁바꾸":7316,"▁못하고,":7317,"▁성지":7318,"▁불전":7319,"▁불토":7320,"▁불법을":7321,"▁중도":7322,"▁중한":7323,"▁천상":7324,"이라\"":7325,"▁같나니,":7326,"▁같나니라.":7327,"▁위태":7328,"▁위험":7329,"▁동학":7330,"▁오르는":7331,"▁경을":7332,"▁알면":7333,"▁공부인의":7334,"▁39":7335,"▁서지":7336,"▁내외":7337,"▁신심과":7338,"▁고해":7339,"▁48":7340,"▁42.":7341,"▁45.":7342,"▁46.":7343,"▁「세":7344,"▁「천":7345,"▁구할":7346,"▁후일에":7347,"▁소멸":7348,"▁거의":7349,"하였나니,":7350,"▁들으라.":7351,"▁50":7352,"▁5월":7353,"▁근기":7354,"▁회상에서는":7355,"▁참예":7356,"▁심신":7357,"▁심경을":7358,"▁살생":7359,"▁있으며":7360,"▁남은":7361,"▁예비":7362,"▁당하는":7363,"▁계실":7364,"▁계문을":7365,"▁장래":7366,"▁장만":7367,"▁재단":7368,"▁함이요":7369,"▁저절로":7370,"▁생활로":7371,"▁평생":7372,"▁적은":7373,"▁적적":7374,"▁국토":7375,"▁하시며":7376,"▁문화":7377,"▁강조":7378,"▁출장":7379,"▁죄업":7380,"▁허물을":7381,"▁건축":7382,"▁순역":7383,"▁순응":7384,"▁이루어지":7385,"▁권면":7386,"▁부모와":7387,"▁부모에게":7388,"▁교화하는":7389,"▁태산":7390,"▁쓰고":7391,"▁달리":7392,"▁역경":7393,"▁역시":7394,"▁가르침":7395,"▁은혜가":7396,"▁교당에":7397,"▁아니하리요.":7398,"▁여래를":7399,"▁떠날":7400,"▁끌리는":7401,"▁끌려서":7402,"▁과거에":7403,"▁응하여":7404,"▁가정의":7405,"▁국가와":7406,"▁좌석":7407,"▁모두가":7408,"▁음식을":7409,"▁하늘이":7410,"▁ᄋᄋ는":7411,"되었다.\r\n":7412,"▁191":7413,"▁자유자":7414,"▁사이에는":7415,"▁희생":7416,"▁불교의":7417,"▁필요한":7418,"▁향하여":7419,"▁연고인가":7420,"▁먹고":7421,"▁있어도":7422,"▁만나서":7423,"▁배우고":7424,"▁바르고":7425,"▁극히":7426,"▁卽非":7427,"▁헌신":7428,"▁표준을":7429,"▁밝히고":7430,"▁다섯째":7431,"▁강령이":7432,"▁물건을":7433,"▁如來-":7434,"▁빛이":7435,"▁활동을":7436,"▁담당":7437,"▁굳은":7438,"▁초월하여":7439,"▁한결같이":7440,"이어늘":7441,"▁하옵시며,":7442,"▁한량없는":7443,"▁조목\r\n":7444,"▁삼대력":7445,"菩薩이":7446,"▁베풀어":7447,"▁만유의":7448,"▁최후의":7449,"▁조항을":7450,"스럽게":7451,"▁아님이":7452,"▁홀로":7453,"개소,":7454,"▁세세생생":7455,"▁법마상":7456,"▁떳떳":7457,"(中":7458,"(事":7459,"(空":7460,".수":7461,".정":7462,"]을":7463,"▁今":7464,"▁曰":7465,"▁莫":7466,"▁萬":7467,"▁謂":7468,"▁덜":7469,"▁득":7470,"▁묶":7471,"▁압":7472,"▁젊":7473,"▁훨":7474,"卯)":7475,"對治":7476,"方)":7477,"無所":7478,"申)":7479,"相)이":7480,"頓悟":7481,"것은":7482,"국이":7483,"남이":7484,"덕(":7485,"되면":7486,"량이":7487,"려야":7488,"리한":7489,"만일":7490,"법연구":7491,"보가":7492,"봉도":7493,"산에서":7494,"수도":7495,"승이":7496,"시하시기를":7497,"신과":7498,"오는":7499,"우고":7500,"워서":7501,"원,":7502,"위가":7503,"은즉":7504,"인들의":7505,"자력":7506,"자.\r\n":7507,"조가":7508,"좌선":7509,"출가":7510,"편\r\n":7511,"하니,":7512,"하심이":7513,"하노라.]\r\n":7514,"했다.":7515,"후에":7516,"▁이도":7517,"▁것보다":7518,"▁그로":7519,"▁사생":7520,"▁사진":7521,"▁대법":7522,"▁말하고":7523,"▁말하지":7524,"▁일부":7525,"▁일이라,":7526,"▁일시에":7527,"▁있기":7528,"▁있나니라.":7529,"하시니라.\r\n":7530,"하시었다.":7531,"▁가서":7532,"▁아름":7533,"▁아버":7534,"▁[근":7535,"▁[동":7536,"▁없다면":7537,"▁없어야":7538,"▁없다고":7539,"▁없어지고":7540,"▁정과":7541,"▁정토":7542,"▁자금":7543,"▁공자":7544,"▁다를":7545,"▁수는":7546,"▁교법이":7547,"▁지각":7548,"▁한다는":7549,"▁보이":7550,"▁법훈":7551,"▁생사의":7552,"▁기쁨":7553,"▁기르는":7554,"▁부합":7555,"▁제중":7556,"▁13":7557,"▁도로":7558,"▁도모":7559,"▁도로써":7560,"▁때로":7561,"▁인사를":7562,"▁바와":7563,"▁원하는":7564,"▁만난":7565,"▁만덕":7566,"▁만사를":7567,"▁성탑":7568,"▁성인은":7569,"▁불멸":7570,"▁불전에":7571,"▁무한":7572,"▁중,":7573,"▁여유":7574,"▁대종사님":7575,"▁시봉":7576,"▁오로지":7577,"▁경영":7578,"▁알려":7579,"▁전력":7580,"▁선령":7581,"▁선한":7582,"▁선생의":7583,"▁내게":7584,"▁내정":7585,"▁진화":7586,"▁46":7587,"▁47.":7588,"▁43.":7589,"▁삼십":7590,"▁삼고,":7591,"▁삼세의":7592,"▁「‘":7593,"▁「법":7594,"▁「이":7595,"▁실은":7596,"▁상징":7597,"▁상생의":7598,"▁소가":7599,"▁소리를":7600,"▁발하여":7601,"▁등은":7602,"▁비하건대":7603,"▁길들이":7604,"▁가지는":7605,"▁들면":7606,"▁세계도":7607,"▁행하고":7608,"▁54.":7609,"▁근거":7610,"▁근원을":7611,"▁본분":7612,"▁본원":7613,"▁회상과":7614,"▁연합":7615,"▁미진":7616,"▁사업과":7617,"▁좋을":7618,"▁단합":7619,"▁교단과":7620,"▁밝게":7621,"▁육영":7622,"▁능한":7623,"▁죄가":7624,"▁허무":7625,"▁화두":7626,"▁총회":7627,"▁순환":7628,"▁형식":7629,"▁창설":7630,"▁\"내가":7631,"▁취사의":7632,"▁제도할":7633,"▁태어나":7634,"▁속히":7635,"▁점을":7636,"▁외에":7637,"▁도덕이":7638,"▁올리고":7639,"▁광명이":7640,"▁잡고":7641,"▁염원":7642,"▁증산":7643,"▁가정이":7644,"▁승려":7645,"▁교육의":7646,"▁너의":7647,"▁국가나":7648,"▁관계를":7649,"▁자유로":7650,"▁규약":7651,"▁연고라,":7652,"▁[그대들의":7653,"▁독경(":7654,"▁시방을":7655,"▁즐기":7656,"▁방법으로":7657,"▁一切":7658,"▁염불의":7659,"▁꾸짖":7660,"▁불법의":7661,"▁명예와":7662,"하니\r\n":7663,"▁바탕이":7664,"▁빠짐":7665,"▁공중에":7666,"▁끊임없는":7667,"▁스승님의":7668,"생활에":7669,"▁비롯한":7670,"거니와,":7671,"▁숨은":7672,"▁습관이":7673,"▁거룩하신":7674,"▁융창":7675,".사회.":7676,"▁물러나":7677,"▁쌍전":7678,"▁본위로":7679,"▁존중히":7680,"▁자타의":7681,"▁얽매":7682,"▁아닐새":7683,"▁노래(성가":7684,"▁무서운":7685,"▁조용히":7686,"▁「첫째":7687,"▁乃至":7688,"감하시옵소서.\r\n":7689,"▁비옵나이다.\r\n":7690,"▁정의(情誼":7691,"▁훨씬":7692,"법연구회":7693,".사회.국":7694,"(齋":7695,")』":7696,")나":7697,")등":7698,".연구":7699,"1)":7700,"▁入":7701,"▁吾":7702,"▁用":7703,"▁與":7704,"▁身":7705,"▁냉":7706,"▁늙":7707,"▁짧":7708,"▁틀":7709,"品)\r\n":7710,"寅)":7711,"差別":7712,"微塵":7713,"恒河":7714,"惡業이요":7715,"法)을":7716,"自在":7717,"국을":7718,"그러":7719,"기념":7720,"남자":7721,"네가":7722,"니와,":7723,"니까?":7724,"대종경":7725,"력은":7726,"례는":7727,"로다":7728,"리라]":7729,"망을":7730,"면에":7731,"목을":7732,"문의":7733,"물에":7734,"물질":7735,"방의":7736,"방이":7737,"법.":7738,"부는":7739,"쁘게":7740,"사온":7741,"산.":7742,"세히":7743,"시면":7744,"시킬":7745,"심경":7746,"안이":7747,"였다.":7748,"오래":7749,"옵고,":7750,"으되":7751,"인들이":7752,"일)":7753,"일원":7754,"전무출신":7755,"정과":7756,"지·":7757,"추고":7758,"치기":7759,"타원(":7760,"풍이":7761,"하를":7762,"하거든":7763,"하거늘,":7764,"합하여":7765,"▁이뤄":7766,"▁이야":7767,"▁이처럼":7768,"▁하니,":7769,"▁사가":7770,"▁사양":7771,"▁대적":7772,"▁대회":7773,"▁대도에":7774,"▁일심을":7775,"▁일생에":7776,"▁가령":7777,"▁가면":7778,"▁가볍":7779,"▁[공":7780,"▁[도":7781,"▁[회":7782,"▁없다는":7783,"▁정관":7784,"▁정당":7785,"▁정도":7786,"▁정비":7787,"▁정할":7788,"▁정하고":7789,"▁정사(":7790,"▁공사에":7791,"▁공정한":7792,"▁되므로,":7793,"▁수록":7794,"▁세월에":7795,"▁교리와":7796,"▁교법의":7797,"▁지었":7798,"▁지성으로":7799,"▁보니":7800,"▁보답":7801,"▁보여":7802,"▁보라.":7803,"▁모범":7804,"▁주력":7805,"▁생긴":7806,"▁생생":7807,"▁생.로.":7808,"▁나쁜":7809,"▁기어":7810,"▁부촉":7811,"▁제5":7812,"▁제사":7813,"▁제생의":7814,"▁14":7815,"▁도구":7816,"▁바루":7817,"▁성자가":7818,"▁불제자":7819,"▁무아":7820,"▁중심":7821,"▁동할":7822,"▁동하지":7823,"▁경험":7824,"▁선남자":7825,"▁영생의":7826,"▁종사의":7827,"▁고등":7828,"▁조화":7829,"▁진공":7830,"▁잘하는":7831,"▁47":7832,"▁49.":7833,"▁삼는":7834,"▁삼을":7835,"▁「그":7836,"▁의미":7837,"▁의세의":7838,"▁얻기":7839,"▁얻고,":7840,"▁해(원기":7841,"▁상황":7842,"▁구름":7843,"▁구하지":7844,"▁종자를":7845,"▁소홀":7846,"▁거래에":7847,"▁열리":7848,"하였다":7849,"▁가지며":7850,"▁들었":7851,"▁새벽":7852,"▁52":7853,"▁57.":7854,"▁50.":7855,"▁53.":7856,"▁55.":7857,"▁각종":7858,"▁근심":7859,"▁유익":7860,"▁많고":7861,"▁많으나":7862,"▁따라,":7863,"▁살자는":7864,"▁정신적":7865,"▁또한,":7866,"▁재산을":7867,"▁복록":7868,"▁때에,":7869,"리라.」\r\n":7870,"▁설한":7871,"▁적게":7872,"▁명심":7873,"▁입묘":7874,"▁입을":7875,"▁편수":7876,"▁편입":7877,"▁감히":7878,"▁앞서":7879,"하기는":7880,"▁배울":7881,"▁배척":7882,"▁출발":7883,"▁능력을":7884,"▁죄복을":7885,"▁화하게":7886,"▁건강":7887,"▁건네":7888,"▁천지를":7889,"▁요도":7890,"▁집중":7891,"▁권리가":7892,"▁창시":7893,"▁이름이니라.":7894,"▁자리이":7895,"▁열반을":7896,"▁열반의":7897,"▁변화를":7898,"▁취하여":7899,"▁취하지":7900,"▁제도가":7901,"▁곳마다":7902,"▁태어":7903,"▁달려":7904,"▁달이":7905,"▁원만하고":7906,"▁역대":7907,"▁역할":7908,"▁약을":7909,"▁죽어":7910,"▁죽은":7911,"▁시대에는":7912,"▁점수":7913,"▁가르치고":7914,"▁갖춘":7915,"▁올바":7916,"▁동지들의":7917,"마는,":7918,"▁과거에는":7919,"▁기관의":7920,"▁나라에서":7921,"▁송규":7922,"▁본래의":7923,"▁청정하여":7924,"▁하늘과":7925,"▁발전을":7926,"▁ᄋᄋ님":7927,"▁대각전":7928,"▁창립의":7929,"▁심고와":7930,"▁세우는":7931,"▁잊어버":7932,"▁먹을":7933,"▁자성에":7934,"▁오래오래":7935,"▁면하지":7936,"▁자연의":7937,"▁오늘날":7938,"▁자녀의":7939,"▁벗어":7940,"▁거행하되,":7941,"▁폐지":7942,"▁지키고":7943,"▁표준으로":7944,"▁민중":7945,"▁정성과":7946,"▁정성으로":7947,"▁유무의":7948,"▁팔조":7949,"▁정진하여":7950,"▁[우리의":7951,"▁心告":7952,"▁까닭이니라.":7953,"▁대조하여":7954,"▁공중의":7955,"▁해탈을":7956,"▁당시의":7957,"▁11월":7958,"▁좌선을":7959,"▁이른바":7960,"▁넓고":7961,"▁짐작":7962,"▁[어떠한":7963,"▁계획을":7964,"▁법설을":7965,"▁온전한":7966,"▁교정원":7967,"▁냄이요":7968,"▁아뇩다라삼먁삼보":7969,"▁보화당":7970,"▁나누어":7971,"▁공변된":7972,"▁두렷한":7973,"▁충분히":7974,"서원문":7975,"▁불생불멸":7976,"▁두려워":7977,"作是念":7978,"▁謂之":7979,"▁생.로.병":7980,"(有":7981,"(聖":7982,")요,":7983,")이나":7984,".’":7985,".교":7986,"25":7987,"]는":7988,"]은":7989,"]이라":7990,"]이라,":7991,"”고":7992,"▁但":7993,"▁永":7994,"▁爾":7995,"▁猶":7996,"▁덮":7997,"▁벽":7998,"▁엿":7999,"▁옹":8000,"▁펼":8001,"▁폭":8002,"▁험":8003,"▁까지":8004,"也니이다":8005,"力)을":8006,"心)이":8007,"歸依":8008,"法相":8009,"義)를":8010,"見性":8011,"見이요":8012,"阿羅漢":8013,"隨相":8014,"감지":8015,"고가":8016,"관이":8017,"군을":8018,"년간":8019,"는지":8020,"는지라,":8021,"다]":8022,"덕이":8023,"두고":8024,"들여":8025,"로병":8026,"로에":8027,"만은":8028,"물은":8029,"배를":8030,"법과":8031,"불공":8032,"상히":8033,"생(":8034,"성은":8035,"시켰":8036,"식도":8037,"심히":8038,"었다.\n":8039,"연하여":8040,"열반":8041,"오며,":8042,"욕이":8043,"위로":8044,"유한":8045,"음과":8046,"이나,":8047,"점을":8048,"종법사":8049,"취사의":8050,"▁이때":8051,"▁이하":8052,"▁이에게":8053,"▁하려":8054,"▁하리요.":8055,"▁사상":8056,"▁사리를":8057,"▁사생의":8058,"▁사물을":8059,"▁대비":8060,"▁있은":8061,"▁있나이까.]":8062,"▁있나니라.]":8063,"하시었다.\r\n":8064,"▁가슴":8065,"▁아주":8066,"▁[진":8067,"▁[제가":8068,"▁없으나,":8069,"▁사람들을":8070,"▁정녀":8071,"▁정례":8072,"▁자료":8073,"▁말씀이":8074,"▁수레":8075,"▁수자":8076,"▁세운":8077,"▁세력이":8078,"▁교리를":8079,"▁지으면":8080,"▁지경에":8081,"▁보존":8082,"▁법통":8083,"▁법회":8084,"▁주착":8085,"▁생사를":8086,"▁생사가":8087,"▁나날이":8088,"▁기성":8089,"▁부활":8090,"▁1)":8091,"▁도의":8092,"▁도(道":8093,"▁아니니라.":8094,"▁성업":8095,"▁불쌍":8096,"▁무등":8097,"▁무사한":8098,"▁중이":8099,"▁중에는":8100,"▁21":8101,"▁29":8102,"▁여하에":8103,"▁같다":8104,"▁같고,":8105,"▁위패":8106,"▁전에는":8107,"▁선포":8108,"▁30":8109,"▁신령":8110,"▁고시":8111,"▁고집":8112,"▁고요한":8113,"▁잘하면":8114,"▁48.":8115,"▁삼계의":8116,"▁「교":8117,"▁사람이나":8118,"하지는":8119,"▁의례를":8120,"▁얻어야":8121,"▁실다운":8122,"▁상벌":8123,"▁구성":8124,"▁구속":8125,"▁구족한":8126,"▁하는지라,":8127,"▁소식을":8128,"▁소견을":8129,"▁열리게":8130,"▁들게":8131,"▁55":8132,"▁56":8133,"▁51.":8134,"▁52.":8135,"▁본의를":8136,"▁물결":8137,"▁살게":8138,"▁살았":8139,"▁예로부터":8140,"▁미륵":8141,"▁사업도":8142,"▁장례":8143,"▁안내":8144,"▁힘으로":8145,"▁복락":8146,"▁결과를":8147,"▁처사":8148,"▁설할":8149,"▁설법을":8150,"▁될지언정":8151,"▁단계":8152,"▁대중과":8153,"▁앞장":8154,"▁병들":8155,"▁병이요,":8156,"▁문을":8157,"▁문이":8158,"▁출판":8159,"▁노력을":8160,"▁천지에":8161,"▁드는":8162,"▁종교와":8163,"▁초안":8164,"▁하면서":8165,"▁하였으나,":8166,"▁되었으니":8167,"▁여러가지":8168,"▁학교":8169,"▁스승에게":8170,"▁돌아와서":8171,"▁못하나니라.]\r\n":8172,"▁이치는":8173,"▁경계가":8174,"▁기운은":8175,"▁不也니이다":8176,"▁맞추어":8177,"▁‘정":8178,"▁수도하는":8179,"▁믿으며,":8180,"▁믿음을":8181,"▁쓰면":8182,"▁수행에":8183,"▁훈련과":8184,"▁죽고":8185,"▁가르칠":8186,"▁교당을":8187,"▁동지를":8188,"▁동지와":8189,"▁천하가":8190,"▁목욕":8191,"▁7월에는":8192,"▁응접":8193,"▁증득":8194,"▁증애":8195,"▁자신을":8196,"▁나라에":8197,"▁국가에":8198,"▁계속하면":8199,"▁하늘의":8200,"▁대하여는":8201,"▁교도가":8202,"▁충실":8203,"▁있었으나":8204,"▁마치고":8205,"▁불보살이":8206,"▁포용":8207,"▁혼인":8208,"▁불공을":8209,"▁불공하는":8210,"▁물질의":8211,"▁[그대들은":8212,"▁농사":8213,"▁돈이":8214,"▁헌배":8215,"하오니,":8216,"▁높고":8217,"▁쉽나니,":8218,"하려면":8219,"▁삼학을":8220,"▁것인가.":8221,"▁강령은":8222,"▁물건이":8223,"▁명예가":8224,"▁바탕으로":8225,"▁갈수록":8226,"▁십이":8227,"▁맡은":8228,"▁묘유":8229,"▁살아나":8230,"▁心生":8231,"지마는,":8232,"▁다르지":8233,"▁나아가야":8234,"▁국한을":8235,"▁맑고":8236,"▁초월한":8237,"▁적공을":8238,"▁취사하는":8239,"▁뵈옵고":8240,"▁철저한":8241,"▁억지로":8242,"▁삼대력을":8243,"▁살림을":8244,"▁옷을":8245,"▁내리시니":8246,"▁고유문":8247,"▁도학을":8248,"▁어긋나":8249,"▁넉넉한":8250,"▁아뇩다라삼먁삼보리":8251,"▁기초를":8252,"▁고축문":8253,"▁겨울":8254,"▁일시적":8255,"지어다.]\r\n":8256,"▁이듬해":8257,"▁길룡리":8258,"▁상대편의":8259,"▁균등":8260,"▁독경(서원문":8261,"▁자리이타":8262,"(宋":8263,")만":8264,".동":8265,".가정":8266,"3]":8267,"[1":8268,"▁令":8269,"▁初":8270,"▁問":8271,"▁後":8272,"▁從":8273,"▁悟":8274,"▁未":8275,"▁甚":8276,"▁言":8277,"▁꺼":8278,"▁닫":8279,"▁며":8280,"▁옥":8281,"▁윗":8282,"▁측":8283,"之心":8284,"出家":8285,"動靜":8286,"善女":8287,"報)를":8288,"子善女":8289,"師)":8290,"心이요":8291,"念念":8292,"所說":8293,"此經":8294,"男子善女":8295,"行)을":8296,"賢聖":8297,"釋迦":8298,"가가":8299,"경의":8300,"교당":8301,"기만":8302,"녀인이":8303,"년의":8304,"때로":8305,"라한":8306,"란을":8307,"럽고":8308,"림을":8309,"림이":8310,"말로":8311,"물과":8312,"미타":8313,"법에":8314,"보(":8315,"보은":8316,"불.":8317,"불의":8318,"비는":8319,"사에서":8320,"산은":8321,"성하고":8322,"아지":8323,"약이":8324,"었다가":8325,"었더니,":8326,"연합":8327,"열한":8328,"옵니다":8329,"우(":8330,"원·":8331,"이까":8332,"이다.\n":8333,"임이":8334,"잡한":8335,"정하여":8336,"제로":8337,"주가":8338,"중히":8339,"지에서":8340,"천.":8341,"체가":8342,"한다.":8343,"할지라도":8344,"화.":8345,"희사":8346,"▁이기는":8347,"▁것으로써":8348,"▁하오니":8349,"▁하열한":8350,"▁그치":8351,"▁그들이":8352,"▁사라":8353,"▁대성":8354,"▁대의":8355,"▁대천":8356,"▁대봉도":8357,"▁것이다.\r\n":8358,"▁말로써":8359,"▁일념을":8360,"▁있다가":8361,"하시어":8362,"▁가져서":8363,"▁아이":8364,"▁[상":8365,"▁[자":8366,"▁없느니라.」\r\n":8367,"▁사람들에게":8368,"▁정이":8369,"▁자상히":8370,"▁공심":8371,"▁되라.":8372,"▁되나니라.\r\n":8373,"▁마디":8374,"▁수하":8375,"▁수확":8376,"▁세속":8377,"▁세간의":8378,"▁교중의":8379,"▁지식":8380,"▁지어서":8381,"▁한반":8382,"▁한없는":8383,"▁보임":8384,"▁법과,":8385,"▁법통을":8386,"▁법륜을":8387,"▁모색":8388,"▁주가":8389,"▁주인의":8390,"▁주인은":8391,"▁생을":8392,"▁마음이요,":8393,"▁나면":8394,"▁나온":8395,"▁기사":8396,"▁부르":8397,"▁부정":8398,"▁1대":8399,"▁도리를":8400,"▁때까지":8401,"▁인도를":8402,"▁인지가":8403,"▁바치는":8404,"▁바라는":8405,"▁원동":8406,"▁원수":8407,"▁만세":8408,"▁성질":8409,"▁불을":8410,"▁불의":8411,"▁불평":8412,"▁불법이":8413,"▁무리":8414,"▁무처":8415,"▁무수한":8416,"▁2대":8417,"▁우연히":8418,"▁시절":8419,"▁시간에":8420,"▁시일이":8421,"▁동서":8422,"▁알기":8423,"▁알며":8424,"▁전주":8425,"▁공부인":8426,"▁선업이":8427,"▁선녀인이":8428,"▁받아야":8429,"▁3)":8430,"▁3월":8431,"▁내는":8432,"▁내리":8433,"▁내세":8434,"▁신랑":8435,"▁신의":8436,"▁고향":8437,"▁조석":8438,"▁조촐":8439,"▁4월,":8440,"▁삼라":8441,"▁「어":8442,"▁「진":8443,"▁의결":8444,"▁구렁":8445,"▁구비":8446,"▁그러하면,":8447,"▁후원":8448,"▁후일":8449,"▁더러":8450,"▁비방":8451,"▁거둘":8452,"▁거진":8453,"하였고":8454,"하였으나,":8455,"▁들고":8456,"▁들은":8457,"▁들으시":8458,"▁개편":8459,"▁행복":8460,"▁행사를":8461,"▁54":8462,"▁56.":8463,"▁유감":8464,"▁심전":8465,"▁많을":8466,"▁살며,":8467,"▁살생을":8468,"▁예의를":8469,"▁당일":8470,"▁당하":8471,"▁당하면":8472,"▁방심":8473,"▁방식을":8474,"▁방법이":8475,"▁미쳐":8476,"▁미치지":8477,"▁안정을":8478,"▁힘입":8479,"▁돌파":8480,"▁재철":8481,"▁그대는":8482,"▁항시":8483,"▁결실을":8484,"▁처처":8485,"▁자기만":8486,"▁6월":8487,"▁적극":8488,"▁적의":8489,"▁깨치는":8490,"▁명을":8491,"▁국제":8492,"▁하고자":8493,"▁입각":8494,"▁입고":8495,"▁관련":8496,"▁능력":8497,"년(191":8498,"▁간행":8499,"▁봉축":8500,"▁천지는":8501,"▁드릴":8502,"▁하였으나":8503,"▁번거":8504,"▁악도":8505,"▁일체중":8506,"▁훈시하시기를":8507,"▁표창":8508,"▁매년":8509,"▁자리요,":8510,"▁자리에는":8511,"▁준공":8512,"▁교화의":8513,"▁태양":8514,"▁믿어":8515,"▁믿을":8516,"▁달게":8517,"▁달라":8518,"▁지도하는":8519,"▁역량":8520,"▁약력":8521,"든지,":8522,"▁외국":8523,"▁막히":8524,"▁막힘":8525,"▁직업을":8526,"▁찾을":8527,"▁대종사께서도":8528,"▁동지가":8529,"▁7월":8530,"▁7월에":8531,"▁사은전에":8532,"하옵고,":8533,"▁버리":8534,"▁버리는":8535,"▁가정과":8536,"사(公":8537,"▁기관으로":8538,"▁손을":8539,"▁송별":8540,"▁본래에":8541,"▁하늘을":8542,"▁건설하는":8543,"▁총부에":8544,"▁업장이":8545,"▁대각여래":8546,"▁須菩提-":8547,"▁땅이":8548,"▁새로이":8549,"▁환희":8550,"▁갖추는":8551,"▁필경은":8552,"▁잊고":8553,"▁이제는":8554,"▁규칙":8555,"▁넘어":8556,"▁다음,":8557,"▁다음에는":8558,"▁물질을":8559,"시키고":8560,"▁자녀가":8561,"▁평화의":8562,"▁방법으로든지":8563,"▁一圓":8564,"▁활용하여":8565,"▁벌여":8566,"▁어른을":8567,"▁실천하는":8568,"▁일어나는":8569,"▁뿌리가":8570,"▁찬송":8571,"▁정치의":8572,"년(1955.乙":8573,"▁목적에":8574,"▁베푸":8575,"▁빛을":8576,"▁의무를":8577,"▁파괴":8578,"▁드러나게":8579,"▁전체가":8580,"▁법계에":8581,"▁다스리고":8582,"▁見他":8583,"▁벗어나서":8584,"▁도인들은":8585,"▁한결같은":8586,"▁넷째는":8587,"▁현재의":8588,"▁대답하되":8589,"▁게송":8590,"▁제거하고":8591,"▁손님이":8592,"▁슬퍼":8593,"▁얻으리라.]\r\n":8594,"▁깨닫는":8595,"▁얼굴이":8596,"▁싫어하는":8597,"▁때문이니라.":8598,"▁무시선":8599,"▁지옥에":8600,"▁「우리가":8601,"▁냄새":8602,"▁내역을":8603,"▁몰라":8604,"▁휴양":8605,"▁절차를":8606,"▁40년(1955.乙":8607,"인가.\r\n":8608,"▁존령이시여!":8609,"▁흘러":8610,"因緣으로":8611,"▁있사오리까.]":8612,"▁주인공이":8613,"▁1916년":8614,"▁법마상전":8615,"▁心告\r\n":8616,"▁아뇩다라삼먁삼보리를":8617,"隨相門":8618,"男子善女人이":8619,"(恩":8620,")\n":8621,")하지":8622,")이라,":8623,".농":8624,".제":8625,".하":8626,".회":8627,"3)":8628,"]라,":8629,"~19":8630,"ᄋᄋ":8631,"▁任":8632,"▁修":8633,"▁先":8634,"▁勸":8635,"▁可":8636,"▁感":8637,"▁或":8638,"▁欲":8639,"▁然":8640,"▁願":8641,"▁겉":8642,"▁겪":8643,"▁눕":8644,"▁뉘":8645,"▁돕":8646,"▁뚫":8647,"▁뻗":8648,"▁뽑":8649,"▁앎":8650,"▁옆":8651,"▁잎":8652,"▁졌":8653,"▁짜":8654,"丑)":8655,"也라":8656,"凡夫":8657,"業故로":8658,"滅度":8659,"無不":8660,"無碍":8661,"爲道":8662,"牟尼":8663,"知識":8664,"空寂":8665,"第一":8666,"華)":8667,"道)":8668,"강을":8669,"개를":8670,"개벽":8671,"개의":8672,"국에":8673,"기에서":8674,"난을":8675,"남을":8676,"났다.":8677,"내기":8678,"니옵니다":8679,"다른":8680,"다\r\n":8681,"대(":8682,"독교":8683,"되니":8684,"되이":8685,"되나니,":8686,"되어야":8687,"등한":8688,"력(":8689,"릇,":8690,"마음이":8691,"명과":8692,"명으로":8693,"보다는":8694,"선은":8695,"성하는":8696,"시니,":8697,"식\r\n":8698,"어든":8699,"어져서":8700,"업에":8701,"욕과":8702,"용할":8703,"운동":8704,"음이요,":8705,"음이니라.]\r\n":8706,"음이요,\r\n":8707,"장과":8708,"장은":8709,"재의":8710,"전』":8711,"전은":8712,"종(":8713,"주고":8714,"진하여":8715,"총부":8716,"출진":8717,"켜서":8718,"하가":8719,"하듯":8720,"한이":8721,"해도":8722,"혀서":8723,"화와":8724,"회에서는":8725,"▁것입니다.":8726,"▁하거든":8727,"▁그때":8728,"▁그만":8729,"▁사방":8730,"▁사정":8731,"▁대승":8732,"▁대지":8733,"▁대하는":8734,"▁대업을":8735,"▁대상으로":8736,"▁대운을":8737,"▁말도":8738,"▁말아야":8739,"▁있건마는":8740,"▁있듯이":8741,"▁있느냐.]":8742,"▁가게":8743,"▁가뭄":8744,"▁가치를":8745,"▁가치가":8746,"▁아라한":8747,"▁[귀":8748,"▁[성":8749,"▁[유":8750,"▁[불교":8751,"▁[부처님":8752,"▁[공부":8753,"▁없으시":8754,"▁사람들":8755,"▁사람이라":8756,"▁정남":8757,"▁정리":8758,"▁정을":8759,"▁정력을":8760,"▁자본":8761,"▁공력을":8762,"▁마쳤":8763,"▁마라.":8764,"▁교법을":8765,"다.\"":8766,"▁지부":8767,"▁지음이요":8768,"▁한다고":8769,"▁보본":8770,"▁어지":8771,"▁어진":8772,"▁모시":8773,"▁모태":8774,"▁주재":8775,"▁주의를":8776,"▁주위에":8777,"▁생기는":8778,"▁생로병":8779,"▁마음으로써":8780,"▁나갈":8781,"▁나지":8782,"▁나거든":8783,"▁기능":8784,"▁부당한":8785,"▁제재":8786,"▁제창":8787,"▁제출":8788,"▁1월":8789,"▁때때로":8790,"▁인종":8791,"▁만생":8792,"▁만법을":8793,"▁만법이":8794,"▁성의":8795,"▁성리를":8796,"▁성명·":8797,"▁불상":8798,"▁불이":8799,"▁무리가":8800,"▁무자력":8801,"이라\r\n":8802,"▁같으":8803,"▁시자":8804,"▁위력이":8805,"▁경륜을":8806,"▁전국":8807,"▁전라":8808,"▁전재":8809,"▁전생에":8810,"▁선택":8811,"▁34":8812,"▁영지가":8813,"▁종사는":8814,"▁서게":8815,"▁서약":8816,"▁신분":8817,"▁신(信":8818,"▁고사":8819,"▁고통":8820,"▁고통을":8821,"▁조각":8822,"▁진흥":8823,"▁진정한":8824,"▁삼독":8825,"▁「나는":8826,"▁의세":8827,"▁의식을":8828,"▁의견을":8829,"▁실효":8830,"▁실지로":8831,"▁따른":8832,"▁구도":8833,"▁그러하면":8834,"▁종파":8835,"▁후래":8836,"▁후로":8837,"▁후천":8838,"▁후로는":8839,"▁발한":8840,"▁비추어":8841,"▁열리는":8842,"▁가지의":8843,"▁세계와":8844,"▁행하지":8845,"▁58.":8846,"▁59.":8847,"▁5월에":8848,"▁근로":8849,"▁하나님":8850,"▁유의":8851,"▁유일":8852,"▁유혹":8853,"▁심신의":8854,"▁많았":8855,"▁살아야":8856,"▁예는":8857,"▁예문":8858,"▁당시에":8859,"▁당연한":8860,"▁안에서":8861,"▁그대들":8862,"▁가운데,":8863,"▁반가":8864,"리라.]":8865,"▁처하여":8866,"▁통하고":8867,"▁분은":8868,"▁평범":8869,"▁평탄":8870,"▁중생에게":8871,"▁병행":8872,"▁문에":8873,"▁또는,":8874,"▁죄복의":8875,"▁봉찬":8876,"▁제자의":8877,"▁천지와":8878,"▁요구":8879,"▁하였다":8880,"▁하였고,":8881,"▁하였으니":8882,"▁형편":8883,"▁\"이":8884,"▁위하여,":8885,"▁이치와":8886,"▁매사에":8887,"▁자리로":8888,"▁변하여":8889,"▁不生":8890,"▁不知":8891,"▁교화가":8892,"▁합장":8893,"▁약자가":8894,"▁훈련으로":8895,"▁끊는":8896,"▁속이지":8897,"▁사회가":8898,"▁갖은":8899,"▁귀를":8900,"▁경우가":8901,"▁찾는":8902,"▁찾아서":8903,"▁모르게":8904,"▁혜택":8905,"▁혜복의":8906,"▁착이":8907,"▁착한":8908,"▁착심을":8909,"▁이르기까지":8910,"▁끌리어":8911,"▁못한다면":8912,"▁실행하고":8913,"▁체제를":8914,"하옵신":8915,"▁너희":8916,"▁최상":8917,"▁종법사가":8918,"▁된다.":8919,"▁된다면":8920,"▁있을지라도":8921,"▁是故로":8922,"▁인류는":8923,"▁하늘에":8924,"▁건설의":8925,"▁지혜와":8926,"▁보은이":8927,"▁경전이":8928,"▁업장을":8929,"▁대각의":8930,"▁쌓는":8931,"▁땅은":8932,"▁10월":8933,"▁심고를":8934,"▁끝에":8935,"▁백천":8936,"▁노력할":8937,"▁마치면":8938,"▁견성을":8939,"▁불보살의":8940,"▁갖추게":8941,"▁망녕":8942,"▁망념이":8943,"▁애를":8944,"▁준비하는":8945,"▁인도하는":8946,"사오나":8947,"사오며,":8948,"▁卽爲":8949,"▁개인.가정":8950,"▁바라노라.]\r\n":8951,"▁표준이":8952,"▁유무념":8953,"▁강령\r\n":8954,"▁빠른":8955,"▁사랑을":8956,"▁사랑하는":8957,"▁행동이":8958,"대학,":8959,"▁뿌리를":8960,"▁저희들의":8961,"▁빛나":8962,"▁윤회":8963,"▁멀지":8964,"▁가져야":8965,"▁어린이":8966,"다\"고":8967,"▁하오리까.]":8968,"▁재주를":8969,"▁주장하는":8970,"▁미래의":8971,"▁공도자":8972,"▁빌려":8973,"▁없으리라.]\r\n":8974,"▁멸도":8975,"▁선악의":8976,"▁왕래":8977,"사업에":8978,"▁국민의":8979,"▁읽고":8980,"▁밟아":8981,"▁신성과":8982,"▁손님을":8983,"(一圓":8984,"▁어두워":8985,"▁바람이":8986,"▁키워":8987,"▁以是因緣으로":8988,"▁헤매":8989,"▁과목을":8990,"▁인증을":8991,"▁[불법연구회":8992,"▁깨닫고":8993,"▁15.대종사":8994,"▁적당히":8995,"▁허망한":8996,"▁상(相":8997,"▁[일원":8998,"▁밥을":8999,"▁옮겨":9000,"다.’는":9001,"般若波羅蜜":9002,"년(1971.辛":9003,"▁대치하는":9004,"▁반야바라밀":9005,"▁오롯이":9006,"歡喜요":9007,"▁나리시와":9008,"▁계율을":9009,"▁[나의":9010,"▁최초의":9011,"▁바라노라.」\r\n":9012,"▁대호법":9013,"▁가라앉":9014,"▁정관평":9015,"▁기어이":9016,"作是念호대":9017,"▁56년(1971.辛":9018,"釋迦牟尼":9019,"▁一圓大":9020,"▁40년(1955.乙未)":9021,"▁성명·印":9022,"(同":9023,"(小":9024,"(慧":9025,")할":9026,".\n":9027,".국":9028,".김":9029,".상":9030,".영":9031,".육":9032,".인":9033,"10":9034,"[2":9035,"[無":9036,"”라고":9037,"▁中":9038,"▁信":9039,"▁南":9040,"▁又":9041,"▁必":9042,"▁日":9043,"▁明":9044,"▁漸":9045,"▁終":9046,"▁豈":9047,"▁長":9048,"▁값":9049,"▁낼":9050,"▁닮":9051,"▁떼":9052,"▁삶":9053,"▁족":9054,"▁쥐":9055,"▁흠":9056,"▁식을":9057,"之人이":9058,"事)를":9059,"修羅":9060,"修行":9061,"其心":9062,"善知識":9063,"喪葬":9064,"四生":9065,"後修":9066,"性)이":9067,"恩)":9068,"會上":9069,"有人이":9070,"本師":9071,"正師)":9072,"步步":9073,"比丘":9074,"法이요":9075,"白佛":9076,"者하고":9077,"色身":9078,"겁을":9079,"계에서":9080,"고히":9081,"관을":9082,"권을":9083,"그마":9084,"길이":9085,"냄이요":9086,"년도":9087,"년기에는":9088,"념과":9089,"다니":9090,"단(":9091,"대할":9092,"대하는":9093,"돌아":9094,"라[":9095,"라면":9096,"락에":9097,"란이":9098,"려니와":9099,"리며":9100,"리라는":9101,"만유가":9102,"명은":9103,"모의":9104,"미한":9105,"받을":9106,"법으로":9107,"병을":9108,"보고":9109,"보응":9110,"보내기":9111,"불급":9112,"사께서":9113,"서(":9114,"서가":9115,"세는":9116,"세존":9117,"소(":9118,"식은,":9119,"실에":9120,"아의":9121,"아미타":9122,"았다":9123,"애.":9124,"양하여":9125,"연과":9126,"옵서":9127,"위원":9128,"으라":9129,"을지라도":9130,"음으로":9131,"이리오":9132,"이옵니다.":9133,"일은":9134,"자나":9135,"자로서":9136,"절이":9137,"주(":9138,"중에서":9139,"지부":9140,"책을":9141,"천에":9142,"체는":9143,"침을":9144,"품(":9145,"하노":9146,"하나이다.":9147,"하리요.":9148,"하라는":9149,"함이라,":9150,"화하는":9151,"▁하리라.]\r\n":9152,"▁하거나":9153,"▁하노라.":9154,"▁하거늘,":9155,"▁그일":9156,"▁그치지":9157,"▁사심이":9158,"▁사.농":9159,"▁대강":9160,"▁대거":9161,"▁대의에":9162,"▁말에":9163,"▁말라.]\r\n":9164,"으로나":9165,"▁일에는":9166,"▁일이라":9167,"▁있겠는가.":9168,"하시나":9169,"▁가꾸":9170,"▁가옥":9171,"▁가하여":9172,"▁[가":9173,"▁[인":9174,"▁[참":9175,"▁정교":9176,"▁정전":9177,"▁정하고,":9178,"▁정사에":9179,"▁정의가":9180,"▁정의에":9181,"▁자립":9182,"▁자택":9183,"▁자성이":9184,"▁자세히":9185,"▁공공":9186,"▁되옵":9187,"▁말씀은":9188,"▁마군을":9189,"▁다녀":9190,"▁다투":9191,"▁다하고":9192,"▁다해야":9193,"▁다생에":9194,"▁수고":9195,"▁수시":9196,"▁수정":9197,"▁수고를":9198,"▁교우":9199,"▁교파":9200,"▁지낸":9201,"▁지출":9202,"▁보관":9203,"▁어둠":9204,"▁법연":9205,"▁법이라,":9206,"▁법(敎":9207,"▁모양":9208,"▁모자":9209,"▁모친":9210,"▁주문":9211,"▁주야":9212,"▁주며,":9213,"▁생전에":9214,"▁나고,":9215,"▁기대":9216,"▁기쁘":9217,"▁기억":9218,"▁부여":9219,"▁부친":9220,"▁제6":9221,"▁도리":9222,"▁인(":9223,"▁인쇄":9224,"▁인재를":9225,"▁바쳐서":9226,"▁원리":9227,"▁원인이":9228,"▁만사":9229,"▁성령":9230,"▁성쇠":9231,"▁성질이":9232,"▁불가":9233,"▁불변":9234,"▁불사":9235,"▁불은":9236,"▁불타":9237,"▁불상을":9238,"▁불과를":9239,"▁중도를":9240,"▁중심으로":9241,"▁27":9242,"▁2월에":9243,"▁27.대종사":9244,"▁우러":9245,"▁우치":9246,"▁천명":9247,"▁천신":9248,"▁시자에게":9249,"▁위력":9250,"▁위함이요,":9251,"▁위대한":9252,"▁동기":9253,"▁동남":9254,"▁동진":9255,"▁오를":9256,"▁경로를":9257,"▁전쟁":9258,"▁전하여":9259,"▁공부인에게":9260,"▁선은":9261,"▁선의":9262,"▁선정":9263,"▁선근을":9264,"▁받으":9265,"▁받기가":9266,"▁받드는":9267,"▁종사께서는":9268,"▁서는":9269,"▁내고":9270,"▁신정":9271,"▁신축":9272,"▁고난":9273,"▁고쳐":9274,"▁고통이":9275,"▁우리를":9276,"▁4)":9277,"▁44":9278,"▁4대":9279,"▁4.대종사":9280,"▁삼아야":9281,"▁의논":9282,"▁구경":9283,"▁구별":9284,"▁소를":9285,"▁소소한":9286,"▁더할":9287,"▁비컨대":9288,"▁거교":9289,"▁길이요,":9290,"하였다가":9291,"▁개혁":9292,"▁부처로":9293,"▁부처인":9294,"▁세계로":9295,"▁5.대종사":9296,"▁각처":9297,"▁본교의":9298,"▁연원을":9299,"▁심법을":9300,"▁정신수양":9301,"▁있으리라.]\r\n":9302,"▁두고,":9303,"▁예법을":9304,"▁방황":9305,"▁사업은":9306,"▁과수":9307,"▁과한":9308,"▁과히":9309,"▁과불급":9310,"▁뜻이니라.":9311,"▁복의":9312,"▁가운데서":9313,")이니,":9314,"▁생활은":9315,"▁좋고":9316,"▁좋으":9317,"▁자기에게":9318,"▁단정":9319,"▁통례":9320,"▁분의":9321,"▁60":9322,"▁6.대종사":9323,"▁교단적":9324,"▁깨치고":9325,"▁중생도":9326,"▁중생들은":9327,"▁명랑":9328,"▁국내":9329,"▁하시었다.":9330,"▁입게":9331,"▁편에":9332,"▁감동":9333,"▁앞에서는":9334,"▁앞두고":9335,"▁병든":9336,"▁줄은":9337,"▁간격":9338,"▁간소한":9339,"▁화려":9340,"▁양로":9341,"▁제자를":9342,"▁순일한":9343,"▁종교는":9344,"▁하였나니":9345,"▁하였다.\n":9346,"▁이루신":9347,"▁근본적":9348,"▁창조":9349,"▁못하며,":9350,"▁못하나니":9351,"▁기운과":9352,"▁취사를":9353,"▁不如":9354,"▁不應":9355,"▁맞추":9356,"▁곳으로":9357,"▁들어가는":9358,"▁믿음이":9359,"리요.]":9360,"▁수행하는":9361,"▁약속":9362,"▁시대가":9363,"▁외에는":9364,"▁올려":9365,"▁하지만":9366,"▁광선":9367,"▁잡지":9368,"▁동지의":9369,"▁박람":9370,"▁혜복을":9371,"▁것과,":9372,"▁범연히":9373,"▁염치":9374,"▁존경":9375,"▁존재":9376,"▁증명":9377,"▁수양을":9378,"▁타고":9379,"▁타자녀":9380,"▁나라가":9381,"▁나라와":9382,"▁송광이":9383,"▁확실히":9384,"▁데에만":9385,"▁인류와":9386,"▁지금까지":9387,"▁건설에":9388,"▁완철":9389,"▁용맹":9390,"▁연구의":9391,"▁193":9392,"▁사뢰어":9393,"▁피차":9394,"▁무엇으로":9395,"▁육신이":9396,"▁어렵나니,":9397,"▁사이의":9398,"▁땅을":9399,"▁백지":9400,"▁포함":9401,"▁중앙에":9402,"▁9월":9403,"▁규정":9404,"▁넘치는":9405,"▁상대하여":9406,"(法階":9407,"▁성품의":9408,"▁성품이":9409,"▁먹는":9410,"▁전무출신의":9411,"▁면할":9412,"▁[그대의":9413,"▁좋아하고":9414,"▁알아서,":9415,"▁얻어,":9416,"▁탐.진":9417,"▁개인이나":9418,"▁활용하는":9419,"하오며":9420,"▁쉽고":9421,"▁머리":9422,"▁것인바,":9423,"▁염불과":9424,"▁허공에":9425,"▁강령을":9426,"▁나타나게":9427,"하리오.":9428,"▁없을새":9429,"▁수위단회의":9430,"▁공중을":9431,"▁양성하는":9432,"▁저희들":9433,"▁저희들도":9434,"▁평등한":9435,"년(1957.丁":9436,"▁목적을":9437,"▁다르나":9438,"▁별로":9439,"▁전체를":9440,"▁전체의":9441,"▁풍속":9442,"▁법계의":9443,"▁선진은":9444,"▁나무아미타":9445,"▁부터는":9446,"▁『원불교":9447,"▁하겠느냐.]":9448,"▁도인들이":9449,"▁영광군":9450,"▁진행할":9451,"▁범부와":9452,"으려고":9453,"▁어디에":9454,"▁결과가":9455,"▁결과\r\n":9456,"▁괴로운":9457,"▁(어":9458,"▁편안히":9459,"▁여의고":9460,"▁왕이":9461,"▁구분하여":9462,"▁미워하고":9463,"▁운전하여":9464,"▁깨치면":9465,"▁운동이니,":9466,"▁떨어지지":9467,"▁제2장":9468,"▁울안":9469,"▁과보를":9470,"▁분명히":9471,"▁놀라":9472,"▁즐거운":9473,"▁흔들리지":9474,"▁보배를":9475,"▁복덕이":9476,"▁[무엇":9477,"▁깨끗이":9478,"▁탁한":9479,"▁일념으로":9480,"▁만고에":9481,"▁재미로":9482,"▁칠보":9483,".로.애.":9484,"▁대체로":9485,"▁조합원":9486,"▁계교하지":9487,"陀圓)":9488,"▁세월이":9489,"▁지공무":9490,"년(1970.庚":9491,".공.":9492,"▁부끄러운":9493,"▁북돋":9494,"▁42년(1957.丁":9495,"▁좁은":9496,"▁칭찬":9497,"▁심경으로":9498,"▁만보살을":9499,"▁수상문":9500,"▁역할을":9501,"▁무등등한":9502,"▁55년(1970.庚":9503,"▁보임이요,":9504,"▁기사보내기":9505,"▁처처불":9506,"▁뉘우":9507,"▁개인.가정.사회.국":9508,"▁56년(1971.辛亥)":9509,"▁사.농.공.":9510,"▁법(敎規":9511,"▁탐.진.":9512,"(主":9513,"(生":9514,"(開":9515,")요":9516,")이요":9517,".의":9518,".조":9519,".취사의":9520,"/펼":9521,"4]":9522,"7장":9523,"[3":9524,"]가":9525,"]이":9526,"].’":9527,"w.":9528,"·육":9529,"·진":9530,"’는":9531,"’을":9532,"▁依":9533,"▁則":9534,"▁去":9535,"▁夫":9536,"▁尊":9537,"▁成":9538,"▁答":9539,"▁觀":9540,"▁諸":9541,"▁道":9542,"▁還":9543,"▁飯":9544,"▁갊":9545,"▁껍":9546,"▁낸":9547,"▁넣":9548,"▁늦":9549,"▁멈":9550,"▁숯":9551,"▁잇":9552,"▁털":9553,"▁틈":9554,"▁패":9555,"▁홍":9556,"一念":9557,"七寶":9558,"三千":9559,"三昧":9560,"位.":9561,"佛法":9562,"供養":9563,"修道":9564,"家)의":9565,"少太":9566,"得阿耨多羅三藐三菩提":9567,"心하야":9568,"我相":9569,"方便":9570,"是非":9571,"氣)라,":9572,"無窮":9573,"相으로":9574,"神通":9575,"讀誦":9576,"難이요":9577,"가시":9578,"각(":9579,"건국":9580,"겠느냐.]":9581,"고도":9582,"근이":9583,"기/펼":9584,"꼬.]":9585,"나면":9586,"나무":9587,"당에":9588,"대가":9589,"들고":9590,"라\r\n":9591,"랫동안":9592,"러한":9593,"로(":9594,"리기":9595,"리라":9596,"망이":9597,"면,":9598,"명암":9599,"무리":9600,"물질이":9601,"밀한":9602,"번에":9603,"보는":9604,"보통":9605,"비가":9606,"사업을":9607,"산종사":9608,"서로":9609,"소의":9610,"시킨":9611,"신·":9612,"심으로써":9613,"야말로":9614,"양한":9615,"어가":9616,"여의":9617,"우의":9618,"으)로":9619,"음의":9620,"일수록":9621,"자,":9622,"자연":9623,"정하고":9624,"져야":9625,"종이":9626,"지기":9627,"지면":9628,"지이다.":9629,"처가":9630,"천(":9631,"체의":9632,"치의":9633,"컨댄":9634,"태를":9635,"판을":9636,"편집":9637,"품을":9638,"하루":9639,"하온":9640,"하도다.":9641,"하다가,":9642,"학과":9643,"학을":9644,"한을":9645,"했으나":9646,"호가":9647,"화로":9648,"화하여":9649,"회와":9650,"▁이사":9651,"▁이참":9652,"▁이상이":9653,"▁하라":9654,"▁그일에":9655,"▁사귀":9656,"▁사다":9657,"▁사대":9658,"▁사를":9659,"▁사생이":9660,"▁것이라도":9661,"▁있나이다.]":9662,"▁아나":9663,"▁[내":9664,"▁[소":9665,"▁[나는":9666,"▁[마음":9667,"▁없던":9668,"▁정하여":9669,"▁자는":9670,"▁자만":9671,"▁자지":9672,"▁자리는":9673,"▁공용":9674,"▁공포":9675,"▁공도에":9676,"▁되니":9677,"▁다생":9678,"▁다하면":9679,"▁수를":9680,"▁수습":9681,"▁수신":9682,"▁수지":9683,"▁교훈":9684,"▁지낼":9685,"▁한탄":9686,"▁한가지":9687,"▁보조":9688,"▁보기를":9689,"▁어릴":9690,"▁법력":9691,"▁법요":9692,"▁주견":9693,"▁주기":9694,"▁주며":9695,"▁주기를":9696,"▁생의":9697,"▁생명이":9698,"▁생사는":9699,"▁마음에서":9700,"▁나올":9701,"▁기반":9702,"▁기업":9703,"▁기천":9704,"▁기르고":9705,"▁기독교":9706,"▁부근":9707,"▁부드":9708,"▁부자":9709,"▁제작":9710,"▁17":9711,"▁1회":9712,"▁도운":9713,"▁도리가":9714,"▁도’에":9715,"▁때도":9716,"▁아니니":9717,"▁아니하여,":9718,"▁아니시면":9719,"▁인생":9720,"▁인정":9721,"▁바는":9722,"▁바도":9723,"▁바친":9724,"▁바치고":9725,"▁바입니다.":9726,"▁원리에":9727,"▁만날":9728,"▁만년":9729,"▁만대의":9730,"▁성립":9731,"▁성적":9732,"▁성심으로":9733,"▁성과를":9734,"▁불구":9735,"▁불편":9736,"▁불합":9737,"▁불효":9738,"▁중도에":9739,"▁2배":9740,"▁우연한":9741,"▁천리":9742,"▁천진":9743,"▁대종사가":9744,"▁같나니":9745,"▁시련":9746,"▁시설":9747,"▁시기를":9748,"▁시국의":9749,"▁위하사":9750,"▁동과":9751,"▁동하고":9752,"▁오른":9753,"▁오시":9754,"▁알겠":9755,"▁알고,":9756,"▁전부":9757,"▁전북":9758,"▁전할":9759,"▁전환":9760,"▁전일에":9761,"▁선(":9762,"▁36":9763,"▁3.대종사":9764,"▁영결":9765,"▁영을":9766,"▁영식이":9767,"▁신성을":9768,"▁신용을":9769,"▁고가":9770,"▁고생":9771,"▁조성":9772,"▁조감하시옵소서.\r\n":9773,"▁조그마":9774,"▁진보":9775,"▁진안":9776,"▁진퇴":9777,"▁삼계":9778,"▁삼으":9779,"▁않겠":9780,"▁「성":9781,"▁「일":9782,"▁사람이니,":9783,"▁사람이니라.]\r\n":9784,"▁얻음이":9785,"▁실례":9786,"▁실상":9787,"▁실생활에":9788,"▁상근":9789,"▁따르는":9790,"▁종협":9791,"▁소비":9792,"▁소리와":9793,"▁없는지라":9794,"▁발행":9795,"▁등위":9796,"▁비밀":9797,"▁거느":9798,"▁거슬":9799,"▁있는가":9800,"▁있는대로":9801,"▁열릴":9802,"▁열위":9803,"▁가지게":9804,"▁들이지":9805,"▁개과":9806,"▁세계에서":9807,"▁생각과":9808,"▁근기를":9809,"▁근심이":9810,"▁예시":9811,"▁예로써":9812,"▁계급":9813,"▁사업하는":9814,"▁사업이나":9815,"▁과정":9816,"▁뜻인가.\r\n":9817,"▁재래":9818,"▁재를":9819,"▁복도":9820,"▁복종":9821,"▁저녁":9822,"▁부처님으로":9823,"▁부처님이나":9824,"▁생활과":9825,"▁반성하여":9826,"리라.\r\n":9827,"▁처지를":9828,"▁처소에":9829,"▁분발":9830,"▁분수":9831,"▁분을":9832,"▁60.":9833,"▁평안":9834,"▁적이":9835,"▁적절":9836,"▁일이니라.":9837,"▁일이니,":9838,"▁하시며,":9839,"▁하시었나니,":9840,"▁몸으로써":9841,"▁입선":9842,"▁편집":9843,"▁차이가":9844,"▁감시":9845,"▁감찰":9846,"▁감사의":9847,"▁일원주의":9848,"▁앞에서":9849,"▁병자의":9850,"▁죄는":9851,"▁죄도":9852,"▁허물이":9853,"▁화하는":9854,"▁양이":9855,"▁요건":9856,"▁종교인":9857,"▁청하여":9858,"▁하면,":9859,"▁권리":9860,"▁권리와":9861,"▁되었나니,":9862,"▁되었으니,":9863,"▁특수한":9864,"▁악은":9865,"▁창생을":9866,"▁학림":9867,"▁학생":9868,"▁학술":9869,"▁이름은":9870,"▁이름이":9871,"▁스승으로":9872,"▁못하나니라.":9873,"▁표방":9874,"▁자리요":9875,"▁취하는":9876,"▁날을":9877,"▁제도하게":9878,"▁태극":9879,"▁합일":9880,"▁합심하여":9881,"▁지도할":9882,"▁친지":9883,"▁닦아서":9884,"▁사회.국":9885,"▁가르쳐서":9886,"▁은혜로":9887,"▁막을":9888,"▁경우와":9889,"▁교당의":9890,"▁원불교가":9891,"▁찾게":9892,"▁바로잡":9893,"▁혜광":9894,"▁착복":9895,"▁떠나는":9896,"▁7.대종사":9897,"▁범하지":9898,"▁과거와":9899,"▁실행할":9900,"▁실행하는":9901,"▁염려":9902,"▁절대":9903,"衆生相":9904,"▁기관은":9905,"▁주시며":9906,"▁너는":9907,"되어,":9908,"▁동안에":9909,"▁수양의":9910,"▁수양.연구":9911,"▁밖에서":9912,"▁타력을":9913,"▁된다는":9914,"▁是爲":9915,"▁임원":9916,"▁국가를":9917,"▁청정히":9918,"▁그것으로":9919,"▁쉬고":9920,"▁얼음":9921,"▁하늘은":9922,"▁축사":9923,"▁묻는":9924,"▁낙이":9925,"▁낙원의":9926,"적으로는":9927,"▁총부를":9928,"▁총부의":9929,"▁195":9930,"▁19.대종사":9931,"▁무엇이나":9932,"▁서원으로":9933,"▁뿐만":9934,"▁이에,":9935,"▁어렵게":9936,"▁땅의":9937,"▁10.대종사":9938,"▁10월에":9939,"▁위해서":9940,"▁식은,":9941,"▁만물은":9942,"▁희.로.애.":9943,"▁이어,":9944,"▁불교와":9945,"▁보시고,":9946,"(大圓":9947,"▁불보살은":9948,"▁하셨고,":9949,"▁소태산이":9950,"▁넘나":9951,"▁먹지":9952,"▁만나면":9953,"▁이해가":9954,"시키기":9955,"▁대도의":9956,"▁바르지":9957,"▁나아갈":9958,"▁극락을":9959,"▁시작하여":9960,"▁눈이":9961,"▁아닌가.":9962,"▁쉽나니":9963,"▁지내는":9964,"▁제1장":9965,"▁민중의":9966,"▁꾸미":9967,"▁어른이나":9968,"는가,":9969,"년(1962.壬":9970,"▁빠져":9971,"▁팔만":9972,"▁맡기":9973,"▁맡아":9974,"▁나오는":9975,"▁아래로":9976,"▁챙기고":9977,"▁앉아서":9978,"▁성취하게":9979,"▁까닭이요,":9980,"▁하라.」\r\n":9981,"▁성불의":9982,"▁효과가":9983,"▁국한이":9984,"▁정법에":9985,"▁영산에서":9986,"▁드러나고":9987,"▁질서를":9988,"▁단련하는":9989,"▁감사하는":9990,"▁감사하옵나이다.":9991,"▁묵묵":9992,"▁개벽의":9993,"▁단체나":9994,"▁『정":9995,"▁걱정이":9996,"▁일어냄이요":9997,"▁도량의":9998,"▁범부는":9999,"▁미래를":10000,"▁결과는":10001,"▁귀의하고,":10002,"▁넓은":10003,"▁이용하여":10004,"▁여섯째":10005,"▁편안한":10006,"▁작용할":10007,"▁탄압":10008,"▁부지중":10009,"▁[그러면":10010,"▁[그러하오면":10011,"장(喪葬":10012,"▁조목을":10013,"▁미워하지":10014,"▁문명의":10015,"▁융통":10016,"▁사사로운":10017,"▁사사불공":10018,"▁퇴굴":10019,"▁기술이":10020,"▁영겁을":10021,"▁운동을":10022,"▁병진하는":10023,"▁접기/펼":10024,"▁청년이":10025,"▁박중빈은":10026,"▁욕심에":10027,"▁쇠약":10028,"▁부탁하노라.]\r\n":10029,"▁겁을":10030,"▁굽히":10031,"▁혁신":10032,"▁어긋남이":10033,"▁월명암":10034,"▁보응의":10035,"▁22.대종사":10036,"▁49일":10037,"▁싶은":10038,"▁18.대종사":10039,"▁16.대종사":10040,"▁간단히":10041,"다든지,":10042,"▁[아니옵니다":10043,"▁[옛날":10044,"▁天下":10045,"▁원칙으로":10046,"▁챙겨서":10047,"▁만났을":10048,"▁발심한":10049,"▁아끼고":10050,"▁물들지":10051,"▁생겨나서":10052,"▁돌리자.\r\n":10053,"금강경":10054,"▁마지막":10055,"▁젊은":10056,"▁빠짐없이":10057,"▁짧은":10058,"치기\n":10059,"▁47년(1962.壬":10060,"▁생.로.병.":10061,"감지위":10062,"▁균등의":10063,"▁환희심을":10064,"▁南無":10065,"白佛言하사대":10066,"▁42년(1957.丁酉)":10067,"▁조그마한":10068,"▁접기/펼치기\n":10069,"(六":10070,"(我":10071,"(眞":10072,")(":10073,".경":10074,".자녀":10075,"15":10076,"16":10077,"1]":10078,"26":10079,"5)":10080,"·국":10081,"▁因":10082,"▁王":10083,"▁行":10084,"▁譬":10085,"▁둥":10086,"▁몽":10087,"▁뭇":10088,"▁빙":10089,"▁솥":10090,"▁쏟":10091,"▁젖":10092,"▁찍":10093,"▁척":10094,"▁칼":10095,"▁택":10096,"▁實無":10097,"三十二":10098,"不信":10099,"不見":10100,"世間":10101,"之功":10102,"也니":10103,"事業":10104,"人相":10105,"光田":10106,"分上":10107,"化)":10108,"十方":10109,"善根":10110,"善男子善女人이":10111,"報)은":10112,"如意":10113,"定靜":10114,"師長":10115,"性이":10116,"懺悔":10117,"正覺":10118,"法門":10119,"率性":10120,"理)":10121,"相이":10122,"行)":10123,"資生":10124,"身佛":10125,"返照":10126,"那含":10127,"阿修羅":10128,"阿那含":10129,"陀洹":10130,"須陀洹":10131,"首迦":10132,"간다면":10133,"겠나이다.":10134,"결한":10135,"계는":10136,"교가":10137,"귀를":10138,"기한":10139,"기라,":10140,"끼리":10141,"낱이":10142,"단히":10143,"단으로":10144,"독한":10145,"되기를":10146,"두에":10147,"락과":10148,"래로":10149,"량한":10150,"례(":10151,"모를":10152,"문과":10153,"묻되":10154,"미를":10155,"바로":10156,"박을":10157,"법어":10158,"법신불":10159,"산의":10160,"상이라,":10161,"서,":10162,"셨던":10163,"셨고,":10164,"셨나니,":10165,"송(":10166,"수라":10167,"습을":10168,"식,":10169,"실(":10170,"었으니,":10171,"여,":10172,"오나":10173,"욕의":10174,"용(":10175,"용한":10176,"우면":10177,"원\n":10178,"원에서":10179,"음알":10180,"음은":10181,"인들":10182,"임에":10183,"자들의":10184,"장한":10185,"장으로":10186,"장에서":10187,"재에":10188,"전.":10189,"전히":10190,"전으로":10191,"절을":10192,"절의":10193,"정신":10194,"정하는":10195,"제에":10196,"조조합":10197,"존이시여":10198,"중을":10199,"중하여":10200,"치신":10201,"통은":10202,"하러":10203,"하다.":10204,"하다면":10205,"하라]":10206,"하심이요,":10207,"함이니":10208,"해진":10209,"행하여":10210,"호(":10211,"화에":10212,"회상":10213,"▁이십":10214,"▁이외":10215,"▁이대로":10216,"▁하근":10217,"▁하므로":10218,"▁하거나,":10219,"▁하노라.]\r\n":10220,"▁하심이요,":10221,"▁그칠":10222,"▁그동안":10223,"▁사나":10224,"▁사생을":10225,"▁사유를":10226,"▁대가":10227,"▁대략":10228,"▁대접":10229,"▁대사를":10230,"▁대봉공":10231,"▁것이라고":10232,"▁것이므로,":10233,"▁일정":10234,"▁일이요,":10235,"▁일정한":10236,"▁있거든":10237,"▁가섭":10238,"▁가야":10239,"▁가을":10240,"▁아득":10241,"▁아랫":10242,"▁아이가":10243,"▁[기":10244,"▁[너":10245,"▁[본":10246,"▁[재":10247,"▁[도를":10248,"▁[중생":10249,"▁[네가":10250,"▁사람에":10251,"▁정(":10252,"▁정(定":10253,"▁공사":10254,"▁공의를":10255,"▁공사(公":10256,"▁되옵고":10257,"▁수만":10258,"▁수천":10259,"▁세력을":10260,"▁교리에":10261,"▁교의(":10262,"▁교리의":10263,"▁교회가":10264,"▁지난":10265,"▁지위":10266,"▁지정":10267,"▁지체":10268,"▁지장이":10269,"▁지식이":10270,"▁지견을":10271,"▁한참":10272,"▁한다.\n":10273,"▁보급":10274,"▁보다":10275,"▁보리":10276,"▁보이시":10277,"▁보이는":10278,"▁보조를":10279,"▁어기지":10280,"▁법사":10281,"▁법위를":10282,"▁주었":10283,"▁주저":10284,"▁주체를":10285,"▁생에":10286,"▁생사에":10287,"▁마음공":10288,"▁기거":10289,"▁기질":10290,"▁부당":10291,"▁1년":10292,"▁1.대종사":10293,"▁13.대종사":10294,"▁때요,":10295,"▁때부터":10296,"▁아니므로":10297,"▁아니함이":10298,"▁아니리요.":10299,"▁아니하시고":10300,"▁바라,":10301,"▁원인을":10302,"▁만법의":10303,"▁만대에":10304,"▁성리":10305,"▁성리에":10306,"▁무극":10307,"▁무릅":10308,"▁중국":10309,"▁중등":10310,"▁중간에":10311,"▁2.대종사":10312,"▁여성":10313,"▁여기는":10314,"▁위,":10315,"▁위령":10316,"▁동란":10317,"▁오면":10318,"▁오랫동안":10319,"▁전일":10320,"▁공부인이":10321,"▁선이":10322,"▁32":10323,"▁3년":10324,"▁3편":10325,"▁3월에는":10326,"▁영근":10327,"▁영령":10328,"▁종사를":10329,"▁서양":10330,"▁내리는":10331,"▁신설":10332,"▁고하시되":10333,"▁고개를":10334,"▁큰일을":10335,"▁조물":10336,"▁진흙":10337,"▁진화의":10338,"▁잘한":10339,"▁잘하여":10340,"▁삼강":10341,"▁삼아서":10342,"▁삼매,":10343,"▁「사":10344,"▁「새":10345,"▁「내가":10346,"▁회규":10347,"▁의두":10348,"▁의복":10349,"▁얻기가":10350,"▁실력":10351,"▁실지에":10352,"▁실지의":10353,"▁실적이":10354,"▁해도":10355,"▁구멍":10356,"▁구현":10357,"▁구름이":10358,"▁종합":10359,"▁후생":10360,"▁소원을":10361,"▁발생":10362,"▁등불을":10363,"▁비는":10364,"▁비용을":10365,"▁거름을":10366,"▁거기에서":10367,"▁있는데":10368,"▁있는데,":10369,"하였던":10370,"▁들이는":10371,"▁개설":10372,"▁개조":10373,"▁개회":10374,"▁행사가":10375,"▁생각에":10376,"▁생각하니":10377,"▁근기의":10378,"▁본받아":10379,"▁연유를":10380,"▁유전":10381,"▁물과":10382,"▁물어":10383,"▁많지":10384,"▁살려":10385,"▁살리는":10386,"▁예도":10387,"▁당하게":10388,"▁당인의":10389,"▁계합":10390,"▁미한":10391,"▁장소에":10392,"▁과정을":10393,"나이다":10394,"▁힘은":10395,"▁돌고":10396,"▁뜻이니,":10397,"▁함으로써":10398,"▁함이니,":10399,"▁복은":10400,"▁저를":10401,"▁데로":10402,"▁데에서":10403,"▁반대로":10404,"▁결산":10405,"▁처소":10406,"▁단독":10407,"▁통한":10408,"▁분수에":10409,"▁명명":10410,"▁명칭":10411,"▁명함을":10412,"▁일이든지":10413,"▁감각":10414,"▁일원상(":10415,"▁일원상과":10416,"▁앞을":10417,"하기만":10418,"▁문명을":10419,"▁크다":10420,"▁강자":10421,"▁강자가":10422,"▁죄고":10423,"▁죄복":10424,"▁간섭":10425,"▁간척":10426,"▁봉사":10427,"▁화(":10428,"▁화하고,":10429,"▁양심":10430,"▁드리":10431,"▁드물":10432,"▁순순":10433,"▁요달":10434,"▁요론":10435,"▁청렴":10436,"▁청소":10437,"▁집에서":10438,"▁번도":10439,"▁특징":10440,"▁근본에":10441,"▁악이":10442,"▁창간":10443,"▁학인의":10444,"▁훈습":10445,"▁이름하나이다.]":10446,"▁\"그":10447,"▁못하리라.]\r\n":10448,"▁매입":10449,"▁매하지":10450,"▁열반하신":10451,"▁변하는":10452,"▁기운이요,":10453,"▁취하고":10454,"어지지":10455,"으시며":10456,"▁나타날":10457,"▁없고는":10458,"▁있어서,":10459,"▁‘교":10460,"▁‘천":10461,"▁수도의":10462,"▁곳곳":10463,"▁곳에는":10464,"▁합치":10465,"▁지도자가":10466,"▁역사":10467,"▁약간":10468,"▁친목":10469,"▁끊고":10470,"▁닦을":10471,"▁닦지":10472,"▁않는다고":10473,"▁활발":10474,"▁점이다.":10475,"▁보고를":10476,"▁보면,":10477,"▁올릴":10478,"▁교당이나":10479,"▁광전":10480,"▁잡을":10481,"▁아니하나,":10482,"▁아니하나니":10483,"▁착심이":10484,"▁이르렀":10485,"▁실행에":10486,"▁실행하여":10487,"▁버릴":10488,"▁걸려":10489,"▁깊고":10490,"▁드러난":10491,"▁어려서":10492,"▁기관과":10493,"▁기관에":10494,"▁주시고":10495,"▁동안의":10496,"▁수양과":10497,"▁밖으로는":10498,"▁된다":10499,"▁나라는":10500,"▁뒤로":10501,"▁임명":10502,"▁확인":10503,"須菩提하사대":10504,"▁발전이":10505,"▁용납":10506,"▁보은을":10507,"▁연구하여":10508,"▁업이":10509,"▁충고":10510,"▁충만":10511,"▁충실히":10512,"▁쌓아":10513,"▁쌓이고":10514,"▁어렵고,":10515,"▁끝이":10516,"▁받아,":10517,"▁그런즉":10518,"▁그런고로":10519,"▁불교가":10520,"▁불교는":10521,"▁잘못이":10522,"▁잘못하는":10523,"▁잘못하면":10524,"▁갖추어야":10525,"▁중앙총":10526,"▁호념":10527,"▁호흡":10528,"▁하셨나니":10529,"▁하셨느니라.」\r\n":10530,"▁9년(192":10531,"▁규율":10532,"▁혼란":10533,"▁상대가":10534,"▁연고로":10535,"▁떠나서":10536,"▁답례":10537,"▁불공할":10538,"▁준비할":10539,"▁성공이":10540,"▁성공할":10541,"▁전무출신을":10542,"▁물질적":10543,"▁佛說":10544,"▁독실한":10545,"▁잃어버":10546,"▁좋아함이요":10547,"▁농사를":10548,"▁인과가":10549,"▁인과보응":10550,"▁자녀에게":10551,"▁나아가는":10552,"▁즐기는":10553,"▁동포가":10554,"▁잠을":10555,"하오나":10556,"하오며,":10557,"하오리까.]":10558,"▁것인가":10559,"▁밝히는":10560,"▁불법으로":10561,"▁나타나고,":10562,"(無爲":10563,"▁안으로는":10564,"▁성현들은":10565,"년(1964.甲":10566,"년(1969.己":10567,"▁사랑하고":10568,"▁누구를":10569,"▁누구든지":10570,"▁남녀가":10571,"▁사실을":10572,"▁챙기지":10573,"▁근원하여":10574,"▁지방에":10575,"▁지방의":10576,"▁뿌리는":10577,"▁찬성":10578,"▁찬양":10579,"▁정치와":10580,"▁옳지":10581,"하므로,":10582,"▁주로하여":10583,"▁저희들이":10584,"▁저희들은":10585,"▁평등이":10586,"▁선원은":10587,"▁의지하는":10588,"▁겸손":10589,"▁진실로":10590,"▁해탈의":10591,"▁스승님이":10592,"▁파견":10593,"부처님께서":10594,"▁질투":10595,"▁질서가":10596,"▁12년":10597,"▁12년(192":10598,"▁조심하여":10599,"▁담박":10600,"▁가져오":10601,"▁자력과":10602,"▁성인들이":10603,"▁개벽하자":10604,"▁단체의":10605,"▁법률을":10606,"▁급한":10607,"▁급히":10608,"▁살펴보면":10609,"▁방편이":10610,"▁어떠하나이까.]":10611,"▁일어내":10612,"으려는":10613,"▁[수양":10614,"▁결국은":10615,"▁가족의":10616,"▁육근이":10617,"▁느껴":10618,"▁숨어서":10619,"▁없으리라.":10620,"▁길러야":10621,"▁연마하는":10622,"▁채택":10623,"▁방면으로":10624,"▁맺어":10625,"▁보아다가":10626,"▁[어찌":10627,"▁[저는":10628,"▁석존":10629,"▁석가모니":10630,"▁육도와":10631,"▁문명은":10632,"▁알았으나":10633,"▁즉시":10634,"▁공양을":10635,"▁후진을":10636,"▁후진이":10637,"▁살피고":10638,"▁[세상":10639,"▁[세존이시여":10640,"▁얻으리라.":10641,"▁필요가":10642,"0년대":10643,"년(1940.庚":10644,"▁온전히":10645,"▁접응":10646,"▁수보리에게":10647,"▁출생.":10648,"▁발표하시니,":10649,"▁所以":10650,"一切衆生":10651,"려고만":10652,"▁현실의":10653,"▁기간을":10654,"▁놀고":10655,"▁했다.":10656,"▁교서의":10657,"▁도둑질을":10658,"▁일으켜":10659,"▁28.대종사":10660,"▁일동은":10661,"▁가난한":10662,"▁선지식을":10663,"▁적당하게":10664,"▁검사":10665,"▁생기면":10666,"▁임시로":10667,"▁밭을":10668,"▁25년(1940.庚":10669,"▁49년(1964.甲":10670,"▁告須菩提하사대":10671,"▁뒷날":10672,"▁當知":10673,"▁[예전]":10674,"▁세월을":10675,"▁강급이":10676,"▁운용하는":10677,"▁삼동윤리":10678,"▁초창기":10679,"▁존령전에":10680,"▁제3장":10681,"▁촉진":10682,"一圓相":10683,"반야바라밀":10684,"▁그림자":10685,"▁영향을":10686,"▁싹이":10687,"▁[오늘":10688,"▁무위이":10689,"▁미루어":10690,"▁탐착을":10691,"▁섭섭한":10692,"▁낱낱이":10693,"▁[대종사께서":10694,"▁주옵소서.]":10695,"▁선후를":10696,"▁사(私":10697,"▁해독을":10698,"▁본말을":10699,"▁영생토록":10700,"www.":10701,"受持讀誦":10702,"▁것이어늘,":10703,"▁가벼이":10704,"▁제4장":10705,"▁참예하여":10706,"▁자유자재":10707,"▁무한한":10708,"니까?」":10709,"▁가볍고":10710,"▁정사(正師)":10711,"▁제5장":10712,"▁제생의세의":10713,"▁올바른":10714,"▁불생불멸의":10715,"▁爾時에":10716,"종법사의":10717,"▁問-":10718,"▁원동력이":10719,"▁삼라만":10720,"▁구렁에":10721,"▁거진출진":10722,"▁54년(1969.己":10723,"▁적의히":10724,"▁번거한":10725,"▁베푸는":10726,"▁任運":10727,"▁반가이":10728,"釋迦牟尼佛":10729,"▁나무아미타불.":10730,"▁55년(1970.庚戌)":10731,"▁처처불상":10732,"▁答-":10733,"▁갊아":10734,"편집]\n":10735,"▁譬如":10736,"▁9년(1924.甲":10737,"▁12년(1927.丁":10738,"▁49년(1964.甲辰)":10739,"(2":10740,"(利":10741,"(外":10742,"(精":10743,"(鼎":10744,"(별록":10745,")으로써":10746,".도":10747,".부":10748,".송":10749,".신":10750,".친":10751,".중생":10752,"0여":10753,"2년":10754,"7]":10755,"7년":10756,"9년":10757,"[편집]\n":10758,"er":10759,"on":10760,"’은":10761,"▁作":10762,"▁來":10763,"▁及":10764,"▁受":10765,"▁妄":10766,"▁學":10767,"▁師":10768,"▁恩":10769,"▁悉":10770,"▁故":10771,"▁斷":10772,"▁歸":10773,"▁知":10774,"▁讚":10775,"▁造":10776,"▁꼭":10777,"▁끄":10778,"▁끓":10779,"▁딸":10780,"▁똑":10781,"▁뚜":10782,"▁뺏":10783,"▁섬":10784,"▁쓴":10785,"▁읊":10786,"▁흡":10787,"▁定慧":10788,"▁言하사대":10789,"一如":10790,"不動":10791,"世에":10792,"之所":10793,"之義":10794,"人所":10795,"佛道":10796,"共珠":10797,"則無":10798,"合相":10799,"坐禪":10800,"坐요":10801,"增上":10802,"多니이다":10803,"大圓":10804,"大師":10805,"大擧":10806,"子女":10807,"家)":10808,"實相":10809,"專務":10810,"希有":10811,"師),":10812,"心)과":10813,"惡道":10814,"慈父":10815,"我本師":10816,"所有":10817,"斯陀":10818,"日月":10819,"會)":10820,"有一":10821,"朴光田":10822,"業이":10823,"業)을":10824,"沙等":10825,"法이":10826,"法)\r\n":10827,"濟衆":10828,"燈佛":10829,"生死":10830,"生에":10831,"等持":10832,"者-":10833,"者曰":10834,"者인댄":10835,"莊嚴":10836,"處處":10837,"輕賤":10838,"辭\r\n":10839,"道德":10840,"道)라":10841,"靷式":10842,"간(":10843,"건을":10844,"겁에":10845,"견과":10846,"경과":10847,"곡을":10848,"교는":10849,"급한":10850,"남의":10851,"님은":10852,"답게":10853,"당을":10854,"대는":10855,"대하고":10856,"덕의":10857,"도한":10858,"되리라.]\r\n":10859,"들어":10860,"들인":10861,"라리":10862,"락의":10863,"령의":10864,"로나":10865,"로다.\r\n":10866,"론을":10867,"루가":10868,"리라고":10869,"망한":10870,"면의":10871,"명에":10872,"목이":10873,"묘한":10874,"무시":10875,"물의":10876,"민족":10877,"발을":10878,"방언":10879,"보지":10880,"본(":10881,"부와":10882,"분의":10883,"불과":10884,"비한":10885,"색을":10886,"선으로":10887,"성,":10888,"세계를":10889,"셨다":10890,"스승":10891,"시를":10892,"시와":10893,"신에게":10894,"실로":10895,"실이":10896,"심도":10897,"심이요":10898,"십이":10899,"악을":10900,"어를":10901,"어가는":10902,"었고":10903,"었던":10904,"요.":10905,"요를":10906,"위에서":10907,"의의":10908,"이기":10909,"인도":10910,"인에":10911,"인지라,":10912,"입니":10913,"자고":10914,"정전]":10915,"조와":10916,"조요":10917,"존(":10918,"중앙":10919,"증이":10920,"지불":10921,"짐을":10922,"초가":10923,"하니라.\r\n":10924,"하심을":10925,"하소서":10926,"하거늘":10927,"하거나,":10928,"학생":10929,"해(":10930,"해지고":10931,"했던":10932,"했을":10933,"호의":10934,"▁이들":10935,"▁이래":10936,"▁이생":10937,"▁이유":10938,"▁이로써":10939,"▁것임을":10940,"▁것같이":10941,"▁하노니,":10942,"▁그래":10943,"▁그럴":10944,"▁그려":10945,"▁사로":10946,"▁사참":10947,"▁사통":10948,"▁사물에":10949,"▁대부":10950,"▁대정":10951,"▁대상과":10952,"▁말아서":10953,"▁일일":10954,"▁일천":10955,"▁일합":10956,"▁있다.\r\n":10957,"▁있음이":10958,"하시와,":10959,"▁가려":10960,"▁가리지":10961,"▁아프":10962,"▁[신":10963,"▁[전무출신":10964,"▁없으니":10965,"▁없건마는":10966,"▁없은즉":10967,"▁사람만":10968,"▁사람이라고":10969,"▁정부":10970,"▁정하는":10971,"▁정(正":10972,"▁공도를":10973,"▁공(公":10974,"▁되겠는가.":10975,"▁되오리까.]":10976,"▁말씀과":10977,"▁수다":10978,"▁수덕":10979,"▁수생":10980,"▁수와":10981,"▁교강":10982,"▁교구":10983,"▁교세":10984,"▁교중":10985,"▁교통":10986,"▁교명을":10987,"▁교회의":10988,"▁교서를":10989,"▁지게":10990,"▁지구":10991,"▁보라":10992,"▁보며":10993,"▁보물":10994,"▁법신":10995,"▁법이요,":10996,"▁법사가":10997,"▁모신":10998,"▁모으":10999,"▁모시는":11000,"▁주변":11001,"▁주최":11002,"▁주고,":11003,"▁주인을":11004,"▁주장이":11005,"▁생략":11006,"▁생일":11007,"▁생기고":11008,"▁나로":11009,"▁나왔":11010,"▁나와서":11011,"▁기한":11012,"▁기회":11013,"▁부딪":11014,"▁부산":11015,"▁부안":11016,"▁부러워":11017,"▁제,":11018,"▁제8":11019,"▁제외":11020,"▁제대로":11021,"▁도무":11022,"▁도사":11023,"▁도합":11024,"▁때라,":11025,"▁아니나":11026,"▁아니며":11027,"▁아니다.":11028,"▁아니며,":11029,"▁아니니라.]\r\n":11030,"▁인식":11031,"▁인물을":11032,"▁바깥":11033,"▁원적":11034,"▁원평":11035,"▁원수가":11036,"▁만남":11037,"▁못하여,":11038,"▁못함을":11039,"▁성탄":11040,"▁성자의":11041,"▁불단":11042,"▁불어":11043,"▁무거":11044,"▁무난":11045,"▁무루":11046,"▁무명":11047,"▁무방":11048,"▁무사":11049,"▁무의":11050,"▁무명이":11051,"▁무릇,":11052,"▁중의":11053,"▁중인의":11054,"▁23.대종사":11055,"▁여름":11056,"▁천록":11057,"▁천어":11058,"▁시기에":11059,"▁시일을":11060,"▁위하고":11061,"▁위함이":11062,"▁동산":11063,"▁동심":11064,"▁오게":11065,"▁오신":11066,"▁오지":11067,"▁오호":11068,"▁오후":11069,"▁오시어":11070,"▁경지를":11071,"▁알라":11072,"▁알며,":11073,"▁알으시":11074,"▁알면서도":11075,"▁알음알":11076,"▁전기":11077,"▁전무":11078,"▁공부니,":11079,"▁선서":11080,"▁선양":11081,"▁선전":11082,"▁선조":11083,"▁선도에":11084,"▁선업을":11085,"▁선행을":11086,"▁받기를":11087,"▁받으면":11088,"▁35":11089,"▁37":11090,"▁영구":11091,"▁영식":11092,"▁영접":11093,"▁영지를":11094,"▁종사여!":11095,"▁내용":11096,"▁신구":11097,"▁신도":11098,"▁신용":11099,"▁신의를":11100,"▁고금":11101,"▁고행을":11102,"▁고생이":11103,"▁고비를":11104,"▁조문":11105,"▁조위":11106,"▁잘하고":11107,"▁세상으로":11108,"▁45":11109,"▁삼례":11110,"▁삼창":11111,"▁삼계를":11112,"▁「공":11113,"▁「큰":11114,"▁「사람이":11115,"▁의한":11116,"▁의식이":11117,"▁얻으면":11118,"▁실무":11119,"▁해로":11120,"▁해설":11121,"▁상봉":11122,"▁상통":11123,"▁상하":11124,"▁구내":11125,"▁구하고자":11126,"▁그러기":11127,"▁그러면":11128,"▁그러기로":11129,"▁하는가":11130,"▁하는데":11131,"▁종(":11132,"▁종류":11133,"▁종법":11134,"▁소자":11135,"▁발원을":11136,"▁등에게":11137,"▁비치는":11138,"▁열리고":11139,"하였을":11140,"▁가지를":11141,"▁가지면":11142,"▁들이면":11143,"▁세계적":11144,"▁세계요,":11145,"▁세계주의":11146,"▁행적":11147,"▁행복을":11148,"▁51":11149,"▁5년":11150,"▁5월,":11151,"▁각지":11152,"▁근기가":11153,"▁본연":11154,"▁회상도":11155,"▁참여":11156,"▁참되고":11157,"▁연등":11158,"▁연락":11159,"▁연습":11160,"▁유명":11161,"▁유사":11162,"▁유여":11163,"▁물에":11164,"▁물론하고":11165,"▁심어":11166,"▁심법이":11167,"▁정신·육":11168,"▁두렵":11169,"▁남용":11170,"▁남편":11171,"▁예로":11172,"▁예법이":11173,"▁당연":11174,"▁당초":11175,"▁당일의":11176,"▁계산":11177,"▁방지":11178,"▁방탕":11179,"▁것이요.\r\n":11180,"▁장의":11181,"▁장학":11182,"어서,":11183,"▁돌리는":11184,"▁돌리고":11185,"▁뜻대로":11186,"▁재물을":11187,"▁재방언":11188,"▁복잡":11189,"▁저버":11190,"▁가운데에도":11191,"하야는":11192,"▁데는":11193,"▁결단":11194,"▁결코":11195,"▁처지와":11196,"▁자기도":11197,"▁통제":11198,"▁분간":11199,"▁분이":11200,"▁분들이":11201,"▁61.":11202,"▁63.":11203,"▁평생을":11204,"▁교단에":11205,"▁적고":11206,"도록,":11207,"▁깨쳤":11208,"▁명호를":11209,"▁편만":11210,"다면,":11211,"▁차라리":11212,"▁감수":11213,"▁감싸":11214,"▁감이":11215,"▁감화":11216,"▁감사를":11217,"▁일원상은":11218,"▁관청":11219,"▁강연":11220,"▁허례":11221,"▁허물":11222,"▁허영":11223,"▁봉독":11224,"▁봉청":11225,"▁은연":11226,"▁둘러":11227,"▁총섭":11228,"▁총지부":11229,"▁요약":11230,"▁집을":11231,"▁하였사오니":11232,"▁작업을":11233,"▁작업이":11234,"▁이루려":11235,"▁이루어지는":11236,"▁권세":11237,"▁권위를":11238,"▁놓을":11239,"▁놓으면":11240,"▁근본적으로":11241,"▁학인에게":11242,"▁이름과":11243,"▁이름하나니라.]\r\n":11244,"▁돌아와":11245,"나이다.\"":11246,"▁이치의":11247,"▁표할":11248,"▁매월":11249,"▁경계와":11250,"▁열반하시":11251,"▁변천":11252,"▁부모를":11253,"▁不爲":11254,"▁不能":11255,"▁날에":11256,"▁산에":11257,"▁수도에":11258,"▁교화단":11259,"▁교화와":11260,"▁제도와":11261,"▁제도하기":11262,"▁태교":11263,"▁합한":11264,"▁쓰시기를":11265,"▁수행은":11266,"▁약자를":11267,"▁친우":11268,"▁닦은":11269,"▁속이고":11270,"▁속에서도":11271,"▁점은":11272,"▁사회를":11273,"▁사회와":11274,"▁은혜에":11275,"▁올린":11276,"▁교당과":11277,"▁원불교에서":11278,"▁잡는":11279,"▁잡념이":11280,"▁찾고":11281,"▁찾지":11282,"▁동지는":11283,"▁동지들을":11284,"▁정산종사":11285,"▁아니하리라.]\r\n":11286,"▁아니하리요.]\r\n":11287,"▁신앙하는":11288,"▁착하고":11289,"▁현상을":11290,"▁떠난":11291,"▁이르게":11292,"▁범상한":11293,"▁체가":11294,"하옵나이다.\r\n":11295,"하옵니다":11296,"▁버려":11297,"▁가정에서":11298,"▁걸리고":11299,"▁드러날":11300,"▁절로":11301,"▁절대로":11302,"▁승한":11303,"▁몇몇":11304,"▁주시니,":11305,"▁수양에":11306,"▁수양력을":11307,"▁밖에도":11308,"▁종법사로":11309,"▁손상":11310,"▁是我本師":11311,"▁뒤를":11312,"▁若菩薩이":11313,"▁음광":11314,"▁음식":11315,"▁음양":11316,"▁음이":11317,"▁언론":11318,"▁발전과":11319,"▁ᄋᄋ님의":11320,"▁우주에":11321,"▁용이":11322,"▁용화":11323,"▁연구를":11324,"▁199":11325,"▁관계는":11326,"▁조금이라도":11327,"▁서원이":11328,"▁육신은":11329,"▁쌓인":11330,"▁쌓아야":11331,"▁어렵나니라.]\r\n":11332,"▁100":11333,"▁백억":11334,"일에,":11335,"▁노력하라.":11336,"▁불교를":11337,"▁환경을":11338,"(大覺":11339,"▁세우신":11340,"▁갖추고":11341,"▁포부를":11342,"▁호리도":11343,"▁사용하여":11344,"▁9인":11345,"▁넘기":11346,"▁넘어서":11347,"▁애석":11348,"▁답사":11349,"▁답하기를":11350,"▁떨어진":11351,"▁면치":11352,"▁이해의":11353,"▁것으로,":11354,"▁깨달을":11355,"▁깨달아서":11356,"▁독립":11357,"▁인도하여":11358,"▁좋아하지":11359,"▁인과는":11360,"▁대도가":11361,"▁배우기를":11362,"▁평화와":11363,"▁극하면":11364,"▁동포에게":11365,"▁탐진":11366,"▁지키지":11367,"▁책임지고":11368,"▁가지고도":11369,"하라.]":11370,"▁시작하였다.\r\n":11371,"▁바라밀":11372,"▁만들기":11373,"▁8월":11374,"▁8.대종사":11375,"▁보살의":11376,"▁정성에":11377,"▁유무에":11378,"▁벌을":11379,"▁나타나나니,":11380,"▁조직과":11381,"▁물건은":11382,"▁이상한":11383,"는가를":11384,"▁공경하지":11385,"년(1967.丁":11386,"년(1965.乙":11387,"년(1963.癸":11388,"▁빠지게":11389,"▁자비와":11390,"▁무량겁을":11391,"▁누구에게":11392,"▁일어나서":11393,"▁생령의":11394,"▁나오면":11395,"화(李":11396,"▁색을":11397,"대학교":11398,"▁써야":11399,"전(正":11400,"▁정치를":11401,"▁양성의":11402,")이라는":11403,"▁목적하는":11404,"▁겸하여":11405,"▁나아가면":11406,"▁윤회에":11407,"▁효과를":11408,"▁흔적":11409,"▁흔적이":11410,"▁시간이":11411,"▁국한된":11412,"▁인간이":11413,"▁영산에":11414,"▁질문에":11415,"하셨나니,":11416,"▁말라.\r\n":11417,"▁12.대종사":11418,"▁조심할":11419,"▁감사한":11420,"▁성인들은":11421,"▁선진들의":11422,"▁201":11423,"▁20.대종사":11424,"▁개벽되니":11425,"▁토가":11426,"▁법률의":11427,"▁나무와":11428,"하면서도":11429,"▁11.대종사":11430,"▁여기에서":11431,"▁하겠나이다.]":11432,"▁대표가":11433,"▁개척하자":11434,"▁방편으로":11435,"▁재주가":11436,"▁재주와":11437,"▁범부가":11438,"으려면":11439,"▁어디로":11440,"▁어디서":11441,"▁세워야":11442,"▁소유로":11443,"▁번뇌로":11444,"▁번뇌를":11445,"▁(18":11446,"▁거짓된":11447,"▁느낌":11448,"▁가까이":11449,"▁따로이":11450,"▁저축조합":11451,"▁채우":11452,"▁하옵시고":11453,"▁하옵시고,":11454,"▁보호하여":11455,"▁해석하여":11456,"▁방면에":11457,"▁습관을":11458,"▁보아도":11459,"▁뵈올":11460,"▁짐을":11461,"▁사무를":11462,"▁밤에":11463,"▁억압":11464,"▁읽는":11465,"▁미워하는":11466,"▁게으":11467,"▁깨치신":11468,"▁손님의":11469,"▁퇴치":11470,"▁흐르":11471,"▁흐르지":11472,"▁기술을":11473,"▁봉래산에서":11474,"▁거래가":11475,"▁예의의":11476,"▁사리연구":11477,"▁기다려":11478,"▁예수의":11479,"▁갚을":11480,"강항마위는":11481,"▁무상행의":11482,"▁과보가":11483,"▁본위하여":11484,"▁통달한":11485,"▁애착과":11486,"▁도둑질":11487,"▁즐거워":11488,"▁없애는":11489,"▁고유문(예문":11490,"▁「우리":11491,"▁복덕을":11492,"▁[무슨":11493,"▁정의의":11494,"▁어려우나":11495,"▁쉬우며,":11496,"▁쉬우나,":11497,"▁낳고":11498,"▁낳아":11499,"阿耨多羅三藐三菩提心":11500,"▁일상생활":11501,"▁기초가":11502,"▁25.대종사":11503,"▁흩어":11504,"▁투쟁":11505,"▁투철":11506,"▁방문하여":11507,"▁재계하옵고":11508,"▁피은의":11509,"▁갑자":11510,"▁[법신불":11511,"▁가리키":11512,"▁와도":11513,"▁대원정":11514,"▁삼매에":11515,"▁불법연구회를":11516,"壽者相":11517,"▁기구를":11518,"▁위주로":11519,"▁영육쌍":11520,"▁영향이":11521,"▁밀어":11522,"▁줌이요":11523,"▁표어를":11524,"▁졸업":11525,"▁아침에":11526,"▁나리시와,":11527,"▁재앙이":11528,"▁자격을":11529,"▁시키는":11530,"▁안락한":11531,"▁깨우쳐":11532,"▁일찍부터":11533,"▁정결한":11534,"▁발인식":11535,"▁편벽된":11536,"▁친절한":11537,"▁힘쓰라.」\r\n":11538,"三界大師":11539,"▁의.식.주":11540,"▁헤아릴":11541,"▁웃으시며":11542,"▁가짐이요":11543,"▁48년(1963.癸":11544,"▁50년(1965.乙":11545,"▁기쁨을":11546,"▁길들이는":11547,"사온데,":11548,"▁대적공":11549,"▁[회규":11550,"▁「그대":11551,"▁52년(1967.丁":11552,"▁불쌍히":11553,"▁상벌을":11554,"▁앞장서":11555,"▁며칠":11556,"▁부정당한":11557,"▁방식을,":11558,"▁막힘이":11559,"▁대각여래위는":11560,"▁돕고":11561,"空寂靈知":11562,"개벽의":11563,"▁[불교정전]":11564,"四生慈父":11565,"▁우러러":11566,"▁不如飯":11567,"▁(어떠":11568,"·진·":11569,"신·물질":11570,"▁수양.연구.취사의":11571,"▁47년(1962.壬寅)":11572,"▁南無三界大師":11573,"▁교의(敎":11574,"▁무릅쓰":11575,"▁54년(1969.己酉)":11576,"釋迦牟尼佛.":11577,"斯陀含":11578,"▁정신·육신·물질":11579,"▁是我本師釋迦牟尼佛.":11580,"▁南無三界大師四生慈父":11581,"(壽":11582,"(成":11583,"(曺":11584,"(相":11585,"(少太":11586,"(으)로":11587,".己":11588,".대":11589,".서":11590,".설":11591,".성":11592,".오":11593,".전":11594,".19":11595,".주.":11596,".부모":11597,".심경":11598,"/www.":11599,"1년(195":11600,"](":11601,"]고":11602,"·법":11603,"·사":11604,"·정":11605,"▁上":11606,"▁便":11607,"▁勝":11608,"▁各":11609,"▁實":11610,"▁對":11611,"▁常":11612,"▁意":11613,"▁愛":11614,"▁施":11615,"▁照":11616,"▁眞":11617,"▁空":11618,"▁結":11619,"▁遇":11620,"▁過":11621,"▁隨":11622,"▁離":11623,"▁궤":11624,"▁꺾":11625,"▁낫":11626,"▁닭":11627,"▁닿":11628,"▁돋":11629,"▁리":11630,"▁뱀":11631,"▁왼":11632,"▁즈":11633,"▁촌":11634,"▁춤":11635,"▁코":11636,"▁탓":11637,"▁튼":11638,"▁훼":11639,"▁흰":11640,"▁菩薩":11641,"▁云何":11642,"▁念念":11643,"」「":11644,"一合相":11645,"不盡":11646,"主義)":11647,"之人은":11648,"事)":11649,"佛敎":11650,"作用":11651,"劣機":11652,"千世界":11653,"句偈":11654,"名譽":11655,"善)":11656,"報恩":11657,"多不아":11658,"大定":11659,"大千世界":11660,"如如":11661,"威德":11662,"將植":11663,"復有人이":11664,"忍辱":11665,"恩)\r\n":11666,"文)\r\n":11667,"是經":11668,"時)":11669,"智慧":11670,"最上":11671,"有法":11672,"朴將植":11673,"果)를":11674,"汝의":11675,"決定":11676,"法師":11677,"淸風":11678,"漸修":11679,"濟生":11680,"無念":11681,"無私":11682,"由文\r\n":11683,"盜요":11684,"相),":11685,"相)이요,":11686,"眼)으로":11687,"硏究":11688,"祝文\r\n":11689,"福田":11690,"福이":11691,"種種":11692,"端正":11693,"紀念":11694,"經),":11695,"者니":11696,"耶이까":11697,"肉雙":11698,"自然":11699,"處定":11700,"行施":11701,"言語":11702,"識)이":11703,"連契":11704,"道)에":11705,"醜陋":11706,"醫世":11707,"金剛":11708,"飮光":11709,"養性":11710,"가,":11711,"가고":11712,"각도":11713,"감이":11714,"개교":11715,"겠느냐.":11716,"겨야":11717,"경으로":11718,"계.":11719,"계와":11720,"고(":11721,"고등":11722,"공한":11723,"괴공":11724,"구(":11725,"군이":11726,"권이":11727,"금은":11728,"기어":11729,"까.\r\n":11730,"께옵서":11731,"념으로":11732,"느니라":11733,"는지라":11734,"능이":11735,"대원":11736,"도,":11737,"동에":11738,"동은":11739,"되기":11740,"되며":11741,"되니,":11742,"됨에":11743,"등은":11744,"러서":11745,"련마는":11746,"령(":11747,"령은":11748,"로대":11749,"리요,":11750,"리라도":11751,"리시고":11752,"리라\"":11753,"마라.":11754,"만의":11755,"만으로는":11756,"맞은":11757,"멸도":11758,"명하고":11759,"모전":11760,"목(":11761,"목으로":11762,"무에":11763,"미가":11764,"방을":11765,"별한":11766,"보라.":11767,"분간":11768,"분을":11769,"분이":11770,"불(":11771,"비에":11772,"사요":11773,"사하는":11774,"사옵고":11775,"산이":11776,"삼아":11777,"색이":11778,"생각":11779,"서와":11780,"소로":11781,"소성":11782,"송할":11783,"수로":11784,"순(":11785,"시(":11786,"시가":11787,"시사":11788,"시킴":11789,"심고":11790,"아제":11791,"안에":11792,"애(":11793,"약한":11794,"었으나":11795,"었다는":11796,"역을":11797,"염불":11798,"영을":11799,"영가시":11800,"오면":11801,"오리까.":11802,"왕이":11803,"우나":11804,"운(":11805,"움과":11806,"원도":11807,"이꼬":11808,"이사":11809,"이와":11810,"이자":11811,"이까.]":11812,"이었다.":11813,"이로다.":11814,"인지":11815,"인들은":11816,"인으로서":11817,"자면":11818,"자오":11819,"자인":11820,"자하여":11821,"장)":11822,"장이나":11823,"재가":11824,"재단":11825,"전한":11826,"조에":11827,"종교의":11828,"주년":11829,"주년을":11830,"중에는":11831,"지고,":11832,"처와":11833,"천한":11834,"치에":11835,"풍을":11836,"하다는":11837,"하라고":11838,"하소서.":11839,"하더라도":11840,"하더니,":11841,"하노라.":11842,"학림":11843,"학원":11844,"한들":11845,"한다\"":11846,"해질":11847,"해져서":11848,"했다는":11849,"행은":11850,"행하는":11851,"형제":11852,"화,":11853,"화신불":11854,"효열":11855,"후의":11856,"▁이길":11857,"▁이롭게":11858,"▁이유를":11859,"▁이소성":11860,"▁것처럼":11861,"▁하다":11862,"▁하던":11863,"▁하기를":11864,"▁하도록":11865,"▁하라]":11866,"▁하리요.]\r\n":11867,"▁하려는":11868,"▁그른":11869,"▁그들을":11870,"▁사건":11871,"▁사도":11872,"▁사례":11873,"▁사모":11874,"▁사유":11875,"▁사상이":11876,"▁사도(":11877,"▁대재":11878,"▁대대로":11879,"▁대지를":11880,"▁대임을":11881,"▁대회를":11882,"▁대상이":11883,"라.’":11884,"▁것이오니,":11885,"▁말,":11886,"▁말라":11887,"▁말이니,":11888,"▁일여":11889,"▁일하는":11890,"▁일생의":11891,"▁일마다":11892,"▁있어지":11893,"▁있습니다.":11894,"하시더니,":11895,"하시었으며,":11896,"▁가감":11897,"▁가례":11898,"▁가며":11899,"▁가나니,":11900,"▁가든지":11901,"▁아껴":11902,"▁아래에":11903,"▁[\"":11904,"▁[견":11905,"▁[말":11906,"▁[범":11907,"▁[서":11908,"▁[제":11909,"▁[지":11910,"▁[만일":11911,"▁[심히":11912,"▁[ᄋᄋ":11913,"▁[건국":11914,"▁없다.":11915,"▁없어지는":11916,"▁사람들도":11917,"▁정통":11918,"▁정확":11919,"▁정법이":11920,"▁정견을":11921,"▁정하시고,":11922,"하고는":11923,"▁자랑":11924,"▁자부":11925,"▁자칫":11926,"▁자력이":11927,"▁자라는":11928,"▁자라고":11929,"▁자세를":11930,"▁공개":11931,"▁공로":11932,"▁공손":11933,"▁공은":11934,"▁공심이":11935,"▁공심으로":11936,"▁공(空":11937,"▁되며":11938,"▁되자는":11939,"▁되오니":11940,"▁되라.]\r\n":11941,"▁다닌":11942,"▁다름":11943,"하는지라":11944,"▁수계":11945,"▁수승":11946,"▁수월":11947,"▁교운":11948,"다.]":11949,"▁지는":11950,"▁지엽":11951,"▁지자":11952,"▁한때":11953,"▁한민족":11954,"▁보나":11955,"▁보낼":11956,"▁보람":11957,"▁보를":11958,"▁보신":11959,"▁보전":11960,"▁보아야":11961,"▁보물을":11962,"▁법기":11963,"▁법호":11964,"▁법이니":11965,"▁법도에":11966,"▁모순":11967,"▁주객":11968,"▁주소":11969,"▁주요":11970,"▁주하여":11971,"▁주문을":11972,"▁생길":11973,"▁생애":11974,"▁마음만":11975,"▁기금":11976,"▁기쁜":11977,"▁기준":11978,"▁기회가":11979,"▁기천이":11980,"▁부부가":11981,"▁제9":11982,"▁제약":11983,"▁제성의":11984,"▁1등":11985,"▁1편":11986,"▁17.대종사":11987,"▁도솔":11988,"▁도력을":11989,"▁도인은":11990,"▁인욕":11991,"▁인자":11992,"▁인도에":11993,"▁인가를":11994,"▁바뀌":11995,"▁바퀴":11996,"▁바쁘게":11997,"▁원근":11998,"▁원성":11999,"▁원진":12000,"▁원리요":12001,"▁원상은":12002,"▁원컨대":12003,"▁만에":12004,"▁만큼":12005,"▁성격":12006,"▁성경":12007,"▁성숙":12008,"▁성직":12009,"▁성의가":12010,"▁성스러운":12011,"▁불성":12012,"▁불쾌":12013,"▁불퇴":12014,"▁불도를":12015,"▁무가":12016,"▁무렵":12017,"▁무성":12018,"▁무식":12019,"▁무애":12020,"▁중단":12021,"▁중에서도":12022,"▁중정의":12023,"▁중학교":12024,"▁2편":12025,"▁우마":12026,"▁천주":12027,"▁천업을":12028,"▁천성이":12029,"▁대종사에":12030,"이라]":12031,"이라하시니":12032,"▁같으며":12033,"▁시켜":12034,"▁위문":12035,"▁위에서":12036,"▁위의와":12037,"▁동리":12038,"▁동척":12039,"▁동하면":12040,"▁할지언정":12041,"▁오백":12042,"▁오르지":12043,"▁경지에":12044,"▁알리는":12045,"▁전공":12046,"▁전법":12047,"▁전부를":12048,"▁공부도":12049,"▁공부하여":12050,"▁공부인은":12051,"▁선과":12052,"▁선임":12053,"▁선으로":12054,"▁31":12055,"▁3창":12056,"▁영도":12057,"▁영지":12058,"▁영가는":12059,"▁영지의":12060,"▁종사와":12061,"▁서가":12062,"▁내빈":12063,"▁내일":12064,"▁신부":12065,"▁신자의":12066,"▁신자가":12067,"▁신자들이":12068,"▁신의는":12069,"▁고삐":12070,"▁고치":12071,"▁고르게":12072,"▁조복":12073,"▁조상":12074,"▁조화를":12075,"▁조화가":12076,"▁진작":12077,"▁진정":12078,"▁진경에":12079,"▁4년(19":12080,"▁4월에는":12081,"▁41년(195":12082,"▁삼세를":12083,"▁않기가":12084,"▁「나":12085,"▁「대":12086,"▁「신":12087,"▁「오":12088,"▁「인":12089,"▁사람이요":12090,"▁사람이며,":12091,"▁사람이니라.」\r\n":12092,"▁회향":12093,"▁회원의":12094,"▁의례":12095,"▁의혹":12096,"▁의리를":12097,"▁얻도록":12098,"▁얻자는":12099,"▁실내":12100,"▁실수가":12101,"▁해득":12102,"▁상견":12103,"▁상당":12104,"▁상에":12105,"▁상장(喪葬":12106,"▁따르지":12107,"▁구하여":12108,"▁구내에":12109,"▁그러하":12110,"▁종이":12111,"▁종일":12112,"▁종재를":12113,"▁후에도":12114,"▁소소":12115,"▁소의":12116,"▁없는지라,":12117,"▁발령":12118,"▁등록":12119,"▁비가":12120,"▁비결":12121,"▁비판":12122,"▁비할":12123,"▁있는지라,":12124,"▁길흉":12125,"▁열고":12126,"▁열려":12127,"하였으니,":12128,"▁가지지":12129,"▁들으":12130,"▁개의":12131,"▁개칭":12132,"▁개교의":12133,"▁새생활":12134,"▁생각은":12135,"▁생각하면":12136,"▁5등":12137,"▁각성":12138,"▁각오":12139,"▁근실":12140,"▁근래에":12141,"▁하나에":12142,"▁하나니라.\r\n":12143,"▁본원을":12144,"▁본성이":12145,"▁참아":12146,"▁연화":12147,"▁유교":12148,"▁유로":12149,"▁유와":12150,"▁심지가":12151,"▁많게":12152,"▁많다":12153,"▁많아서":12154,"▁정신으로써":12155,"▁두면":12156,"▁두마음":12157,"▁남천":12158,"▁예감":12159,"▁예배":12160,"▁예회에":12161,"께서도":12162,"▁당국의":12163,"▁당처에":12164,"▁미국":12165,"▁미운":12166,"▁미치":12167,"▁미래에":12168,"▁장벽":12169,"▁안과":12170,"▁안의":12171,"어서는":12172,"▁뜻이요,":12173,"▁재단을":12174,"▁그대를":12175,"▁복혜":12176,"▁가운데에서":12177,")이니":12178,")이니라.":12179,"▁부처님도":12180,"▁부처님에게":12181,"▁반갑":12182,"▁좋으나":12183,"▁결복":12184,"▁결함이":12185,"19.己":12186,"▁설혹":12187,"▁설하여":12188,"▁단을":12189,"▁단전":12190,"▁통촉":12191,"▁통치":12192,"▁통칭":12193,"▁분분":12194,"▁어찌하면":12195,"▁62.":12196,"▁64.":12197,"▁평생에":12198,"▁적었":12199,"▁깨칠":12200,"▁깨침이":12201,"▁명절":12202,"▁명상이":12203,"▁명복을":12204,"▁명심하여":12205,"▁대중은":12206,"▁대중적":12207,"▁일이면":12208,"▁일이니라.]\r\n":12209,"▁하시더니,":12210,"▁몸의":12211,"▁편리를":12212,"▁편으로는":12213,"▁차려":12214,"▁감정을":12215,"▁앞길을":12216,"▁관찰":12217,"▁관통":12218,"▁병으로":12219,"▁병이니,":12220,"▁병상에서":12221,"▁육성":12222,"▁문제":12223,"▁능하지":12224,"▁줄만":12225,"▁죄와":12226,"▁죄의":12227,"▁간이":12228,"▁간혹":12229,"▁허락":12230,"▁봉건":12231,"▁화장":12232,"▁양심을":12233,"▁건립":12234,"▁건지":12235,"▁제자들을":12236,"▁노동":12237,"▁노자":12238,"▁총독":12239,"▁천지.부모":12240,"▁순경":12241,"▁순종":12242,"▁요도를":12243,"▁요지는":12244,"▁요법(":12245,"▁요도와":12246,"▁요소가":12247,"▁종교도":12248,"▁종교인이":12249,"▁종교연합":12250,"▁청춘":12251,"이니꼬":12252,"▁작게":12253,"▁작농":12254,"▁이루고,":12255,"▁권모":12256,"▁권하여":12257,"▁되었으나,":12258,"▁놓아야":12259,"▁놓으셨":12260,"▁형성":12261,"▁학설":12262,"▁학원":12263,"▁스승은":12264,"▁\"일":12265,"▁위하여는":12266,"▁매각":12267,"▁매사를":12268,"▁자리며,":12269,"▁열반한":12270,"▁변산":12271,"▁변함이":12272,"▁취할":12273,"▁준하여":12274,"▁진리적":12275,"▁수도인이":12276,"▁수도인의":12277,"▁태도로":12278,"▁합심":12279,"▁합니다.":12280,"▁들어갈":12281,"▁들어야":12282,"▁쓰게":12283,"▁쓰라.":12284,"함이니라.":12285,"▁달마":12286,"▁달은":12287,"▁역사의":12288,"▁수행이":12289,"▁약혼":12290,"▁약자는":12291,"▁훈련의":12292,"▁친족":12293,"▁죽으면":12294,"▁죽어도":12295,"▁금액":12296,"▁시대요":12297,"▁사회나":12298,"▁사회는":12299,"▁보고는":12300,"▁도덕은":12301,"▁도덕으로":12302,"▁갖게":12303,"▁귀가":12304,"▁귀한":12305,"▁올렸":12306,"▁올리오":12307,"▁짓게":12308,"▁잡아야":12309,"▁동지들이":12310,"▁아니하나":12311,"▁아니하리라.":12312,"▁혜광이":12313,"▁여래는":12314,"▁신앙은":12315,"▁신앙이":12316,"▁이르기를":12317,"▁목숨":12318,"▁치하":12319,"▁체득":12320,"▁체험":12321,"▁염려가":12322,"▁존자":12323,"▁증답":12324,"사(예문":12325,"▁걸리":12326,"▁드러나는":12327,"▁절을":12328,"▁6.25":12329,"▁교육이":12330,"▁교육기관":12331,"▁기념관":12332,"▁너그":12333,"▁동안,":12334,"▁아니라고":12335,"▁밖이":12336,"▁손해를":12337,"▁자신도":12338,"▁확정":12339,"▁若復有人이":12340,"▁알고도":12341,"▁지금의":12342,"▁음식으로":12343,"▁주의심을":12344,"▁축생":12345,"▁ᄋᄋ의":12346,"▁ᄋᄋ영가시":12347,"▁우주만":12348,"▁완비":12349,"▁연구력을":12350,"▁관계인이":12351,"▁사뢰니,":12352,"▁경전의":12353,"▁조금만":12354,"▁업력을":12355,"▁업보가":12356,"▁충효열":12357,"▁대각하신":12358,"▁서원은":12359,"▁뿐이요":12360,"▁육신에":12361,"▁글로":12362,"▁쌓이게":12363,"▁사이나,":12364,"▁10일":12365,"▁10월,":12366,"▁심고는":12367,"▁백수":12368,"▁것이니라.]":12369,"▁있었고,":12370,"▁있었다.\r\n":12371,"▁있었사오며,":12372,"▁그런다면":12373,"▁잘못한":12374,"▁불보살을":12375,"▁함은,":12376,"▁필경에":12377,"▁망극":12378,"▁하셨으니,":12379,"▁소태산의":12380,"▁9.대종사":12381,"▁9월에":12382,"▁혼탁":12383,"▁상대할":12384,"▁애호":12385,"▁답답":12386,"▁일반적으로":12387,"▁만나시":12388,"▁만나지":12389,"▁만나기가":12390,"▁성공의":12391,"▁전무출신은":12392,"▁물질이":12393,"▁이해와":12394,"▁도가에서":12395,"▁도가에서는":12396,"▁출가의":12397,"▁출가위는":12398,"시키고,":12399,"▁농작":12400,"▁오늘에":12401,"▁오늘은":12402,"▁오늘의":12403,"▁대도는":12404,"▁於諸":12405,"▁극진":12406,"▁탐·진·":12407,"▁돌아오고":12408,"▁김제":12409,"▁책임은":12410,"▁一心":12411,"▁一念":12412,"▁개인에":12413,"▁활용할":12414,"▁눈에":12415,"주의와":12416,"▁기도는":12417,"▁[이것이":12418,"▁머슴":12419,"하려고":12420,"▁삼학의":12421,"▁보살펴":12422,"▁제10":12423,"▁염불로써":12424,"▁정성껏":12425,"▁정성스럽게":12426,"▁영가가":12427,"▁허공을":12428,"▁벌레":12429,"▁불법에":12430,"▁나타나서":12431,"▁何者":12432,"▁공경하는":12433,"년(1966.丙":12434,"▁맡기고":12435,"▁[우리는":12436,"▁나오고":12437,"▁남녀를":12438,"▁찾아와":12439,"▁난경을":12440,"▁사실적":12441,"▁챙기는":12442,"▁心不":12443,"▁성취할":12444,"▁까닭이니라.]\r\n":12445,"리석은":12446,"▁대조하고":12447,"▁뒤에야":12448,"▁찬탄":12449,"전(靈":12450,"▁천도의":12451,"▁그리하여":12452,"▁성불하는":12453,"년(1953.癸":12454,"▁해탈하는":12455,"▁파란":12456,"▁법은에":12457,"▁인간락":12458,"▁인간은":12459,"▁드러나서":12460,"하셨고,":12461,"▁수용하는":12462,"▁12월에":12463,"▁원망하는":12464,"▁원망하지":12465,"▁조심히":12466,"▁「대종사의":12467,"▁멀어지":12468,"▁부처님께서도":12469,"▁듯이":12470,"▁하오니,":12471,"▁200":12472,"▁20여":12473,"▁단체로":12474,"▁굳이":12475,"▁토지":12476,"▁법률은":12477,"▁나무가":12478,"▁녹여":12479,"세계에":12480,"▁왔으나,":12481,"도(正":12482,"▁세존이":12483,"▁진행하는":12484,"▁집안을":12485,"▁도량을":12486,"▁世尊이":12487,"▁[수도":12488,"▁참회하여":12489,"▁미래에는":12490,"▁화합하자는":12491,"▁괴롭게":12492,"▁무념의":12493,"▁숨어":12494,"▁이용하면":12495,"▁가까와":12496,"▁공익심":12497,"▁선악간":12498,"▁선악을":12499,"▁작용을":12500,"▁드러내는":12501,"▁탄탄":12502,"▁치료에":12503,"▁맺게":12504,"▁싫은":12505,"회는,":12506,"▁[그러하옵니다":12507,"▁현재에":12508,"▁축원문":12509,"▁축원문(예문":12510,"장(師長":12511,"▁[어리석은":12512,"▁일곱째":12513,"▁운전하는":12514,"▁게양":12515,"▁게송을":12516,"▁알았다":12517,"▁얻었다":12518,")]이라":12519,"▁궁금":12520,"장.李":12521,"▁것만으로":12522,"▁깨치게":12523,"▁而此":12524,"▁슬픔":12525,"▁혈심":12526,"듯이,":12527,"▁[세상에":12528,"▁영겁의":12529,"▁떨어지는":12530,"▁我今":12531,"▁빚이":12532,"▁고락의":12533,"▁키우":12534,"▁봉공하는":12535,"▁떨어져서":12536,"▁기다리는":12537,"▁작업취":12538,"▁체받아":12539,"▁인증할":12540,"▁所謂":12541,"▁커서":12542,"시켜야":12543,"▁[불보살":12544,"▁26.대종사":12545,"▁구원하는":12546,"▁순서에":12547,"▁나와야":12548,"▁진급이":12549,"▁단결로":12550,"▁통달하여":12551,"▁곡조는":12552,"▁내리시며":12553,"▁위원회를":12554,"▁경축하는":12555,"▁입교한":12556,"▁혁명을":12557,"▁정의는":12558,"▁다니는":12559,"다.[2":12560,"▁선지식의":12561,"▁허망하게":12562,"▁절약된":12563,"▁어려우나,":12564,"▁밑에서":12565,"하리라.\r\n":12566,"▁이행할":12567,"▁[과거에는":12568,"▁축하할":12569,"▁곤충":12570,"▁밭에":12571,"▁탁태":12572,"▁생멸이":12573,"▁고축문(예문":12574,"▁두어줄":12575,"▁탑묘":12576,"▁탑을":12577,"▁告祝文\r\n":12578,"▁됨을":12579,"▁홀연히":12580,"▁계승하여":12581,"▁방문할":12582,"▁방언공":12583,"▁재계하옵고,":12584,"▁권속이":12585,"▁비유하여":12586,"▁올리고,":12587,"6.丙申)":12588,"▁起於":12589,"▁주례가":12590,"▁주세불이":12591,"▁합동으로":12592,"▁추모하는":12593,"▁맹세코":12594,"▁움직이지":12595,"▁와서는":12596,"▁부끄러":12597,"▁영혼이":12598,"▁「첫째는":12599,"▁등한시":12600,"▁불법연구회":12601,"▁[아무리":12602,"▁불고하고":12603,"▁24.대종사":12604,"▁방향을":12605,"▁재산이":12606,"▁결함됨이":12607,"▁요란하지":12608,"▁수도인들은":12609,"▁云하사대":12610,"▁줌이":12611,"▁조건이":12612,"▁如是니이다":12613,"▁應如是":12614,"▁發阿耨多羅三藐三菩提心":12615,"▁自然":12616,"▁격려":12617,"▁성주괴공":12618,"▁내놓으신":12619,"▁표본으로":12620,"▁머물러":12621,"▁봄이":12622,"▁헛된":12623,"▁아끼지":12624,"▁없어지지":12625,"▁한가한":12626,"▁거울이":12627,"▁올라가":12628,"▁奉請":12629,"▁붓을":12630,"▁정각을":12631,"▁38년(1953.癸":12632,"▁허다하나니,":12633,"▁특신급":12634,"▁1943년":12635,"▁필경에는":12636,"▁티끌이":12637,"▁낭독":12638,"▁중근의":12639,"▁머무르":12640,"▁대자대비하옵신":12641,"▁천상락을":12642,"▁위태한":12643,"▁근기요,":12644,"▁국토에":12645,"▁좌석을":12646,"▁자유자재하는":12647,"▁46년(196":12648,"▁「법강항마위는":12649,"▁얽매이지":12650,"▁정의(情誼)가":12651,"微塵衆":12652,"▁바루고":12653,"▁민중은":12654,"▁교정원장에":12655,"▁십이인":12656,"▁心生歡喜요":12657,"▁아뇩다라삼먁삼보리심을":12658,"▁길룡리에서":12659,"▁독경(서원문.심경":12660,"▁자리이타로":12661,"▁甚多니이다":12662,"▁찬송가(성가":12663,"隨相門定慧":12664,"▁願諸":12665,"▁앎이":12666,"▁기능을":12667,"▁인종과":12668,"▁무자력한":12669,"▁망녕된":12670,"▁반야바라밀다":12671,"▁一圓大道":12672,"▁쥐가":12673,"▁기쁘고":12674,"▁인(仁":12675,"▁불변하는":12676,"▁동남풍":12677,"▁지공무사한":12678,"▁북돋아":12679,"▁법(敎規)에":12680,"▁尊者曰":12681,"▁털끝":12682,"▁친지간에":12683,"▁빙자하여":12684,"▁마음공부를":12685,"▁當知하라":12686,"▁9년(1924.甲子)":12687,"▁뚜렷":12688,"▁해설하시기를":12689,"▁51년(1966.丙":12690,"▁50년(1965.乙巳)":12691,"▁52년(1967.丁未)":12692,"▁무릅쓰고":12693,"▁튼튼":12694,"濟生醫世":12695,"肉雙全":12696,"▁사도(邪":12697,"▁41년(1956.丙申)":12698,"19.己未)":12699,"▁ᄋᄋ영가시여!":12700,"▁51년(1966.丙午)":12701,"\"고":12702,"\"는":12703,"(五":12704,"(吳":12705,"(害":12706,"(實":12707,"(戒":12708,"(本":12709,"(用":12710,"(禮":12711,"(覺":12712,"(體":12713,"(動靜":12714,"(會上":12715,")시":12716,")였":12717,")하게":12718,")까지":12719,")’에":12720,".산":12721,".일":12722,".중":12723,"6)":12724,"91년":12725,"]에":12726,"]의":12727,"ar":12728,"ng":12729,"ter":12730,"·대":12731,"·동":12732,"·성":12733,"·자":12734,"·질":12735,"·좌선":12736,"’를":12737,"▁U":12738,"▁俱":12739,"▁內":12740,"▁取":12741,"▁口":12742,"▁同":12743,"▁圓":12744,"▁已":12745,"▁愼":12746,"▁敎":12747,"▁暫":12748,"▁況":12749,"▁說":12750,"▁迷":12751,"▁눌":12752,"▁맨":12753,"▁벼":12754,"▁붕":12755,"▁빨":12756,"▁쉴":12757,"▁쉼":12758,"▁암":12759,"▁엎":12760,"▁쪽":12761,"▁찰":12762,"▁쳐":12763,"▁층":12764,"▁클":12765,"▁푸":12766,"▁혀":12767,"▁횃":12768,"▁횡":12769,"▁휘":12770,"▁흙":12771,"▁맥이":12772,"▁白佛言하사대":12773,"一體":12774,"不二":12775,"不昧":12776,"不滅":12777,"不生":12778,"不知":12779,"丑)에":12780,"世典":12781,"中和":12782,"中正":12783,"中道":12784,"之力":12785,"之寶":12786,"也니라.\r\n":12787,"也니라":12788,"事)에":12789,"五福德":12790,"亦無":12791,"人天":12792,"人間":12793,"人分上":12794,"他人":12795,"以具足":12796,"伊麽":12797,"何오":12798,"佛供":12799,"佛像":12800,"修習":12801,"修하야":12802,"倫理":12803,"兩門":12804,"出身":12805,"利하고":12806,"化身":12807,"千萬":12808,"四句偈":12809,"報-":12810,"外報-":12811,"大全":12812,"天人":12813,"威勢":12814,"子)에는":12815,"尊長":12816,"工夫":12817,"廻光":12818,"往來":12819,"得道":12820,"德)을":12821,"心이":12822,"心이니":12823,"思議":12824,"思量":12825,"悟後修":12826,"惺惺":12827,"慢이요":12828,"成佛":12829,"我見":12830,"戴謝":12831,"敎化":12832,"族姓":12833,"智)를":12834,"曰-":12835,"東震":12836,"業하고":12837,"樂함은":12838,"法界":12839,"法)의":12840,"法者는":12841,"淨信":12842,"源道":12843,"生)":12844,"用布施":12845,"祈願":12846,"空하야":12847,"精進":12848,"結義":12849,"經典":12850,"經)을":12851,"經)\r\n":12852,"義)와":12853,"者何오":12854,"舍衛":12855,"虛空":12856,"血印":12857,"行이":12858,"解脫":12859,"說하면":12860,"道라":12861,"道)를":12862,"門劣機":12863,"雲捲":12864,"頓漸":12865,"頓門":12866,"가로":12867,"가와":12868,"간을":12869,"갔다.":12870,"강연":12871,"강점":12872,"겁게":12873,"겠나이다.\r\n":12874,"경.":12875,"경》":12876,"계로":12877,"곡(":12878,"곤·질":12879,"공심":12880,"공을":12881,"교구":12882,"구하여":12883,"국(":12884,"근히":12885,"금(":12886,"기구":12887,"까지라도":12888,"날을":12889,"날의":12890,"남녀":12891,"났다":12892,"내고":12893,"단체":12894,"단치":12895,"답을":12896,"대거":12897,"덕과":12898,"되며,":12899,"되지는":12900,"두암":12901,"듦이":12902,"등을":12903,"라가":12904,"력의":12905,"력히":12906,"례에":12907,"론(":12908,"롭지":12909,"루한":12910,"리신":12911,"림에":12912,"마저":12913,"망하고":12914,"면이":12915,"면한":12916,"모가":12917,"모와":12918,"무무":12919,"문.":12920,"미(":12921,"민의":12922,"밀히":12923,"방하여":12924,"백여":12925,"법\r\n":12926,"보시":12927,"보에":12928,"복덕":12929,"북도":12930,"비록":12931,"빈곤·질":12932,"사라":12933,"상할":12934,"색으로":12935,"생어":12936,"서에":12937,"선이":12938,"세로":12939,"셨으며,":12940,"수고":12941,"수만":12942,"수화":12943,"수보리":12944,"숙한":12945,"스러":12946,"시의":12947,"시하여":12948,"시하는":12949,"시와,":12950,"신여":12951,"실과":12952,"심결":12953,"심하지":12954,"아를":12955,"아질":12956,"어다":12957,"어질":12958,"업(":12959,"업은":12960,"었을":12961,"연의":12962,"였다.\n":12963,"오달":12964,"왕(":12965,"우리":12966,"움은":12967,"월(":12968,"유상":12969,"음으로써":12970,"이신":12971,"이었다.\r\n":12972,"인,":12973,"인들에게":12974,"일과":12975,"일여":12976,"일진대":12977,"임(":12978,"자들을":12979,"저히":12980,"적(":12981,"전(法":12982,"절은":12983,"족의":12984,"지인":12985,"지나니,":12986,"집을":12987,"차를":12988,"참회":12989,"천도":12990,"천히":12991,"쳐야":12992,"추는":12993,"축하는":12994,"춰야":12995,"침에":12996,"탁을":12997,"태와":12998,"토가":12999,"판으로":13000,"편으로":13001,"포(":13002,"포.":13003,"품이":13004,"하나니라.]":13005,"한다.\n":13006,"한다고":13007,"할지언정":13008,"함에는":13009,"합니다.":13010,"해의":13011,"했다.\n":13012,"행에":13013,"행할":13014,"현(":13015,"호하는":13016,"화는":13017,"화할":13018,"후가":13019,"▁이동":13020,"▁이왕":13021,"▁이욕":13022,"▁이상을":13023,"▁하기가":13024,"▁하므로,":13025,"▁하감하시옵소서.\r\n":13026,"▁그간":13027,"▁그치고":13028,"▁사이라도":13029,"▁사상(":13030,"▁사리에":13031,"▁사반야":13032,"▁대하면":13033,"▁대상을":13034,"▁대원을":13035,"▁대기도":13036,"▁대과를":13037,"▁대세계":13038,"▁것이오며,":13039,"▁것이로다.\r\n":13040,"▁말이나":13041,"▁말자는":13042,"▁말한다면":13043,"▁일직":13044,"▁일하고":13045,"▁일이요":13046,"▁일하며":13047,"▁있습":13048,"▁있든지":13049,"▁있지만":13050,"하시나니,":13051,"▁가나":13052,"▁아수라":13053,"▁[1":13054,"▁[2":13055,"▁[거":13056,"▁[구":13057,"▁[네":13058,"▁[만":13059,"▁[새":13060,"▁[욕":13061,"▁[육":13062,"▁[의":13063,"▁[전":13064,"▁[조":13065,"▁[좌":13066,"▁[주":13067,"▁[현":13068,"▁[앞으로":13069,"▁[원광":13070,"▁[열반":13071,"▁[돌아":13072,"▁없기":13073,"▁없음이":13074,"▁없거늘":13075,"▁없사옵고":13076,"▁사람이라,":13077,"▁사람마다":13078,"▁정돈":13079,"▁정력":13080,"▁정직":13081,"▁정하게":13082,"▁정사를":13083,"▁정도로":13084,"▁정도는":13085,"▁자가":13086,"▁자체":13087,"▁자금을":13088,"▁공과":13089,"▁공하고":13090,"▁공연한":13091,"▁되나":13092,"▁되자":13093,"▁되든지":13094,"▁되기도":13095,"▁되려면":13096,"▁되겠나이다.]":13097,"▁말씀이요,":13098,"▁다함이":13099,"▁수족":13100,"▁수생의":13101,"▁수시로":13102,"▁세웠":13103,"▁세째":13104,"▁세철":13105,"▁교조":13106,"▁교학":13107,"▁교리가":13108,"▁교세의":13109,"▁지면":13110,"▁지우":13111,"▁지킴":13112,"▁지향":13113,"▁지행이":13114,"▁지위가":13115,"▁지수화":13116,"▁보림":13117,"▁보시에":13118,"▁보라.]\r\n":13119,"▁보기도":13120,"▁어미":13121,"▁어그러":13122,"▁법당":13123,"▁법도를":13124,"▁법이니,":13125,"▁법력을":13126,"▁법사의":13127,"▁법(法":13128,"▁법문에":13129,"▁법연을":13130,"▁법연이":13131,"▁모름":13132,"▁모습":13133,"▁모였":13134,"▁모으면":13135,"▁주게":13136,"▁주하지":13137,"▁주리라.":13138,"▁주리니":13139,"▁주재하는":13140,"▁생육":13141,"▁생전":13142,"▁생존":13143,"▁생생에":13144,"▁나술":13145,"▁나투":13146,"▁나팔":13147,"▁나보다":13148,"▁나중에":13149,"▁기점":13150,"▁기도에":13151,"▁부서":13152,"▁부설":13153,"▁부유한":13154,"▁제반":13155,"▁제조":13156,"▁제한":13157,"▁제자는":13158,"▁제7장":13159,"▁1월에는":13160,"▁1월,":13161,"▁도라":13162,"▁도수":13163,"▁도탄":13164,"▁도요,":13165,"▁도인의":13166,"▁도력이":13167,"▁도성이":13168,"▁도문에":13169,"▁도인을":13170,"▁도운이":13171,"▁도저히":13172,"▁때니,":13173,"▁아니함을":13174,"▁인내":13175,"▁인륜":13176,"▁인의":13177,"▁바랄":13178,"▁바쁘":13179,"▁바위":13180,"▁바이":13181,"▁바칠":13182,"▁원이":13183,"▁만든":13184,"▁성가":13185,"▁성냥":13186,"▁성자":13187,"▁성의를":13188,"▁성지는":13189,"▁불국":13190,"▁불조":13191,"▁불단을":13192,"▁무는":13193,"▁무섭":13194,"▁무수":13195,"▁무(無":13196,"▁무정한":13197,"▁무지·":13198,"▁중안":13199,"▁중추":13200,"▁중대한":13201,"▁2월":13202,"▁여쭈":13203,"▁여부를":13204,"에게도":13205,"▁천년":13206,"▁천업":13207,"▁천작":13208,"▁천직":13209,"▁천하게":13210,"▁천천히":13211,"▁같으나,":13212,"▁같나니라.\r\n":13213,"▁시끄":13214,"▁시도":13215,"▁시일에":13216,"▁시설을":13217,"▁위반":13218,"▁위와":13219,"▁위기에":13220,"▁동거":13221,"▁동화":13222,"▁오십":13223,"▁오욕":13224,"▁오고,":13225,"▁오나니,":13226,"▁오르게":13227,"▁경과":13228,"▁경에":13229,"▁알되":13230,"▁알릴":13231,"▁알기가":13232,"▁전과":13233,"▁전생":13234,"▁전하는":13235,"▁전도를":13236,"▁전부터":13237,"▁공부법":13238,"▁공부니라.」\r\n":13239,"▁공부심을":13240,"▁공부심이":13241,"▁선거":13242,"▁선성":13243,"▁선에":13244,"▁선차":13245,"▁선사가":13246,"▁선원(":13247,"▁받기":13248,"▁받아서":13249,"▁받으며,":13250,"▁3개":13251,"▁3등":13252,"▁3차":13253,"▁3천":13254,"▁31.대종사":13255,"▁영과":13256,"▁영세":13257,"▁영영":13258,"▁영위":13259,"▁영천":13260,"▁내리고":13261,"▁내세에":13262,"▁내용을":13263,"▁신뢰":13264,"▁신룡":13265,"▁신은":13266,"▁신을":13267,"▁신성이":13268,"▁고행":13269,"▁고치는":13270,"▁고치지":13271,"▁고르지":13272,"▁고금을":13273,"▁큰일":13274,"▁조견":13275,"▁조장":13276,"▁조사가":13277,"▁잘해야":13278,"▁43":13279,"▁4배":13280,"▁삼게":13281,"▁삼았":13282,"▁않아":13283,"▁않으":13284,"▁않음":13285,"▁않으며,":13286,"▁않기로":13287,"▁「불":13288,"▁「지금":13289,"▁「앞으로":13290,"하지마는":13291,"▁회원":13292,"▁얻나니라.]\r\n":13293,"▁얻고자":13294,"▁실이":13295,"▁실질":13296,"▁실력이":13297,"▁실내에":13298,"▁실(實":13299,"▁해산":13300,"▁해의":13301,"▁해롭게":13302,"▁상속":13303,"▁상쾌":13304,"▁상조조합":13305,"▁따뜻":13306,"▁따름이":13307,"▁따르게":13308,"▁구공":13309,"▁구하고":13310,"▁구하기":13311,"▁구원을":13312,"▁구하므로":13313,"▁그러한다면":13314,"▁하는가.":13315,"▁종전의":13316,"▁종래의":13317,"▁후계":13318,"▁후세에":13319,"▁소견":13320,"▁소승":13321,"▁소용이":13322,"▁더하여":13323,"▁발기":13324,"▁발아":13325,"▁발하는":13326,"▁비료":13327,"▁비용":13328,"▁거름":13329,"▁거처":13330,"▁거칠":13331,"▁거연히":13332,"▁있는지라":13333,"▁길게":13334,"▁길고":13335,"▁열람":13336,"▁열이":13337,"하였으며":13338,"하였는데,":13339,"▁가지와":13340,"▁가지가지":13341,"▁새롭게":13342,"▁행정":13343,"▁행함이":13344,"▁생각도":13345,"▁생각한다면":13346,"▁5)":13347,"▁53":13348,"▁5월에는":13349,"▁근기는":13350,"▁본관":13351,"▁본인의":13352,"▁본성을":13353,"▁본의가":13354,"▁회상에서":13355,"▁참회를":13356,"▁연결":13357,"▁연회":13358,"▁연하여":13359,"▁유가":13360,"▁심불":13361,"▁심사":13362,"▁심통":13363,"▁심한":13364,"▁많아야":13365,"▁많으나,":13366,"▁많나이다":13367,"▁살기":13368,"▁살지":13369,"▁살므로":13370,"▁살다가":13371,"▁두시":13372,"▁남도":13373,"▁예와":13374,"▁예로는":13375,"▁당하여도":13376,"▁계룡":13377,"▁계문":13378,"▁방울":13379,"▁것은,":13380,"▁미칠":13381,"▁사업가":13382,"▁힘에":13383,"▁재세":13384,"▁재촉":13385,"▁재래의":13386,"▁함을":13387,"▁함이니라.]\r\n":13388,"▁그대들을":13389,"▁복제":13390,"▁복표":13391,"▁복전을":13392,"▁복전이":13393,"▁저리":13394,"▁저만":13395,")이시":13396,")이니라.]\r\n":13397,"▁생활,":13398,"▁생활화":13399,"▁반기":13400,"▁반면에":13401,"▁좋으나,":13402,"▁항하":13403,"▁항하사":13404,"▁결심":13405,"196":13406,"▁설교":13407,"▁자기와":13408,"▁서로서로":13409,"▁단장":13410,"▁단계를":13411,"▁통하는":13412,"▁분(":13413,"▁6년":13414,"▁6대":13415,"▁6일":13416,"▁65.":13417,"▁66.":13418,"▁6월에":13419,"▁60년":13420,"▁교단,":13421,"▁교단은":13422,"▁깨쳐서":13423,"▁밝힐":13424,"▁밝음을":13425,"▁명(":13426,"▁명령":13427,"▁명리":13428,"▁명부":13429,"▁국방":13430,"▁하시어":13431,"▁입관":13432,"▁입장":13433,"▁편리":13434,"▁편이":13435,"▁편수를":13436,"▁차등":13437,"▁차서":13438,"▁감추":13439,"▁감탄":13440,"▁일원대":13441,"▁일원세계":13442,"▁앞세":13443,"▁관조":13444,"▁병은":13445,"▁병환":13446,"▁육대":13447,"▁육진":13448,"▁문의":13449,"▁문호를":13450,"▁문로가":13451,"▁배양":13452,"▁배운":13453,"▁크신":13454,"▁강을":13455,"▁강자는":13456,"▁강연히":13457,"▁죄벌":13458,"▁죄복은":13459,"▁간부":13460,"▁간사":13461,"▁간석":13462,"▁허비":13463,"▁화강":13464,"▁화하여":13465,"▁화복을":13466,"▁양하":13467,"▁건너":13468,"▁노는":13469,"▁노릇":13470,"▁총설":13471,"▁총재":13472,"▁천지로":13473,"▁천지에는":13474,"▁순숙":13475,"▁요긴":13476,"▁요지":13477,"▁요법이":13478,"▁종교에":13479,"▁초목":13480,"▁초안을":13481,"▁집이":13482,"▁집주":13483,"▁번잡한":13484,"▁이루고":13485,"▁권함이요":13486,"▁되었을":13487,"▁되었으나":13488,"▁놓는":13489,"▁근본하여":13490,"▁악도를":13491,"▁일체가":13492,"▁이름이요":13493,"▁이름이니":13494,"▁이름하나니라.":13495,"▁이름이니라.\r\n":13496,"▁돌아갈":13497,"▁\"사":13498,"▁못하나,":13499,"▁못하리라.":13500,"▁못하나니라.]":13501,"으면서":13502,"▁매우":13503,"▁자리가":13504,"▁경계하고":13505,"▁열반으로":13506,"▁열반기념":13507,"▁변함":13508,"▁변동이":13509,"▁부모은":13510,"▁부모전":13511,"▁부모.자녀":13512,"▁길이길이":13513,"▁취사는":13514,"▁날,":13515,"어지면":13516,"▁산과":13517,"▁산하":13518,"▁산중에":13519,"▁‘진":13520,"▁[그는":13521,"▁[그것은":13522,"▁수도와":13523,"▁교화는":13524,"▁교화에":13525,"▁교화할":13526,"▁교화함이니,":13527,"▁곳과":13528,"▁곳은":13529,"▁태도":13530,"▁태도가":13531,"▁태양이":13532,"▁달로":13533,"▁역사가":13534,"▁역사는":13535,"▁온통":13536,"▁훈련법은":13537,"▁닦되":13538,"▁금산":13539,"▁금수":13540,"▁금을":13541,"▁속이":13542,"▁시대와":13543,"▁시대라,":13544,"▁점에":13545,"▁인연으로써":13546,"▁사회에서":13547,"▁외정":13548,"▁보고할":13549,"▁도덕에":13550,"▁갖지":13551,"▁아무런":13552,"▁귀중한":13553,"▁교당으로":13554,"▁원불교에서는":13555,"▁동지들은":13556,"▁모르거나":13557,"▁아니하나니라.":13558,"▁아니하오리까.]":13559,"▁아니하겠나이다.\r\n":13560,"▁혜복":13561,"가.\r\n":13562,"▁현생":13563,"▁현묘한":13564,"▁이르고":13565,"▁누리게":13566,"▁7주":13567,"▁치사":13568,"▁것과도":13569,"▁끌린":13570,"▁범과":13571,"▁범하여":13572,"▁못한다":13573,"▁체를":13574,"▁체득하여":13575,"▁체(體":13576,"▁못할지니,":13577,"▁못할지니":13578,"▁존숭":13579,"▁존장":13580,"하옵기를":13581,"▁버림":13582,"▁증서":13583,"▁걸린":13584,"▁절도에":13585,"衆生見":13586,"▁교육과":13587,"▁교육에":13588,"▁주시는":13589,"▁주시니라.\r\n":13590,"▁기념하여":13591,"▁기념제를":13592,"▁법신불을":13593,"▁타는":13594,"▁타일":13595,"▁타파":13596,"▁是諸":13597,"▁是人은":13598,"▁자신과":13599,"▁자신에게":13600,"▁임무를":13601,"▁확연히":13602,"사람을":13603,"▁若人이":13604,"▁지금에":13605,"▁모두를":13606,"▁계속해":13607,"▁주의하여":13608,"▁대하여도":13609,"▁공덕은":13610,"▁공덕으로":13611,"▁교도는":13612,"▁발전은":13613,"▁발전의":13614,"▁건설된":13615,"▁건설을":13616,"▁ᄋᄋ야":13617,"▁ᄋᄋ등은":13618,"▁우주와":13619,"▁낙원을":13620,"▁용광":13621,"▁보은하는":13622,"▁욕심과":13623,"▁욕망을":13624,"▁19년(193":13625,"▁경전과":13626,"▁경전은":13627,"▁경전들을":13628,"▁피우":13629,"▁무엇보다":13630,"▁업은":13631,"하자.」\r\n":13632,"▁받들게":13633,"▁글에":13634,"▁쌓고":13635,"▁창립에":13636,"▁땅으로":13637,"▁10년":13638,"▁10여":13639,"▁끝나면":13640,"▁백년":13641,"▁사람에게라도":13642,"▁노력한":13643,"▁노력하는":13644,"▁노력하면":13645,"▁있었다.":13646,"▁있었으나,":13647,"▁그런데,":13648,"▁견고히":13649,"▁환경에":13650,"▁보시하는":13651,"▁세우고,":13652,"▁세우자.\r\n":13653,"▁갖추기에":13654,"▁포섭":13655,"▁망념을":13656,"▁호리라도":13657,"▁하셨나니라.]\r\n":13658,"▁사용하면":13659,"▁소태산(少太":13660,"▁넘지":13661,"▁연고요,":13662,"▁다음과":13663,"▁다음에":13664,"▁준비가":13665,"▁오래지":13666,"▁물질로":13667,"▁佛告":13668,"▁면면":13669,"▁면목을":13670,"▁철학":13671,"▁이해에":13672,"▁이해하지":13673,"▁출가를":13674,"▁출가위":13675,"▁출가하여":13676,"▁[그대는":13677,"▁독점":13678,"▁잃게":13679,"▁인도의":13680,"▁농토":13681,"▁농사에":13682,"▁시방에":13683,"사오리까.]":13684,"▁배우며":13685,"▁자녀로":13686,"▁벗이":13687,"▁동포와":13688,"▁폐식":13689,"▁돌아오지":13690,"소서.」\r\n":13691,"▁만들고,":13692,"하오나,":13693,"▁아닌가":13694,"▁기도도":13695,"▁쉽고,":13696,"▁지내고":13697,"▁지내면":13698,"▁것인즉,":13699,"▁제11":13700,"▁제12":13701,"▁제13":13702,"▁제1절":13703,"▁정성은":13704,"▁영가시":13705,"▁익힌":13706,"▁나타나지":13707,"▁어른의":13708,"▁물건이나":13709,"▁이상에는":13710,"라]고":13711,"▁바탕한":13712,"▁실천으로":13713,"▁실천하여":13714,"정(定靜":13715,"▁공경심을":13716,"년(1960.庚":13717,"▁십대":13718,"▁십계를":13719,"▁자비가":13720,"▁자비는":13721,"▁자비를":13722,"▁묘위":13723,"▁묘한":13724,"▁숭상":13725,"▁나오게":13726,"▁사실에":13727,"▁수위단회를":13728,"▁수위단회에서":13729,"▁살아갈":13730,"▁살아난":13731,"▁색신":13732,"▁색에":13733,"▁까닭이니,":13734,"▁까닭이라,":13735,"▁지방과":13736,"▁찬란":13737,"▁정치가":13738,"▁지극하면":13739,"▁천도재를":13740,"▁빈천":13741,"▁옳게":13742,"▁옳고":13743,"▁저희들을":13744,"년(1954.甲":13745,"▁없었으나":13746,"▁보통급":13747,"▁선원에":13748,"▁목적이":13749,"▁겸전":13750,"▁다르나니,":13751,"▁윤리를":13752,"▁윤회를":13753,"▁시간과":13754,"▁스승님들":13755,"▁정법으로":13756,"▁인격은":13757,"▁영산회":13758,"▁12월":13759,"▁12월에는":13760,"▁조심하지":13761,"▁활동이":13762,"▁활동하는":13763,"▁가져다":13764,"▁힘쓰는":13765,"▁힘쓰면":13766,"▁풍부":13767,"▁법계가":13768,"▁법계와":13769,"▁숭배를":13770,"▁숭배하는":13771,"▁다스려":13772,"▁20년(193":13773,"▁되나니라.]":13774,"▁교무를":13775,"▁서울에":13776,"▁서울에서":13777,"▁급하게":13778,"세계가":13779,"▁여기서":13780,"▁『대종경":13781,"▁도인과":13782,"▁도인이라":13783,"▁영광을":13784,"▁방편과":13785,"▁설립된":13786,"▁낮에는":13787,"▁일어난":13788,"▁주장하여":13789,"▁도량에":13790,"▁도량이":13791,"▁범부들은":13792,"▁일제강점":13793,"▁나가자는":13794,"▁참회하고":13795,"▁화합하는":13796,"▁세워서":13797,"▁소유를":13798,"▁견성한":13799,"이어니":13800,"▁거짓을":13801,"▁거짓이":13802,"▁봉안하는":13803,"▁길러서":13804,"▁공익의":13805,"▁보내는":13806,"▁힘써서":13807,"▁형상도":13808,"▁드러내어":13809,"▁넷은":13810,"▁반조(":13811,"▁치료하는":13812,"사업으로":13813,"▁뵈온":13814,"▁짐승":13815,"▁국민이":13816,"▁밤에는":13817,"▁대답하시기를":13818,"▁대답하지":13819,"▁아니한다":13820,"▁구분이":13821,"▁운전하고":13822,"▁제거하는":13823,"(天地":13824,"▁밟지":13825,"▁즉시로":13826,"으셨으며,":13827,"▁영모전에":13828,"▁신성한":13829,"▁살피는":13830,"▁손님에게":13831,"▁흐르고":13832,"라\"고":13833,"▁我得":13834,"▁끼니":13835,"▁끼치신":13836,"▁제2절":13837,"▁제2차":13838,"▁바람을":13839,"▁고락과":13840,"▁고락에":13841,"년(1941.辛":13842,"년(1942.壬":13843,"▁변화시키는":13844,"▁온전하게":13845,"▁되리라.」\r\n":13846,"▁지나가":13847,"▁지나지":13848,"▁지나치게":13849,"▁기원하는":13850,"▁떨어질":13851,"(佛法":13852,"▁亦不":13853,"▁사리간에":13854,"▁과학을":13855,"▁과학의":13856,"▁체받게":13857,"자(녀":13858,"▁실현하기":13859,"▁예수께서":13860,"▁옷이":13861,"▁울을":13862,"강항마위":13863,"▁아니하였음이요":13864,"▁경제적":13865,"▁배출하는":13866,"▁간절한":13867,"▁붙잡":13868,"▁쇠를":13869,"▁부탁하여":13870,"▁중요하나니,":13871,"▁26년(1941.辛":13872,"▁순서가":13873,"▁쌍으로":13874,"▁대우를":13875,"▁기간으로,":13876,"▁제위의":13877,"▁제위께서는":13878,"▁산업부":13879,"▁겁래에":13880,"▁긴요한":13881,"▁꽃을":13882,"▁자손이":13883,"▁어떠하냐.":13884,"공부니,":13885,"▁사요를":13886,"▁없애고":13887,"▁보배가":13888,"▁부분의":13889,"▁불과한":13890,"▁「우리는":13891,"▁가르치심을":13892,"▁일동이":13893,"▁한다면,":13894,"▁제정하여":13895,"▁어려우며,":13896,"▁언어와":13897,"▁[정전]":13898,"▁하나니라.]":13899,"▁밝아질":13900,"▁배은을":13901,"▁곤궁":13902,"▁월간":13903,"기관으로":13904,"스럽고":13905,"▁아님도":13906,"▁아님을":13907,"▁보응을":13908,"▁인물들이":13909,"▁만고의":13910,"▁재미를":13911,"▁나타내는":13912,"▁싶나이다.]":13913,"▁흩어진":13914,"▁1891년":13915,"▁성년식":13916,"▁경례하고":13917,"▁서서히":13918,"▁의심하지":13919,"▁구족하고":13920,"▁여러분과":13921,"▁여러분은":13922,"▁여러분의":13923,"▁十方":13924,"▁됨이요":13925,"▁[천지에":13926,"▁조합의":13927,"▁솔성":13928,"학교.":13929,"▁삼동윤리를":13930,"▁삼동윤리의":13931,"▁지켜서":13932,"▁주세불":13933,"▁서가모니불":13934,"▁「정산":13935,"▁구인제자":13936,"▁초창기에":13937,"▁움직이는":13938,".법률":13939,"▁걷는":13940,"자.]\r\n":13941,"▁일대겁":13942,"▁교회장":13943,"▁부끄러워":13944,"▁등한한":13945,"▁반야의":13946,"하리라\r\n":13947,"壽者見":13948,"부(모":13949,"▁그림자가":13950,"▁주체로":13951,"▁바다에":13952,"▁내왕시":13953,"▁방향으로":13954,"▁식순에":13955,"▁술을":13956,"▁시국에":13957,"▁따르도록":13958,"▁돌이켜":13959,"▁출입할":13960,"▁돈오와":13961,"▁更無":13962,"▁객이":13963,"▁졸지에":13964,"▁일꾼들이":13965,"▁일월이":13966,"▁[삼동":13967,"▁자취가":13968,"▁자취를":13969,"▁주옵시고":13970,"▁재앙을":13971,"▁출세간":13972,"▁표본이":13973,"▁용서하고":13974,"▁느끼고":13975,"▁사(邪":13976,"▁신봉하는":13977,"▁설치하여":13978,"▁평상심이":13979,"(全飮光":13980,"沙門하사대":13981,"▁이번에":13982,"▁성성한":13983,"▁경륜은":13984,"▁38.대종사":13985,"▁특신급은":13986,"▁뛰어넘":13987,"▁의.식.주를":13988,"▁구애되지":13989,"▁비치면":13990,"▁분석하고":13991,"煩惱하야":13992,"▁지견과":13993,"▁한편,":13994,"▁아니고는":13995,"▁39년(1954.甲":13996,"▁죄업의":13997,"▁건축을":13998,"▁역경과":13999,"▁떳떳한":14000,"▁자금,":14001,"▁공자님":14002,"▁공자께서는":14003,"▁다를지라도":14004,"▁경영하는":14005,"▁태어나는":14006,"恒河沙等":14007,"니까?”":14008,"사온데":14009,"일):":14010,"▁정당하게":14011,"▁모범이":14012,"▁14.대종사":14013,"▁소홀히":14014,"▁점수문":14015,"▁ᄋᄋ님이시여!":14016,"▁잊어버리지":14017,"▁謂之禪":14018,"▁謂之坐요":14019,"▁자료를":14020,"▁기성조합":14021,"▁위패를":14022,"▁30.대종사":14023,"▁단계요,":14024,"▁증애에":14025,"▁묘유의":14026,"▁어긋나지":14027,"▁이듬해(원기":14028,"▁독경(서원문)":14029,"▁옥녀":14030,"所說義":14031,"賢聖所에":14032,"희사·":14033,"▁대의(大":14034,"▁[상시":14035,"▁조석으로":14036,"▁구비하여":14037,"▁당하든지":14038,"▁일체중생의":14039,"▁막히면":14040,"▁見他得":14041,"▁법마상전급은":14042,"▁勸他":14043,"▁感生":14044,"▁[공부하는":14045,"▁하나님을":14046,"▁유일학림":14047,"▁형편을":14048,"般若波羅蜜多":14049,"▁지출을":14050,"▁제6장":14051,"▁27년(1942.壬":14052,"▁우치한":14053,"▁동기연":14054,"▁44년(195":14055,"▁단정히":14056,"▁화려한":14057,"▁피차가":14058,"▁[무엇이나":14059,"▁껍질":14060,"七寶로":14061,"三千大千世界":14062,"산종사법어":14063,"▁사귀게":14064,"▁기반을":14065,"▁불합리한":14066,"▁2배하며,":14067,"▁비밀을":14068,"▁혜광을":14069,"▁퇴굴심을":14070,"·국가":14071,"▁王曰":14072,"三十二相으로":14073,"▁정(靜":14074,"▁주저하지":14075,"▁삼강령":14076,"▁일원상(一圓相":14077,"▁찬성함이요":14078,"▁접응할":14079,"▁所以者何오":14080,"▁25년(1940.庚辰)":14081,"▁무위이화":14082,"▁歸家":14083,"▁讚歎":14084,"▁定慧等持":14085,"專務出身":14086,"존(歸依":14087,"▁그래서":14088,"▁사통오달":14089,"▁대정진":14090,"▁알음알이를":14091,"▁37년(195":14092,"▁종법사를":14093,"▁연등불":14094,"전(正典":14095,"▁48년(1963.癸卯)":14096,"▁不如飯一":14097,"/www.w":14098,"▁원성적":14099,"▁4년(1919.己未)":14100,"▁적었음이요,\r\n":14101,"▁38년(1953.癸巳)":14102,"▁46년(1961.辛":14103,"▁독경(서원문.심경)":14104,"·좌선·":14105,"四句偈等":14106,"빈곤·질병을":14107,"▁무지·빈곤·질병을":14108,"▁열반기념제":14109,"▁19년(1934.甲":14110,"▁20년(1935.乙":14111,"\"로부터":14112,"(前":14113,"(堰":14114,"(後":14115,"(愚":14116,"(應":14117,"(昧":14118,"(物":14119,"(理":14120,"(病":14121,"(知":14122,"(私":14123,"(誠":14124,"(進":14125,"(邪":14126,"(陰":14127,"(魔":14128,")니,":14129,")하면":14130,")하신":14131,".박":14132,".승":14133,".운":14134,".유":14135,".응":14136,".지":14137,".보은":14138,"1일":14139,"28":14140,"200":14141,"4)":14142,"5]":14143,"8년":14144,"[大":14145,"al":14146,"ex":14147,"nal":14148,"··":14149,"·지·":14150,"’라고":14151,"”.":14152,"▁且":14153,"▁切":14154,"▁唯":14155,"▁守":14156,"▁宗":14157,"▁念":14158,"▁惱":14159,"▁慧":14160,"▁持":14161,"▁捨":14162,"▁方":14163,"▁普":14164,"▁現":14165,"▁盡":14166,"▁着":14167,"▁視":14168,"▁貪":14169,"▁通":14170,"▁運":14171,"▁遠":14172,"▁邪":14173,"▁靈":14174,"▁굶":14175,"▁났":14176,"▁뇌":14177,"▁던":14178,"▁덩":14179,"▁뜰":14180,"▁띠":14181,"▁메":14182,"▁삭":14183,"▁섞":14184,"▁숲":14185,"▁썩":14186,"▁썼":14187,"▁앙":14188,"▁액":14189,"▁엷":14190,"▁옴":14191,"▁잦":14192,"▁쫓":14193,"▁찌":14194,"▁큼":14195,"▁탕":14196,"▁툭":14197,"▁퍼":14198,"▁(19":14199,"▁衆生":14200,"▁自性":14201,"▁布施":14202,"▁淸淨":14203,"▁靈知":14204,"▁맥을":14205,"▁涅槃":14206,"▁菩薩이":14207,"▁對治":14208,"▁步步":14209,"▁ex":14210,"』(":14211,"下語":14212,"不及":14213,"不淨":14214,"世說法":14215,"主義":14216,"之人":14217,"之位":14218,"也니라\r\n":14219,"乾坤":14220,"事佛供":14221,"人見":14222,"人衆生":14223,"以三十二相으로":14224,"位)":14225,"位)에":14226,"佛事":14227,"佛土":14228,"佛性":14229,"佛하야":14230,"信心":14231,"修心":14232,"俱空":14233,"先後":14234,"先悟後修":14235,"入定":14236,"六途":14237,"共)이":14238,"分에":14239,"前世說法":14240,"力)이":14241,"十善":14242,"卯)에":14243,"同源道":14244,"味觸":14245,"命)을":14246,"喜捨":14247,"四時":14248,"園)을":14249,"報本":14250,"大衆":14251,"奉公":14252,"婆羅":14253,"學)":14254,"安)":14255,"定期":14256,"寂光":14257,"寂寂":14258,"寂知":14259,"專權":14260,"山宗師":14261,"常轉":14262,"平等":14263,"後에":14264,"德)이":14265,"心)에":14266,"恩)을":14267,"恭敬":14268,"情欲":14269,"慧煥":14270,"我人衆生":14271,"所得":14272,"所說法":14273,"敎)가":14274,"明)":14275,"明)이":14276,"昏亂":14277,"是故로":14278,"是汝의":14279,"時禪":14280,"智者":14281,"有爲":14282,"柳虛":14283,"次第":14284,"正氣":14285,"此而":14286,"氣連契":14287,"法者":14288,"法에":14289,"法하야":14290,"法結義":14291,"涵養":14292,"滅하야":14293,"無上":14294,"無我":14295,"無邊":14296,"爲人":14297,"生과":14298,"用)\r\n":14299,"發大":14300,"白指":14301,"白雲":14302,"眼이니이다":14303,"眼不아":14304,"矣라":14305,"矣니라\r\n":14306,"禪院":14307,"章句":14308,"結實":14309,"經)에":14310,"緣)을":14311,"義備":14312,"而生":14313,"耶아":14314,"聖聖":14315,"聲香":14316,"自由":14317,"色天":14318,"蓬萊":14319,"語者":14320,"變化":14321,"賢者":14322,"超三界":14323,"輪廻":14324,"輪常轉":14325,"退屈":14326,"通信":14327,"過去":14328,"道性":14329,"門이요":14330,"門中에":14331,"雨露":14332,"靈山":14333,"非非":14334,"餓鬼":14335,"麽아":14336,"가야":14337,"간은":14338,"간으로":14339,"강에":14340,"걸음이":14341,"것도":14342,"겠다고":14343,"겠는가.]":14344,"겨서":14345,"결의":14346,"고는":14347,"고한":14348,"곡.":14349,"곳에":14350,"공보다는":14351,"과는":14352,"광선":14353,"교간":14354,"교례":14355,"교에서는":14356,"구가":14357,"구니":14358,"구한":14359,"국은":14360,"국에서":14361,"급하는":14362,"길로":14363,"김없이":14364,"날에":14365,"내를":14366,"내지":14367,"냐.]":14368,"녀의":14369,"년(":14370,"년월":14371,"놓은":14372,"니까.]":14373,"님이나":14374,"다지":14375,"단과":14376,"담을":14377,"대리":14378,"대재":14379,"대회를":14380,"대지가":14381,"더러":14382,"더이다.]":14383,"덕으로":14384,"도다":14385,"도다[":14386,"동.":14387,"동란":14388,"동의":14389,"동적으로":14390,"되도록":14391,"드리":14392,"들에":14393,"들일":14394,"들지":14395,"라서":14396,"락(":14397,"량을":14398,"럽게":14399,"려도":14400,"련한":14401,"례와":14402,"로이":14403,"류를":14404,"리.":14405,"리되":14406,"리하는":14407,"리거나":14408,"마(":14409,"마귀":14410,"마침":14411,"만고":14412,"만히":14413,"만하고":14414,"매한":14415,"먼저":14416,"목에":14417,"무소":14418,"반에":14419,"받침":14420,"방송":14421,"버리는":14422,"병에":14423,"보로":14424,"복(":14425,"봉을":14426,"부활":14427,"부장.":14428,"불조요":14429,"사상을":14430,"상불":14431,"상이나":14432,"서울":14433,"서라도":14434,"석에":14435,"석을":14436,"석으로":14437,"소태산":14438,"수.":14439,"수와":14440,"수하여":14441,"수하는":14442,"순한":14443,"스승이":14444,"시간":14445,"시아":14446,"시장":14447,"시옵고":14448,"신성":14449,"실하게":14450,"악한":14451,"았다.":14452,"았으나":14453,"앞으로는":14454,"애가":14455,"액(":14456,"양을":14457,"어져":14458,"어니와":14459,"업으로":14460,"었으니":14461,"에,":14462,"여시":14463,"역(":14464,"였으나":14465,"영지":14466,"영할":14467,"예전』":14468,"오(":14469,"오가":14470,"오며":14471,"오나,":14472,"온데":14473,"옵기를":14474,"옵나이다.":14475,"욕으로":14476,"용하지":14477,"우며,":14478,"우리가":14479,"울한":14480,"으매":14481,"으사":14482,"으리요.":14483,"음이니,":14484,"의두":14485,"의로써":14486,"이성":14487,"이하":14488,"이거든":14489,"이로다":14490,"익산.":14491,"인즉":14492,"인이나":14493,"인이라도":14494,"자기":14495,"자도":14496,"자라":14497,"자재":14498,"장에는":14499,"적에":14500,"전,":14501,"전》":14502,"전에는":14503,"절에":14504,"절\r\n":14505,"제(敎":14506,"졌으나":14507,"조건":14508,"조차":14509,"조창":14510,"종을":14511,"종경을":14512,"좌(":14513,"주소":14514,"주시":14515,"주신":14516,"주지":14517,"줄을":14518,"중(":14519,"중으로":14520,"중하신":14521,"지,":14522,"진이":14523,"진다는":14524,"쪼록":14525,"찮은":14526,"창.":14527,"채를":14528,"천봉":14529,"천여":14530,"천지":14531,"천하":14532,"철은":14533,"청(":14534,"청정":14535,"초를":14536,"초대원":14537,"총독":14538,"치라":14539,"치며":14540,"치와":14541,"캠퍼":14542,"케하소서":14543,"코자":14544,"태(":14545,"판이":14546,"평상":14547,"평의":14548,"평화":14549,"하니라.":14550,"하든지":14551,"하다고":14552,"하니라":14553,"하니라\r\n":14554,"하듯이":14555,"하노니,":14556,"하심에":14557,"한지라":14558,"합력":14559,"해졌":14560,"화한":14561,"화하고":14562,"회,":14563,"▁이념":14564,"▁이론":14565,"▁이백":14566,"▁이같이":14567,"▁이로운":14568,"▁이기지":14569,"▁이념을":14570,"▁이적을":14571,"▁이단치":14572,"▁하실":14573,"▁하리라.":14574,"▁하라는":14575,"▁하거늘":14576,"▁하리니,":14577,"▁하려고":14578,"▁하찮은":14579,"▁그도":14580,"▁그들은":14581,"▁그름이":14582,"▁그다지":14583,"▁사과":14584,"▁사마":14585,"▁사바":14586,"▁사세":14587,"▁사십":14588,"▁사오":14589,"▁사중":14590,"▁사후":14591,"▁사이나":14592,"▁사심을":14593,"▁사명을":14594,"▁사정이":14595,"▁사후에":14596,"▁사장(師長":14597,"▁대를":14598,"▁대명":14599,"▁대서":14600,"▁대열":14601,"▁대완":14602,"▁대인":14603,"▁대진":14604,"▁대질":14605,"▁대하되":14606,"▁대사가":14607,"▁대회에":14608,"▁대체를":14609,"▁대운이":14610,"▁대액을":14611,"▁대업에":14612,"▁대단히":14613,"▁대종경을":14614,"▁말세":14615,"▁말에는":14616,"▁말하고,":14617,"▁말지어다.":14618,"▁말함이니라.":14619,"으로도":14620,"▁일가":14621,"▁일년":14622,"▁일분":14623,"▁일치":14624,"▁일어서":14625,"▁일심과":14626,"▁일생이":14627,"▁있삽":14628,"▁있거나":14629,"▁있기도":14630,"▁있다\"":14631,"▁있나니라.\r\n":14632,"▁있겠나이까.]":14633,"하시기":14634,"하시다가,":14635,"하시었나니,":14636,"하시었으나,":14637,"▁가셨":14638,"▁가치":14639,"▁아우":14640,"▁[경":14641,"▁[계":14642,"▁[명":14643,"▁[몸":14644,"▁[송":14645,"▁[요":14646,"▁[원":14647,"▁[음":14648,"▁[희":14649,"▁[도가":14650,"▁[부모":14651,"▁[마음이":14652,"▁없기를":14653,"▁없느니라.":14654,"▁없나이다.]":14655,"▁없어도":14656,"▁없사오니":14657,"▁사람보다":14658,"▁사람들로":14659,"▁정에":14660,"▁정정":14661,"▁정기를":14662,"▁정하여도":14663,"▁정도가":14664,"▁정중한":14665,"▁정사에서":14666,"▁정도(正":14667,"▁정정(定靜":14668,"하고[":14669,"▁자세에":14670,"▁자재(":14671,"▁자진하여":14672,"▁자동적으로":14673,"▁공식":14674,"▁공회":14675,"▁공원을":14676,"▁공력이":14677,"▁공경을":14678,"▁공사는":14679,"▁공전(":14680,"▁되나,":14681,"▁되오니,":14682,"▁되려니와":14683,"▁마장이":14684,"▁다한":14685,"▁다해":14686,"▁다하는":14687,"▁다리를":14688,"▁다같이":14689,"▁다양한":14690,"하는지라,":14691,"▁수라":14692,"▁수립":14693,"▁수십":14694,"▁수준":14695,"▁수효":14696,"▁수기를":14697,"▁수명이":14698,"▁수(壽":14699,"▁세도":14700,"▁세배":14701,"▁세울":14702,"▁교선":14703,"▁교재":14704,"▁교재를":14705,"▁교통이":14706,"▁지날":14707,"▁지냈":14708,"▁지니":14709,"▁지라,":14710,"▁지중한":14711,"▁지조를":14712,"▁지식과":14713,"▁한문":14714,"▁한즉,":14715,"▁한마음이":14716,"▁보기":14717,"▁보되":14718,"▁보류":14719,"▁보육":14720,"▁보잘":14721,"▁보필":14722,"▁보고,":14723,"▁보나니라.]\r\n":14724,"▁보겠느냐.]":14725,"▁어렸":14726,"▁어서":14727,"▁법규":14728,"▁법상":14729,"▁법이라":14730,"▁법이나":14731,"▁법맥을":14732,"▁모를":14733,"▁모셔":14734,"▁모실":14735,"▁모이":14736,"▁모임":14737,"▁모로나":14738,"▁주(":14739,"▁주관":14740,"▁주빈":14741,"▁주산":14742,"▁주워":14743,"▁주위":14744,"▁주택":14745,"▁주심을":14746,"▁주함이":14747,"▁주기가":14748,"▁주(主":14749,"▁생과":14750,"▁생기지":14751,"▁생성의":14752,"▁마음,":14753,"▁마음공부":14754,"▁나시":14755,"▁나은":14756,"▁나이":14757,"▁나중에는":14758,"▁기러":14759,"▁기연":14760,"▁기위":14761,"▁기존":14762,"▁기질을":14763,"▁기색을":14764,"▁부려":14765,"▁부른":14766,"▁부속":14767,"▁부수":14768,"▁부질":14769,"▁부르는":14770,"▁부부의":14771,"▁제성":14772,"▁제재를":14773,"▁1,":14774,"▁1차":14775,"▁도교":14776,"▁도산":14777,"▁도실":14778,"▁도중":14779,"▁도사를":14780,"▁도와,":14781,"▁도리에":14782,"▁도중에":14783,"▁때로는":14784,"▁인권":14785,"▁인심":14786,"▁인을":14787,"▁인한":14788,"▁인간에":14789,"▁인정이":14790,"▁인심의":14791,"▁바느":14792,"▁바란":14793,"▁바쁜":14794,"▁바쳐":14795,"▁바쳤":14796,"▁원은":14797,"▁원인":14798,"▁원형":14799,"▁원리는":14800,"▁원력을":14801,"▁원리와":14802,"▁원경(":14803,"▁원수를":14804,"▁원(圓":14805,"▁원수의":14806,"▁원한을":14807,"▁만나는":14808,"▁못했":14809,"▁성심":14810,"▁성자를":14811,"▁성인을":14812,"▁성지의":14813,"▁성질을":14814,"▁불민":14815,"▁불일":14816,"▁불행":14817,"▁불의를":14818,"▁불상이":14819,"▁불행을":14820,"▁불일을":14821,"▁불조의":14822,"▁무간":14823,"▁무관":14824,"▁무기":14825,"▁무산":14826,"▁무색":14827,"▁무정":14828,"▁무상으로":14829,"▁무명의":14830,"▁무심히":14831,"▁중고등":14832,"▁2등":14833,"▁2차":14834,"▁2월에는":14835,"▁우애":14836,"▁우편":14837,"▁여는":14838,"▁여한":14839,"▁여실히":14840,"▁여전히":14841,"에게만":14842,"▁천불":14843,"▁천·지·":14844,"이라가":14845,"▁같아":14846,"▁같음을":14847,"▁시급":14848,"▁시찰":14849,"▁시기가":14850,"▁시종이":14851,"▁위엄":14852,"▁위치":14853,"▁위협":14854,"▁위의를":14855,"▁위신이":14856,"▁위력과":14857,"▁동양":14858,"▁동정이":14859,"▁오복":14860,"▁경외":14861,"▁경은":14862,"▁경의":14863,"▁경절":14864,"▁경치":14865,"▁경어를":14866,"▁알자는":14867,"▁알기도":14868,"▁전권":14869,"▁전심":14870,"▁전통":14871,"▁전파":14872,"▁전하게":14873,"▁전생의":14874,"▁전후에":14875,"▁공부나":14876,"▁공부요":14877,"▁공부하고":14878,"▁공부며,":14879,"▁공부하면":14880,"▁공부법이":14881,"▁공부로서":14882,"▁공부인으로":14883,"▁선근":14884,"▁선비":14885,"▁선언":14886,"▁선생을":14887,"▁선정에":14888,"▁3남":14889,"▁33.대종사":14890,"▁37.대종사":14891,"▁3개월":14892,"▁3년(191":14893,"▁영송":14894,"▁영생에":14895,"▁영화를":14896,"▁영통을":14897,"▁영지(":14898,"▁영로에":14899,"▁서고":14900,"▁서늘":14901,"▁서무":14902,"▁서야":14903,"▁서면으로":14904,"▁내다":14905,"▁내생":14906,"▁내장":14907,"▁내리지":14908,"▁내거나":14909,"▁내리게":14910,"▁신.":14911,"▁신속":14912,"▁신문을":14913,"▁신망을":14914,"▁고치고":14915,"▁고해가":14916,"▁조감":14917,"▁조종":14918,"▁조상으로":14919,"▁진여":14920,"▁진출":14921,"▁진취":14922,"▁진심을":14923,"▁4등":14924,"▁4종":14925,"▁41.대종사":14926,"▁삼갈":14927,"▁삼방":14928,"▁삼으며,":14929,"▁삼으시":14930,"▁삼으나,":14931,"▁삼세에":14932,"▁않고,":14933,"▁않으시":14934,"▁않겠나이까.]":14935,"▁「동":14936,"▁「삼":14937,"▁「생":14938,"▁「음":14939,"▁「도가":14940,"▁「수도":14941,"▁「일원":14942,"▁사람이며":14943,"▁회장":14944,"▁회의를":14945,"▁회장에":14946,"▁의사":14947,"▁의하여,":14948,"▁의지를":14949,"▁의리에":14950,"▁의복을":14951,"▁의식에":14952,"▁얻으시":14953,"▁대산은":14954,"▁대산(大":14955,"▁실적":14956,"▁실지를":14957,"▁실례를":14958,"▁해소":14959,"▁해에":14960,"▁해하는":14961,"▁해(害":14962,"▁상상":14963,"▁상장":14964,"▁상대로":14965,"▁따르고":14966,"▁구슬":14967,"▁종부":14968,"▁종종":14969,"▁종지를":14970,"▁소독":14971,"▁소와":14972,"▁소원":14973,"▁소회를":14974,"▁소자녀":14975,"▁소리로":14976,"▁더럽":14977,"▁더한":14978,"▁더하고":14979,"▁발하면":14980,"▁발심하여":14981,"▁등도":14982,"▁등불":14983,"▁비단":14984,"▁비난을":14985,"▁곧바로":14986,"▁거리":14987,"▁거주":14988,"▁길도":14989,"▁길이라,":14990,"▁길들여":14991,"▁열쇠":14992,"▁열에":14993,"▁열을":14994,"▁열의":14995,"▁열리지":14996,"▁들으면":14997,"▁개시":14998,"▁행실을":14999,"▁생각의":15000,"▁생각에서":15001,"▁5대":15002,"▁50년":15003,"▁각지에":15004,"▁각성하여":15005,"▁근기에":15006,"▁근심과":15007,"▁하나인":15008,"▁하나임을":15009,"▁하나라는":15010,"▁하나이다.":15011,"▁본다":15012,"▁본의":15013,"▁본원에":15014,"▁회상임을":15015,"▁회상(會上":15016,"▁참을":15017,"▁연례":15018,"▁연하고":15019,"▁유.":15020,"▁유람":15021,"▁유산":15022,"▁유교의":15023,"▁유(有":15024,"▁유아의":15025,"▁물고":15026,"▁물었":15027,"▁물은":15028,"▁물욕에":15029,"▁심지는":15030,"▁심성이":15031,"▁심신이":15032,"▁많다고":15033,"▁많으므로":15034,"▁많으므로,":15035,"▁살면":15036,"▁살필":15037,"▁살면서도":15038,"▁정신.육":15039,"▁있으되":15040,"▁있으리라.":15041,"▁있으므로,":15042,"▁두터":15043,"▁예법":15044,"▁예언":15045,"▁예증":15046,"▁당대":15047,"▁당부":15048,"▁당하였":15049,"▁당년도":15050,"▁계를":15051,"▁계행을":15052,"▁계단을":15053,"▁방종":15054,"▁미(":15055,"▁미안":15056,"▁미하고":15057,"▁미치게":15058,"▁사업으로":15059,"▁스님":15060,"▁장양":15061,"▁장을":15062,"▁장한":15063,"▁장사를":15064,"▁장소를":15065,"▁장래의":15066,"▁안분":15067,"▁안이":15068,"▁과를":15069,"▁과실":15070,"나이까.\r\n":15071,"▁힘들":15072,"▁돌리면":15073,"▁뜻이니":15074,"▁재단의":15075,"▁재(齋":15076,"▁함과":15077,"▁함축":15078,"▁함이요,\r\n":15079,"▁복문을":15080,"▁복잡한":15081,"▁저는":15082,"▁가운데서도":15083,")이란":15084,"▁데를":15085,"▁데서":15086,"▁데까지":15087,"▁반만":15088,"▁반복":15089,"▁항의":15090,"▁결성":15091,"▁결집":15092,"▁결합":15093,"▁결정을":15094,"▁결의(":15095,"195":15096,"▁처지":15097,"▁처지가":15098,"▁처소와":15099,"▁설위":15100,"▁설하는":15101,"▁설하신":15102,"▁설함으로써":15103,"▁될지니,":15104,"▁될꼬.]":15105,"▁단전에":15106,"▁단원의":15107,"▁통지":15108,"▁통합":15109,"▁통합하여":15110,"▁분과":15111,"▁분담":15112,"▁분들의":15113,"▁어찌하여야":15114,"▁67.":15115,"▁68.":15116,"▁6월,":15117,"▁평가":15118,"▁평온":15119,"▁평천":15120,"▁평상의":15121,"▁적벽":15122,"▁적을":15123,"▁명백":15124,"▁명산":15125,"▁명의":15126,"▁명상(":15127,"▁명리의":15128,"▁명상에":15129,"▁대중화":15130,"▁국가.":15131,"▁일이며":15132,"▁일이며,":15133,"▁일이나,":15134,"▁하시는":15135,"▁하시니":15136,"▁하시나이까.]":15137,"▁몸소":15138,"▁입단":15139,"▁입등":15140,"▁입법":15141,"▁편의":15142,"▁편협":15143,"▁편히":15144,"▁차리어":15145,"▁차이는":15146,"▁감화를":15147,"▁관(":15148,"▁관하여":15149,"▁마음이니,":15150,"▁이는,":15151,"▁병이며,":15152,"▁병듦이":15153,"▁문하에":15154,"▁강습":15155,"▁강이":15156,"▁강자의":15157,"▁강자와":15158,"▁강자로":15159,"▁강약이":15160,"▁출석":15161,"▁능력과":15162,"▁능이성":15163,"▁죄로":15164,"▁간소":15165,"▁간의":15166,"▁간다면":15167,"▁허리를":15168,"▁봉대":15169,"▁봉헌":15170,"▁화목":15171,"▁화육":15172,"▁은덕을":15173,"▁양방에":15174,"▁양면을":15175,"▁양방이":15176,"▁건전":15177,"▁제자만":15178,"▁제자로서":15179,"▁노루":15180,"▁노력이":15181,"▁총회를":15182,"▁천지도":15183,"▁드리는":15184,"▁드리고":15185,"▁순간":15186,"▁요인":15187,"▁요법을":15188,"▁종교라야":15189,"▁초조":15190,"▁초기에":15191,"▁집으로":15192,"▁어떠하오리까.]":15193,"▁하였더니,":15194,"▁하였는데,":15195,"▁번씩":15196,"▁번수를":15197,"▁이루기":15198,"▁이루었":15199,"▁되었다":15200,"▁되었으며":15201,"▁특등":15202,"▁놓으신":15203,"▁근본이요":15204,"▁형상을":15205,"▁형식을":15206,"▁형상과":15207,"▁형식은":15208,"▁창생의":15209,"▁학습":15210,"▁이름이라,":15211,"▁이름하나이다.":15212,"▁스승이나":15213,"▁돌아다니":15214,"▁\"수":15215,"▁\"여래":15216,"▁못하오니":15217,"▁못하겠나이다.":15218,"▁표기":15219,"▁매어":15220,"▁매(昧":15221,"▁변경":15222,"▁기운만":15223,"▁취침":15224,"▁不離":15225,"▁날뛰":15226,"▁나타낸":15227,"▁맞고":15228,"▁맞아서":15229,"▁산은":15230,"▁산의":15231,"▁산부처":15232,"▁준수":15233,"▁‘여래":15234,"▁교화로":15235,"▁제도에":15236,"▁4.5)":15237,"▁합력이":15238,"▁합하도록":15239,"▁합력으로":15240,"▁들어오":15241,"▁스스로를":15242,"▁쓰되":15243,"▁쓰일":15244,"▁운수":15245,"▁달린":15246,"▁달성":15247,"▁지도인의":15248,"▁지도인을":15249,"▁지도하실":15250,"▁원만하여":15251,"▁수행도":15252,"▁수행으로":15253,"▁훈련에":15254,"▁훈련법과":15255,"▁끊을":15256,"▁끊일":15257,"▁끊어지고":15258,"▁닦으면":15259,"▁죽게":15260,"▁죽음의":15261,"▁금옥":15262,"▁금전":15263,"▁않는다.":15264,"▁속을":15265,"▁속일":15266,"▁시대라":15267,"신불은":15268,"▁점수의":15269,"▁인연에":15270,"▁인연은":15271,"▁인연의":15272,"▁사회생활":15273,"▁가르쳤":15274,"▁가르친":15275,"▁가르치지":15276,"▁외람":15277,"▁외부":15278,"▁외경에":15279,"▁은혜는":15280,"▁은혜의":15281,"▁갖는":15282,"▁갖출":15283,"▁갖춰야":15284,"▁아무야":15285,"▁아무러한":15286,"▁아무쪼록":15287,"▁귀일":15288,"▁막고":15289,"▁막기":15290,"▁막아":15291,"▁올리면":15292,"▁짓기를":15293,"▁하지마는":15294,"▁교당에서는":15295,"▁아니하고도":15296,"▁광대한":15297,"▁잡았":15298,"▁잡아서":15299,"▁잡으면":15300,"▁잡초가":15301,"▁바로서":15302,"▁동지들에게":15303,"▁정산은":15304,"▁모르나":15305,"▁모르면":15306,"▁박고":15307,"▁박멸":15308,"▁박차를":15309,"▁혜두":15310,"▁혜환":15311,"▁여래위에":15312,"▁신앙에":15313,"▁신앙으로":15314,"▁신앙처를":15315,"▁착공":15316,"▁착심":15317,"▁착용할":15318,"▁현대":15319,"▁현성":15320,"▁현하":15321,"▁떠났":15322,"▁떠오":15323,"▁이르는":15324,"▁이르면":15325,"▁이르도록":15326,"리요.\r\n":15327,"▁목사":15328,"▁누릴":15329,"▁7세":15330,"▁치고":15331,"▁사은이":15332,"▁범하고":15333,"▁못한다는":15334,"▁과거를":15335,"▁실행의":15336,"▁덕으로":15337,"▁응하는":15338,"▁응대할":15339,"▁체제":15340,"▁체성이":15341,"▁체성에":15342,"▁추도":15343,"▁추운":15344,"▁추호":15345,"▁못할지니라.":15346,"▁존엄":15347,"▁존재를":15348,"▁버는":15349,"▁버리면":15350,"▁버려야":15351,"▁증진":15352,"▁가정은":15353,"▁가정.사회.국":15354,"▁걸릴":15355,"▁깊게":15356,"▁절하고":15357,"▁절실히":15358,"▁승려가":15359,"▁교육은":15360,"▁어려운데":15361,"▁주시와":15362,"▁주시며,":15363,"▁너를":15364,"▁법신불과":15365,"▁수양력으로":15366,"▁수양원.":15367,"▁된다.\n":15368,"▁된다고":15369,"▁손은":15370,"▁손해":15371,"▁是眞":15372,"▁자신이나":15373,"▁송도":15374,"▁임금":15375,"▁임기":15376,"▁임야":15377,"▁확대":15378,"▁若言":15379,"▁인류에게":15380,"▁좌절":15381,"▁모두는":15382,"▁계속하는":15383,"▁계속한다면":15384,"▁쉬는":15385,"▁쉬울":15386,"▁음부":15387,"하사,":15388,"▁하늘로":15389,"▁주의하여야":15390,"▁공덕도":15391,"▁공덕에":15392,"▁공덕의":15393,"▁교도로":15394,"▁교도들의":15395,"▁발전시키는":15396,"▁발전됨을":15397,"▁건설할":15398,"▁건설하여":15399,"▁건설되는":15400,"▁ᄋᄋ(":15401,"▁ᄋᄋ와":15402,"▁묻고":15403,"▁우주는":15404,"▁우주를":15405,"▁낙도":15406,"▁낙으로":15407,"▁이러하며":15408,"▁완정":15409,"▁용을":15410,"▁총부로":15411,"▁총부에서":15412,"되었다.\n":15413,"▁연구는":15414,"▁경전으로":15415,"▁피할":15416,"▁피하여":15417,"▁조금씩":15418,").이":15419,"▁업에":15420,"▁업력에":15421,"▁업신여":15422,"▁대각개교":15423,"하자]":15424,"▁서원한":15425,"▁뿐이":15426,"▁뿐이요,":15427,"▁처음부터":15428,"▁須菩提言하사대":15429,"▁어렵지":15430,"▁어렵나니라.":15431,"▁자유가":15432,"▁자유와":15433,"▁자유의":15434,"▁창립을":15435,"▁사이가":15436,"▁10월에는":15437,"▁심고하는":15438,"▁끝내":15439,"▁끝마":15440,"▁식물":15441,"▁식사를":15442,"▁사람에게도":15443,"▁사람에게만":15444,"▁희미":15445,"▁희유한":15446,"▁희미한":15447,"▁제일가는":15448,"▁있었으며,":15449,"▁불교도":15450,"▁견고":15451,"▁보시하기를":15452,"▁세우시고":15453,"▁불보살들이":15454,"▁갖추면":15455,"▁以爲":15456,"▁망상을":15457,"▁망상이":15458,"▁잊어":15459,"▁잊으시고":15460,"▁향상의":15461,"▁호소":15462,"▁하셨다":15463,"▁하셨으나":15464,"▁하셨느니라.":15465,"▁사용하여야":15466,"▁9)":15467,"▁90":15468,"▁9월에는":15469,"▁넘길":15470,"▁혼침과":15471,"▁이익은":15472,"▁상대편에":15473,"▁성품은":15474,"▁성품자":15475,"▁일반의":15476,"▁만나고":15477,"▁만나기":15478,"▁만나매":15479,"▁준비하여":15480,"▁준비하고":15481,"▁성공될":15482,"▁전무출신이":15483,"▁떨어지고":15484,"▁철석":15485,"▁철이":15486,"▁이해하기":15487,"▁깨달음이":15488,"▁출가가":15489,"▁출가한":15490,"▁독경":15491,"▁독서":15492,"▁독송":15493,"▁독한":15494,"▁자연한":15495,"▁자연현":15496,"▁자연스럽게":15497,"▁인도로":15498,"▁좋아질":15499,"▁농부가":15500,"▁돈과":15501,"▁인과를":15502,"▁할지라도,":15503,"▁得少":15504,"▁得阿耨多羅三藐三菩提":15505,"로서의":15506,"원(원":15507,"원(초대원":15508,"▁배우지":15509,"▁배우고자":15510,"▁자녀와":15511,"▁바르면":15512,"▁於父母":15513,"▁벗을":15514,"▁거행하게":15515,"▁평화가":15516,"▁평화는":15517,"▁평화한":15518,"▁동포를":15519,"▁동포은":15520,"▁동포의":15521,"▁탐하여":15522,"▁탐심을":15523,"▁폐단을":15524,"▁지키며,":15525,"▁卽不":15526,"▁卽得":15527,"▁卽是":15528,"▁卽是非":15529,"▁김대거":15530,"▁방법과":15531,"▁방법에":15532,"▁방법이니라.":15533,"하라.」\r\n":15534,"▁시작한":15535,"▁시작할":15536,"▁개인과":15537,"▁개인을":15538,"▁눈과":15539,"주의(":15540,"▁만들기로":15541,"▁만들고자":15542,"▁8월에":15543,"▁8월에는":15544,"▁쉽나니라.]\r\n":15545,"▁[이것은":15546,"▁머리에":15547,"▁지내지":15548,"이지마는,":15549,"▁보살은":15550,"▁보살을":15551,"▁제14":15552,"▁제15":15553,"▁염불(":15554,"▁염불이나":15555,"▁영가에게는":15556,"▁유무와":15557,"▁벌써":15558,"▁벌이":15559,"▁익히고":15560,"▁나타나고":15561,"▁조직은":15562,"▁조직을":15563,"▁조직하여,":15564,"▁조직하라":15565,"▁물건이라도":15566,"▁이상된":15567,"▁이상에":15568,"▁이상으로써":15569,"▁何因":15570,"▁성현이":15571,"▁성현들이":15572,"▁성현들의":15573,"▁실천을":15574,"▁실천의":15575,"▁빠지지":15576,"▁십계":15577,"▁십년":15578,"▁사랑과":15579,"▁정진할":15580,"▁자비의":15581,"▁뜻이오니까.]":15582,"▁맡길":15583,"▁일어나고":15584,"▁일어나면":15585,"▁나오도록":15586,"▁찾아온":15587,"화(崔":15588,"화(中和":15589,"▁행동에":15590,"▁살아도":15591,"▁心無":15592,"▁색신이":15593,"▁색신은":15594,"▁앉은":15595,"▁앉기를":15596,"▁근원인":15597,"▁까닭은":15598,"▁대조하는":15599,"▁대조하게":15600,"▁풀을":15601,"▁풀이":15602,"▁정치에":15603,"▁천도법":15604,"▁천도재":15605,")이라고":15606,"▁빈곤":15607,"▁빈부":15608,"▁옳을":15609,"▁그리하여야":15610,"▁저희들로":15611,"▁없었나니,":15612,"▁없었노라.":15613,"▁선원에서":15614,"▁의지하고":15615,"▁빛날":15616,"▁다르고":15617,"▁다르며,":15618,"▁진실히":15619,"▁별좌":15620,"▁별다른":15621,"▁윤리":15622,"▁효도":15623,"▁흔히":15624,"▁시간에는":15625,"▁스승님이시여!":15626,"성(率性":15627,"▁정법의":15628,"하셨나니":15629,"▁수용할":15630,"▁원망을":15631,"▁원망이":15632,"▁원망할":15633,"▁조심하여야":15634,"▁조심해야":15635,"▁활동할":15636,")·중":15637,"▁판이":15638,"▁판국이":15639,"▁어린이를":15640,"▁힘쓰지":15641,"▁듯하나":15642,"▁묵상":15643,"▁풍랑":15644,"▁법계(法階":15645,"▁주고받는":15646,"▁성인과":15647,"▁성인에게":15648,"▁선진과":15649,"▁발견한":15650,"▁발견하는":15651,"▁처리할":15652,"▁경우에는,":15653,"▁숭배는":15654,"▁202":15655,"▁개벽을":15656,"▁개벽(開":15657,"▁단체가":15658,"▁단체는":15659,"▁단체를":15660,"▁토대를":15661,"▁가진다면":15662,"▁교무들에게":15663,"▁나무를":15664,"▁녹아":15665,"▁여기지":15666,"▁살펴야":15667,"▁둘째,":15668,"▁년간":15669,"▁년을":15670,"▁왔으나":15671,"▁영광에서":15672,"▁비롯이":15673,"▁개척하여":15674,"▁설립을":15675,"▁좌선의":15676,"▁일어날":15677,"▁자주력을":15678,"▁첫째,":15679,"▁13.한":15680,"▁당하여는":15681,"▁괴롭":15682,"▁괴롭고":15683,"▁공도의":15684,"▁무념을":15685,"▁무념할":15686,"▁집착하지":15687,"▁빌고":15688,"이어니와":15689,"▁넓히는":15690,"▁느낄":15691,"▁숨을":15692,"▁응용에":15693,"▁응용할":15694,"▁응용하여":15695,"▁익산에":15696,"▁멸함이":15697,"▁멸함도":15698,"▁터를":15699,"▁터전을":15700,"▁보내시니":15701,"▁연마하여":15702,"▁연마하고":15703,"▁작용이":15704,"▁작용하는":15705,"▁채찍":15706,"인에게도":15707,"▁하옵시와,":15708,"▁한량없":15709,"▁한량없이":15710,"▁보호하는":15711,"▁방면의":15712,"▁반조하는":15713,"▁습관은":15714,"(金大擧":15715,"▁其人所":15716,"▁其義備":15717,"▁맺은":15718,"▁왕궁":15719,"▁취사력을":15720,"▁[그러한":15721,"▁꾸준한":15722,"▁뵈옵":15723,"▁짐짓":15724,"▁[저희":15725,"▁분별에":15726,"▁석두암":15727,"▁억조창":15728,"▁아니한지라,":15729,"▁위에다가":15730,"▁조목에":15731,"▁게을":15732,"▁융성":15733,"▁사사물":15734,"▁생겨나는":15735,"▁알았으니":15736,")]을":15737,")]이":15738,"▁밟게":15739,"▁밟고":15740,"▁말할새":15741,"▁말할진대":15742,"▁법위등":15743,"▁법위사":15744,"▁제불제":15745,"▁영모원":15746,"▁살피어":15747,"▁살피지":15748,"▁운영하고":15749,"▁而復":15750,"▁퇴임":15751,"▁퇴전":15752,"▁협조":15753,"▁흐르는":15754,"인가,":15755,"인가.]":15756,"▁기술은":15757,"▁21.한":15758,"▁영겁에":15759,"▁若有人이":15760,"▁若有善男子善女人이":15761,"▁떨어지게":15762,"▁我當":15763,"▁끼칠":15764,"▁황홀":15765,"▁말하자면,":15766,"▁교역자의":15767,"▁교역자를":15768,"▁병진하여":15769,"▁변화는":15770,"▁접대하는":15771,"▁키울":15772,"▁키우는":15773,"함으로써,":15774,"▁되리라.]":15775,"▁기원문":15776,"▁만유가":15777,"▁만유를":15778,"▁결혼식":15779,"▁결혼을":15780,"▁세존이시여.]":15781,"▁亦無":15782,"▁엄중히":15783,"▁삼아,":15784,"▁회갑식":15785,"▁회갑에":15786,"▁회갑을":15787,"▁과목은":15788,"▁작업에":15789,"▁박중빈\n":15790,"▁박중빈이":15791,"▁욕심은":15792,"▁욕심의":15793,"▁솟고":15794,"如是하야":15795,"▁주셨나니,":15796,"▁주셨으니,":15797,"▁시행할":15798,"1.辛未)":15799,"1.辛卯)":15800,"▁아니하였나니,":15801,"▁경제의":15802,"▁돌아가고,":15803,"▁이후로":15804,"▁26일":15805,"▁구원할":15806,"▁물러설":15807,"년(1937.丁":15808,"년(1931.辛未)":15809,"(四恩":15810,"▁굴리":15811,"▁굴리고":15812,"▁이웃을":15813,"▁[선생":15814,"▁받았다.":15815,"▁진급기에":15816,"▁본위의":15817,"▁놓아도":15818,"▁산업부의":15819,"▁이르시기를":15820,"▁환영을":15821,"▁곡식을":15822,"▁긴요":15823,"▁꽃이":15824,"▁꽃다운":15825,"▁숙세의":15826,"▁펴고":15827,"▁펴지":15828,"▁했다는":15829,"▁흥망":15830,"하겠나이다.\r\n":15831,"▁무시하고":15832,"▁즐거이":15833,"▁사요의":15834,"▁기본이":15835,"▁부분은":15836,"▁위원회의":15837,"▁위원회가":15838,"▁복덕의":15839,"▁혁명":15840,"습니다.」":15841,"▁일생은":15842,"▁배워서":15843,"▁직업에":15844,"▁절약하여":15845,"▁검은":15846,"▁밑에":15847,"▁밑천이":15848,"▁싸움":15849,"▁가시어,":15850,"▁생기게":15851,"▁내역과":15852,"▁등급을":15853,"▁깨끗한":15854,"▁깨끗하지":15855,"▁깨끗하게":15856,"▁ᄋ일에,":15857,"▁이르러서는":15858,"▁넉넉하고":15859,")’을":15860,"▁아니하는가.":15861,"▁인물로":15862,"▁22년(1937.丁":15863,"▁유공인":15864,"▁유공인의":15865,"▁유공인은":15866,"▁나타내지":15867,"▁절차에":15868,"▁절차와":15869,"▁겨우":15870,"▁대사식":15871,"▁교환할":15872,"▁성년식을":15873,"▁40여":15874,"▁유념할":15875,"▁건국에":15876,"▁여러분이":15877,"▁판단하여":15878,"▁판단하는":15879,"▁生在":15880,"▁生於":15881,"▁됨이요,\r\n":15882,"▁[천지":15883,"▁부족함이":15884,"▁방문하는":15885,"▁감응을":15886,"▁솔성(率性":15887,"般若波羅":15888,"陀圓李":15889,"▁[법강항마위":15890,"▁공헌한":15891,"▁16년(1931.辛未)":15892,"▁비유컨대":15893,"▁장소로":15894,"▁맞이하여":15895,"▁올리며,":15896,"(公道":15897,"리(同源道":15898,"▁공변되고":15899,"▁부득이한":15900,"나이까.\"":15901,"▁단원들이":15902,"▁단원들은":15903,"▁단원들에게":15904,"▁걷지":15905,"▁든든":15906,"▁흉복을":15907,"▁제3절":15908,"▁무서워":15909,"▁동작이":15910,"▁고요하고":15911,"▁조선총독":15912,"▁조용한":15913,"▁의견이":15914,"▁치우치지":15915,"▁충분한":15916,"▁촉구":15917,"不可得":15918,"不可思議":15919,"▁42.대종사":15920,"▁계발하는":15921,"8.戊午)":15922,"▁수도인들이":15923,"▁광대하고":15924,"▁근원이로다.":15925,".이.":15926,"▁밀려":15927,"▁싹을":15928,"수양은":15929,"▁수입과":15930,"▁지역에":15931,"▁만능을":15932,"▁만능이":15933,"▁시국을":15934,"▁오롯히":15935,"▁선도자가":15936,"▁조건으로":15937,"▁돌이켜서":15938,"▁입으로만":15939,"▁곳에서나":15940,"▁주인공들이":15941,"▁發靷式":15942,"▁낱이":15943,"▁졸연히":15944,"歡喜하야":15945,"▁일꾼으로":15946,"▁어둡게":15947,"▁어둡고":15948,"▁어둡지":15949,"▁주옵시고,":15950,"▁재앙의":15951,"▁분야가":15952,"▁머물지":15953,"▁괴로움을":15954,"...\n":15955,"▁춘풍":15956,"▁춘풍이":15957,"▁헛되이":15958,"해지면":15959,"▁이타로써":15960,"▁자격이":15961,"▁오르면":15962,"▁선(禪)":15963,"▁거두어":15964,"▁본말과":15965,"▁물들고":15966,"▁점차로":15967,"▁버리지는":15968,"(自利":15969,"▁뭉쳐서":15970,"▁사시의":15971,"▁일찍이":15972,"▁[영혼":15973,"▁구제할":15974,"▁물론,":15975,"▁장려하여":15976,"▁허다한":15977,"▁걸음걸음이":15978,"인(별록1":15979,"▁뛰어난":15980,"▁탈복":15981,"신.물질":15982,"▁동원도":15983,"▁미신에":15984,"▁어찌할꼬":15985,"▁지도자들은":15986,"▁1924년":15987,"▁솟아나":15988,"▁맛과":15989,"▁씨를":15990,"계(同":15991,"원광대학교":15992,"▁가벼워":15993,"▁정혜를":15994,"▁천상락":15995,"▁고해에":15996,"▁가르침을":15997,"▁압박":15998,"無所住":15999,"▁사생으로":16000,"▁일부러":16001,"▁아름답":16002,"▁아름다운":16003,"▁지각이":16004,"▁도모하는":16005,"▁도모하지":16006,"▁선령은":16007,"▁본분을":16008,"▁화두를":16009,"▁염원할":16010,")등을":16011,"▁用前世說法":16012,"▁用是故로":16013,"▁늙고":16014,"▁이야기를":16015,"▁부촉을":16016,"▁무아봉공":16017,"▁복록이":16018,"▁창시한":16019,"▁태어난":16020,"▁올바로":16021,"▁대각전에서":16022,"▁폐지할":16023,"▁팔조와":16024,"▁생.로.병.사":16025,"▁덮어":16026,"▁옹기":16027,"▁옹호":16028,"▁가슴에":16029,"▁수레를":16030,"▁신령한":16031,"▁응접할":16032,"▁살아나야":16033,"▁겨울에":16034,"▁며느":16035,"▁사라지고":16036,"▁한반도":16037,"▁원수라도":16038,"▁성질에":16039,"▁불평이":16040,"▁조촐한":16041,"▁「어떤":16042,"▁행복한":16043,"▁돌파하고":16044,"▁입각한":16045,"▁일체중생을":16046,"▁역량을":16047,"▁규칙을":16048,"▁냄새와":16049,"▁법마상전급":16050,"▁然이나":16051,"▁눕는":16052,"▁옆에":16053,"▁제출하여":16054,"▁만생령을":16055,"▁전라북도":16056,"▁서약을":16057,"▁실효가":16058,"▁후천개벽의":16059,"▁평범한":16060,"▁평탄하게":16061,"▁빛나게":16062,"▁상(相)을":16063,"▁一圓大業":16064,"▁성명·印)":16065,".김제":16066,"▁닮아":16067,"▁삶을":16068,"▁흠모":16069,"善知識하야":16070,"이옵니다.]":16071,"▁하노라.]":16072,"▁자택에서":16073,"▁교우가":16074,"▁어둠에":16075,"▁성령전에":16076,"▁각처의":16077,"▁不應住":16078,"▁존경하는":16079,"▁풍속에":16080,"▁『원불교교":16081,"▁개인.가정.사회.국가가":16082,"▁사.농.공.상의":16083,"▁成就":16084,"▁넣어":16085,"▁멈추고":16086,"▁숯을":16087,"神通變化":16088,"▁사다함":16089,"▁아나함":16090,"▁교훈을":16091,"▁부드러운":16092,"▁불구하고":16093,"▁36.대종사":16094,"▁거슬려":16095,"▁재래와":16096,"▁적절한":16097,"▁요건이":16098,"▁넘나들고":16099,"▁꾸미는":16100,"▁『정전』":16101,"▁굽히어":16102,"▁굽히지":16103,"▁월명암에":16104,"▁둥글":16105,"▁쏟아":16106,"▁實無有法":16107,"▁이외에는":16108,"▁아득한":16109,"▁[재래":16110,"▁[중생들은":16111,"▁32.대종사":16112,"▁영근에":16113,"▁죄고에":16114,"▁화(和":16115,"▁인과보응의":16116,"▁담박하고":16117,"▁12년(1927.丁卯)":16118,"▁學道":16119,"▁師傅":16120,"▁끓는":16121,"處處佛像":16122,"무시선":16123,"▁사로잡":16124,"▁지게만":16125,"▁보라!":16126,"▁부딪침과":16127,"▁제8장":16128,"▁도무지":16129,"▁무루의":16130,"▁영식(靈":16131,"▁45년(1960.庚":16132,"▁100주년을":16133,"▁어디서나":16134,"▁「그대들은":16135,"▁結婚":16136,"▁훼방":16137,"主義)니":16138,"느니라[":16139,"▁공손히":16140,"▁바뀌는":16141,"▁불퇴전":16142,"▁천주교":16143,"▁동척사업":16144,"▁반갑고":16145,"▁올리오니,":16146,"▁너그럽고":16147,"▁백수면":16148,"▁극진히":16149,"전(靈肉雙全":16150,"(動靜一如":16151,"ternal":16152,"▁붕우":16153,"▁찰나":16154,"我見人見":16155,"門劣機의":16156,"▁이동진":16157,"▁정력(定":16158,"▁지수화풍":16159,"▁모름지기":16160,"▁분(忿":16161,"▁치사하시기를":16162,"衆生見壽者見":16163,"▁소태산(少太山)":16164,"▁영가시여":16165,"▁『대종경』":16166,"▁일제강점기":16167,"▁[삼동윤":16168,"▁옥녀봉":16169,"▁感生外報-":16170,"▁27년(1942.壬午)":16171,"▁歸家無爲":16172,"▁37년(1952.壬":16173,"/www.won":16174,"▁19년(1934.甲戌)":16175,"▁步步超三界":16176,"▁external":16177,"味觸法":16178,"我人衆生壽者":16179,"柳虛一":16180,"聲香味觸法":16181,"년월일)":16182,"캠퍼스":16183,"▁원경(元":16184,"▁3년(1918.戊午)":16185,"▁대산(大山)":16186,"▁체성이며":16187,"▁於父母所에":16188,"▁卽是非相":16189,"▁개벽(開闢":16190,"▁其人所生에":16191,"般若波羅密":16192,"▁用前世說法時에":16193,"我見人見衆生見壽者見":16194}